{
  "version": "1.0",
  "truncation": null,
  "padding": null,
  "added_tokens": [
    {
      "id": 0,
      "content": "<PAD>",
      "single_word": false,
      "lstrip": false,
      "rstrip": false,
      "normalized": false,
      "special": true
    },
    {
      "id": 1,
      "content": "<BOS>",
      "single_word": false,
      "lstrip": false,
      "rstrip": false,
      "normalized": false,
      "special": true
    },
    {
      "id": 2,
      "content": "<EOS>",
      "single_word": false,
      "lstrip": false,
      "rstrip": false,
      "normalized": false,
      "special": true
    },
    {
      "id": 3,
      "content": "<UNK>",
      "single_word": false,
      "lstrip": false,
      "rstrip": false,
      "normalized": false,
      "special": true
    }
  ],
  "normalizer": null,
  "pre_tokenizer": {
    "type": "ByteLevel",
    "add_prefix_space": false,
    "trim_offsets": true,
    "use_regex": true
  },
  "post_processor": null,
  "decoder": {
    "type": "ByteLevel",
    "add_prefix_space": true,
    "trim_offsets": true,
    "use_regex": true
  },
  "model": {
    "type": "BPE",
    "dropout": null,
    "unk_token": "<UNK>",
    "continuing_subword_prefix": null,
    "end_of_word_suffix": null,
    "fuse_unk": false,
    "byte_fallback": false,
    "ignore_merges": false,
    "vocab": {
      "<PAD>": 0,
      "<BOS>": 1,
      "<EOS>": 2,
      "<UNK>": 3,
      "!": 4,
      "\"": 5,
      "%": 6,
      "'": 7,
      "(": 8,
      ")": 9,
      "*": 10,
      "+": 11,
      ",": 12,
      "-": 13,
      ".": 14,
      "/": 15,
      "0": 16,
      "1": 17,
      "2": 18,
      "3": 19,
      "4": 20,
      "5": 21,
      "6": 22,
      "7": 23,
      "8": 24,
      "9": 25,
      ":": 26,
      ";": 27,
      "=": 28,
      ">": 29,
      "?": 30,
      "A": 31,
      "B": 32,
      "C": 33,
      "D": 34,
      "E": 35,
      "F": 36,
      "G": 37,
      "H": 38,
      "I": 39,
      "J": 40,
      "K": 41,
      "L": 42,
      "M": 43,
      "N": 44,
      "O": 45,
      "P": 46,
      "Q": 47,
      "R": 48,
      "S": 49,
      "T": 50,
      "U": 51,
      "V": 52,
      "W": 53,
      "X": 54,
      "Y": 55,
      "Z": 56,
      "[": 57,
      "]": 58,
      "_": 59,
      "`": 60,
      "a": 61,
      "b": 62,
      "c": 63,
      "d": 64,
      "e": 65,
      "f": 66,
      "g": 67,
      "h": 68,
      "i": 69,
      "j": 70,
      "k": 71,
      "l": 72,
      "m": 73,
      "n": 74,
      "o": 75,
      "p": 76,
      "q": 77,
      "r": 78,
      "s": 79,
      "t": 80,
      "u": 81,
      "v": 82,
      "w": 83,
      "x": 84,
      "y": 85,
      "z": 86,
      "¡": 87,
      "¢": 88,
      "£": 89,
      "¤": 90,
      "¥": 91,
      "¦": 92,
      "§": 93,
      "¨": 94,
      "©": 95,
      "«": 96,
      "®": 97,
      "¯": 98,
      "°": 99,
      "±": 100,
      "²": 101,
      "³": 102,
      "´": 103,
      "µ": 104,
      "¶": 105,
      "·": 106,
      "¸": 107,
      "¹": 108,
      "º": 109,
      "»": 110,
      "¼": 111,
      "½": 112,
      "¾": 113,
      "¿": 114,
      "Â": 115,
      "Ã": 116,
      "Ì": 117,
      "Ð": 118,
      "Ñ": 119,
      "Ò": 120,
      "â": 121,
      "ï": 122,
      "ð": 123,
      "Ċ": 124,
      "Ġ": 125,
      "Ģ": 126,
      "ģ": 127,
      "Ĥ": 128,
      "ĥ": 129,
      "Ħ": 130,
      "ħ": 131,
      "Ĩ": 132,
      "ĩ": 133,
      "Ī": 134,
      "ī": 135,
      "Į": 136,
      "İ": 137,
      "ı": 138,
      "Ĳ": 139,
      "ĳ": 140,
      "Ĵ": 141,
      "ĵ": 142,
      "Ķ": 143,
      "ķ": 144,
      "ĸ": 145,
      "Ĺ": 146,
      "ĺ": 147,
      "Ļ": 148,
      "ļ": 149,
      "Ľ": 150,
      "ľ": 151,
      "Ŀ": 152,
      "ŀ": 153,
      "Ł": 154,
      "ł": 155,
      "ĠÐ": 156,
      "Ð½": 157,
      "Ð¾": 158,
      "Ðµ": 159,
      "Ñĸ": 160,
      "Ð¸": 161,
      "Ñı": 162,
      "Ñģ": 163,
      "Ð°": 164,
      "ÑĤ": 165,
      "Ð¾Ð": 166,
      "ÑĢ": 167,
      "ch": 168,
      "Ð¸Ð": 169,
      "Ñĥ": 170,
      "Ð½Ð½": 171,
      "re": 172,
      "ÐµÐ½Ð½": 173,
      "or": 174,
      "Ð»": 175,
      "en": 176,
      "rec": 177,
      "orrec": 178,
      "orrect": 179,
      "Ġd": 180,
      "ÑĶ": 181,
      "er": 182,
      "ÑĮ": 183,
      "ÐµÐ½Ð½Ñı": 184,
      "Ġ'": 185,
      "ĠÐ²": 186,
      "Ð¾Ð²": 187,
      "Ñĩ": 188,
      "ĠÐŁ": 189,
      "ĠÐ´": 190,
      "ĠÐ¿": 191,
      "ÑĸÐ": 192,
      "Ð¾Ñı": 193,
      "ÑģÐ½": 194,
      "Ð¸Ðº": 195,
      "Ð°Ð": 196,
      "ĠC": 197,
      "Ð¾ÑıÑģÐ½": 198,
      "in": 199,
      "Ð¾ÑıÑģÐ½ÐµÐ½Ð½Ñı": 200,
      "âľ": 201,
      "ðŁ": 202,
      "ĵĿ": 203,
      "ĠÐŁÐ¾ÑıÑģÐ½ÐµÐ½Ð½Ñı": 204,
      "ĠCorrect": 205,
      "âľħ": 206,
      "ðŁĵĿ": 207,
      "ÑģÑĤ": 208,
      "Ð¾Ð¼": 209,
      "st": 210,
      "Ð¼": 211,
      "ie": 212,
      "Ðº": 213,
      "ĠI": 214,
      "as": 215,
      "ÑģÐ»": 216,
      "ĠÑĢ": 217,
      "Ġi": 218,
      "Ð¾ÑĢ": 219,
      "ĠÐ·": 220,
      "ÑĤÑĮ": 221,
      "ein": 222,
      "ĠÐ½": 223,
      "ÑĸÑĶ": 224,
      "ÑģÐ»Ð¾Ð²": 225,
      "ÐµÑĩ": 226,
      "ge": 227,
      "au": 228,
      "ÑĸÐ´": 229,
      "ÑĸÑĶÑģÐ»Ð¾Ð²": 230,
      "Ð¾Ð¼Ñĥ": 231,
      "ÑĸÐ½": 232,
      "ĠÑ": 233,
      "ĠÑĢÐµÑĩ": 234,
      "ĠIn": 235,
      "ĠÐ£": 236,
      "Ich": 237,
      "correct": 238,
      "âĿ": 239,
      "ĠIncorrect": 240,
      "âĿĮ": 241,
      "ĠÐ´ÑĸÑĶÑģÐ»Ð¾Ð²": 242,
      "Ġm": 243,
      "be": 244,
      "Ġs": 245,
      "Ð¸ÑģÑĤ": 246,
      "Ð°ÑĤ": 247,
      "ich": 248,
      "Ð¾ÑĢÐ¸ÑģÑĤ": 249,
      "Ð¸ÐºÐ¾ÑĢÐ¸ÑģÑĤ": 250,
      "Ð²": 251,
      "ÐµÐ½Ð½Ñĸ": 252,
      "ĠÑĢÐµÑĩÐµÐ½Ð½Ñĸ": 253,
      "Ð»Ñı": 254,
      "ĠÐ²Ð¸ÐºÐ¾ÑĢÐ¸ÑģÑĤ": 255,
      "Ġist": 256,
      "Ġdas": 257,
      "an": 258,
      "ÑģÑı": 259,
      "Ġdie": 260,
      "un": 261,
      "ĠÐ¼": 262,
      "Ð´": 263,
      "ÐµÑĢ": 264,
      "ÑĤÑĮÑģÑı": 265,
      "ha": 266,
      "ÑĥÑĶ": 267,
      "ei": 268,
      "Ġge": 269,
      "Ð°Ð²": 270,
      "ĠÑģÑĤ": 271,
      "ĠÐ´ÑĸÑĶÑģÐ»Ð¾Ð²Ð¾": 272,
      "ĠÐ¿ÑĢ": 273,
      "Ð½Ð¾": 274,
      "ĠÐ¾": 275,
      "ÑĨ": 276,
      "te": 277,
      "ĠS": 278,
      "Ð¸Ð²": 279,
      "Ð¸Ð¹": 280,
      "ĠÐ°": 281,
      "ÑĹ": 282,
      "Ð¾Ð´": 283,
      "ĠÐ´Ð»Ñı": 284,
      "Ġw": 285,
      "auf": 286,
      "ĠÐ²Ð¸ÐºÐ¾ÑĢÐ¸ÑģÑĤÐ¾Ð²": 287,
      "ÑĸÐ´Ð¼": 288,
      "ĠÐ½Ð°": 289,
      "Ã¼": 290,
      "ĠIch": 291,
      "Ð»ÑĮ": 292,
      "Ð°ÑĶ": 293,
      "eh": 294,
      "Ġha": 295,
      "Ġder": 296,
      "'.": 297,
      "ĠF": 298,
      "Ð¾Ð³": 299,
      "Ð¿": 300,
      "ĠÑĩ": 301,
      "ĠÑĥ": 302,
      "es": 303,
      "âĢ": 304,
      "Ð¾Ð³Ð¾": 305,
      "ĠB": 306,
      "Ð½Ð°": 307,
      "ÐºÑĥ": 308,
      "Ð¾ÑĹ": 309,
      "Ã¶": 310,
      "ĠÐ·Ð°Ð": 311,
      "Ð¸Ð¼": 312,
      "Ð°ÑĤÐ¸": 313,
      "it": 314,
      "icht": 315,
      "ÑĤÑĢ": 316,
      "Ġein": 317,
      "und": 318,
      "ÐµÑĤ": 319,
      "ĠâĢ": 320,
      "sch": 321,
      "ÑĨÑĸ": 322,
      "Ñİ": 323,
      "gen": 324,
      "ĠÐ¿Ð¾": 325,
      "Ð¶": 326,
      "ĠÑģÑĤÐ¾ÑĹ": 327,
      "ĠÑģÑĤÐ¾ÑĹÑĤÑĮ": 328,
      "Ġn": 329,
      "Ġhabe": 330,
      "ÑĸÐ´Ð¼ÑĸÐ½": 331,
      "ĠÐ²ÑĸÐ´Ð¼ÑĸÐ½": 332,
      "Ð±": 333,
      "ÐµÐ½Ð½Ð¸Ðº": 334,
      "ÑĥÑĶÑĤÑĮÑģÑı": 335,
      "Ð½Ð¸": 336,
      "ĠK": 337,
      "em": 338,
      "ĠM": 339,
      "ĠD": 340,
      "ĠÑī": 341,
      "ĠÑĨ": 342,
      "Ġk": 343,
      "Ð°Ð·": 344,
      "ar": 345,
      "ÑĢÑĤ": 346,
      "ĠH": 347,
      "ÑĮÐ¾Ð¼Ñĥ": 348,
      "ach": 349,
      "Ġden": 350,
      "ÑĢÑĤÐ¸Ðº": 351,
      "Ã¤": 352,
      "Ġich": 353,
      "ĠT": 354,
      "ÑĸÐ±": 355,
      "at": 356,
      "ĠÐ°ÑĢÑĤÐ¸Ðº": 357,
      "ĠâĢĵ": 358,
      "ÑĥÐ²": 359,
      "ÑĤÑĢÑĸÐ±": 360,
      "Ð½Ð¾Ð¼Ñĥ": 361,
      "ĠÑĨÑĮÐ¾Ð¼Ñĥ": 362,
      "el": 363,
      "Ġ(": 364,
      "ĠP": 365,
      "ĠÑĢÐ¾Ð´": 366,
      "ĠÐº": 367,
      "ĠÑīÐ¾": 368,
      "ĠA": 369,
      "ĠÐ¿Ð¾ÑĤÑĢÑĸÐ±": 370,
      "ÑĤÐ¸": 371,
      "Ð½Ð¸Ð¹": 372,
      "ÑĸÐ¼": 373,
      "ĠÐ²Ð¸ÐºÐ¾ÑĢÐ¸ÑģÑĤÐ¾Ð²ÑĥÑĶÑĤÑĮÑģÑı": 374,
      "ĠÐ¼Ñĸ": 375,
      "on": 376,
      "Ð¸Ð»": 377,
      "',": 378,
      "ĠÐ½Ðµ": 379,
      "ÑĥÐ²Ð°ÑĤÐ¸": 380,
      "le": 381,
      "Ġ-": 382,
      "ĠW": 383,
      "ĠÐ¿Ð¾ÑĤÑĢÑĸÐ±Ð½Ð¾": 384,
      "ĠÑĩÐ°": 385,
      "ĠÐ¼ÑĸÑģ": 386,
      "Ġauf": 387,
      "Ð°Ð²Ð¸Ð»": 388,
      "Ñħ": 389,
      "ÑĢÑı": 390,
      "Ð¾Ðº": 391,
      "Ð·": 392,
      "Ð½Ðµ": 393,
      "Ġseh": 394,
      "ĠÑĶ": 395,
      "den": 396,
      "Ġf": 397,
      "ÑĸÑģÐ»": 398,
      "ÑĸÑģÐ»Ñı": 399,
      "Ð¾Ð»": 400,
      "Ġb": 401,
      "Ð°ÑĤÐ¸Ð²": 402,
      "ĠÐ¿ÐµÑĢ": 403,
      "ÑĤÐ°": 404,
      "ĠG": 405,
      "al": 406,
      "Ð¼ÐµÐ½Ð½Ð¸Ðº": 407,
      "ĠÑı": 408,
      "Ġwei": 409,
      "ĠÑĦ": 410,
      "Ġsch": 411,
      "Das": 412,
      "Der": 413,
      "se": 414,
      "ÃŁ": 415,
      "Ð¾ÑĢÐ¼": 416,
      "ĠÐ²Ð¸ÐºÐ¾ÑĢÐ¸ÑģÑĤÐ¾Ð²ÑĥÐ²Ð°ÑĤÐ¸": 417,
      "ern": 418,
      "Ġin": 419,
      "Ð³": 420,
      "Ð¾Ð²Ñĸ": 421,
      "ĠÑĦÐ¾ÑĢÐ¼": 422,
      "mm": 423,
      "ĠÐĶ": 424,
      "Ġnicht": 425,
      "..": 426,
      "ĠÐ²Ð¸ÐºÐ¾ÑĢÐ¸ÑģÑĤÐ°": 427,
      "Ð½Ð°Ñĩ": 428,
      "ĠÑĩÐ°Ñģ": 429,
      "zu": 430,
      "ĠÑĸ": 431,
      "ĠÐ¾Ð±": 432,
      "Ð¾Ð±": 433,
      "ut": 434,
      "Ð½Ð½Ñı": 435,
      "ben": 436,
      "ÐºÐ°Ð·": 437,
      "Ġsehe": 438,
      "he": 439,
      "Ð°Ð²Ð¸Ð»ÑĮ": 440,
      "ĠÑĸÐ¼": 441,
      "der": 442,
      "ĠÑıÐº": 443,
      "ĠÐ²ÐºÐ°Ð·": 444,
      "ÑĢÑĥ": 445,
      "ĠÐ²ÑĸÐ´Ð¼ÑĸÐ½ÐºÑĥ": 446,
      "Ð¼ÐµÑĤ": 447,
      "ĠÑĢÐ¾Ð´Ñĥ": 448,
      "Ð½Ð¸Ðº": 449,
      "ro": 450,
      "Ð°ÑĶÑĤÑĮÑģÑı": 451,
      "ir": 452,
      "ĠÐ°ÑĢÑĤÐ¸ÐºÐ»ÑĮ": 453,
      "ck": 454,
      "Ð°Ð»ÑĮ": 455,
      "Ð¶Ð¸Ð²": 456,
      "Ġg": 457,
      "ĠÐĴ": 458,
      "Ġmein": 459,
      "ĠÑĤ": 460,
      "ĠÐ²Ð¸ÐºÐ¾ÑĢÐ¸ÑģÑĤÐ°Ð½Ð¾": 461,
      "ÑĪ": 462,
      "ss": 463,
      "ĠÐ¼ÑĸÑģÑĨÑĸ": 464,
      "ĠÐ¿ÑĸÐ´": 465,
      "ÑĢÑıÐ´": 466,
      "ÑĸÐ¹": 467,
      "ĠÑģ": 468,
      "Ġv": 469,
      "Ð¸ÐºÐ¼ÐµÑĤ": 470,
      "Ð¸ÐºÐ¼ÐµÑĤÐ½Ð¸Ðº": 471,
      "ĠÐŁÑĢ": 472,
      "ÐµÐ½": 473,
      "ÑĩÐ¾Ð³Ð¾": 474,
      "Ġdem": 475,
      "uch": 476,
      "de": 477,
      "ĠÑĢÐµÑĩÐµÐ½Ð½Ñı": 478,
      "Ã¶ch": 479,
      "orgen": 480,
      "·Ð½Ð°Ñĩ": 481,
      "ann": 482,
      "hr": 483,
      "Ġzu": 484,
      "ĠÐ¿ÑĸÐ´ÑĢÑıÐ´": 485,
      "ĠSch": 486,
      "ÑĸÐ½ÑĨÑĸ": 487,
      "ĠÐ²Ð¶Ð¸Ð²": 488,
      "Ġeinen": 489,
      "ĠÐ±": 490,
      "ÑĢÑĥÐ³": 491,
      "ÐµÐ´": 492,
      "ĠÐ¿ÑĢÐ°Ð²Ð¸Ð»ÑĮ": 493,
      "reund": 494,
      "Ð½Ð¸Ð¼": 495,
      "ĠÐ´ÑĢÑĥÐ³": 496,
      "ung": 497,
      "ber": 498,
      "Ã¶chte": 499,
      "Ð°Ð²Ð¸": 500,
      "ĠL": 501,
      "ĠÐ¼Ð°ÑĶ": 502,
      "ÑĸÐ´Ð¼ÐµÑĤ": 503,
      "ĠSt": 504,
      "ĠÐ·Ð°Ð¿": 505,
      "Ġmit": 506,
      "ÑĸÐ²": 507,
      "das": 508,
      "et": 509,
      "ĠÐ²ÐºÐ°Ð·ÑĥÑĶ": 510,
      "Ġweil": 511,
      "Ġdass": 512,
      "il": 513,
      "ĠÑĩÐ¾Ð»": 514,
      "iv": 515,
      "ÐºÑĤ": 516,
      "Ð¸ÑĤÐ°": 517,
      "ĠÑĩÐ¾Ð»Ð¾Ð²Ñĸ": 518,
      "Die": 519,
      "isch": 520,
      "Ð¸Ð·Ð½Ð°Ñĩ": 521,
      "ĠÑĦÐ¾ÑĢÐ¼Ñĸ": 522,
      "ĠÐ´ÑĢÑĥÐ³Ð¾Ð¼Ñĥ": 523,
      "ĠFreund": 524,
      "ĠÐ¿ÑĸÐ´Ð¼ÐµÑĤ": 525,
      "ig": 526,
      "ĠR": 527,
      "Ð¸Ð¹Ð¼ÐµÐ½Ð½Ð¸Ðº": 528,
      "ĠÐ·Ð°Ðº": 529,
      "ur": 530,
      "ĠÐ²Ð¶Ð¸Ð²Ð°ÑĶÑĤÑĮÑģÑı": 531,
      "Ð¿ÑĢ": 532,
      "ĠÐ´ÑĸÑĶÑģÐ»Ð¾Ð²Ð°": 533,
      "ĠÐ´ÑĸÑĶÑģÐ»Ð¾Ð²Ð¾Ð¼": 534,
      "ÑĸÐ½Ñĩ": 535,
      "ĠÐ·Ð°ÐºÑĸÐ½Ñĩ": 536,
      "ĠE": 537,
      "ĠÐ¾Ñģ": 538,
      "ter": 539,
      "Ð¾Ð¿": 540,
      "ĠÐ½Ð°Ð": 541,
      "lich": 542,
      "ĠÐ·Ð°ÐºÑĸÐ½ÑĩÐµÐ½Ð½Ñı": 543,
      "kt": 544,
      "ĠÐŁÑĸÑģÐ»Ñı": 545,
      "ĠÑģÑĤÐ¾Ñı": 546,
      "ra": 547,
      "Ã¶n": 548,
      "aus": 549,
      "ĠÐ¿ÑĸÑģÐ»Ñı": 550,
      "ÑĸÑĶÑģÐ»Ð¾Ð²Ð¾": 551,
      "ĠÐĶÑĸÑĶÑģÐ»Ð¾Ð²Ð¾": 552,
      "ÑģÑĤÐ°Ð²Ð¸": 553,
      "die": 554,
      "ĠÑĩÐ¾Ð»Ð¾Ð²ÑĸÑĩÐ¾Ð³Ð¾": 555,
      "Ġim": 556,
      "Ġl": 557,
      "ĠÑĩÐ°ÑģÑĥ": 558,
      "Ð°Ð¶": 559,
      "ist": 560,
      "ag": 561,
      "ze": 562,
      "ĠÐ¾Ð±ÑģÑĤÐ°Ð²Ð¸": 563,
      "ĠÑĸÐ¼ÐµÐ½Ð½Ð¸Ðº": 564,
      "ĠÑģÑĤÐ¾ÑıÑĤÐ¸": 565,
      "ten": 566,
      "Ð»Ðµ": 567,
      "est": 568,
      "ĠÐ´Ð¾Ð¿": 569,
      "Ġbe": 570,
      "ĠmÃ¶chte": 571,
      "Ð¿ÐµÑĢ": 572,
      "ĠÐ¾Ð±ÑģÑĤÐ°Ð²Ð¸Ð½Ð¸": 573,
      "ĠDas": 574,
      "ĠN": 575,
      "am": 576,
      "Ġes": 577,
      "Ð·Ð°ÑĤÐ¸Ð²": 578,
      "ĠÐ¿ÑĸÐ´ÑĢÑıÐ´Ð½Ð¾Ð¼Ñĥ": 579,
      "che": 580,
      "Ð°Ð²Ð°Ð»ÑĮ": 581,
      "ÐºÑĥÐ·Ð°ÑĤÐ¸Ð²": 582,
      "ĠÐ´Ð°Ð²Ð°Ð»ÑĮ": 583,
      "ĠÐ³": 584,
      "ren": 585,
      "ĠÐ·Ð°Ð¹": 586,
      ").": 587,
      "Ġh": 588,
      "ĠÐ²ÑĸÐ´": 589,
      "ÑĦ": 590,
      "ÑĸÑĹ": 591,
      "ĠÐºÑĸÐ½ÑĨÑĸ": 592,
      "ĠÐ´Ð¾Ð¿Ð¾Ð¼": 593,
      "Ġdu": 594,
      "Ġmach": 595,
      "ĠÐ¿ÐµÑĢÐµÐ´": 596,
      "ĠÐ·Ð°Ð¹Ð¼ÐµÐ½Ð½Ð¸Ðº": 597,
      "ol": 598,
      "Ġan": 599,
      "ĠÐ·Ð½Ð°": 600,
      "Ð²ÐµÑĢ": 601,
      "ĠschÃ¶n": 602,
      "Ġmich": 603,
      "....": 604,
      "ÑĸÐ¶": 605,
      "ativ": 606,
      "ĠÐ¾Ð´": 607,
      "hn": 608,
      "pie": 609,
      "Ã¼r": 610,
      "Ð½Ñĸ": 611,
      "ĠÑĸÐ½": 612,
      "ĠÐ½Ð°Ð¿": 613,
      "ff": 614,
      "Ġhat": 615,
      "ĠBuch": 616,
      "wei": 617,
      "Ð°Ð³": 618,
      "ÐµÑĢÐµÑĩ": 619,
      "chen": 620,
      "Ġgehe": 621,
      "Ð¸Ñģ": 622,
      "ĠÐ´Ð¾Ð¿Ð¾Ð¼ÑĸÐ¶": 623,
      "ĠÐ¾ÑģÐ¾Ð±": 624,
      "omm": 625,
      "ĠÐ¿Ð¾Ð²": 626,
      "Ġt": 627,
      "Ð½Ñĥ": 628,
      "um": 629,
      "ĠÐ°ÐºÑĥÐ·Ð°ÑĤÐ¸Ð²": 630,
      "ĠÐ·Ð°Ð¿ÐµÑĢÐµÑĩ": 631,
      "ĠÐĶÐ»Ñı": 632,
      "ĠÐ¿ÑĢÐ¸Ð¹Ð¼ÐµÐ½Ð½Ð¸Ðº": 633,
      "ĠÐ¿ÑĸÐ´Ð¼ÐµÑĤÐ¾Ð¼": 634,
      "ier": 635,
      "ĠTisch": 636,
      "ÑħÑĸÐ´": 637,
      "Ð½Ð¾Ð³Ð¾": 638,
      "Ð°Ð½Ð½Ñı": 639,
      "ĠÐ¼ÑĸÑģÑĨ": 640,
      "ÑĨÑĮ": 641,
      "ĠÐ¾Ð´Ð½Ð¸": 642,
      "ĠÐ²ÑĸÐ´Ð¼ÑĸÐ½Ð¾Ðº": 643,
      "ĠweiÃŁ": 644,
      "haben": 645,
      "om": 646,
      "ft": 647,
      "ĠÐ¶": 648,
      "ÐºÐ°": 649,
      "eine": 650,
      "ĠÐ²Ð¸Ð¼": 651,
      "ik": 652,
      "ĠHund": 653,
      "ÐµÑĨÑĮ": 654,
      "ĠÐ²Ð¸Ð¼Ð°Ð³": 655,
      "Ð²ÐµÑĢÑģ": 656,
      "lau": 657,
      "Ġgebe": 658,
      "Morgen": 659,
      "Ġbin": 660,
      "Ġund": 661,
      "ĠÑĸÐ¼Ð¿ÐµÑĢ": 662,
      "ĠÐ¿Ð¾Ð²Ð¸": 663,
      "hen": 664,
      "ĠÐ½ÐµÐ²": 665,
      "ĠÑĸÐ¼Ð¿ÐµÑĢÐ°ÑĤÐ¸Ð²": 666,
      "ĠV": 667,
      "ÑĸÐ»ÑĮ": 668,
      "ĠÐ²Ð¸": 669,
      "ĠÐ¿Ð¸ÑĤÐ°": 670,
      "imm": 671,
      "lei": 672,
      "sein": 673,
      "ĠÐ½ÐµÐ²Ð¸Ð·Ð½Ð°Ñĩ": 674,
      "rau": 675,
      "ĠÐ·Ð°Ð¿ÐµÑĢÐµÑĩÐµÐ½Ð½Ñı": 676,
      "ÐºÐ¾Ð¼": 677,
      "ÑĢÑıÐ¼": 678,
      "ĠÐ°ÑĢÑĤÐ¸ÐºÐ»Ñı": 679,
      "rÃ¼": 680,
      "ĠÑĤÐµ": 681,
      "ĠÐ¶ÑĸÐ½": 682,
      "ot": 683,
      "ÐºÐ¸": 684,
      "ÑĸÐ¼ÐµÑĨÑĮ": 685,
      "ell": 686,
      "ĠÐ½ÑĸÐ¼ÐµÑĨÑĮ": 687,
      "Ð½Ð½Ñĸ": 688,
      "ĠÐ½ÑĸÐ¼ÐµÑĨÑĮÐº": 689,
      "Ã¼ber": 690,
      "ĠÐ²Ð¸Ð¼Ð°Ð³Ð°ÑĶ": 691,
      "ssen": 692,
      "ĠÐŁÑĢÐ¸ÐºÐ¼ÐµÑĤÐ½Ð¸Ðº": 693,
      "ru": 694,
      "ĠO": 695,
      "ĠZ": 696,
      "ĠÐ¶ÑĸÐ½Ð¾": 697,
      "sen": 698,
      "ĠDer": 699,
      "Ð°Ð´": 700,
      "ĠÐ¼Ð¾Ð²Ñĸ": 701,
      "ĠÐ¿ÑĢÐ¸ÐºÐ¼ÐµÑĤÐ½Ð¸Ðº": 702,
      "ĠÐ·Ð½Ð°ÑħÑĸÐ´": 703,
      "ĠÐ¾Ð´Ð½Ð¸Ð½Ð¸": 704,
      "ÐµÐºÑĤ": 705,
      "weil": 706,
      "ĠÐ¡": 707,
      "ĠÐ½ÑĸÐ¼ÐµÑĨÑĮÐºÑĸÐ¹": 708,
      "ĠJ": 709,
      "Ġins": 710,
      "ĠÑıÐºÐµ": 711,
      "piel": 712,
      "Ð¾Ð½": 713,
      "and": 714,
      "Ð»ÐµÐ¶": 715,
      "ĠÐ´Ðµ": 716,
      "ÑĶÐºÑĤ": 717,
      "mach": 718,
      "ug": 719,
      "ÑıÐ¼": 720,
      "ĠÐ¿ÐµÑĢÑĪ": 721,
      "Ġmache": 722,
      "ĠÑĸÐ½Ð²ÐµÑĢÑģ": 723,
      "rin": 724,
      "einen": 725,
      "Ġst": 726,
      "ÑĦÐµÐºÑĤ": 727,
      "ĠPar": 728,
      "Ð¾Ð·": 729,
      "ÑİÑĶ": 730,
      "rei": 731,
      "ind": 732,
      "ĠÐ´Ñĸ": 733,
      "Ġeine": 734,
      "Ð¸ÑĤÐ¸": 735,
      "reu": 736,
      "ĠWo": 737,
      "Ð»Ð¾Ð²": 738,
      "ĠÐ¿ÑĢÐ¾": 739,
      "ÐµÐ½Ð¾Ð³Ð¾": 740,
      "Ġdes": 741,
      "Ġvon": 742,
      "Ġkauf": 743,
      "ĠÑĤÐ¾Ð¼Ñĥ": 744,
      "ĠÐ²Ð¸ÑĢ": 745,
      "du": 746,
      "nicht": 747,
      "ÑģÑĮ": 748,
      "ute": 749,
      "ÑĢÐ¸Ðº": 750,
      "ĠÐ¿Ð¾Ðº": 751,
      "Ð°Ðº": 752,
      "dass": 753,
      "ĠÐ·Ð½Ð°ÑħÑĸÐ´Ð½Ð¾Ð¼Ñĥ": 754,
      "ÐµÐ½Ð¸Ð¹": 755,
      "ĠU": 756,
      "ĠÐ½Ð°Ð¿ÑĢÐ¸Ðº": 757,
      "pf": 758,
      "Ð°Ð¼": 759,
      "ĠÑĸÐ½Ð²ÐµÑĢÑģÑĸÑĹ": 760,
      "ĠÐ¿ÑĢÑıÐ¼": 761,
      "us": 762,
      "ĠÐ¡Ð»Ð¾Ð²": 763,
      "Ð°Ð½": 764,
      "ĠÑĢÐ¾Ð´Ð¾Ð²": 765,
      "ĠÐ¿Ð¾ÐºÐ°Ð·": 766,
      "ĠÐ²Ð¸Ð·Ð½Ð°Ñĩ": 767,
      "ĠÐ¡Ð»Ð¾Ð²Ð¾": 768,
      "ĠÃ¼ber": 769,
      "ÑģÑĤÑĮ": 770,
      "ĠÐ¾ÑģÐ¾Ð±Ð¸": 771,
      "ĠÐ½Ð°Ð¿ÑĢÐ¸ÐºÑĸÐ½ÑĨÑĸ": 772,
      "estern": 773,
      "Ġkann": 774,
      "hl": 775,
      "ause": 776,
      "je": 777,
      "kauf": 778,
      "ĠÐ²Ð¸ÑĢÐ°Ð¶": 779,
      "ĠÐ¿Ð¾Ñĩ": 780,
      "ĠÐ¿ÐµÑĢÑĦÐµÐºÑĤ": 781,
      "all": 782,
      "ad": 783,
      "mein": 784,
      "asche": 785,
      "ĠÐ¼Ð¸": 786,
      "zt": 787,
      "Ð²Ð¾ÑĢ": 788,
      "Ġa": 789,
      "Ġle": 790,
      "rer": 791,
      "ran": 792,
      "Ġun": 793,
      "ĠÐ¿Ð¾Ð²Ð¸Ð½Ð½": 794,
      "Ð¾Ð´Ð°Ð»ÑĮ": 795,
      "Ġsich": 796,
      "eit": 797,
      "och": 798,
      "ĠÑĩÐ°ÑģÑĤ": 799,
      "Ġer": 800,
      "Ð°Ð²Ð¸Ð»Ð¾": 801,
      "gt": 802,
      "ÑģÐ»ÑĸÐ²": 803,
      "ĠÐ±Ñĥ": 804,
      "ion": 805,
      "ĠÐ´Ð¾Ð¿Ð¾Ð¼ÑĸÐ¶Ð½Ðµ": 806,
      "ĠÐ·Ð°Ð¿Ð¸ÑĤÐ°": 807,
      "ĠÐ°ÐºÑĥÐ·Ð°ÑĤÐ¸Ð²Ñĸ": 808,
      "Ð¿ÑĢÐ°Ð²Ð¸Ð»Ð¾": 809,
      "ke": 810,
      "Ġwir": 811,
      "dem": 812,
      "ĠfÃ¼r": 813,
      "Ð²ÑĸÐ¹": 814,
      "ĠMann": 815,
      "ĠÐ²Ð¸ÑĢÐ°Ð¶ÐµÐ½Ð½Ñı": 816,
      "ne": 817,
      "ĠÐ´Ð¾Ð´": 818,
      "ĠÑĢÐ¾Ð·": 819,
      "ĠHause": 820,
      "Ð¸ÑģÐ²ÑĸÐ¹": 821,
      "ĠÐ´Ð¾": 822,
      "tere": 823,
      "ĠÐ¶ÑĸÐ½Ð¾ÑĩÐ¾Ð³Ð¾": 824,
      "des": 825,
      "zen": 826,
      "gel": 827,
      "Ġmir": 828,
      "Ġver": 829,
      "ĠSie": 830,
      "Ð¾Ð¶": 831,
      "ÑİÑĤÑĮ": 832,
      "Ġnach": 833,
      "stern": 834,
      "Ð¸Ð½Ð°": 835,
      "Ġgehen": 836,
      "ĠLeh": 837,
      "ĠAr": 838,
      "ĠÑĸÐ¼ÐµÐ½Ð½Ð¸ÐºÐ¾Ð¼": 839,
      "Ð¾ÑĢÑı": 840,
      "........": 841,
      "ĠÐľ": 842,
      "bt": 843,
      "Dativ": 844,
      "ĠÐ±ÑĥÑĤÐ¸": 845,
      "nen": 846,
      "ĠÐ·Ð°Ð²": 847,
      "pr": 848,
      "ĠÐŁÑĢÐ¸Ð¹Ð¼ÐµÐ½Ð½Ð¸Ðº": 849,
      "lie": 850,
      "ĠÑģÐ»Ð¾Ð²": 851,
      "Ð¾Ð´Ð¶": 852,
      "Ð±Ð¾": 853,
      "ĠÑıÐºÐ¸Ð¹": 854,
      "eu": 855,
      "ĠÐ·Ð°": 856,
      "ĠÐ°Ð±Ð¾": 857,
      "ĠÐĴÐ¸ÐºÐ¾ÑĢÐ¸ÑģÑĤ": 858,
      "Ġkaufe": 859,
      "ĠÑĤÐ°": 860,
      "Ð¾ÑĤ": 861,
      "itte": 862,
      "ĠÐ´Ð¾Ð´Ð°ÑĤ": 863,
      "ĠÐ±Ð°Ð¶": 864,
      "Ð¾Ð´Ð°Ð»ÑĮÐ½Ðµ": 865,
      "Ġo": 866,
      "ĠÐ´ÑĸÑĶ": 867,
      "ĠÐ¿ÑĢÐ¸ÑģÐ²ÑĸÐ¹": 868,
      "cker": 869,
      "ĠÐ±Ð°Ð¶Ð°Ð½Ð½Ñı": 870,
      "fen": 871,
      "Ð¸ÑĤÑĮ": 872,
      "ĠÐ²ÑĸÐ´Ð¿": 873,
      "ĠÐ·Ð¼": 874,
      "eht": 875,
      "Ġsehr": 876,
      "ĠÐ¼ÑĸÑģÑĨÑı": 877,
      "fe": 878,
      "ĠÐ¿Ð¾ÐºÐ°Ð·ÑĥÑĶ": 879,
      "Ð¿ÑĢÑıÐ¼": 880,
      "ĠDie": 881,
      "ĠÑīÐ¾Ð±": 882,
      "ser": 883,
      "ĠÑĩÐ°ÑģÑĸ": 884,
      "Ð¸Ð¿": 885,
      "uto": 886,
      "rot": 887,
      "ĠÐ¿Ð¾Ð²Ð¸Ð½Ð½Ð¾": 888,
      "Ð°ÑĤÐºÑĥ": 889,
      "ĠâĢ¦": 890,
      "kauft": 891,
      "Ð¾Ð²ÑĸÐ´": 892,
      "ĠÐ¿ÐµÑĢÑĪÐ¾Ð¼Ñĥ": 893,
      "Ð¾ÑĢÑıÐ´": 894,
      "mÃ¶chte": 895,
      "ÑģÑĤÑĸ": 896,
      "ĠÑĦÐ¾ÑĢÐ¼Ñĥ": 897,
      "ĠSchu": 898,
      "ĠPark": 899,
      "is": 900,
      "Ġmeine": 901,
      "ĠÐ·Ð¼ÑĸÐ½": 902,
      "ÐµÐ¼": 903,
      "ehen": 904,
      "ĠAuto": 905,
      "ĠVer": 906,
      "Ġmorgen": 907,
      "Ġkomm": 908,
      "ĠÐĴÐ¸ÐºÐ¾ÑĢÐ¸ÑģÑĤÐ¾Ð²": 909,
      "Ð¸ÑĤ": 910,
      "ÑİÐ²": 911,
      "ĠLehrer": 912,
      "Ġkein": 913,
      "ĠGes": 914,
      "ĠÐ²ÑĸÐ´Ð¿Ð¾Ð²ÑĸÐ´": 915,
      "net": 916,
      "wor": 917,
      "ĠÐ½ÐµÐ¿ÑĢÑıÐ¼": 918,
      "la": 919,
      "ichtig": 920,
      "ĠMorgen": 921,
      "Ġam": 922,
      "ĠÐ½Ð°Ð·": 923,
      "ant": 924,
      "ÑĤÑĢÐµ": 925,
      "),": 926,
      "ver": 927,
      "ah": 928,
      "Ð¾Ð¼ÑĸÐ½": 929,
      "Ġje": 930,
      "ent": 931,
      "ĠÐ½Ð°Ð»ÐµÐ¶": 932,
      "ĠÐ¿ÑĢÑıÐ¼Ð¸Ð¼": 933,
      "teress": 934,
      "ahr": 935,
      "angen": 936,
      "ken": 937,
      "Ð¾Ñİ": 938,
      "ĠÐ¿Ð¾ÑĢÑıÐ´": 939,
      "ĠÑĢÐ¾Ð´Ð¾Ð²Ð¾Ð¼Ñĥ": 940,
      "Ð¾Ð¼ÑĸÐ½Ð°ÑĤÐ¸Ð²": 941,
      "Ð´Ð¸": 942,
      "immer": 943,
      "ĠÐ½Ð°Ð·Ð¸Ð²": 944,
      "ĠEr": 945,
      "ĠÐ¿Ð¾ÑĩÐ°ÑĤÐºÑĥ": 946,
      "ĠÂ": 947,
      "ÑĤÐ¸Ð²": 948,
      "Ã¼ck": 949,
      "esen": 950,
      "Ġfreu": 951,
      "ĠÐ¼ÑĸÑģÑĨÐµ": 952,
      "ĠÐ¿Ð¸ÑĤÐ°Ð½Ð½Ñĸ": 953,
      "ĠAn": 954,
      "ĠÐŁÑĢÐ¸": 955,
      "ĠÐ´ÑĸÑİ": 956,
      "ĠÂ«": 957,
      "Â»": 958,
      "ĠWas": 959,
      "ĠÐ´Ð°Ð²Ð°Ð»ÑĮÐ½Ð¾Ð¼Ñĥ": 960,
      "ĠÑĢÐ¾Ð·Ð´": 961,
      "ĠÐ¾Ð·": 962,
      "ĠÐľÐ¾Ð´Ð°Ð»ÑĮÐ½Ðµ": 963,
      "ĠÐ½Ð°Ð·Ð¸Ð²Ð½Ð¾Ð¼Ñĥ": 964,
      "Gestern": 965,
      "ĠÐ½Ð¾Ð¼ÑĸÐ½Ð°ÑĤÐ¸Ð²": 966,
      "ĠÐ´Ð¾Ð´Ð°ÑĤÐºÐ¾Ð¼": 967,
      "Ġjeden": 968,
      "ĠÐ´Ð°Ð²Ð°Ð»ÑĮÐ½Ð¸Ð¹": 969,
      "ĠÐ´ÑĸÑĹ": 970,
      "Ġsie": 971,
      "Ġneu": 972,
      "alt": 973,
      "ĠRe": 974,
      "heute": 975,
      "ĠÐ¾Ð·Ð½Ð°Ñĩ": 976,
      "Ġges": 977,
      "Ġgestern": 978,
      "Ġwasche": 979,
      "ĠÐºÐ¾Ð»": 980,
      "Ġglau": 981,
      "Ġinteress": 982,
      "ĠÐ¿ÑĢÐ°Ð²Ð¸Ð»ÑĮÐ½Ð¾": 983,
      "machen": 984,
      "ht": 985,
      "ĠÐ½ÐµÐ²Ð¸Ð·Ð½Ð°ÑĩÐµÐ½Ð¸Ð¹": 986,
      "ĠÑģÐ»ÑĸÐ²": 987,
      "Ġheute": 988,
      "ÑĸÑĪ": 989,
      "Ġihr": 990,
      "ĠFl": 991,
      "ÑĸÐ»ÑĮÐºÐ¸": 992,
      "ĠÐ·Ð°Ð¿Ð¸ÑĤÐ°Ð½Ð½Ñı": 993,
      "ĠKin": 994,
      "arbe": 995,
      "ĠÑģÐ¿": 996,
      "ĠÑĸÐ¼ÐµÐ½Ð½Ð¸ÐºÐ°": 997,
      "ÑİÑĶÑĤÑĮÑģÑı": 998,
      "Ġglaube": 999,
      "ner": 1000,
      "ĠPro": 1001,
      "Ġblei": 1002,
      "lo": 1003,
      "Ð½ÑĮ": 1004,
      "Ġgef": 1005,
      "ÑĶÐºÑĤÐ¾Ð¼": 1006,
      "ĠÐ¦": 1007,
      "ÑĶÐº": 1008,
      "Ġgekauft": 1009,
      "ĠÐºÐ¾Ð½": 1010,
      "Ð½Ð¸Ñħ": 1011,
      "Ġaus": 1012,
      "ĠÐĴÐ¸ÐºÐ¾ÑĢÐ¸ÑģÑĤÐ¾Ð²ÑĥÑĶÑĤÑĮÑģÑı": 1013,
      "ÑĶÐºÑĤÐ°": 1014,
      "âĢľ": 1015,
      "roÃŁ": 1016,
      "ÐºÑĸÐ»ÑĮÐºÐ¸": 1017,
      "Ġgut": 1018,
      "ĠÐ¦Ðµ": 1019,
      "ĠÐ¾Ð¿": 1020,
      "ĠÑĥÐ·": 1021,
      "ĠÑĥÐ·Ð³": 1022,
      "ster": 1023,
      "Ġschn": 1024,
      "Ġesse": 1025,
      "Ð¸Ð½": 1026,
      "ĠÐ¾ÑģÐºÑĸÐ»ÑĮÐºÐ¸": 1027,
      "pfel": 1028,
      "Ġfreue": 1029,
      "mit": 1030,
      "ĠÐ¿ÑĢÐ°Ð²Ð¸Ð»ÑĮÐ½Ð¸Ð¹": 1031,
      "Ġlie": 1032,
      "Ð°Ð¼Ð¸": 1033,
      "ĠÑĥÐ·Ð³Ð¾Ð´Ð¶": 1034,
      "Wo": 1035,
      "Ġwichtig": 1036,
      "atz": 1037,
      "Ð¿ÑĢÐ¸ÐºÐ¼ÐµÑĤÐ½Ð¸Ðº": 1038,
      "ĠÐ¹": 1039,
      "ĠÐ²Ð¸Ð¿": 1040,
      "ĠÐºÐ¾Ð¼": 1041,
      "ĠÐ´ÑĸÑĶÐ¿ÑĢÐ¸ÐºÐ¼ÐµÑĤÐ½Ð¸Ðº": 1042,
      "pe": 1043,
      "enn": 1044,
      "ĠNach": 1045,
      "such": 1046,
      "Ð°ÑĢ": 1047,
      "ĠFreundin": 1048,
      "ĠÐ½ÐµÐ²Ð¸Ð·Ð½Ð°ÑĩÐµÐ½Ð¾Ð³Ð¾": 1049,
      "ĠÐ²Ð¸Ð¿Ð°Ð´": 1050,
      "ab": 1051,
      "ÑĤÑĢÐ¸Ð¼": 1052,
      "ĠÐ½ÐµÐ¿ÑĢ": 1053,
      "Ð²Ð¾ÑĢÐ¾ÑĤ": 1054,
      "gangen": 1055,
      "Ġsp": 1056,
      "ĠÐ²ÑĸÐ´Ð¼ÑĸÐ½ÐºÐ°": 1057,
      "elle": 1058,
      "ihr": 1059,
      "ÑģÐ½Ð¾Ð²": 1060,
      "Ġaber": 1061,
      "ĠStu": 1062,
      "Ġsind": 1063,
      "ĠÐ½Ð¾Ð¼ÑĸÐ½Ð°ÑĤÐ¸Ð²Ñĸ": 1064,
      "ĠÐ½ÐµÐ¿ÑĢÐ°Ð²Ð¸Ð»ÑĮ": 1065,
      "iz": 1066,
      "Ð¾Ñĩ": 1067,
      "ĠÐ¾ÑģÐ½Ð¾Ð²": 1068,
      "ĠBl": 1069,
      "ĠTag": 1070,
      "eld": 1071,
      "Ġspiel": 1072,
      "ĠÐ½Ð°Ð¿ÑĢÑıÐ¼": 1073,
      "ul": 1074,
      "ieren": 1075,
      "ĠÐ·Ð²Ð¾ÑĢÐ¾ÑĤ": 1076,
      "ĠÐ¾ÑĤÑĢÐ¸Ð¼": 1077,
      "Ã¤n": 1078,
      "ĠGe": 1079,
      "ĠÐ²Ð¸Ð¿Ð°Ð´ÐºÑĥ": 1080,
      "cke": 1081,
      "Ġmeinem": 1082,
      "ild": 1083,
      "Du": 1084,
      "ĠÐ»": 1085,
      "Ð¾Ð·Ð½Ð°Ñĩ": 1086,
      "Ġre": 1087,
      "ers": 1088,
      "ĠPf": 1089,
      "Ġschnell": 1090,
      "ast": 1091,
      "lan": 1092,
      "ÐµÑĢÐµÐ´": 1093,
      "Ã¼n": 1094,
      "Ġzur": 1095,
      "ĠÑĤÐµÐ¿ÐµÑĢ": 1096,
      "ÑĸÑģÑĤÑĮ": 1097,
      "Ġschw": 1098,
      "ĠÐ´Ð¾Ð¿Ð¾Ð¼ÑĸÐ¶Ð½Ð¸Ð¼": 1099,
      "iert": 1100,
      "ĠÐ¿ÑĢÐ¸ÑģÐ²ÑĸÐ¹Ð½Ð¸Ð¹": 1101,
      "ĠÐ¾Ð·Ð½Ð°ÑĩÐ°ÑĶ": 1102,
      "Ġbleibe": 1103,
      "ĠÐ¾Ð¿Ð¸Ñģ": 1104,
      "ĠÑĤÐµÐ¿ÐµÑĢÑĸÑĪ": 1105,
      "rÃ¤": 1106,
      "Ð½ÑĮÐ¾Ð¼Ñĥ": 1107,
      "Ġwar": 1108,
      "ĠÐ²ÑĸÐ´Ð¼ÑĸÐ½ÐºÐ¾Ð¼": 1109,
      "ĠÐ²Ð¸Ð·Ð½Ð°ÑĩÐµÐ½Ð¾Ð³Ð¾": 1110,
      "im": 1111,
      "ehm": 1112,
      "ĠKat": 1113,
      "tel": 1114,
      "ĠÐ¿ÑĸÐ´ÑĢÑıÐ´Ð½Ðµ": 1115,
      "ĠÐ¿Ð¾ÑĢÑıÐ´Ð¾Ðº": 1116,
      "kk": 1117,
      "Ð´Ðµ": 1118,
      "Ġgegangen": 1119,
      "Ð½ÑĸÑģÑĤÑĮ": 1120,
      "ĠÐ¼Ð¸Ð½Ñĥ": 1121,
      "Ġinteressant": 1122,
      "ÐµÐ·": 1123,
      "gessen": 1124,
      "Ã¤t": 1125,
      "oll": 1126,
      "ĠÐ¼Ð¸Ð½ÑĥÐ»": 1127,
      "ÑĢÐµÐ¼": 1128,
      "ĠÐ¿Ð¸ÑĤÐ°Ð½Ð½Ñı": 1129,
      "ert": 1130,
      "Ã¼l": 1131,
      "ĠBÃ¼": 1132,
      "ĠHo": 1133,
      "ÐµÐ½Ñĸ": 1134,
      "ĠSchule": 1135,
      "ĠKino": 1136,
      "ĠÐ´ÑĸÑĶÐ¿ÑĢÐ¸ÐºÐ¼ÐµÑĤÐ½Ð¸ÐºÐ¾Ð¼": 1137,
      "put": 1138,
      "Ð°ÑİÑĤÑĮ": 1139,
      "sten": 1140,
      "Ð¼Ð¾": 1141,
      "ĠÑĥÑĤ": 1142,
      "att": 1143,
      "ĠSchw": 1144,
      "ĠDu": 1145,
      "Ð¾ÐºÑĢÐµÐ¼": 1146,
      "Ġzum": 1147,
      "ommen": 1148,
      "res": 1149,
      "Ġ'-": 1150,
      "Ġgew": 1151,
      "ahn": 1152,
      "ÑĥÑħ": 1153,
      "Ð»Ð°": 1154,
      "ĠÑĸÐ¼Ð¿ÐµÑĢÐ°ÑĤÐ¸Ð²Ñĥ": 1155,
      "ĠKatze": 1156,
      "uss": 1157,
      "Ð¹": 1158,
      "ĠÑģÑĤÐ°Ð²Ð¸": 1159,
      "Ð¾Ð´Ñĸ": 1160,
      "Ð¶Ð´Ð¸": 1161,
      "Ã¤l": 1162,
      "Ã¤ch": 1163,
      "ĠApfel": 1164,
      "ĠGar": 1165,
      "Ġvie": 1166,
      "ĠÐ¿ÑĢÐ°Ð²Ð¸Ð»ÑĮÐ½Ð¸Ð¼": 1167,
      "ĠÐ·Ð°Ð²Ð¶Ð´Ð¸": 1168,
      "ĠgroÃŁ": 1169,
      "Ġz": 1170,
      "ĠÐ¿Ð¾ÑıÑģÐ½": 1171,
      "ĠÐ¿Ð¾Ð·Ð½Ð°Ñĩ": 1172,
      "ĠâĢŀ": 1173,
      "Ġbitte": 1174,
      "ĠÑĤÐµÐ¿ÐµÑĢÑĸÑĪÐ½ÑĮÐ¾Ð¼Ñĥ": 1175,
      "abe": 1176,
      "ite": 1177,
      "ĠÃ": 1178,
      "ĠSo": 1179,
      "ĠÐĴÐ¶Ð¸Ð²": 1180,
      "ĠÐ¿Ð¾Ð·Ð½Ð°ÑĩÐµÐ½Ð½Ñı": 1181,
      "ĠHaus": 1182,
      "ÃŁen": 1183,
      "ĠÐºÐ¾Ð»Ð¸": 1184,
      "Ġgel": 1185,
      "ĠÑīÐ¾ÑģÑĮ": 1186,
      "ĠÐ¿Ð¾ÑıÑģÐ½ÑİÑĶ": 1187,
      "nt": 1188,
      "uf": 1189,
      "Ġvor": 1190,
      "rage": 1191,
      "bl": 1192,
      "hat": 1193,
      "ger": 1194,
      "ĠÑģÐµÑĢÐµÐ´": 1195,
      "ffe": 1196,
      "ĠII": 1197,
      "geb": 1198,
      "ĠÐ´ÑĸÑı": 1199,
      "Ð¾ÐºÑĢÐµÐ¼Ð»": 1200,
      "orm": 1201,
      "ĠÐ²Ð¾Ð»": 1202,
      "kein": 1203,
      "Ġum": 1204,
      "ief": 1205,
      "ĠmÃ¼": 1206,
      "ĠMon": 1207,
      "ĠÐ¿ÑĢÐ¸ÐºÐ¼ÐµÑĤÐ½Ð¸ÐºÐ°": 1208,
      "Ð½ÑĮÐ¾Ð³Ð¾": 1209,
      "Ð¾Ð´ÑĸÐ½Ð½Ñı": 1210,
      "ĠÐ²Ð¾Ð»Ð¾Ð´ÑĸÐ½Ð½Ñı": 1211,
      "ade": 1212,
      "bar": 1213,
      "zimmer": 1214,
      "ende": 1215,
      "ĠÐ½Ð°Ð»ÐµÐ¶Ð¸ÑĤÑĮ": 1216,
      "Im": 1217,
      "Ð»Ð¸Ð²": 1218,
      "ĠÑĢÑĥÑħ": 1219,
      "ĠÐ·Ð°Ð¹Ð¼ÐµÐ½Ð½Ð¸ÐºÐ°": 1220,
      "ort": 1221,
      "ĠÐ³Ð¾Ð²": 1222,
      "ĠÐ¾ÑĤÑĢÐ¸Ð¼ÑĥÑĶ": 1223,
      "ien": 1224,
      "up": 1225,
      "Ð¾Ñģ": 1226,
      "Ð¾Ð²Ð°": 1227,
      "Ð»ÐµÐ¼": 1228,
      "Am": 1229,
      "ĠÑĤÑĢÐµ": 1230,
      "iere": 1231,
      "ĠHer": 1232,
      "ĠÐ¿ÑĢÐ¸Ð¹Ð¼ÐµÐ½Ð½Ð¸ÐºÐ°": 1233,
      "rÃ¼h": 1234,
      "macht": 1235,
      "Ð°Ð¹": 1236,
      "ĠÐ½ÐµÐ¿ÑĢÑıÐ¼Ð¸Ð¼": 1237,
      "ÑĩÐ¸": 1238,
      "ĠÑĸÐ¼Ð¿ÐµÑĢÐ°ÑĤÐ¸Ð²Ð°": 1239,
      "bs": 1240,
      "Ġmag": 1241,
      "Ã¼t": 1242,
      "ĠÐ±ÐµÐ·": 1243,
      "uÃŁ": 1244,
      "ĠÐ²Ð¸Ðº": 1245,
      "ĠÑħ": 1246,
      "ĠÑģÑĤÐ°": 1247,
      "ĠBild": 1248,
      "ÃŁe": 1249,
      "ĠPart": 1250,
      "ĠÑĢÐ¾Ð·Ð´ÑĸÐ»ÑĮ": 1251,
      "haus": 1252,
      "ps": 1253,
      "ĠÐ¿ÑĢÐ¸Ð½Ð°": 1254,
      "Ã¶r": 1255,
      "arkt": 1256,
      "Ã¤hr": 1257,
      "Ġblau": 1258,
      "ĠStad": 1259,
      "ragen": 1260,
      "ĠÐ¿ÑĢÐ¸Ð½Ð°Ð»ÐµÐ¶": 1261,
      "af": 1262,
      "our": 1263,
      "reit": 1264,
      "enster": 1265,
      "Ã¶ff": 1266,
      "Ġkommt": 1267,
      "ĠWasser": 1268,
      "ĠÐ¾ÑģÐ½Ð¾Ð²Ð½Ð¸Ð¼": 1269,
      "ĠÐ·Ð²Ð¾ÑĢÐ¾ÑĤÐ½Ðµ": 1270,
      "ĠFenster": 1271,
      "ĠÑģÐ»Ð¾Ð²Ð°": 1272,
      "ĠÑĦÐ¾ÑĢÐ¼Ð°": 1273,
      "................": 1274,
      "Ñī": 1275,
      "Ð½Ð¾ÑģÑĤÑĸ": 1276,
      "ĠÑĩÐ¸": 1277,
      "schw": 1278,
      "ĠWohn": 1279,
      "Ð¸Ð½Ð¸": 1280,
      "ÑĤÐµ": 1281,
      "ĠÑģÑĤÐ°Ð½": 1282,
      "ĠBer": 1283,
      "Ð¸Ð¼Ð¾": 1284,
      "ĠÐ°ÑĢÑĤÐ¸ÐºÐ»ÐµÐ¼": 1285,
      "ĠÑĥÑĤÐ²Ð¾ÑĢ": 1286,
      "ige": 1287,
      "ÑĥÑİ": 1288,
      "ĠÐ¿ÑĢÐµÐ´": 1289,
      "itt": 1290,
      "Ð¾ÐºÑĢÐµÐ¼Ð»ÑİÐ²": 1291,
      "fin": 1292,
      "Ġp": 1293,
      "Ð¸Ñĩ": 1294,
      "stag": 1295,
      "ĠHand": 1296,
      "let": 1297,
      "ĠGestern": 1298,
      "utter": 1299,
      "Ġessen": 1300,
      "Ġtrin": 1301,
      "omin": 1302,
      "ĠUn": 1303,
      "ĠÑģÑĤÐ°Ð½Ñĥ": 1304,
      "og": 1305,
      "Ð½Ð¾Ð¶": 1306,
      "ominativ": 1307,
      "ÐºÑĢ": 1308,
      "cken": 1309,
      "bst": 1310,
      "Ð½ÐµÐ½Ð½Ñı": 1311,
      "ÑĸÑı": 1312,
      "ĠFuÃŁ": 1313,
      "ĠAkk": 1314,
      "ĠÐ¹Ð´Ðµ": 1315,
      "ĠÐ¿ÑĢÐµÐ´Ð¼ÐµÑĤ": 1316,
      "richt": 1317,
      "ĠÐ¼Ð½Ð¾Ð¶": 1318,
      "ĠBrot": 1319,
      "ĠGeld": 1320,
      "ĠÐŁÑĢÐ¸ÐºÐ¼ÐµÑĤÐ½Ð¸ÐºÐ¸": 1321,
      "ĠFlug": 1322,
      "Ġviel": 1323,
      "ĠÑģÐµÑĢÐµÐ´Ð½ÑĮÐ¾Ð³Ð¾": 1324,
      "mer": 1325,
      "ĠÐ´Ð°": 1326,
      "ĠSup": 1327,
      "ĠÐ°ÑĢÑĤÐ¸ÐºÐ»": 1328,
      "Ġgern": 1329,
      "ester": 1330,
      "ĠÐ¯": 1331,
      "asse": 1332,
      "ĠÐ¿ÑĢÐ°Ð²Ð¸Ð»ÑĮÐ½Ñĥ": 1333,
      "ĠUhr": 1334,
      "//": 1335,
      "://": 1336,
      "tps": 1337,
      "ĠChe": 1338,
      "aufmachen": 1339,
      "ĠDe": 1340,
      "Ã¤r": 1341,
      "Ist": 1342,
      "Ġru": 1343,
      "ÑĩÐ¸Ð¹": 1344,
      "ĠBr": 1345,
      "ĠMe": 1346,
      "iker": 1347,
      "ĠÑĢÐ¾Ð´Ð¾Ð²Ð¸Ð¹": 1348,
      "ĠÐ²Ð¸ÐºÐ¾Ð½": 1349,
      "par": 1350,
      "ÑĥÐ´": 1351,
      "ation": 1352,
      "piele": 1353,
      "Ġlege": 1354,
      "rank": 1355,
      "ÑĥÐ±": 1356,
      "ĠÑĨÐµ": 1357,
      "ĠÐ³Ð¾Ð²Ð¾ÑĢ": 1358,
      "Mein": 1359,
      "ma": 1360,
      "ĠLie": 1361,
      "Ġoder": 1362,
      "igen": 1363,
      "ÑĥÑĤ": 1364,
      "ÑĸÐº": 1365,
      "ÐµÑĢÑĪ": 1366,
      "ĠmÃ¼de": 1367,
      "ĠÑĤÑĢÐµÑĤÑĮ": 1368,
      "ĠÑĥÑĤÐ²Ð¾ÑĢÐµÐ½Ð½Ñı": 1369,
      "ĠÐ²Ð¾": 1370,
      "beit": 1371,
      "unden": 1372,
      "Ġkalt": 1373,
      "ĠÐ²ÐºÐ°Ð·ÑĸÐ²": 1374,
      "Ġab": 1375,
      "aft": 1376,
      "Ð»Ð°Ð´": 1377,
      "erfe": 1378,
      "ĠÐ·Ð½Ð°Ñİ": 1379,
      "ĠZeit": 1380,
      "Ġlecker": 1381,
      "ĠÐ²ÑĸÐ´Ð¿Ð¾Ð²ÑĸÐ´Ð°ÑĶ": 1382,
      "ĠÐºÐ¾Ð¼Ð°Ð½": 1383,
      "erfekt": 1384,
      "Ð²Ñĸ": 1385,
      "utsch": 1386,
      "Ġbesuch": 1387,
      "ffen": 1388,
      "dw": 1389,
      "Ġrot": 1390,
      "Ġmacht": 1391,
      "Ġsteht": 1392,
      "ĠÐ¿ÐµÑĢÑĦÐµÐºÑĤÐ½Ð¸Ð¹": 1393,
      "ĠÐ·Ð°Ð²ÐµÑĢÑĪ": 1394,
      "ĠÐ¼Ð¸Ð½ÑĥÐ»Ð¾Ð¼Ñĥ": 1395,
      "ere": 1396,
      "pt": 1397,
      "sp": 1398,
      "hal": 1399,
      "dent": 1400,
      "ill": 1401,
      "Ð°ÐºÐºÑĥÐ·Ð°ÑĤÐ¸Ð²": 1402,
      "ĠÐ´Ð°Ð½Ð¾Ð¼Ñĥ": 1403,
      "ÑĥÑİÑĤÑĮ": 1404,
      "ĠÑĢÐ¾Ð´Ð¾Ð¼": 1405,
      "tern": 1406,
      "ĠĠ": 1407,
      "ĠÐĲ": 1408,
      "cht": 1409,
      "ĠBan": 1410,
      "ĠPa": 1411,
      "ÑħÐ¾Ð´": 1412,
      "Ġmeiner": 1413,
      "ĠÑĩÐ°ÑģÑĤÐ¸Ð½Ð°": 1414,
      "ĠGarten": 1415,
      "ĠÑĢÑĥÑħÑĥ": 1416,
      "ĠÐ²ÐºÐ°Ð·ÑĸÐ²ÐºÐ¸": 1417,
      "aschen": 1418,
      "Ġsein": 1419,
      "eis": 1420,
      "ĠSal": 1421,
      "mmer": 1422,
      "ĠNe": 1423,
      "olle": 1424,
      "ĠBlum": 1425,
      "Ġ1": 1426,
      "ĠÐĹ": 1427,
      "ĠÐ´Ð°Ð²Ð°Ð»ÑĮÐ½Ð¸Ð¼": 1428,
      "eller": 1429,
      "ĠJun": 1430,
      "gehen": 1431,
      "erns": 1432,
      "ĠÑĤÐ°Ðº": 1433,
      "ĠStra": 1434,
      "ĠÐ²Ð¸Ð·Ð½Ð°ÑĩÐµÐ½Ð¸Ð¹": 1435,
      "ĠArbeit": 1436,
      "ek": 1437,
      "kst": 1438,
      "kommen": 1439,
      "ĠÐ¿ÑĸÐ´Ð¼ÐµÑĤÐ°": 1440,
      "ĠÐ·Ð¼ÑĸÐ½ÑİÑĶÑĤÑĮÑģÑı": 1441,
      "ĠÑĩÐ¸ÑģÐ»": 1442,
      "ball": 1443,
      "ce": 1444,
      "ing": 1445,
      "ĠÑĢÑĸÐ´": 1446,
      "ĠTÃ¼r": 1447,
      "ĠÑĢÐ¾Ð´Ñĸ": 1448,
      "ĠEssen": 1449,
      "ĠWoche": 1450,
      "jekt": 1451,
      "ÑĤÑĢÐµÐ±": 1452,
      "ĠBÃ¼ro": 1453,
      "ĠÑĤÑĢÐµÑĤÑĮÐ¾ÑĹ": 1454,
      "Nein": 1455,
      "Ġte": 1456,
      "Ð¾ÑĤÑĢÑĸÐ±": 1457,
      "ÐµÐ½Ð¸": 1458,
      "ÑĸÐ·": 1459,
      "eil": 1460,
      "ĠAben": 1461,
      "uchen": 1462,
      "ĠÐ²ÑĸÐ´Ð±": 1463,
      "usativ": 1464,
      "ĠNachbar": 1465,
      "age": 1466,
      "gst": 1467,
      "sit": 1468,
      "Ġgesch": 1469,
      "ĠÐ¿Ð¾ÑĤÑĢÐµÐ±": 1470,
      "ĠKl": 1471,
      "ĠKÃ¼": 1472,
      "rad": 1473,
      "ĠStuhl": 1474,
      "ĠÐ½ÐµÐ¿ÑĢÐ°Ð²Ð¸Ð»ÑĮÐ½Ð¸Ð¹": 1475,
      "ÑĥÑİÑĩÐ¸": 1476,
      "ÐµÐ½Ð¸ÑĤÐ¸Ð²": 1477,
      "freu": 1478,
      "sich": 1479,
      "erm": 1480,
      "ĠÐŁÐ¾ÑĤÑĢÑĸÐ±": 1481,
      "ass": 1482,
      "ĠKolle": 1483,
      "ĠÐ·Ð°ÐºÑĸÐ½ÑĩÐµÐ½Ð½ÑıÐ¼": 1484,
      "ĠÐ¾ÑģÐ¾Ð±Ñĸ": 1485,
      "ĠÐ¿ÐµÑĢÑĪÐ¾ÑĹ": 1486,
      "Nominativ": 1487,
      "glich": 1488,
      "auch": 1489,
      "ĠÐ¼Ð¾Ð¶": 1490,
      "Ġko": 1491,
      "Ã¤d": 1492,
      "ĠÐ³ÐµÐ½Ð¸ÑĤÐ¸Ð²": 1493,
      "ĠÐ¿ÑĢÑıÐ¼Ð¾Ð³Ð¾": 1494,
      "ahren": 1495,
      "ĠÑĥÐ·Ð³Ð¾Ð´Ð¶ÑĥÐ²Ð°ÑĤÐ¸": 1496,
      "Sch": 1497,
      "risch": 1498,
      "Ð¸Ð³": 1499,
      "Ġgegessen": 1500,
      "ĠFot": 1501,
      "ald": 1502,
      "reundlich": 1503,
      "ĠÑĸÐ¼ÐµÐ½Ð½Ð¸ÐºÑĸÐ²": 1504,
      "ĠschÃ¶ne": 1505,
      "ĠÑĥÐ·Ð³Ð¾Ð´Ð¶ÑĥÑĶÑĤÑĮÑģÑı": 1506,
      "ĠÑģÑĤÐ°Ð²Ð¸ÑĤÑĮÑģÑı": 1507,
      "ĠStadt": 1508,
      "ĠFuÃŁball": 1509,
      "ĠÐ³Ð¾Ð²Ð¾ÑĢÐ¸Ð¼Ð¾": 1510,
      "Wir": 1511,
      "Ġ+": 1512,
      "ĠÐŁÑĸÐ´Ð¼ÐµÑĤ": 1513,
      "ĠÐ·Ð²": 1514,
      "ĠKind": 1515,
      "ĠÐ²Ð¸ÐºÐ¾ÑĢÐ¸ÑģÑĤÐ°Ð½Ð½Ñı": 1516,
      "ĠÐ½Ð°Ð¿ÑĢÑıÐ¼Ð¾Ðº": 1517,
      "ick": 1518,
      "nung": 1519,
      "ÑĸÐ»Ñı": 1520,
      "Ð°Ñİ": 1521,
      "ĠÐ²Ð¶": 1522,
      "ang": 1523,
      "ĠFarbe": 1524,
      "ater": 1525,
      "ĠÑģÐ°Ð¼": 1526,
      "ĠÐ½Ð°Ðº": 1527,
      "ĠÐ´Ð°Ð²Ð°Ð»ÑĮÐ½Ð¾Ð³Ð¾": 1528,
      "Ġhoch": 1529,
      "Ġkaufen": 1530,
      "wordw": 1531,
      "resour": 1532,
      "ĠÐĴÐ¶Ð¸Ð²Ð°ÑĶÑĤÑĮÑģÑı": 1533,
      "merz": 1534,
      "wordwall": 1535,
      "resource": 1536,
      "ip": 1537,
      "uer": 1538,
      "Ġgemacht": 1539,
      "ĠÐ·Ð°Ð¼": 1540,
      "eln": 1541,
      "ĠÑĢÐµÑĩÐµÐ½Ð½ÑıÑħ": 1542,
      "ĠÑģÐ»Ð¾Ð²Ð¾": 1543,
      "ĠÐ°ÑĢÑĤÐ¸ÐºÐ»ÑĸÐ²": 1544,
      "ĠÐ½Ð°ÐºÐ°Ð·": 1545,
      "tet": 1546,
      "ĠSon": 1547,
      "ĠFahr": 1548,
      "ĠMitt": 1549,
      "Ð½ÐµÐ½": 1550,
      "ĠGr": 1551,
      "ĠÑģÑĥÐ±": 1552,
      "zeug": 1553,
      "ĠÐ³ÐµÐ½Ñĸ": 1554,
      "ĠÐ¿Ð¾ÑĩÐ¸Ð½": 1555,
      "ĠÐ¿ÐµÑĢÑĦÐµÐºÑĤÑĥ": 1556,
      "ĠÐĲÑĢÑĤÐ¸Ðº": 1557,
      "lÃ¼ck": 1558,
      "latz": 1559,
      "Ġdich": 1560,
      "ĠÐ·Ð²ÐµÑĢ": 1561,
      "unde": 1562,
      "ÑĥÐ²Ð°Ð½Ð½Ñı": 1563,
      "Ġfin": 1564,
      "ĠLa": 1565,
      "ĠÐ¿Ð¾Ð²Ð¸Ð½ÐµÐ½": 1566,
      "ÑİÐ²Ð°ÑĤÐ¸": 1567,
      "https": 1568,
      "ĠÐŁÐ¾ÑĤÑĢÑĸÐ±Ð½Ð¾": 1569,
      "St": 1570,
      "of": 1571,
      "ÑĶÑĤÑĮÑģÑı": 1572,
      "ĠÐ´Ð°ÑĤÐ¸Ð²": 1573,
      "auran": 1574,
      "unkt": 1575,
      "ehe": 1576,
      "ÐµÐ½Ñĥ": 1577,
      "etz": 1578,
      "ilm": 1579,
      "estauran": 1580,
      "ĠÐ½Ð°Ð¿ÑĢÑıÐ¼ÐºÑĥ": 1581,
      "ĠÐºÐ¾Ð¼Ð°Ð½Ð´": 1582,
      "freuen": 1583,
      "ĠÐĲÑĢÑĤÐ¸ÐºÐ»ÑĮ": 1584,
      "estaurant": 1585,
      "aum": 1586,
      "Ġmuss": 1587,
      "Ġspiele": 1588,
      "ĠFerns": 1589,
      "scht": 1590,
      "Ġfrisch": 1591,
      "ĠÑĸÐ¼Ð¿ÐµÑĢÐ°ÑĤÐ¸Ð²Ñĸ": 1592,
      "Ġtrinke": 1593,
      "osit": 1594,
      "ÑĸÐ»": 1595,
      "ÑıÐ·": 1596,
      "ĠSpiel": 1597,
      "Ġkeine": 1598,
      "ĠÐ¿ÐµÑĢÐµ": 1599,
      "ĠRestaurant": 1600,
      "usik": 1601,
      "gin": 1602,
      "opf": 1603,
      "rie": 1604,
      "ÑĢÐ°": 1605,
      "ĠÐ¼Ð°ÑİÑĤÑĮ": 1606,
      "âĢ¦": 1607,
      "ĠKuchen": 1608,
      "ĠPerfekt": 1609,
      "ĠAus": 1610,
      "ĠÐ²ÑĸÐ´Ð¾ÐºÑĢÐµÐ¼Ð»ÑİÐ²": 1611,
      "ogra": 1612,
      "von": 1613,
      "Ġ\"": 1614,
      "Ġgeh": 1615,
      "ehl": 1616,
      "Ġhaben": 1617,
      "acht": 1618,
      "ĠPrÃ¤": 1619,
      "ĠÐ¿Ð¾ÑĤÑĢÑĸÐ±ÐµÐ½": 1620,
      "ĠJa": 1621,
      "Ġwird": 1622,
      "ĠLehrers": 1623,
      "Ġneuen": 1624,
      "Ġliegt": 1625,
      "Ã¤hrt": 1626,
      "ĠÐ³ÐµÐ½ÑĸÑĤÐ¸Ð²": 1627,
      "Ð¾ÑģÑĤÑĸ": 1628,
      "ÑĩÐ¸Ð¼": 1629,
      "habt": 1630,
      "Ġwo": 1631,
      "ĠHÃ¤n": 1632,
      "ĠÑģÐ¾Ð±": 1633,
      "ĠÐ¿ÑĸÐ´ÑĢÑıÐ´Ð½Ð¸Ð¼": 1634,
      "othe": 1635,
      "ĠWochen": 1636,
      "ĠArzt": 1637,
      "ĠÐ²Ð¾Ð½Ð¾": 1638,
      "ĠÐ¿Ð¾ÑĩÐ¸Ð½Ð°ÑĶÑĤÑĮÑģÑı": 1639,
      "pa": 1640,
      "rig": 1641,
      "reut": 1642,
      "ÑĸÐ½Ð²ÐµÑĢÑģ": 1643,
      "Ġwenn": 1644,
      "ĠÐ½Ð°Ð´": 1645,
      "ĠÐ¾Ð¿Ð¸ÑģÑĥ": 1646,
      "abel": 1647,
      "ĠÃĦ": 1648,
      "Ã¶rt": 1649,
      "ĠHÃ¤nde": 1650,
      "ÑĸÐ½Ð²ÐµÑĢÑģÑĸÑı": 1651,
      "Was": 1652,
      "Ġent": 1653,
      "ĠBÃ¤": 1654,
      "ĠWur": 1655,
      "ĠÐĴÑĸÐ´": 1656,
      "ÐµÐ½Ð¸Ð¼": 1657,
      "ĠSchmerz": 1658,
      "ranken": 1659,
      "ĠÑģÐ¿Ð¾Ñģ": 1660,
      "Ã¤dchen": 1661,
      "ift": 1662,
      "Ð½ÑĸÐ¹": 1663,
      "ÑĥÐ¼": 1664,
      "ine": 1665,
      "eise": 1666,
      "ĠwÃ¤": 1667,
      "ĠFrau": 1668,
      "ĠKon": 1669,
      "ĠMusik": 1670,
      "ĠMÃ¤dchen": 1671,
      "Ġkl": 1672,
      "ĠPers": 1673,
      "ĠÑģÐº": 1674,
      "ĠSchÃ¼l": 1675,
      "ett": 1676,
      "ĠRad": 1677,
      "ĠZimmer": 1678,
      "ĠÐ¿Ð¾Ð²Ð¸Ð½Ð½Ð°": 1679,
      "ĠMonat": 1680,
      "ĠÐ·Ð°Ð²ÐµÑĢÑĪÐµÐ½Ñĥ": 1681,
      "ÑĸÐ»ÑıÑĶÑĤÑĮÑģÑı": 1682,
      "osition": 1683,
      "ĠWochenende": 1684,
      "ĠÑĤÑĢ": 1685,
      "ÐºÑĨÑĸ": 1686,
      "gef": 1687,
      "geben": 1688,
      "Ġsit": 1689,
      "ĠFilm": 1690,
      "schei": 1691,
      "Ġbrau": 1692,
      "als": 1693,
      "eter": 1694,
      "ittel": 1695,
      "ĠGeschen": 1696,
      "Ġgerne": 1697,
      "meine": 1698,
      "sam": 1699,
      "ÑģÑĤÑĢÑĥ": 1700,
      "bel": 1701,
      "Ġmeinen": 1702,
      "ĠÑĢÐ¾Ð·Ð´ÑĸÐ»ÑıÑĶÑĤÑĮÑģÑı": 1703,
      "Ġgesehen": 1704,
      "ehmen": 1705,
      "ĠDeutsch": 1706,
      "lÃ¼cklich": 1707,
      "form": 1708,
      "ob": 1709,
      "stÃ¼ck": 1710,
      "rufen": 1711,
      "Ã¤chst": 1712,
      "ĠÐ¼Ð½Ð¾Ð¶Ð¸Ð½Ð¸": 1713,
      "ĠPerson": 1714,
      "mal": 1715,
      "vom": 1716,
      "Ð½Ñı": 1717,
      "Ð°Ð¿": 1718,
      "aut": 1719,
      "schÃ¶n": 1720,
      "ĠKranken": 1721,
      "ĠTrau": 1722,
      "ĠÐºÐ¾Ð¼Ñĥ": 1723,
      "ĠStau": 1724,
      "ĠÐ¾Ð´Ð½Ð¸Ð½Ñĸ": 1725,
      "ĠWohnung": 1726,
      "ĠUnter": 1727,
      "ĠÑģÐ¿Ð¾ÑģÐ¾Ð±": 1728,
      "kann": 1729,
      "me": 1730,
      "Ġarbe": 1731,
      "ase": 1732,
      "ĠÐ²ÐºÐ°Ð·Ð°ÑĤÐ¸": 1733,
      "etter": 1734,
      "izip": 1735,
      "ĠPflan": 1736,
      "ĠFernseh": 1737,
      "affe": 1738,
      "ee": 1739,
      "eute": 1740,
      "Ãľ": 1741,
      "Ð°Ð»": 1742,
      "Ð°ÑģÑĤ": 1743,
      "stig": 1744,
      "Ġfreut": 1745,
      "ĠhÃ¶": 1746,
      "ĠÐ»Ñİ": 1747,
      "ĠÑĢÐ¾Ð·Ð´ÑĸÐ»ÑĮÐ½Ðµ": 1748,
      "ĠÐ½Ð°ÐºÐ°Ð·Ð¾Ð²": 1749,
      "Ja": 1750,
      "gabe": 1751,
      "use": 1752,
      "za": 1753,
      "Ġ2": 1754,
      "ÑĸÑĢ": 1755,
      "Ð°Ñĩ": 1756,
      "end": 1757,
      "ÑĩÐ¾Ð¼Ñĥ": 1758,
      "ĠÑĢÐµ": 1759,
      "gew": 1760,
      "Ġsau": 1761,
      "ungen": 1762,
      "ÑĥÑĶÐ¼Ð¾": 1763,
      "Ġgehabt": 1764,
      "ese": 1765,
      "essen": 1766,
      "ĠKil": 1767,
      "ĠWetter": 1768,
      "Ġger": 1769,
      "laub": 1770,
      "ocht": 1771,
      "ĠSchÃ¼ler": 1772,
      "amm": 1773,
      "kl": 1774,
      "mittel": 1775,
      "Ġgen": 1776,
      "Ð¸ÑĤÑĮÑģÑı": 1777,
      "Ġimmer": 1778,
      "tes": 1779,
      "emp": 1780,
      "ĠMan": 1781,
      "ĠAp": 1782,
      "Ġaufge": 1783,
      "ĠÐ²ÐºÐ°Ð·ÑĥÑİÑĩÐ¸": 1784,
      "leid": 1785,
      "ĠStudent": 1786,
      "Ġgewesen": 1787,
      "rÃ¼hstÃ¼ck": 1788,
      "ĠGeschenk": 1789,
      "hol": 1790,
      "position": 1791,
      "ÐµÐ²": 1792,
      "ĠÑĪ": 1793,
      "Ġwe": 1794,
      "Ã¶glich": 1795,
      "schaft": 1796,
      "ĠMein": 1797,
      "ĠTan": 1798,
      "set": 1799,
      "ĠÑĢÐµÑĩÐµÐ½Ð½ÑıÐ¼": 1800,
      "immen": 1801,
      "ĠOma": 1802,
      "ĠÐ¿Ð¾ÐºÐ°Ð·Ð°ÑĤÐ¸": 1803,
      "Ġspielst": 1804,
      "Ġreg": 1805,
      "ĠÐ¿ÑĢÐ¸Ð½Ð°Ð»ÐµÐ¶Ð½ÑĸÑģÑĤÑĮ": 1806,
      "ĠÐ¿Ð¾ÑĤÑĢÐµÐ±ÑĥÑĶ": 1807,
      "affee": 1808,
      "ok": 1809,
      "rlaub": 1810,
      "ĠÐ§": 1811,
      "ÐµÐ»": 1812,
      "ĠÐ´Ð°ÑĤ": 1813,
      "inter": 1814,
      "Ã¶s": 1815,
      "ĠÐ²ÑĸÐ´Ð¼ÑĸÐ½ÑİÑĶÑĤÑĮÑģÑı": 1816,
      "ĠWand": 1817,
      "ĠgrÃ¼": 1818,
      "ĠÐ¿ÑĢÐ°Ð²Ð¸Ð»ÑĮÐ½Ð¾Ð³Ð¾": 1819,
      "ĠÐ·Ð½Ð°ÑħÐ¾Ð´": 1820,
      "ĠÑĸÐ½ÑĪ": 1821,
      "Ġunter": 1822,
      "Ġspielt": 1823,
      "ĠSof": 1824,
      "ĠPartizip": 1825,
      "ĠÐ¿ÑĢÐ¸Ð½Ð°Ð»ÐµÐ¶Ð½Ð¾ÑģÑĤÑĸ": 1826,
      "Ġteuer": 1827,
      "ÑģÑĤÑĢÑĥÐºÑĨÑĸ": 1828,
      "ĠFernseher": 1829,
      "lt": 1830,
      "ĠÐŁÑĸÐ´": 1831,
      "Ġwill": 1832,
      "ember": 1833,
      "Ġlern": 1834,
      "Ġbest": 1835,
      "ĠÐ°ÐºÑĥÐ·Ð°ÑĤÐ¸Ð²Ð¾Ð¼": 1836,
      "ĠGeb": 1837,
      "ĠÐ²Ð¸ÐºÐ¾Ð½ÑĥÑĶ": 1838,
      "ograf": 1839,
      "ĠSofa": 1840,
      "hÃ¶": 1841,
      "ane": 1842,
      "ĠÐ¼Ð¾Ð´Ð°Ð»ÑĮ": 1843,
      "ĠKaffee": 1844,
      "ĠTasche": 1845,
      "ckt": 1846,
      "det": 1847,
      "Ã¶chten": 1848,
      "ĠÑĸÐ½ÑĦ": 1849,
      "Â».": 1850,
      "ĠHausauf": 1851,
      "Ġrufe": 1852,
      "ĠÐ²ÑĸÐ´Ð±ÑĥÐ²": 1853,
      "ĠÐ·Ð½Ð°ÑħÐ¾Ð´Ð¸ÑĤÑĮÑģÑı": 1854,
      "ĠÐŁÑĸÐ´ÑĢÑıÐ´": 1855,
      "bung": 1856,
      "ibt": 1857,
      "nis": 1858,
      "Ġdir": 1859,
      "ÑģÐ»ÑĸÐ´": 1860,
      "ĠKleid": 1861,
      "ark": 1862,
      "elt": 1863,
      "ÃŁt": 1864,
      "ĠJahr": 1865,
      "hlen": 1866,
      "ĠÐ´ÑĸÑĶÑģÐ»ÑĸÐ²": 1867,
      "ĠÐºÐ¾Ð½ÑģÑĤÑĢÑĥÐºÑĨÑĸ": 1868,
      "ĠÐ·Ð°Ð¼ÑĸÑģÑĤÑĮ": 1869,
      "ĠÐ²ÑĸÐ´Ð±ÑĥÐ²Ð°ÑĶÑĤÑĮÑģÑı": 1870,
      "aput": 1871,
      "kel": 1872,
      "ri": 1873,
      "sie": 1874,
      "Ġauch": 1875,
      "ĠÐ²Ð²": 1876,
      "ĠÐ¿Ð¾Ð´": 1877,
      "anrufen": 1878,
      "ĠMarkt": 1879,
      "ĠHem": 1880,
      "ĠEs": 1881,
      "Ã¶nnen": 1882,
      "Ġlese": 1883,
      "ĠNo": 1884,
      "Ġoft": 1885,
      "ĠParty": 1886,
      "ÐºÑĢÐµÑĤ": 1887,
      "ermarkt": 1888,
      "ĠÑĥÐ·Ð³Ð¾Ð´Ð¶ÑĥÐ²Ð°ÑĤÐ¸ÑģÑı": 1889,
      "ĠÑģÐ°Ð¼Ðµ": 1890,
      "aputt": 1891,
      "Ġdur": 1892,
      "ÐºÐ¾Ð²": 1893,
      "hafen": 1894,
      "eigen": 1895,
      "Ġgeht": 1896,
      "Ð¾Ð³Ð¾ÑģÑĮ": 1897,
      "itiv": 1898,
      "Ġflie": 1899,
      "Ġhier": 1900,
      "Ġmachen": 1901,
      "ĠÐ°ÐºÑĥÐ·Ð°ÑĤÐ¸Ð²Ð½Ð¸Ð¹": 1902,
      "omput": 1903,
      "ĠUrlaub": 1904,
      "ĠVerben": 1905,
      "Ġkommen": 1906,
      "wort": 1907,
      "ĠFlugzeug": 1908,
      "ĠSupermarkt": 1909,
      "Ma": 1910,
      "ate": 1911,
      "keit": 1912,
      "Ð¾Ð½Ð°": 1913,
      "ÑĤÐµÑĢ": 1914,
      "ensch": 1915,
      "erd": 1916,
      "Ã¼h": 1917,
      "schie": 1918,
      "schrei": 1919,
      "ĠGem": 1920,
      "ĠÐ´ÑĢÑĥÐ³Ð¾ÑĹ": 1921,
      "urs": 1922,
      "Ġlang": 1923,
      "Ġhei": 1924,
      "ĠÑĩÐ°ÑģÑĤÐºÐ°": 1925,
      "ĠGesch": 1926,
      "bsau": 1927,
      "ĠÐ¿ÑĢÐµÐ´Ð¼ÐµÑĤÐ°": 1928,
      "ĠChef": 1929,
      "ĠPflanze": 1930,
      "heit": 1931,
      "komm": 1932,
      "op": 1933,
      "war": 1934,
      "Ã©": 1935,
      "ÑĥÑģ": 1936,
      "ĠComput": 1937,
      "stehen": 1938,
      "ÐºÑģ": 1939,
      "ÐºÐ¾Ñİ": 1940,
      "ĠForm": 1941,
      "ĠKu": 1942,
      "ĠKauf": 1943,
      "arre": 1944,
      "ĠWe": 1945,
      "prÃ¤ch": 1946,
      "ennis": 1947,
      "Ġgelesen": 1948,
      "afÃ©": 1949,
      "Ð¸ÑĩÐ°Ð¹": 1950,
      "ĠChefin": 1951,
      "ĠBanane": 1952,
      "ĠHemd": 1953,
      "Er": 1954,
      "tro": 1955,
      "uft": 1956,
      "Ġj": 1957,
      "ĠÐĿ": 1958,
      "ĠCafÃ©": 1959,
      "Ã¼se": 1960,
      "itarre": 1961,
      "ĠMutter": 1962,
      "ĠDat": 1963,
      "Ġkaputt": 1964,
      "ĠAm": 1965,
      "ĠWald": 1966,
      "ĠfÃ¤hrt": 1967,
      "ĠÐ¿ÑĢÐ°Ð²Ð¸Ð»ÑĮÐ½Ð¾Ð¼Ñĥ": 1968,
      "rÃ¼f": 1969,
      "ahrer": 1970,
      "ĠÐºÐ¾Ð½ÐºÑĢÐµÑĤ": 1971,
      "unktion": 1972,
      "fl": 1973,
      "mich": 1974,
      "sse": 1975,
      "ĠÐ¢": 1976,
      "ÑĥÑĩ": 1977,
      "ĠÑĹ": 1978,
      "unter": 1979,
      "ĠFrage": 1980,
      "Ð¾Ð³Ð¾Ñİ": 1981,
      "ĠTennis": 1982,
      "ĠWie": 1983,
      "Ġbrin": 1984,
      "ĠÑģÐ²": 1985,
      "ÐµÐ½ÑĤ": 1986,
      "ĠÐ³ÑĢ": 1987,
      "ĠÐ´Ð¾Ð¿Ð¾Ð¼Ð¾Ð³Ð¾Ñİ": 1988,
      "ĠHotel": 1989,
      "ĠFlughafen": 1990,
      "ĠStraÃŁe": 1991,
      "ĠKÃ¼che": 1992,
      "ĠÑģÐ¾Ð±Ð¾Ñİ": 1993,
      "ĠÐ´Ð°ÑĤÑĸÐ²": 1994,
      "Mail": 1995,
      "ĠGemÃ¼se": 1996,
      "ef": 1997,
      "to": 1998,
      "uro": 1999,
      "wasche": 2000,
      "Ġro": 2001,
      "Ð²Ð¸ÑĩÐ°Ð¹": 2002,
      "ange": 2003,
      "eiert": 2004,
      "ess": 2005,
      "arf": 2006,
      "ĠÐºÑĥ": 2007,
      "ĠGitarre": 2008,
      "uchs": 2009,
      "ĠÑĸÐ¼ÐµÐ½Ð½Ð¸ÐºÐ°Ð¼Ð¸": 2010,
      "Ð¾Ð´Ð¶ÐµÐ½Ð½Ñı": 2011,
      "ĠProjekt": 2012,
      "Woh": 2013,
      "ollen": 2014,
      "ĠSchwester": 2015,
      "................................": 2016,
      "ĠÐ¹Ð´ÐµÑĤÑĮÑģÑı": 2017,
      "ĠSuppe": 2018,
      "ĠAbend": 2019,
      "ĠKlemp": 2020,
      "Ġfinde": 2021,
      "ĠSchmerzmittel": 2022,
      "schÃ¶ne": 2023,
      "Ãľbung": 2024,
      "ĠMeinung": 2025,
      "ĠComputer": 2026,
      "ĠKlempner": 2027,
      "dicht": 2028,
      "ost": 2029,
      "rand": 2030,
      "Ġor": 2031,
      "ĠÐ·ÑĢ": 2032,
      "ĠFahrer": 2033,
      "ĠButter": 2034,
      "Ã¶t": 2035,
      "schu": 2036,
      "Ġdenke": 2037,
      "ĠPrei": 2038,
      "ĠÐºÐ½": 2039,
      "ĠAd": 2040,
      "sslich": 2041,
      "ĠStunde": 2042,
      "Ġbei": 2043,
      "ĠÐ³ÑĢÑĥ": 2044,
      "ĠÐ¿Ð¸ÑĤÐ°Ð»ÑĮ": 2045,
      "ruder": 2046,
      "ĠÐ¿ÑĢÐ¸ÐºÐ¼ÐµÑĤÐ½Ð¸ÐºÐ¾Ð¼": 2047,
      "Ġgefunden": 2048,
      "ĠSonne": 2049,
      "ĠFahrrad": 2050,
      "Ġgerade": 2051,
      "ĠgrÃ¼n": 2052,
      "ĠÐŁÑĸÐ´ÑĢÑıÐ´Ð½Ðµ": 2053,
      "kÃ¤": 2054,
      "las": 2055,
      "ohn": 2056,
      "Ð°Ñģ": 2057,
      "chnung": 2058,
      "rech": 2059,
      "orte": 2060,
      "gesch": 2061,
      "ÑĸÐ½Ñĸ": 2062,
      "Ġgeb": 2063,
      "ĠFuchs": 2064,
      "Ð°ÑĤÐ¸ÑģÑı": 2065,
      "Ġeinem": 2066,
      "ĠMensch": 2067,
      "Ã¤sslich": 2068,
      "ĠPil": 2069,
      "ĠPlatz": 2070,
      "ĠWer": 2071,
      "ĠWein": 2072,
      "ktlich": 2073,
      "ampe": 2074,
      "rauen": 2075,
      "hlt": 2076,
      "ĠÐ·Ð°Ð¿Ð¸ÑĤÐ°Ð½Ð½Ñĸ": 2077,
      "ĠÐ¿Ð¾ÑĢÑıÐ´ÐºÑĥ": 2078,
      "lover": 2079,
      "ullover": 2080,
      "Ã¼nktlich": 2081,
      "ĠGarage": 2082,
      "itet": 2083,
      "ĠWohnzimmer": 2084,
      "ĠHandy": 2085,
      "positionen": 2086,
      "ĠKaufhaus": 2087,
      "rÃ¼fung": 2088,
      "00": 2089,
      "?'": 2090,
      "bad": 2091,
      "ib": 2092,
      "ud": 2093,
      "Ġ/": 2094,
      "Ġâ": 2095,
      "ste": 2096,
      "ĠÐ²Ð¸ÐºÐ¾ÑĢÐ¸ÑģÑĤÐ¾Ð²ÑĥÑĶÐ¼Ð¾": 2097,
      "Ð°ÑĶÐ¼Ð¾": 2098,
      "ĠBruder": 2099,
      "ĠÑĨÑĸÐ¹": 2100,
      "Ã¤ft": 2101,
      "atur": 2102,
      "ĠÐŁÑĢÐ°Ð²Ð¸Ð»ÑĮ": 2103,
      "Ð¸ÑĤÐ°Ð½Ð½Ñı": 2104,
      "ame": 2105,
      "ĠSchuhe": 2106,
      "ehmt": 2107,
      "blem": 2108,
      "ĠBlume": 2109,
      "hof": 2110,
      "satz": 2111,
      "wir": 2112,
      "ĠÐŀ": 2113,
      "Ð¾ÑĪ": 2114,
      "ÐµÐ½Ð¸Ñħ": 2115,
      "Ð°ÑĢÑĤ": 2116,
      "Ð°Ð²Ð»Ñı": 2117,
      "ĠKurs": 2118,
      "ĠPol": 2119,
      "ĠPullover": 2120,
      "ĠGast": 2121,
      "ĠFreunde": 2122,
      "urt": 2123,
      "ĠOhr": 2124,
      "ĠÐ¶ÑĸÐ½Ð¾ÑĩÐ¸Ð¹": 2125,
      "Ġstelle": 2126,
      "Ġstark": 2127,
      "kaufen": 2128,
      "teresse": 2129,
      "ĠÐ½ÐµÐ¿ÑĢÐ°Ð²Ð¸Ð»ÑĮÐ½Ð¾": 2130,
      "Ġspielen": 2131,
      "ĠGedicht": 2132,
      "ĠÑģÑĤÐ°Ð²Ð¸ÑĤÐ¸": 2133,
      "ĠSohn": 2134,
      "ĠBlumen": 2135,
      "ĠJunge": 2136,
      "ĠLaden": 2137,
      "kocht": 2138,
      "od": 2139,
      "ogel": 2140,
      "rzt": 2141,
      "Ð¸Ñħ": 2142,
      "chite": 2143,
      "enut": 2144,
      "ĠIst": 2145,
      "ichte": 2146,
      "Ã¼gel": 2147,
      "ĠFisch": 2148,
      "ĠBaum": 2149,
      "ĠKÃ¤": 2150,
      "ĠMaus": 2151,
      "achten": 2152,
      "ĠTal": 2153,
      "ĠTeller": 2154,
      "one": 2155,
      "ĠWinter": 2156,
      "Ġsehen": 2157,
      "Ġfreundlich": 2158,
      "sszimmer": 2159,
      "ĠÑģÐµ": 2160,
      "ilch": 2161,
      "ĠÑĩÐ¾Ð»Ð¾Ð²ÑĸÑĩÐ¸Ð¹": 2162,
      "ĠFreunden": 2163,
      "ĠReise": 2164,
      "ĠEuro": 2165,
      "agt": 2166,
      "ĠÐ´Ð¾Ð¿Ð¾Ð²": 2167,
      "ĠschÃ¶nen": 2168,
      "ika": 2169,
      "ĠÐ²Ð¸Ð¼Ð°Ð³Ð°ÑİÑĤÑĮ": 2170,
      "immbad": 2171,
      "ĠOpa": 2172,
      "ĠJob": 2173,
      "reude": 2174,
      "ĠMannes": 2175,
      "ĠGesprÃ¤ch": 2176,
      "laster": 2177,
      "ĠÐ½Ð°Ð»ÐµÐ¶Ð½ÑĸÑģÑĤÑĮ": 2178,
      "ĠÐ¹Ð¾Ð³Ð¾": 2179,
      "ĠPferd": 2180,
      "ĠSchwimmbad": 2181,
      "gebot": 2182,
      "eks": 2183,
      "ĠÐ·Ð²ÐµÑĢÐ½ÐµÐ½Ð½Ñı": 2184,
      "chitekt": 2185,
      "Wann": 2186,
      "ax": 2187,
      "lin": 2188,
      "umm": 2189,
      "welle": 2190,
      "·Ð²Ð¸ÑĩÐ°Ð¹": 2191,
      "ĠÃ¶ff": 2192,
      "ĠÑģÐ»ÑĸÐ´": 2193,
      "ÑĤÑı": 2194,
      "ĠÐŁÐµÑĢ": 2195,
      "ÐºÐ¾Ð¼Ñĥ": 2196,
      "gelei": 2197,
      "test": 2198,
      "ĠFreude": 2199,
      "ĠBe": 2200,
      "ĠÐ·Ð°Ð·Ð²Ð¸ÑĩÐ°Ð¹": 2201,
      "ĠKeks": 2202,
      "ĠMilch": 2203,
      "lekt": 2204,
      "alen": 2205,
      "rowelle": 2206,
      "dee": 2207,
      "ĠEsszimmer": 2208,
      "ĠhÃ¤sslich": 2209,
      "ikrowelle": 2210,
      "ĠÐ¿Ð¾Ð²Ð¸Ð½Ð½Ñĸ": 2211,
      "rucker": 2212,
      "ĠÑĩÐ°ÑģÑĤÐºÐ¾Ñİ": 2213,
      "ĠArchitekt": 2214,
      "ĠÐ½ÐµÐ¿ÑĢÑıÐ¼Ð¾Ð³Ð¾": 2215,
      "ĠNachricht": 2216,
      "Ġspa": 2217,
      "ĠÐ¾Ð¿Ð¸ÑģÑĥÑĶ": 2218,
      "ĠÐ¿ÑĢÐ¸ÐºÐ¼ÐµÑĤÐ½Ð¸ÐºÐ°Ñħ": 2219,
      "eispiel": 2220,
      "ĠÐ¼Ð¾Ð¶Ð»Ð¸Ð²": 2221,
      "ĠÃĦrzt": 2222,
      "ĠBÃ¤cker": 2223,
      "flug": 2224,
      "ĠÐºÐ½Ð¸Ð³": 2225,
      "ĠÃĦrztin": 2226,
      "In": 2227,
      "Nicht": 2228,
      "by": 2229,
      "eben": 2230,
      "ll": 2231,
      "lÃ¼": 2232,
      "spiel": 2233,
      "Ð°Ð½Ðµ": 2234,
      "era": 2235,
      "ĠSp": 2236,
      "âĢĻ": 2237,
      "iter": 2238,
      "itÃ¤t": 2239,
      "ichter": 2240,
      "ĠKoch": 2241,
      "ĠMikrowelle": 2242,
      "ĠDrucker": 2243,
      "ĠTorte": 2244,
      "ĠPrÃ¼fung": 2245,
      "Ġ-âĢľ": 2246,
      "ĠLampe": 2247,
      "ramm": 2248,
      "Ð¸ÑĤÐ¸ÑģÑı": 2249,
      "ĠÐ½ÐµÐ¿ÑĢÑıÐ¼Ð¸Ð¹": 2250,
      "ĠAngst": 2251,
      "Ġneue": 2252,
      "ĠReg": 2253,
      "ĠRechnung": 2254,
      "rÃ¤um": 2255,
      "Ã¤llt": 2256,
      "ĠAkkusativ": 2257,
      "ĠBrief": 2258,
      "ĠÑĸÐ½ÑĦÑĸÐ½Ñĸ": 2259,
      "kÃ¤uf": 2260,
      "ĠPilot": 2261,
      "ĠPoliz": 2262,
      "ĠÐ´Ð¾Ð¿Ð¾Ð²Ð½ÐµÐ½Ð½Ñı": 2263,
      "ĠÐŁÐµÑĢÑĦÐµÐºÑĤ": 2264,
      "ĠÑĸÐ½ÑĦÑĸÐ½ÑĸÑĤÐ¸Ð²": 2265,
      "fahr": 2266,
      "nehmen": 2267,
      "walt": 2268,
      "Ġ*": 2269,
      "Ġ8": 2270,
      "ÐµÑģ": 2271,
      "ÑĸÑĤ": 2272,
      "Ð°Ð½Ð½Ñĸ": 2273,
      "rechen": 2274,
      "rerin": 2275,
      "ĠIdee": 2276,
      "Ġihn": 2277,
      "gestern": 2278,
      "ĠInteresse": 2279,
      "ĠÐ¿ÑĢÐ¸": 2280,
      "ĠBahn": 2281,
      "genie": 2282,
      "empf": 2283,
      "ĠMetz": 2284,
      "Ġkeinen": 2285,
      "ĠPass": 2286,
      "Ġgibt": 2287,
      "ĠÐ¿ÑĢÐ°Ð²Ð¸Ð»ÑĮÐ½ÑĸÐ¹": 2288,
      "ĠLÃ¶ff": 2289,
      "ĠElekt": 2290,
      "zept": 2291,
      "Ġbereit": 2292,
      "dessen": 2293,
      "ĠLehrerin": 2294,
      "ĠVerkÃ¤uf": 2295,
      "ĠÐ²ÑĸÐ´Ð¿Ð¾Ð²ÑĸÐ´Ð½Ð¾": 2296,
      "ĠErgeb": 2297,
      "ĠProf": 2298,
      "ĠBlatt": 2299,
      "ĠPflaster": 2300,
      "Ġzwei": 2301,
      "Ã¼tze": 2302,
      "ĠBank": 2303,
      "ĠKollegin": 2304,
      "ĠFoto": 2305,
      "ĠJacke": 2306,
      "Ġsauber": 2307,
      "ĠPreis": 2308,
      "ĠKÃ¤se": 2309,
      "axi": 2310,
      "geleisen": 2311,
      "ĠPolizist": 2312,
      "ĠLÃ¶ffel": 2313,
      "ĠElektr": 2314,
      "ĠErgebnis": 2315,
      "issen": 2316,
      "nie": 2317,
      "tik": 2318,
      "ust": 2319,
      "vier": 2320,
      "zel": 2321,
      "chan": 2322,
      "Ð¸Ð´": 2323,
      "ÑĮÐ¾ÑĢ": 2324,
      "Ġwie": 2325,
      "Ġweh": 2326,
      "ehr": 2327,
      "ĠBad": 2328,
      "ĠKeller": 2329,
      "elef": 2330,
      "ÑħÐ¾Ð´Ð¶ÐµÐ½Ð½Ñı": 2331,
      "ĠÐ²Ð¸ÐºÐ¾ÑĢÐ¸ÑģÑĤÐ°Ð½Ð½Ñĸ": 2332,
      "ĠStein": 2333,
      "ĠStrand": 2334,
      "ĠRichter": 2335,
      "ĠNot": 2336,
      "ĠÐ·Ð°Ð¹Ð¼ÐµÐ½Ð½Ð¸ÐºÐ¾Ð¼": 2337,
      "ĠÐ´Ð¾Ð¿Ð¾Ð¼ÑĸÐ¶Ð½Ð¾Ð³Ð¾": 2338,
      "ierg": 2339,
      "leisch": 2340,
      "ĠOr": 2341,
      "prika": 2342,
      "ular": 2343,
      "Ġrepar": 2344,
      "ĠHerr": 2345,
      "ĠMechan": 2346,
      "Ġbesucht": 2347,
      "othek": 2348,
      "ĠWurzel": 2349,
      "ĠwÃ¤scht": 2350,
      "ĠÑģÐºÐ»Ð°Ð´": 2351,
      "unktioniert": 2352,
      "elefon": 2353,
      "\".": 2354,
      "aben": 2355,
      "freundlich": 2356,
      "groÃŁ": 2357,
      "iff": 2358,
      "ibl": 2359,
      "iothek": 2360,
      "zieren": 2361,
      "Ġr": 2362,
      "chs": 2363,
      "eint": 2364,
      "Ð¾Ð´Ð¸ÑĤÑĮ": 2365,
      "ĠFin": 2366,
      "ĠBeispiel": 2367,
      "iten": 2368,
      "Ð±Ðµ": 2369,
      "ĠMÃ¼tze": 2370,
      "ĠkÃ¶nnen": 2371,
      "ĠThe": 2372,
      "ĠWei": 2373,
      "ĠWind": 2374,
      "ĠfrÃ¼h": 2375,
      "Ġbenut": 2376,
      "zur": 2377,
      "Ð¾Ð±Ð¸ÑĤÐ¸": 2378,
      "ĠÑıÐºÐ°": 2379,
      "ĠÐ²Ð¶Ð¸Ð²Ð°ÑĤÐ¸": 2380,
      "ĠÐ²Ð¶Ð¸Ð²Ð°Ð½Ð½Ñĸ": 2381,
      "ivers": 2382,
      "ĠRom": 2383,
      "ĠÐ³Ð¾Ð»": 2384,
      "Ġtrage": 2385,
      "ĠVater": 2386,
      "ÑģÐ»ÑĸÐ²Ð½Ð¸Ðº": 2387,
      "lavier": 2388,
      "ĠKinder": 2389,
      "ĠProblem": 2390,
      "ĠNacht": 2391,
      "schwester": 2392,
      "ĠÐ¼Ð½Ð¾Ð¶Ð¸": 2393,
      "ĠÐ²Ð¸ÐºÐ¾Ð½ÑĥÑĶÑĤÑĮÑģÑı": 2394,
      "ĠZeitung": 2395,
      "ĠÐĴÑĸÐ´Ð¾ÐºÑĢÐµÐ¼Ð»ÑİÐ²": 2396,
      "ĠTraum": 2397,
      "essor": 2398,
      "ĠElektriker": 2399,
      "iergumm": 2400,
      "ibliothek": 2401,
      "iversitÃ¤t": 2402,
      "Akk": 2403,
      "Bahn": 2404,
      "Geht": 2405,
      "bby": 2406,
      "io": 2407,
      "tag": 2408,
      "zie": 2409,
      "ÑĤÐ¾": 2410,
      "ÑĤÐ°Ðº": 2411,
      "ord": 2412,
      "Ġdein": 2413,
      "ins": 2414,
      "gerei": 2415,
      "Ġman": 2416,
      "ĠÐ¼Ð°ÑĤÐ¸": 2417,
      "Ð½Ð¾Ñİ": 2418,
      "Ġwer": 2419,
      "ĠFeld": 2420,
      "ĠFleisch": 2421,
      "Ð¿Ð¸": 2422,
      "ĠBibliothek": 2423,
      "Ð¸Ð¼Ð¸": 2424,
      "Ġeiner": 2425,
      "ĠHase": 2426,
      "ĠTre": 2427,
      "ĠTom": 2428,
      "ĠTaxi": 2429,
      "ĠTelefon": 2430,
      "ĠAuf": 2431,
      "ĠWir": 2432,
      "alz": 2433,
      "seur": 2434,
      "ĠÐŁÑĢÐ¸ÑģÐ²ÑĸÐ¹": 2435,
      "ĠStief": 2436,
      "ĠReis": 2437,
      "ĠÑģÑĤÐ¾ÑıÑĤÑĮ": 2438,
      "Ð»ÐµÐºÑģ": 2439,
      "amera": 2440,
      "meinem": 2441,
      "Ġuns": 2442,
      "ĠÐ·Ð°Ð¿Ð¸ÑĤÐ°Ð½ÑĮ": 2443,
      "nee": 2444,
      "ĠÐ¿ÑĢÐ¸ÑģÐ²ÑĸÐ¹Ð½Ðµ": 2445,
      "ĠRezept": 2446,
      "Ġgesund": 2447,
      "ĠÐºÐ¾Ð½ÑĤÐµ": 2448,
      "abatt": 2449,
      "ĠHobby": 2450,
      "ĠLiebe": 2451,
      "Ð²ÑĸÑĩ": 2452,
      "ĠStraÃŁen": 2453,
      "kstatt": 2454,
      "ÑıÐ·Ð¾Ðº": 2455,
      "ĠKrankenschwester": 2456,
      "ĠUnterricht": 2457,
      "bsauger": 2458,
      "ĠWerkstatt": 2459,
      "urtstag": 2460,
      "ĠBahnhof": 2461,
      "ĠMetzgerei": 2462,
      "ĠProfessor": 2463,
      "ĠRoman": 2464,
      "ĠÐºÐ¾Ð½ÑĤÐµÐº": 2465,
      "buch": 2466,
      "kon": 2467,
      "oden": 2468,
      "rik": 2469,
      "trauen": 2470,
      "uge": 2471,
      "vor": 2472,
      "wohn": 2473,
      "ĠÑĤÐ¸": 2474,
      "ÑĸÑĤÐ¸": 2475,
      "stell": 2476,
      "ĠIngenie": 2477,
      "ĠÐ¼Ð¾Ð´Ð°Ð»ÑĮÐ½Ðµ": 2478,
      "Ġget": 2479,
      "ĠÑģÑĤÐ°Ð²Ð»Ñı": 2480,
      "ĠSaft": 2481,
      "aufen": 2482,
      "ĠFri": 2483,
      "ĠBes": 2484,
      "ĠBus": 2485,
      "itze": 2486,
      "schir": 2487,
      "ĠKar": 2488,
      "ĠKopf": 2489,
      "ĠKlavier": 2490,
      "Ġaufmachen": 2491,
      "Ð·Ð½Ð°": 2492,
      "zum": 2493,
      "ssel": 2494,
      "ÐµÐ½ÑĮ": 2495,
      "ĠSchiff": 2496,
      "ischen": 2497,
      "Ġho": 2498,
      "ÑĦÐ»ÐµÐºÑģ": 2499,
      "ĠVor": 2500,
      "rÃ¼ck": 2501,
      "ĠÑĦÐ¾ÑĢÐ¼ÑĥÐ»": 2502,
      "laf": 2503,
      "ĠÐºÐ¾Ð»ÑĮÐ¾ÑĢ": 2504,
      "ĠFlur": 2505,
      "los": 2506,
      "ĠSchwein": 2507,
      "ÑīÐ¾": 2508,
      "ĠUniversitÃ¤t": 2509,
      "ĠLied": 2510,
      "ĠPaprika": 2511,
      "ĠÐĹÐ°Ð¿": 2512,
      "ĠAbendessen": 2513,
      "ĠÐ²Ð¶Ð¸ÑĤ": 2514,
      "ĠÐºÐ¾Ð¼Ð°Ð½Ð´Ñĥ": 2515,
      "ĠÐ³ÐµÐ½ÑĸÑĤÐ¸Ð²Ñĸ": 2516,
      "ĠÑĤÑĢÐµÑĤ": 2517,
      "ĠhÃ¶re": 2518,
      "useum": 2519,
      "ĠÑĢÐµÑĦÐ»ÐµÐºÑģ": 2520,
      "setzen": 2521,
      "ĠÐ§Ð°ÑģÑĤ": 2522,
      "ĠÐ²Ð²Ð¾Ð´Ð¸ÑĤÑĮ": 2523,
      "iergummi": 2524,
      "ĠStiefel": 2525,
      "ĠFriseur": 2526,
      "schirm": 2527,
      "ĠÑĢÐµÑĦÐ»ÐµÐºÑģÐ¸Ð²": 2528,
      "bahn": 2529,
      "ppe": 2530,
      "zeit": 2531,
      "Ġe": 2532,
      "ÐµÐ¹": 2533,
      "ÑĥÐ¹": 2534,
      "ĠÐ¿Ð¾Ð³": 2535,
      "ĠÐ´ÑĸÑĶÑģÐ»Ð¾Ð²Ð°Ð¼Ð¸": 2536,
      "Ð²Ð¾": 2537,
      "ĠSomm": 2538,
      "ĠFab": 2539,
      "ĠBier": 2540,
      "schrank": 2541,
      "ĠDach": 2542,
      "Ã¤hn": 2543,
      "ernt": 2544,
      "ĠStern": 2545,
      "ĠRabatt": 2546,
      "ĠÐ¿ÑĢÐ¸Ð¹Ð¼ÐµÐ½Ð½Ð¸ÐºÐ¾Ð¼": 2547,
      "ĠVogel": 2548,
      "ĠObst": 2549,
      "hlschrank": 2550,
      "ĠÐ¿ÐµÑĢÑĦÐµÐºÑĤÑĸ": 2551,
      "ĠÐ¼ÑĸÑģÑĨÐµÐ·Ð½Ð°": 2552,
      "ĠAngebot": 2553,
      "Ã¤tze": 2554,
      "Ã¤lt": 2555,
      "ĠHerz": 2556,
      "ĠBildschirm": 2557,
      "ĠStadion": 2558,
      "ĠBerlin": 2559,
      "ĠSalbe": 2560,
      "ĠNachbarin": 2561,
      "ĠAusflug": 2562,
      "ĠÐ²ÑĸÐ´Ð¾ÐºÑĢÐµÐ¼Ð»ÑİÐ²Ð°Ð»ÑĮ": 2563,
      "ĠStaubsauger": 2564,
      "Ġgenug": 2565,
      "ĠStudentin": 2566,
      "ĠWebs": 2567,
      "ĠÑģÐµÐ±Ðµ": 2568,
      "lÃ¼ssel": 2569,
      "ĠTheater": 2570,
      "ĠTomate": 2571,
      "ĠSommer": 2572,
      "ĠFabrik": 2573,
      "ĠÐ¼ÑĸÑģÑĨÐµÐ·Ð½Ð°ÑħÐ¾Ð´Ð¶ÐµÐ½Ð½Ñı": 2574,
      "Ver": 2575,
      "frie": 2576,
      "gie": 2577,
      "ock": 2578,
      "rone": 2579,
      "uar": 2580,
      "zert": 2581,
      "ĠÐµ": 2582,
      "aul": 2583,
      "unge": 2584,
      "ĠÑĩÐ¾Ð³Ð¾ÑģÑĮ": 2585,
      "leich": 2586,
      "ĠÑĦÐ¾ÑĢÐ¼Ð¸": 2587,
      "ĠSchrank": 2588,
      "ĠÑĩÐ¾Ð»Ð¾Ð²ÑĸÑĩÐ¸Ð¼": 2589,
      "urm": 2590,
      "hnachten": 2591,
      "Ġtut": 2592,
      "rauÃŁen": 2593,
      "ĠOn": 2594,
      "ÑģÑĮÐº": 2595,
      "euer": 2596,
      "ĠVertrauen": 2597,
      "Ð¸ÑĤÑı": 2598,
      "ĠGesicht": 2599,
      "antwor": 2600,
      "ĠAnwalt": 2601,
      "loren": 2602,
      "ĠBÃ¼geleisen": 2603,
      "resse": 2604,
      "ĠÃľ": 2605,
      "ntschei": 2606,
      "ptop": 2607,
      "ĠÐ½Ð°ÐºÐ°Ð·Ð¾Ð²Ð¾Ð¼Ñĥ": 2608,
      "Ã¶glichkeit": 2609,
      "Ġregnet": 2610,
      "Ã¶sung": 2611,
      "ĠÐ¼Ð¾Ð´Ð°Ð»ÑĮÐ½Ð¸Ð¼": 2612,
      "ĠÐ³ÑĢÑĥÐ¿Ð¸": 2613,
      "ĠÐŀÐ±": 2614,
      "ĠVerkÃ¤ufer": 2615,
      "ĠÑĤÑĢÐµÑĤÑĸÐ¹": 2616,
      "ÑĥÐ¹ÑĤÐµ": 2617,
      "Ein": 2618,
      "Fragen": 2619,
      "Heute": 2620,
      "Sei": 2621,
      "gramm": 2622,
      "hre": 2623,
      "ket": 2624,
      "sst": 2625,
      "sehen": 2626,
      "wie": 2627,
      "waschen": 2628,
      "Ð¸ÑĢ": 2629,
      "Ð°ÑĨÑĸ": 2630,
      "reich": 2631,
      "ĠÐ²ÑĸÐ½": 2632,
      "ĠÐ²Ð²ÑĸÑĩ": 2633,
      "Ð°Ð±": 2634,
      "steigen": 2635,
      "anuar": 2636,
      "ĠSee": 2637,
      "ĠBall": 2638,
      "itrone": 2639,
      "gend": 2640,
      "Ġnett": 2641,
      "ĠÐ²ÑĸÐ´Ð¼ÑĸÐ½ÑİÐ²Ð°ÑĤÐ¸": 2642,
      "ĠKamera": 2643,
      "ĠTasse": 2644,
      "ĠTopf": 2645,
      "ĠPost": 2646,
      "ĠWol": 2647,
      "ÑĤÐ°ÑĪ": 2648,
      "Ġschrei": 2649,
      "Ð¾Ð±ÑħÑĸÐ´": 2650,
      "utz": 2651,
      "ĠSchaf": 2652,
      "ĠSchnee": 2653,
      "ĠSchlÃ¼ssel": 2654,
      "unger": 2655,
      "rain": 2656,
      "olade": 2657,
      "ĠÐ¶ÑĸÐ½Ð¾ÑĩÐ¸Ð¼": 2658,
      "ĠÐ²Ð¸Ð·Ð½Ð°ÑĩÐµÐ½Ð¸Ð¼": 2659,
      "ĠÑĩÐ°ÑģÑĤÐ¸Ð½Ð¸": 2660,
      "ĠÐĴÐ¸ÐºÐ¾ÑĢÐ¸ÑģÑĤÐ¾Ð²ÑĥÐ¹ÑĤÐµ": 2661,
      "âĢľ.": 2662,
      "Ġlieb": 2663,
      "Ġschwimmen": 2664,
      "Ġviele": 2665,
      "ĠPaket": 2666,
      "ĠKÃ¼hlschrank": 2667,
      "icket": 2668,
      "ĠÐ²ÑĸÐ´Ð¾ÐºÑĢÐµÐ¼Ð»ÑİÐ²Ð°Ð½Ðµ": 2669,
      "Ġgehst": 2670,
      "ĠRadiergummi": 2671,
      "ĠÑģÐ¿Ð¾ÑģÐ¾Ð±Ñĸ": 2672,
      "ĠKilo": 2673,
      "okolade": 2674,
      "ĠMechaniker": 2675,
      "ĠStraÃŁenbahn": 2676,
      "ĠIngenieur": 2677,
      "ĠOnkel": 2678,
      "ĠÐ²Ð²ÑĸÑĩÐ»Ð¸Ð²": 2679,
      "Hast": 2680,
      "LA": 2681,
      "gaben": 2682,
      "keine": 2683,
      "son": 2684,
      "zlich": 2685,
      "ÐµÐ»ÑĮ": 2686,
      "cher": 2687,
      "ÑĥÐº": 2688,
      "enden": 2689,
      "ĠÑĢÐ¾Ð±": 2690,
      "habe": 2691,
      "ĠKnie": 2692,
      "ĠMuseum": 2693,
      "Ġschon": 2694,
      "ĠÑĦÐ¾ÑĢÐ¼Ð¾Ñİ": 2695,
      "ĠglÃ¼cklich": 2696,
      "ĠSchere": 2697,
      "ĠSchlaf": 2698,
      "ĠLÃ¶sung": 2699,
      "urke": 2700,
      "ĠÐ´ÑĸÑĶÑģÐ»Ð¾Ð²Ð°Ñħ": 2701,
      "Ġlaut": 2702,
      "ĠÐ³ÐµÐ½": 2703,
      "Ġhin": 2704,
      "ĠÐ·Ð°Ð¿ÐµÑĢÐµÑĩÑĥÑĶ": 2705,
      "ĠJanuar": 2706,
      "ĠÐ¿ÐµÑĢÑĦÐµÐºÑĤÐ½Ð¾Ð¼Ñĥ": 2707,
      "allen": 2708,
      "ĠÐ²ÑĸÐ´Ð¿Ð¾Ð²ÑĸÐ´Ð°ÑĤÐ¸": 2709,
      "ĠErd": 2710,
      "ĠRegel": 2711,
      "ĠFluss": 2712,
      "Ġliebe": 2713,
      "izbuch": 2714,
      "ĠHose": 2715,
      "ĠÑĥÑĤÐ¾Ñĩ": 2716,
      "ĠÃĸ": 2717,
      "ĠMontag": 2718,
      "lette": 2719,
      "ĠĠĠĠ": 2720,
      "ĠKollege": 2721,
      "ĠGrund": 2722,
      "ĠLaptop": 2723,
      "ĠRadio": 2724,
      "ĠGeburtstag": 2725,
      "ĠÐ·ÑĢÐ¾Ð±Ð¸ÑĤÐ¸": 2726,
      "schuhe": 2727,
      "ĠRegal": 2728,
      "ĠÐ³Ð¾Ð»Ð¾Ð²": 2729,
      "ĠÐºÐ¾Ð½ÑĤÐµÐºÑģÑĤÑĸ": 2730,
      "Ã¤hnchen": 2731,
      "ĠWebsite": 2732,
      "10": 2733,
      "dik": 2734,
      "ĠQ": 2735,
      "Ð¸Ð±": 2736,
      "erv": 2737,
      "ĠÐ¿Ð¾Ð±": 2738,
      "inken": 2739,
      "Ð¾ÑĢÑĤ": 2740,
      "Ġset": 2741,
      "Ġsoll": 2742,
      "ĠÐ¼Ð¾Ð²Ð°": 2743,
      "ĠÐ¿ÑĢÐ¸ÑĤÑı": 2744,
      "Ð±Ð°": 2745,
      "ĠKir": 2746,
      "ĠMot": 2747,
      "ĠDativ": 2748,
      "ĠPause": 2749,
      "ĠÐ½ÐµÐ¾Ð±ÑħÑĸÐ´": 2750,
      "Ġfahren": 2751,
      "Ð¾Ð»ÑĥÑĩ": 2752,
      "ĠGlas": 2753,
      "ĠGurke": 2754,
      "Ġschl": 2755,
      "Ġgute": 2756,
      "ĠÐ¿ÑĸÐ´ÑĢÑıÐ´Ð½Ð¸Ð¹": 2757,
      "ĠStÃ¼ck": 2758,
      "piegel": 2759,
      "ĠZug": 2760,
      "ĠZitrone": 2761,
      "mache": 2762,
      "ĠÑĢÐ¾Ð·ÑĤÐ°ÑĪ": 2763,
      "zent": 2764,
      "Ġoben": 2765,
      "ĠÐ·Ð¼ÑĸÐ½Ð¸": 2766,
      "ĠVerb": 2767,
      "lossen": 2768,
      "suchen": 2769,
      "ĠÐ¼Ð¸Ð½ÑĥÐ»Ð¾Ð³Ð¾": 2770,
      "stenlos": 2771,
      "halter": 2772,
      "dentlich": 2773,
      "ĠSalz": 2774,
      "ĠNebel": 2775,
      "ĠÑĩÐ¸ÑģÐ»Ð¾Ð¼": 2776,
      "ĠÐ¿ÐµÑĢÐµÑħÑĸÐ´": 2777,
      "otheke": 2778,
      "ineal": 2779,
      "ĠTante": 2780,
      "Ġdurch": 2781,
      "ĠFormular": 2782,
      "ĠAdresse": 2783,
      "ĠWeihnachten": 2784,
      "Akkusativ": 2785,
      "ĠÑģÑĤÐ°Ð²Ð»ÑıÑĤÑĮÑģÑı": 2786,
      "ĠÃľber": 2787,
      "Ġliebsten": 2788,
      "LAN": 2789,
      "ĠÐ¿ÑĢÐ¸ÑĤÑıÐ¶": 2790,
      "):": 2791,
      "Sh": 2792,
      "agessen": 2793,
      "flich": 2794,
      "mÃ¶chten": 2795,
      "sa": 2796,
      "we": 2797,
      "¸ļ": 2798,
      "ÑĸÑĩ": 2799,
      "orrad": 2800,
      "bei": 2801,
      "Ġsalz": 2802,
      "Ð²Ð°": 2803,
      "Ġgekocht": 2804,
      "Ã¼ÃŁ": 2805,
      "ĠFrÃ¼hstÃ¼ck": 2806,
      "ĠFeuer": 2807,
      "under": 2808,
      "schul": 2809,
      "ĠKabel": 2810,
      "ĠHÃ¼gel": 2811,
      "ĠHÃ¤hnchen": 2812,
      "Ã¤ter": 2813,
      "ĠTicket": 2814,
      "irt": 2815,
      "ĠÑĤÐ¸Ð¿": 2816,
      "ĠLineal": 2817,
      "ila": 2818,
      "Ġlila": 2819,
      "ffer": 2820,
      "ĠBuchhalter": 2821,
      "omen": 2822,
      "range": 2823,
      "Ġverloren": 2824,
      "Ġoffen": 2825,
      "ĠÐ·Ð°Ð¿Ð¸ÑĤÐ°Ð½Ð½ÑıÑħ": 2826,
      "ĠÐ·Ð²Ð¾ÑĢÐ¾ÑĤÐ½Ð¾Ð³Ð¾": 2827,
      "Ġschwer": 2828,
      "Ġwarm": 2829,
      "ehme": 2830,
      "endet": 2831,
      "ĠÑĢÐ¾Ð·Ð´ÑĸÐ»ÑĮÐ½Ð¸Ð¼": 2832,
      "ĠHandschuhe": 2833,
      "ĠNeffe": 2834,
      "ĠMittag": 2835,
      "ĠMittagessen": 2836,
      "ĠKonzert": 2837,
      "Ġsitzt": 2838,
      "Ġarbeiten": 2839,
      "ĠMantel": 2840,
      "ĠApotheke": 2841,
      "ĠWiese": 2842,
      "ĠÐ´Ð°ÑĤÑĸÐ²Ð½Ð¸Ð¼": 2843,
      "Ã¶tchen": 2844,
      "ĠÐ¼Ð¾Ð¶Ð»Ð¸Ð²ÑĸÑģÑĤÑĮ": 2845,
      "frieden": 2846,
      "ĠWolke": 2847,
      "dikam": 2848,
      "Shirt": 2849,
      "schuld": 2850,
      "Freund": 2851,
      "Re": 2852,
      "ba": 2853,
      "hei": 2854,
      "lesen": 2855,
      "morgen": 2856,
      "ĠÑĸÐ·": 2857,
      "Ð»Ð¾": 2858,
      "erien": 2859,
      "Ð¾Ð²Ð¸Ð¹": 2860,
      "ĠÐ·Ð½": 2861,
      "ĠÐ·Ñĸ": 2862,
      "ĠInform": 2863,
      "beere": 2864,
      "Ð°Ð²Ð°ÑĤÐ¸": 2865,
      "ĠÐ¿ÑĢÐ°Ð²Ð¸Ð»": 2866,
      "ĠSpiegel": 2867,
      "ĠBir": 2868,
      "ĠBoden": 2869,
      "Ġnie": 2870,
      "ĠMehl": 2871,
      "ĠMÃ¶glichkeit": 2872,
      "ĠHunger": 2873,
      "ĠPfe": 2874,
      "ĠGabel": 2875,
      "ĠÑıÐºÐ¾ÑģÑĤÑĸ": 2876,
      "ĠSchokolade": 2877,
      "ĠLiter": 2878,
      "ĠSturm": 2879,
      "zeich": 2880,
      "Ġbekommen": 2881,
      "Ġhung": 2882,
      "ometer": 2883,
      "ellner": 2884,
      "ruf": 2885,
      "ĠÐ²Ð¸Ð·Ð½Ð°ÑĩÐµÐ½Ð¸Ñħ": 2886,
      "Ġverw": 2887,
      "ĠÑģÐ¿Ð¾Ð»ÑĥÑĩ": 2888,
      "ablette": 2889,
      "ĠgroÃŁe": 2890,
      "ĠBerg": 2891,
      "ĠMeer": 2892,
      "ĠMedikam": 2893,
      "ĠWurst": 2894,
      "Ġbrauche": 2895,
      "ĠApp": 2896,
      "ĠHausaufgabe": 2897,
      "kommt": 2898,
      "Ġâ¸ļ": 2899,
      "ĠÐŁÑĢÐ°Ð²Ð¸Ð»ÑĮÐ½Ð¸Ð¹": 2900,
      "ĠÐ´Ð¾Ð¿Ð¾Ð²Ð½ÐµÐ½Ð½ÑıÐ¼": 2901,
      "fahrung": 2902,
      "ĠNotizbuch": 2903,
      "ĠÐ¼Ð½Ð¾Ð¶Ð¸Ð½Ñĸ": 2904,
      "ĠTreppe": 2905,
      "ĠÐŀÐ±ÑģÑĤÐ°Ð²Ð¸": 2906,
      "ĠKirche": 2907,
      "ĠMotorrad": 2908,
      "ĠBirne": 2909,
      "ĠÑģÐ¿Ð¾Ð»ÑĥÑĩÐ½Ð¸Ðº": 2910,
      "-,": 2911,
      "11": 2912,
      "?'.": 2913,
      "dung": 2914,
      "ks": 2915,
      "kar": 2916,
      "nal": 2917,
      "prech": 2918,
      "vember": 2919,
      "was": 2920,
      "zember": 2921,
      "Ġpr": 2922,
      "Ġempf": 2923,
      "ĠÐļ": 2924,
      "orf": 2925,
      "Ð»Ñİ": 2926,
      "ĠÐ¿ÐµÐ²": 2927,
      "ieber": 2928,
      "anz": 2929,
      "ĠÐ¿ÑĢÐ¸Ñģ": 2930,
      "ĠFerien": 2931,
      "ĠBett": 2932,
      "sche": 2933,
      "genommen": 2934,
      "ĠMin": 2935,
      "Ġkon": 2936,
      "ĠToch": 2937,
      "ĠÐºÑĸÐ½": 2938,
      "onner": 2939,
      "ĠWLAN": 2940,
      "Ġfunktioniert": 2941,
      "ĠGÃ¼r": 2942,
      "ĠGeht": 2943,
      "Ġschle": 2944,
      "...": 2945,
      "Ð°Ð»ÑĮÐ½Ñĸ": 2946,
      "ĠÑĤÑĥÑĤ": 2947,
      "ive": 2948,
      "ĠRock": 2949,
      "ĠEi": 2950,
      "Ġlesen": 2951,
      "Ġhil": 2952,
      "olgen": 2953,
      "ĠÐ¿Ð¾Ð²ÐµÑĢ": 2954,
      "Ġteil": 2955,
      "leist": 2956,
      "ĠOrange": 2957,
      "ĠÐ¿ÑĢÐ¸ÐºÐ¼ÐµÑĤÐ½Ð¸ÐºÐ°Ð¼Ð¸": 2958,
      "Ġunfreundlich": 2959,
      "ĠÐ·Ð¼ÑĸÐ½Ð¸ÑĤÐ¸": 2960,
      "Ġneues": 2961,
      "ĠProgramm": 2962,
      "Ġausge": 2963,
      "Ð»Ð°ÑģÑı": 2964,
      "ntag": 2965,
      "ĠMond": 2966,
      "Ã¤hrlich": 2967,
      "letzt": 2968,
      "ĠDezember": 2969,
      "Ġbesuchen": 2970,
      "halten": 2971,
      "ĠFotograf": 2972,
      "ĠSonntag": 2973,
      "rieben": 2974,
      "ĠÑģÐ¿Ð¾ÑģÐ¾Ð±Ñĥ": 2975,
      "toff": 2976,
      "Wohin": 2977,
      "ĠÑĦÐ¾ÑĢÐ¼ÑĥÐ»ÑİÑĶÑĤÑĮÑģÑı": 2978,
      "ĠErdbeere": 2979,
      "ĠÃĸl": 2980,
      "ĠTochter": 2981,
      "ĠGÃ¼rtel": 2982,
      "Sie": 2983,
      "cann": 2984,
      "fte": 2985,
      "grÃ¼": 2986,
      "hig": 2987,
      "ko": 2988,
      "mÃ¼": 2989,
      "zÃ¤": 2990,
      "Ġet": 2991,
      "ÐµÐ½Ðµ": 2992,
      "chmal": 2993,
      "Ġdan": 2994,
      "erie": 2995,
      "ĠÐ²Ñĩ": 2996,
      "stet": 2997,
      "geh": 2998,
      "ĠSand": 2999,
      "ĠSerie": 3000,
      "ĠFieber": 3001,
      "ĠBÃ¤r": 3002,
      "itum": 3003,
      "ĠKellner": 3004,
      "ĠMes": 3005,
      "ĠDorf": 3006,
      "ĠTablette": 3007,
      "lex": 3008,
      "Ġber": 3009,
      "ÑĪÐµ": 3010,
      "ĠzurÃ¼ck": 3011,
      "ĠStift": 3012,
      "ille": 3013,
      "ĠEis": 3014,
      "teritum": 3015,
      "ĠZu": 3016,
      "verben": 3017,
      "ĠErde": 3018,
      "ĠErfahrung": 3019,
      "ĠÐ½Ð¾Ð¼ÑĸÐ½Ð°ÑĤÐ¸Ð²Ð½Ð¾Ð¼Ñĥ": 3020,
      "Ġspann": 3021,
      "ĠÐ¾Ð¿Ð¸ÑģÐ°ÑĤÐ¸": 3022,
      "bling": 3023,
      "ĠÑħÐ°ÑĢ": 3024,
      "ournal": 3025,
      "ternet": 3026,
      "ĠJungen": 3027,
      "ĠÐ²ÑĸÐ´Ð±Ñĥ": 3028,
      "Ġkostet": 3029,
      "ĠÑĥÐ·Ð³Ð¾Ð´Ð¶ÑĥÐ²Ð°ÑĤÐ¸ÑģÑĮ": 3030,
      "ĠKilometer": 3031,
      "Ġfliegt": 3032,
      "testelle": 3033,
      "Ġspazieren": 3034,
      "ĠOrd": 3035,
      "ĠÐĴÑĸÐ´Ð¾ÐºÑĢÐµÐ¼Ð»ÑİÐ²Ð°Ð»ÑĮÐ½Ñĸ": 3036,
      "ĠAufgabe": 3037,
      "ĠÐŁÑĢÐ¸ÑģÐ²ÑĸÐ¹Ð½Ð¸Ð¹": 3038,
      "ĠBesprech": 3039,
      "ĠPfeffer": 3040,
      "ĠMedikament": 3041,
      "leistift": 3042,
      "Un": 3043,
      "Wie": 3044,
      "ap": 3045,
      "platz": 3046,
      "ttps": 3047,
      "wer": 3048,
      "Ð¸Ð¶": 3049,
      "regt": 3050,
      "Ġda": 3051,
      "ĠdrauÃŁen": 3052,
      "ĠÐ´ÑĥÐ¼": 3053,
      "ÑģÑĤÑĢ": 3054,
      "auen": 3055,
      "ĠInternet": 3056,
      "Ġso": 3057,
      "Ġsel": 3058,
      "ĠsÃ¼ÃŁ": 3059,
      "ĠSam": 3060,
      "ĠSatz": 3061,
      "ĠBauch": 3062,
      "ĠBleistift": 3063,
      "schen": 3064,
      "Ġnehme": 3065,
      "ĠKalen": 3066,
      "ache": 3067,
      "Ã¤um": 3068,
      "ĠTast": 3069,
      "ĠAst": 3070,
      "ĠAuge": 3071,
      "onn": 3072,
      "altestelle": 3073,
      "ĠÑıÐºÑĸ": 3074,
      "rochen": 3075,
      "ĠSchinken": 3076,
      "ĠÐ¿ÑĢÐ°Ð²Ð¸Ð»ÑĮÐ½Ðµ": 3077,
      "ĠEin": 3078,
      "ĠNud": 3079,
      "ĠNichte": 3080,
      "Ġhttps": 3081,
      "Ġtre": 3082,
      "Ġtrain": 3083,
      "pielt": 3084,
      "Ġlecke": 3085,
      "gelschrei": 3086,
      "pril": 3087,
      "ĠÑģÐ»Ð¾Ð²Ð¾Ð¼": 3088,
      "entlich": 3089,
      "ĠÐ½Ð°Ð»ÐµÐ¶Ð½Ð¾ÑģÑĤÑĸ": 3090,
      "Ġgespielt": 3091,
      "ĠmÃ¼ssen": 3092,
      "reiten": 3093,
      "ĠBeruf": 3094,
      "ĠBrille": 3095,
      "kstelle": 3096,
      "ĠÑĩÐ¸ÑģÐ»Ñĸ": 3097,
      "Ġlernen": 3098,
      "ĠHausaufgaben": 3099,
      "ĠNovember": 3100,
      "ĠFinger": 3101,
      "ĠSchlafzimmer": 3102,
      "ĠÐ¿ÐµÑĢÐµÑħÑĸÐ´Ð½Ð¸Ð¼": 3103,
      "toffel": 3104,
      "ournalist": 3105,
      "ĠBesprechung": 3106,
      "ĠSamstag": 3107,
      "ĠKalender": 3108,
      "ĠNudeln": 3109,
      "gelschreiber": 3110,
      "Es": 3111,
      "Ge": 3112,
      "Gib": 3113,
      "fach": 3114,
      "klich": 3115,
      "pÃ¼nktlich": 3116,
      "samm": 3117,
      "trin": 3118,
      "Ġ3": 3119,
      "ÑĥÑĢ": 3120,
      "Ð»Ð¸": 3121,
      "ĠÑĢÐ°Ð´": 3122,
      "ĠÐ·Ð½Ð°Ñĩ": 3123,
      "Ġsagt": 3124,
      "anden": 3125,
      "ĠSÃ¤tze": 3126,
      "ĠFrÃ¼": 3127,
      "ĠFreit": 3128,
      "ĠMÃ¤r": 3129,
      "ĠDame": 3130,
      "ĠDonner": 3131,
      "Ġkrank": 3132,
      "ĠHitze": 3133,
      "ĠHaltestelle": 3134,
      "achen": 3135,
      "ĠPlan": 3136,
      "ĠApril": 3137,
      "ĠÐ¼ÑĸÑģÑĤ": 3138,
      "onomen": 3139,
      "Ġscheint": 3140,
      "ĠEntschei": 3141,
      "ĠÐ·Ð°Ð¿ÐµÑĢÐµÑĩÐ¸ÑĤÐ¸": 3142,
      "ĠÑĤÐµÐ»Ðµ": 3143,
      "ĠOstern": 3144,
      "ĠÐ·Ð½Ð°ÑħÑĸÐ´Ð½Ð¾Ð³Ð¾": 3145,
      "ĠJournalist": 3146,
      "hling": 3147,
      "ĠÐ·Ð°Ð»ÐµÐ¶": 3148,
      "ĠAnt": 3149,
      "ĠAnruf": 3150,
      "ĠÐŁÑĢÐ¸ÑģÐ»ÑĸÐ²Ð½Ð¸Ðº": 3151,
      "ĠgefÃ¤hrlich": 3152,
      "Ġzie": 3153,
      "ÐºÑĢÐ°": 3154,
      "ĠBrÃ¶tchen": 3155,
      "Ġgeschlossen": 3156,
      "ĠKlasse": 3157,
      "Ġkostenlos": 3158,
      "Ð°ÑİÑĤÑĮÑģÑı": 3159,
      "ofort": 3160,
      "ĠPrÃ¤positionen": 3161,
      "ĠÃĦpfel": 3162,
      "ĠKrankenhaus": 3163,
      "ĠÐ»ÑİÐ±": 3164,
      "holt": 3165,
      "ĠKugelschreiber": 3166,
      "ĠSport": 3167,
      "ĠPasswort": 3168,
      "wohnheit": 3169,
      "Ġhoffe": 3170,
      "ĠÐ²Ð¶Ð¸ÑĤÐ¾": 3171,
      "ĠÑĢÐ¾Ð·ÑĤÐ°ÑĪÑĥÐ²Ð°Ð½Ð½Ñı": 3172,
      "ĠÐ¿ÑĢÐ°Ð²Ð¸Ð»Ð¾Ð¼": 3173,
      "karte": 3174,
      "ĠÐºÑĸÐ½ÐµÑĨÑĮ": 3175,
      "ĠÐ²ÑĸÐ´Ð±ÑĥÐ»Ð°ÑģÑı": 3176,
      "ĠFrÃ¼hling": 3177,
      "ĠFreitag": 3178,
      "brin": 3179,
      "dien": 3180,
      "mutz": 3181,
      "oo": 3182,
      "ïĥ": 3183,
      "ĠÐĳ": 3184,
      "ÑĸÑİ": 3185,
      "Ð°Ñħ": 3186,
      "Ġdun": 3187,
      "ĠdÃ¼n": 3188,
      "ÑĶÐ´": 3189,
      "ĠÐ²Ð»Ð°": 3190,
      "ĠÐŁÐ¸ÑĤÐ°Ð½Ð½Ñı": 3191,
      "iete": 3192,
      "ĠIm": 3193,
      "assen": 3194,
      "ĠÐ¼Ð¾Ð²": 3195,
      "Ġgest": 3196,
      "Ġgegen": 3197,
      "schlie": 3198,
      "ÑİÑĤÑĮÑģÑı": 3199,
      "ÑİÐ³": 3200,
      "Ġkur": 3201,
      "ĠHÃ¤l": 3202,
      "ĠTee": 3203,
      "Ġfaul": 3204,
      "ders": 3205,
      "ĠÐ¿ÑĢÐ°Ð²Ð¸Ð»ÑĮÐ½Ñĸ": 3206,
      "ĠLuft": 3207,
      "etzt": 3208,
      "ĠFreundschaft": 3209,
      "tert": 3210,
      "Ð°Ð¶Ð»Ð¸Ð²": 3211,
      "Ġmachst": 3212,
      "ĠschÃ¶nes": 3213,
      "ĠZahn": 3214,
      "Ð°ÐºÑĤÐµÑĢ": 3215,
      "ĠÐ²Ð¸ÑĢÐ°Ð¶Ð°ÑĶ": 3216,
      "serv": 3217,
      "ĠSchul": 3218,
      "laden": 3219,
      "Ġfreuen": 3220,
      "ĠÐºÐ¾Ð¼Ð¸": 3221,
      "pekt": 3222,
      "ĠÐ¾ÑĤÑĢÐ¸Ð¼ÑĥÑİÑĤÑĮ": 3223,
      "Ð´ÐµÐ¹": 3224,
      "ĠSocken": 3225,
      "ĠÑĤÑĢÐµÐ±Ð°": 3226,
      "Ã¼tzlich": 3227,
      "ĠÐ´Ð°ÑĤÐ¸Ð²Ð¾Ð¼": 3228,
      "ĠÐºÐ¾Ð¼Ð°Ð½Ð´Ñĸ": 3229,
      "Ġsitze": 3230,
      "ĠÐ»ÑİÐ´ÐµÐ¹": 3231,
      "ĠTankstelle": 3232,
      "ĠKuh": 3233,
      "ĠÐºÐ¾Ð»ÑĮÐ¾ÑĢÑĥ": 3234,
      "ĠQu": 3235,
      "ĠÑĤÐ¸Ð¿Ñĥ": 3236,
      "Ġhungrig": 3237,
      "ĠÐŀÐ±ÑģÑĤÐ°Ð²Ð¸Ð½Ð°": 3238,
      "ĠÐ¿ÑĢÐ¸ÑģÑĥÐ´": 3239,
      "Ġschlecht": 3240,
      "Ġhilft": 3241,
      "ĠÑħÐ°ÑĢÐ°ÐºÑĤÐµÑĢ": 3242,
      "ĠTastatur": 3243,
      "ïĥĺ": 3244,
      "ĠHÃ¤lfte": 3245,
      "Man": 3246,
      "Macht": 3247,
      "Nehmt": 3248,
      "Vor": 3249,
      "agen": 3250,
      "acken": 3251,
      "bitte": 3252,
      "flex": 3253,
      "land": 3254,
      "ub": 3255,
      "ummer": 3256,
      "Ġals": 3257,
      "ĠÐĽ": 3258,
      "ÑıÑĤÐ¸": 3259,
      "Ð°ÑĨ": 3260,
      "erst": 3261,
      "ÑĸÐ³": 3262,
      "inks": 3263,
      "Ð¼Ñĥ": 3264,
      "Ð¼Ð°ÑĶ": 3265,
      "asch": 3266,
      "eig": 3267,
      "ĠÐ¿ÑĢÐ¾Ð¿": 3268,
      "Ġwunder": 3269,
      "âĢĿ": 3270,
      "Ã¶ÃŁe": 3271,
      "Ġeinfach": 3272,
      "schl": 3273,
      "ĠnÃ¼tzlich": 3274,
      "Ġklet": 3275,
      "ĠHe": 3276,
      "atiker": 3277,
      "elfen": 3278,
      "Ġfro": 3279,
      "Ġbun": 3280,
      "Ġbill": 3281,
      "Ġbald": 3282,
      "Ð°Ð»ÑĮÐ½Ð¸Ð¹": 3283,
      "ĠÐ²Ð¶Ð¸Ð²Ð°Ð½Ð½Ñı": 3284,
      "ungs": 3285,
      "ĠLunge": 3286,
      "ĠÑĩÐ¾Ð»Ð¾Ð²ÑĸÑĩÐ¾Ð¼Ñĥ": 3287,
      "Ġlade": 3288,
      "Ġleise": 3289,
      "Ġtrau": 3290,
      "otograf": 3291,
      "ĠÐ¶ÑĸÐ½Ð¾ÑĩÐ¾Ð¼Ñĥ": 3292,
      "rinnen": 3293,
      "reite": 3294,
      "ĠÐ¿ÑĢÑıÐ¼Ð¸Ð¹": 3295,
      "ĠÃ¼berall": 3296,
      "Ġvergessen": 3297,
      "pronomen": 3298,
      "ĠÐ·Ð¼ÑĸÐ½Ñĥ": 3299,
      "Ġkommst": 3300,
      "Ã¼cken": 3301,
      "Ġgefahren": 3302,
      "ĠgefÃ¤llt": 3303,
      "ĠspÃ¤ter": 3304,
      "ĠGewohnheit": 3305,
      "Ġgelernt": 3306,
      "ĠÐ³Ð¾Ð²Ð¾ÑĢÑı": 3307,
      "afel": 3308,
      "ittung": 3309,
      "ĠÐ°ÑĢÑĤÐ¸ÐºÐ»Ñĸ": 3310,
      "ational": 3311,
      "ĠGrÃ¶ÃŁe": 3312,
      "Station": 3313,
      "ĠDeutsche": 3314,
      "meckt": 3315,
      "Ġarbeitet": 3316,
      "ĠÐ½Ð°ÐºÐ°Ð·Ð¾Ð²Ð¾Ð³Ð¾": 3317,
      "Ġweich": 3318,
      "ĠÐºÐ¾Ð½ÑģÑĤÑĢÑĥÐºÑĨÑĸÑı": 3319,
      "ÑĥÑģÐº": 3320,
      "ĠÐºÐ¾Ð½ÐºÑĢÐµÑĤÐ½Ð¾Ð³Ð¾": 3321,
      "ĠÐºÑĥÐ¿": 3322,
      "Ġbereits": 3323,
      "groÃŁe": 3324,
      "ĠKartoffel": 3325,
      "antworten": 3326,
      "ĠÃľbersetzen": 3327,
      "Ã¤umt": 3328,
      "ĠMÃ¤rz": 3329,
      "ĠDonnerstag": 3330,
      "ĠEntscheidung": 3331,
      "Gehe": 3332,
      "ai": 3333,
      "mir": 3334,
      "wenn": 3335,
      "Ġ7": 3336,
      "ĠÃ¼": 3337,
      "Ð°Ð½Ð¾": 3338,
      "ÑĥÐ¿": 3339,
      "ieten": 3340,
      "Ð¾ÑĢÐ¾Ñĩ": 3341,
      "gebe": 3342,
      "gekauft": 3343,
      "ĠmÃ¶chten": 3344,
      "Ġsofort": 3345,
      "unser": 3346,
      "ĠSek": 3347,
      "ĠÐ°Ð²": 3348,
      "ĠFragen": 3349,
      "ĠBein": 3350,
      "ĠBil": 3351,
      "ĠBrÃ¼": 3352,
      "ÑĨÑĸÑı": 3353,
      "Ġnoch": 3354,
      "ĠnÃ¤chst": 3355,
      "achsen": 3356,
      "ĠTafel": 3357,
      "ĠAug": 3358,
      "ĠGeh": 3359,
      "ĠÐ¿ÑĸÐ´ÑħÐ¾Ð´": 3360,
      "ĠÑģÐ¼": 3361,
      "ĠÐ²Ð¶Ð¸Ð²Ð°ÑĶ": 3362,
      "ĠÐ²ÑĸÐ´Ñģ": 3363,
      "Ġande": 3364,
      "ffnung": 3365,
      "weis": 3366,
      "ĠÐ½ÐµÐ²Ð¸Ð·Ð½Ð°ÑĩÐµÐ½Ð¸Ð¼": 3367,
      "Ġstehe": 3368,
      "Ð°ÐºÑĥ": 3369,
      "ĠunpÃ¼nktlich": 3370,
      "ĠÑĩÐ°ÑģÑĤÐ¸Ð½": 3371,
      "Ġverletzt": 3372,
      "verb": 3373,
      "arbeitet": 3374,
      "Ġgefeiert": 3375,
      "ĠBluse": 3376,
      "Ã¼ll": 3377,
      "Ġgewaschen": 3378,
      "ĠHerbst": 3379,
      "Ð¸Ð¼Ð¾ÑģÑĮ": 3380,
      "finitiv": 3381,
      "ĠAkku": 3382,
      "ĠLiebling": 3383,
      "ĠÐ²Ð¶Ðµ": 3384,
      "ĠFahrkarte": 3385,
      "Ġfinden": 3386,
      "ginnt": 3387,
      "ehler": 3388,
      "Ġklein": 3389,
      "ĠTraube": 3390,
      "zahlen": 3391,
      "Ġbringe": 3392,
      "ĠÐ³ÑĢÐ¾ÑĪ": 3393,
      "Ġorange": 3394,
      "wiebel": 3395,
      "ĠÐ³Ð¾Ð»Ð¾Ð²Ð½Ð¾Ð³Ð¾": 3396,
      "ĠOrdner": 3397,
      "ĠQuittung": 3398,
      ".:": 3399,
      "15": 3400,
      "An": 3401,
      "Frage": 3402,
      "di": 3403,
      "pier": 3404,
      "sind": 3405,
      "wÃ¶": 3406,
      "Ġren": 3407,
      "Ġalt": 3408,
      "ordentlich": 3409,
      "Ġdort": 3410,
      "ĠÐ²Ð¸ÑģÑĤ": 3411,
      "ĠÐ²Ð¸Ð³": 3412,
      "Ð¸ÐºÑĥ": 3413,
      "Ð¸ÐºÐ»Ð°Ð´": 3414,
      "Ġseine": 3415,
      "Ð²Ð¸": 3416,
      "Ð´Ð¶": 3417,
      "ĠÑģÑĤÑĢ": 3418,
      "ÑĨÐµ": 3419,
      "Ġwas": 3420,
      "Ġwind": 3421,
      "Ã¼hl": 3422,
      "schn": 3423,
      "Ð¶Ðµ": 3424,
      "ĠKasse": 3425,
      "ĠDien": 3426,
      "Ã¤glich": 3427,
      "Ã¤uft": 3428,
      "athaus": 3429,
      "onat": 3430,
      "ÑĥÐ²Ð°ÑĤÐ¸ÑģÑı": 3431,
      "leicht": 3432,
      "Ġbist": 3433,
      "Ġschlie": 3434,
      "Ġschla": 3435,
      "ĠÐ²Ð¶Ð¸Ð²Ð°ÑİÑĤÑĮÑģÑı": 3436,
      "ĠÐ·Ð°Ð¿Ð¸ÑĤ": 3437,
      "ĠRes": 3438,
      "kto": 3439,
      "Ġbeschw": 3440,
      "Ġantik": 3441,
      "Ð°Ð³Ð°ÑĤ": 3442,
      "ĠÐ¾ÑģÐ¾Ð±Ñĥ": 3443,
      "Ġtro": 3444,
      "immt": 3445,
      "ĠZoo": 3446,
      "ĠZwiebel": 3447,
      "ĠÐ¿ÐµÑĢÑĪÑĸÐ¹": 3448,
      "Ð¾Ð·Ð¸": 3449,
      "Ġsicher": 3450,
      "ĠArm": 3451,
      "lieren": 3452,
      "ĠParkplatz": 3453,
      "ahre": 3454,
      "ĠRegen": 3455,
      "ĠProzent": 3456,
      "Ġschwier": 3457,
      "ertig": 3458,
      "ĠBÃ¼cher": 3459,
      "ĠHoffnung": 3460,
      "Ã¶ffnet": 3461,
      "Ġruft": 3462,
      "ĠSalat": 3463,
      "ĠGras": 3464,
      "ĠgehÃ¶rt": 3465,
      "Ġaufgeregt": 3466,
      "ĠÐºÐ¾Ð½ÑģÑĤÑĢÑĥÐºÑĨÑĸÑİ": 3467,
      "ĠNote": 3468,
      "spielen": 3469,
      "ziehen": 3470,
      "Ġwerden": 3471,
      "ĠÐ§Ð°ÑģÑĤÐºÐ°": 3472,
      "ĠÐ¿Ð¾Ð±ÑĥÐ´": 3473,
      "Ġsetze": 3474,
      "ĠschlÃ¤ft": 3475,
      "ĠInformatiker": 3476,
      "Ġnied": 3477,
      "mÃ¼ssen": 3478,
      "ĠÐ²ÑĩÐ¸ÑĤ": 3479,
      "ĠMesser": 3480,
      "ĠZucker": 3481,
      "ÐºÑĢÐ°ÑĹ": 3482,
      "ĠBrÃ¼cke": 3483,
      "ĠAugust": 3484,
      "ĠÐ²ÑĸÐ´ÑģÑĥÑĤ": 3485,
      "Kein": 3486,
      "Kann": 3487,
      "ho": 3488,
      "nach": 3489,
      "Ġ5": 3490,
      "ÑıÐ²": 3491,
      "ÑģÑĸ": 3492,
      "ÑģÐ¿": 3493,
      "ÑĥÐ½": 3494,
      "reg": 3495,
      "enne": 3496,
      "Ġdrinnen": 3497,
      "ergie": 3498,
      "ÑĮÐ¾Ð³Ð¾": 3499,
      "ĠÐ¿Ð°ÑĢÑĤ": 3500,
      "asst": 3501,
      "Ġmut": 3502,
      "Ġmod": 3503,
      "ĠÐ¼ÐµÐ½Ñĸ": 3504,
      "Ð´ÑĸÐ»ÑĮ": 3505,
      "eigt": 3506,
      "ĠÑģÑĤÑĢÑĥ": 3507,
      "ĠÐ¿ÑĢÐ¸Ñĩ": 3508,
      "aufstehen": 3509,
      "ĠFehler": 3510,
      "esse": 3511,
      "Ġnet": 3512,
      "Ġbis": 3513,
      "Ġschief": 3514,
      "Ġscharf": 3515,
      "Ġschmutz": 3516,
      "Ġintern": 3517,
      "irr": 3518,
      "ĠgÃ¼n": 3519,
      "Ġvoll": 3520,
      "ÐµÐ½Ð´": 3521,
      "ĠÐ¿ÑĸÐ´ÑĢÑıÐ´Ð½Ð¾Ð³Ð¾": 3522,
      "unglÃ¼cklich": 3523,
      "ĠRathaus": 3524,
      "ĠNase": 3525,
      "ÐµÑĢÐµÑĩÐµÐ½Ð½Ñı": 3526,
      "ĠÐ¿ÑĢÐ¸ÐºÐ¼ÐµÑĤÐ½Ð¸ÐºÑĸÐ²": 3527,
      "weilig": 3528,
      "meiner": 3529,
      "Ġleer": 3530,
      "ĠÑĩÐ°ÑģÑĤÐ¸": 3531,
      "neu": 3532,
      "ckerei": 3533,
      "ĠÐ¼Ð¸Ð½ÑĥÐ»Ð¸Ð¹": 3534,
      "Ã¤lte": 3535,
      "Ġgelb": 3536,
      "ĠÑħÐ¾Ñĩ": 3537,
      "ĠÐºÐ¾Ð¼Ð°Ð½Ð´Ð¸": 3538,
      "Ð²ÑĸÑĤ": 3539,
      "Ġbesuche": 3540,
      "ĠPapier": 3541,
      "ĠÑĤÐ°ÐºÐ¸Ð¼Ð¸": 3542,
      "ĠÐ²Ð¶Ð¸ÑĤÐ¸": 3543,
      "ĠÑģÐºÐ¾ÑĢÐ¾Ñĩ": 3544,
      "holen": 3545,
      "Ġregner": 3546,
      "ĠÑĸÐ½ÑĪÐ¸Ð¼": 3547,
      "hÃ¶ren": 3548,
      "Ã¼hm": 3549,
      "Ġlangsam": 3550,
      "trol": 3551,
      "ĠÐĹÐ°Ð¿ÐµÑĢÐµÑĩÐµÐ½Ð½Ñı": 3552,
      "ĠMinute": 3553,
      "Ġspannend": 3554,
      "ĠAntwort": 3555,
      "ĠSekunde": 3556,
      "ĠÐ¿ÑĸÐ´ÑħÐ¾Ð´Ð¸ÑĤÑĮ": 3557,
      "ktober": 3558,
      "Ġmodern": 3559,
      "13": 3560,
      "16": 3561,
      "22": 3562,
      "Geh": 3563,
      "ale": 3564,
      "gÃ¤n": 3565,
      "spiele": 3566,
      "ÐĴ": 3567,
      "Ġ,": 3568,
      "ĠunglÃ¼cklich": 3569,
      "ÐµÐº": 3570,
      "Ð°ÑĪ": 3571,
      "ÑĤÐ¾ÑĢ": 3572,
      "ÑĢÐ°ÑĤÐ¸": 3573,
      "repar": 3574,
      "Ð»ÐµÐ½Ð½Ñı": 3575,
      "erwei": 3576,
      "ĠÐ²Ð°Ð¶Ð»Ð¸Ð²": 3577,
      "ingen": 3578,
      "Ġihre": 3579,
      "anzen": 3580,
      "ĠgeÃ¶ffnet": 3581,
      "ÑĨÑı": 3582,
      "ĠSei": 3583,
      "ĠwÃ¼r": 3584,
      "Ġwaschen": 3585,
      "Ġwissen": 3586,
      "Ã¼hr": 3587,
      "Ġhast": 3588,
      "ĠâĢĶ": 3589,
      "Ġnass": 3590,
      "Ġneben": 3591,
      "arum": 3592,
      "ĠHals": 3593,
      "elche": 3594,
      "ĠPat": 3595,
      "Ð¾Ð»Ð¾Ð³": 3596,
      "ÐºÑĤÑĥ": 3597,
      "otal": 3598,
      "ĠOktober": 3599,
      "ĠÐ²Ð¸ÑĢÐ°Ð·": 3600,
      "kaufe": 3601,
      "Ġleicht": 3602,
      "Ġunordentlich": 3603,
      "liere": 3604,
      "ÑİÐ²Ð°Ð½Ð½Ñı": 3605,
      "Ġinteressiere": 3606,
      "ĠÑģÐ¿Ð¾Ñĩ": 3607,
      "ĠÐºÐ¾Ð¼Ð°": 3608,
      "sucht": 3609,
      "lang": 3610,
      "ĠÐĴÐ¶Ð¸Ð²Ð°Ð½Ð½Ñı": 3611,
      "Ġtrinken": 3612,
      "Ġruhig": 3613,
      "Ð°ÐºÐºÑĥÐ·Ð°ÑĤÐ¸Ð²Ñĸ": 3614,
      "ĠÐ·Ð²ÐµÑĢÑĤÐ°": 3615,
      "Ġentschei": 3616,
      "ĠBÃ¤ckerei": 3617,
      "Ġbraun": 3618,
      "Ð½ÑıÑĤ": 3619,
      "klÃ¤r": 3620,
      "ÐµÐ»Ñİ": 3621,
      "schied": 3622,
      "ĠGeschirr": 3623,
      "Ġrosa": 3624,
      "Woher": 3625,
      "ĠMenschen": 3626,
      "ĠÐºÐ½Ð¸Ð³Ð¸": 3627,
      "llergie": 3628,
      "Ġrepariert": 3629,
      "ĠÑģÐºÐ»Ð°Ð´Ð°ÑĶÑĤÑĮÑģÑı": 3630,
      "sonders": 3631,
      "zeichnet": 3632,
      "Ġetwas": 3633,
      "ĠÐ²Ð»Ð°ÑģÐ½": 3634,
      "aschine": 3635,
      "ĠHeft": 3636,
      "ĠDienstag": 3637,
      "erweise": 3638,
      "ĠÑģÐ¿Ð¾ÑĩÐ°ÑĤÐºÑĥ": 3639,
      "12": 3640,
      "14": 3641,
      "Hund": 3642,
      "Seht": 3643,
      "TI": 3644,
      "aden": 3645,
      "kte": 3646,
      "Ġput": 3647,
      "ÐµÐ³": 3648,
      "ÑĤÐ¾Ð¼": 3649,
      "ÑĥÐ·": 3650,
      "ĠÐ´Ð°ÑĶÑĤÑĮÑģÑı": 3651,
      "ÑģÑĤÐ¸": 3652,
      "ĠÑĢÐ°Ð·": 3653,
      "Ġmild": 3654,
      "Ġmehr": 3655,
      "unken": 3656,
      "Ġgewor": 3657,
      "ĠÐ²Ð¸ÐºÐ¾ÑĢÐ¸ÑģÑĤÐ¾Ð²ÑĥÑİÑĤÑĮ": 3658,
      "ĠâĢľ": 3659,
      "ĠMai": 3660,
      "ĠTerm": 3661,
      "aten": 3662,
      "ĠPiz": 3663,
      "ĠÐºÑĢ": 3664,
      "ĠÐ¿Ð¾ÑĤÑĢÑĸÐ±Ð½Ð°": 3665,
      "ĠfÃ¼h": 3666,
      "Ġfertig": 3667,
      "ĠÑıÐºÑĥ": 3668,
      "ĠÑģÐºÐ°Ð·": 3669,
      "ĠÐ¿ÑĸÐ´ÑĢÑıÐ´Ð½Ð¸Ñħ": 3670,
      "ĠÐ±Ð¾": 3671,
      "ĠFreundes": 3672,
      "rag": 3673,
      "Ġlo": 3674,
      "Ġbeim": 3675,
      "ĠNummer": 3676,
      "iertel": 3677,
      "ĠViertel": 3678,
      "Ġunser": 3679,
      "ĠWasch": 3680,
      "ĠÐ»ÑĸÐº": 3681,
      "Ã¼len": 3682,
      "Ð¼Ð¾ÑĶ": 3683,
      "Ã¤chsten": 3684,
      "ĠHerd": 3685,
      "ĠÑĢÐ¾Ð·Ð´ÑĸÐ»ÑĮÐ½Ð¸Ñħ": 3686,
      "ĠpÃ¼nktlich": 3687,
      "ĠAusweis": 3688,
      "ĠPrÃ¤teritum": 3689,
      "Ġentschuld": 3690,
      "gewesen": 3691,
      "Ġlerne": 3692,
      "Ġbestell": 3693,
      "rÃ¤umen": 3694,
      "ĠÐ²ÑĸÐ´Ð¾ÐºÑĢÐµÐ¼Ð»ÑİÐ²Ð°Ð»ÑĮÐ½Ð¸Ð¼": 3695,
      "ervÃ¶s": 3696,
      "ĠberÃ¼hm": 3697,
      "Ġtreffen": 3698,
      "sammen": 3699,
      "Ġziehe": 3700,
      "ÑĶÐ´Ð½": 3701,
      "Ġkurz": 3702,
      "Ġbunt": 3703,
      "Ġtraurig": 3704,
      "ĠLieblings": 3705,
      "Ġwindig": 3706,
      "ĠRespekt": 3707,
      "ÐºÑĢÐ°ÑĹÐ½": 3708,
      "ĠÐ¿ÑĢÐ¸ÑĩÐ°ÑģÑĤ": 3709,
      "ĠPizza": 3710,
      ".)": 3711,
      "17": 3712,
      "30": 3713,
      "Kauf": 3714,
      "Komm": 3715,
      "bin": 3716,
      "fol": 3717,
      "kÃ¤lt": 3718,
      "lern": 3719,
      "lung": 3720,
      "Ġ6": 3721,
      "Ġall": 3722,
      "Ð½ÑĸÐ²": 3723,
      "ÑĥÑģÑĤ": 3724,
      "reche": 3725,
      "ĠÐ¿Ð¾Ð»": 3726,
      "inne": 3727,
      "standen": 3728,
      "ĠÐ½Ð°Ð²": 3729,
      "aupt": 3730,
      "bess": 3731,
      "Ð»ÑıÑĤÐ¸": 3732,
      "ĠÐ²Ð¸ÐºÐ¾ÑĢÐ¸ÑģÑĤÐ°ÑĤÐ¸": 3733,
      "ĠÐ¿ÑĢÐ°ÑĨ": 3734,
      "Ð½Ð¾Ñģ": 3735,
      "tem": 3736,
      "ĠFeiert": 3737,
      "ÐµÑĤÐ¸Ð²": 3738,
      "ĠÐ¿Ð¾ÑĤ": 3739,
      "ĠKÃ¤lte": 3740,
      "arz": 3741,
      "ĠHeute": 3742,
      "Ã¤u": 3743,
      "ĠÐºÑĸÐ»ÑĮ": 3744,
      "ĠÐ½ÐµÐ¾Ð·Ð½Ð°Ñĩ": 3745,
      "ĠÐ½ÐµÐ¼Ð°ÑĶ": 3746,
      "Ġfl": 3747,
      "Ġgl": 3748,
      "dest": 3749,
      "deutsch": 3750,
      "ĠSchrei": 3751,
      "Ð°Ð¶Ð°Ñİ": 3752,
      "ĠÐ·Ð°Ð¹Ð¼ÐµÐ½Ð½Ð¸ÐºÐ¸": 3753,
      "raucht": 3754,
      "reitet": 3755,
      "ĠÐ´Ð¾Ð´Ð°ÑĤÐ¸": 3756,
      "ĠÐĴÐ¸ÐºÐ¾ÑĢÐ¸ÑģÑĤÐ°Ð½Ð½Ñı": 3757,
      "ĠÐ¿ÑĢÐ¸ÑģÐ²ÑĸÐ¹Ð½Ð¾Ð³Ð¾": 3758,
      "ĠÐ²ÑĸÐ´Ð¿Ð¾Ð²ÑĸÐ´Ñĸ": 3759,
      "suche": 3760,
      "gerÃ¤umt": 3761,
      "iges": 3762,
      "ĠÐ¯Ðº": 3763,
      "ÑĥÐ´ÐµÐ½ÑĤ": 3764,
      "sprechen": 3765,
      "halb": 3766,
      "ĠJuni": 3767,
      "ĠNachbarn": 3768,
      "Ġwechs": 3769,
      "ÐµÐ»Ð¸Ðº": 3770,
      "ÐºÐ¾Ð²Ð¸Ð¹": 3771,
      "odal": 3772,
      "ĠÐ³ÐµÐ½ÐµÑĤÐ¸Ð²": 3773,
      "ĠÑĥÑĤÐ¾ÑĩÐ½ÐµÐ½Ð½Ñı": 3774,
      "Ġpriv": 3775,
      "ĠÐ¿Ð¾Ð²ÐµÑĢÑĤ": 3776,
      "ÑĥÑģÐºÐ°ÑĶÑĤÑĮÑģÑı": 3777,
      "wÃ¶l": 3778,
      "kÃ¤ltung": 3779,
      "Be": 3780,
      "Kon": 3781,
      "Letz": 3782,
      "Mach": 3783,
      "Teil": 3784,
      "fÃ¼r": 3785,
      "junkt": 3786,
      "muss": 3787,
      "mÃ¶glich": 3788,
      "runken": 3789,
      "uk": 3790,
      "woch": 3791,
      "zung": 3792,
      "ĨĴ": 3793,
      "Ð°ÑĤÑĮ": 3794,
      "enig": 3795,
      "enitiv": 3796,
      "inn": 3797,
      "interess": 3798,
      "ĠÐ½Ð¸Ð¼": 3799,
      "ÑĸÑĶÑĹ": 3800,
      "ÑĸÑĶÑİ": 3801,
      "ges": 3802,
      "unsch": 3803,
      "eiern": 3804,
      "Ġwollen": 3805,
      "ĠBal": 3806,
      "itten": 3807,
      "ĠnÃ¤chsten": 3808,
      "ĠKann": 3809,
      "ĠMeter": 3810,
      "Ġ('": 3811,
      "ĠPeter": 3812,
      "ĠÐºÐ¾ÑĢ": 3813,
      "ĠAllergie": 3814,
      "onnen": 3815,
      "ĠfrÃ¼hstÃ¼ck": 3816,
      "Ġfotograf": 3817,
      "Ġweiter": 3818,
      "ĠÑĦÑĸÐ»": 3819,
      "Ð¾Ð±Ñĸ": 3820,
      "irgend": 3821,
      "Ġgar": 3822,
      "Ġganz": 3823,
      "ĠÐĴÐ¸": 3824,
      "ĠÐĴÑĸÐ½": 3825,
      "ĠÐĴÐ¾Ð½Ð°": 3826,
      "uche": 3827,
      "Ġzufrieden": 3828,
      "Ġzusammen": 3829,
      "ĠStunden": 3830,
      "ĠRÃ¼cken": 3831,
      "Ġbeginnt": 3832,
      "Ġbesonders": 3833,
      "ĠNominativ": 3834,
      "ĠName": 3835,
      "renn": 3836,
      "Ġhelfen": 3837,
      "Ġdumm": 3838,
      "Ġange": 3839,
      "hnen": 3840,
      "immst": 3841,
      "ĠJul": 3842,
      "ĠÐ¿ÐµÑĢÑĪÐµ": 3843,
      "Ġunten": 3844,
      "isk": 3845,
      "ÐµÐ¼Ð¾": 3846,
      "lagen": 3847,
      "ĠErkÃ¤ltung": 3848,
      "ĠÐĴÐ¶Ð¸Ð²Ð°ÑĶÐ¼Ð¾": 3849,
      "ÑĥÑİÑĤÑĮÑģÑı": 3850,
      "Ġgeschrieben": 3851,
      "ĠÐ¿Ð¾ÑĤÑĢÐµÐ±ÑĥÑİÑĤÑĮ": 3852,
      "Schrei": 3853,
      "ĠMittwoch": 3854,
      "Ġfliegen": 3855,
      "Ġjetzt": 3856,
      "ĠDatei": 3857,
      "ĠÐ¢Ð¸": 3858,
      "ĠÐ¿Ð¸ÑĤÐ°Ð»ÑĮÐ½Ð¸Ñħ": 3859,
      "Ġrichtig": 3860,
      "Ġbenutze": 3861,
      "Ġschreibe": 3862,
      "ĠÐ²Ð²ÑĸÑĩÐ»Ð¸Ð²Ð¾Ð³Ð¾": 3863,
      "ĠÑģÐ¿Ð¾Ð»ÑĥÑĩÐ½Ð¸ÐºÐ°": 3864,
      "Ġselten": 3865,
      "Ġdunkel": 3866,
      "schlieÃŁen": 3867,
      "Vorgestern": 3868,
      "Ġbillig": 3869,
      "ĠÐ³ÑĢÐ¾ÑĪÑĸ": 3870,
      "Ġniedrig": 3871,
      "ĠÑģÑĤÑĢÑĥÐºÑĤÑĥ": 3872,
      "Ġregnerisch": 3873,
      "ĠTermin": 3874,
      "ĠÑģÐºÐ°Ð·Ð°ÑĤÐ¸": 3875,
      "ĠWaschm": 3876,
      "ĠÐ¿ÑĢÐ¸ÑĩÐ°ÑģÑĤÑıÐ¼": 3877,
      "odalverben": 3878,
      "junktiv": 3879,
      "irgends": 3880,
      "ĠJuli": 3881,
      "Genitiv": 3882,
      "MA": 3883,
      "Trin": 3884,
      "fragen": 3885,
      "fÃ¤hrt": 3886,
      "gan": 3887,
      "her": 3888,
      "icke": 3889,
      "ogen": 3890,
      "tragen": 3891,
      "vester": 3892,
      "wichtig": 3893,
      "Ġ4": 3894,
      "Ġc": 3895,
      "Ġen": 3896,
      "Ġat": 3897,
      "Ġ...": 3898,
      "ÑĸÑģ": 3899,
      "ÑģÐ¸ÑĤ": 3900,
      "Ġdeine": 3901,
      "Ġdarf": 3902,
      "ĠÐ´Ñĥ": 3903,
      "ĠÐ¿Ð¾Ð¼": 3904,
      "Ð¸ÐºÐ°": 3905,
      "stlich": 3906,
      "steht": 3907,
      "ÐºÐ¾": 3908,
      "ĠÐ·Ð»": 3909,
      "Ð²ÑĸÐ´": 3910,
      "Ð»ÑıÐ´": 3911,
      "ÐµÑĢÑģÐ¸ÑĤ": 3912,
      "eile": 3913,
      "ĠÑģÑĤÐ¾Ñģ": 3914,
      "ĠÑģÑĤÑĥÐ´ÐµÐ½ÑĤ": 3915,
      "ĠÐ¿ÑĢÐ¸Ð¹": 3916,
      "ĠSil": 3917,
      "ĠwÃ¤chst": 3918,
      "aufs": 3919,
      "Ã¼hlen": 3920,
      "ÐµÑĤÑĥ": 3921,
      "schein": 3922,
      "Ġnur": 3923,
      "ĠnervÃ¶s": 3924,
      "Ð±ÑĥÑĤ": 3925,
      "Ð½Ð¸ÑĤÐ¸": 3926,
      "Ġkaum": 3927,
      "Ġkocht": 3928,
      "Ġkenne": 3929,
      "elativ": 3930,
      "Ġ(-": 3931,
      "Ð¸Ð»Ð°": 3932,
      "legen": 3933,
      "ĠWann": 3934,
      "ĠWunsch": 3935,
      "ÑħÐ°Ð½Ð½Ñı": 3936,
      "Ġfest": 3937,
      "ĠlÃ¤uft": 3938,
      "ĠbegrÃ¼": 3939,
      "ĠbewÃ¶l": 3940,
      "amen": 3941,
      "ÑĦÐ¾ÑĢÐ¼": 3942,
      "ĠÐ¾Ð´Ð½": 3943,
      "Ġtoll": 3944,
      "Ġtotal": 3945,
      "ĠÐ¿ÑĢÐ¸Ð¹Ð¼ÐµÐ½Ð½Ð¸ÐºÐ¾Ð²Ð°": 3946,
      "ompar": 3947,
      "ÐºÐ°ÑĢ": 3948,
      "rub": 3949,
      "ĠÐ¿ÑĢÐ¾ÑħÐ°Ð½Ð½Ñı": 3950,
      "ĠÃ¼bermorgen": 3951,
      "liegen": 3952,
      "ĠÐ¿ÑĢÐ¸ÑģÐ²ÑĸÐ¹Ð½Ð¸Ð¼": 3953,
      "ĠspÃ¤t": 3954,
      "Ġschwach": 3955,
      "ĠgroÃŁen": 3956,
      "Ġgelaufen": 3957,
      "ienten": 3958,
      "Ð¾Ð²Ð°Ð½Ðµ": 3959,
      "Ð°Ð¹Ð±ÑĥÑĤ": 3960,
      "Ġpasst": 3961,
      "ĠÑĤÐ°ÐºÐ¾Ð¶": 3962,
      "ĠÐ²Ð¸ÐºÐ¾ÑĢÐ¸ÑģÑĤÐ°Ð½Ð½ÑıÐ¼": 3963,
      "ickt": 3964,
      "alsatz": 3965,
      "Ð°ÑĩÐ°ÑĶ": 3966,
      "Ġsauer": 3967,
      "ĠGebÃ¤u": 3968,
      "hÃ¶flich": 3969,
      "Ġdurstig": 3970,
      "Ġbringt": 3971,
      "ĠAdjekt": 3972,
      "Ġgeradeaus": 3973,
      "ĠÐĹÐ°Ð¿Ð¸ÑĤÐ°Ð½Ð½Ñı": 3974,
      "ĠÑĢÐµÑĦÐ»ÐµÐºÑģÐ¸Ð²Ð½Ð¸Ð¼": 3975,
      "Ġeck": 3976,
      "Ġsalzig": 3977,
      "cannen": 3978,
      "ĠgegenÃ¼ber": 3979,
      "ÑİÐ³ÑĥÑĶÑĤÑĮÑģÑı": 3980,
      "Ġwunderbar": 3981,
      "ĠÐ²ÑĩÐ¸ÑĤÐµÐ»Ñİ": 3982,
      "ĠÐ²ÑĸÐ´ÑģÑĥÑĤÐ½ÑĸÑģÑĤÑĮ": 3983,
      "ĠgÃ¼nstig": 3984,
      "gÃ¤nzen": 3985,
      "Ġnebenan": 3986,
      "ĠÑĢÐ°Ð·Ð¾Ð¼": 3987,
      "Ġgeworden": 3988,
      "ĠFeiertag": 3989,
      "ĠÐ¿Ð¾Ð²ÐµÑĢÑĤÐ°ÑĶÑĤÑĮÑģÑı": 3990,
      "ĠBalkon": 3991,
      "iskut": 3992,
      "ĠWaschmaschine": 3993,
      "ĠSilvester": 3994,
      "23": 3995,
      "29": 3996,
      "Geld": 3997,
      "br": 3998,
      "dern": 3999,
      "fahren": 4000,
      "fÃ¼ll": 4001,
      "gleich": 4002,
      "hm": 4003,
      "hin": 4004,
      "kÃ¶nnen": 4005,
      "men": 4006,
      "nehmt": 4007,
      "oten": 4008,
      "pen": 4009,
      "sei": 4010,
      "wischen": 4011,
      "âĹ": 4012,
      "Ġ9": 4013,
      "Ġrau": 4014,
      "ĠÃ¤n": 4015,
      "Ð½ÑĸÐ¼": 4016,
      "ÐµÐ¶": 4017,
      "ÑĸÑģÑĤ": 4018,
      "ÑıÑĤ": 4019,
      "Ð°ÑĦ": 4020,
      "Ð°Ð»Ð°": 4021,
      "Ð¸Ð·": 4022,
      "ÑĥÑĤÑĮ": 4023,
      "orn": 4024,
      "Ð¾Ð²ÑĸÐº": 4025,
      "ĠÐŁÐµÑĢÐµÐ´": 4026,
      "ĠÐ¿Ð»": 4027,
      "inge": 4028,
      "inate": 4029,
      "Ð¼Ð¾Ð²": 4030,
      "iel": 4031,
      "ÐºÐ¸Ð¹": 4032,
      "asen": 4033,
      "ĠÐ·Ð³": 4034,
      "gehe": 4035,
      "geht": 4036,
      "aubsau": 4037,
      "Ġsub": 4038,
      "ĠÐ¼Ð°Ð¹Ð±ÑĥÑĤ": 4039,
      "eiten": 4040,
      "Ġgem": 4041,
      "Ġgekommen": 4042,
      "ĠÐ¿ÑĢÐ¸ÐºÐ»Ð°Ð´": 4043,
      "ĠSe": 4044,
      "ĠÐ°Ð»Ðµ": 4045,
      "Ġwenig": 4046,
      "Ð»ÑĮÑĤ": 4047,
      "ĠÑĩÐ¾Ð¼Ñĥ": 4048,
      "ĠÑĥÐ½ÑĸÐ²": 4049,
      "ichten": 4050,
      "ĠÐ¿Ð¾Ñģ": 4051,
      "ĠTe": 4052,
      "ĠÐºÑĢÐ°": 4053,
      "ĠAl": 4054,
      "ĠGib": 4055,
      "ÃŁig": 4056,
      "Ġinform": 4057,
      "ĠÑıÐºÑīÐ¾": 4058,
      "Ġgie": 4059,
      "ĠÑģÐµÑĢ": 4060,
      "Ġvom": 4061,
      "ĠÐ±Ð°Ð³Ð°ÑĤ": 4062,
      "ĠÐ¿ÑĢÐ°Ð²Ð¸Ð»ÑĮÐ½Ð°": 4063,
      "ĠLand": 4064,
      "ĠÑĩÐ¾Ð»Ð¾Ð²ÑĸÐº": 4065,
      "ĠlÃ¶": 4066,
      "ĠÐ¾Ð±ÑģÑĤÐ°Ð²Ð¸Ð½Ð°": 4067,
      "Ġbelie": 4068,
      "ĠÐ·Ð°Ð¹Ð²": 4069,
      "Ġher": 4070,
      "Ġhell": 4071,
      "Ð²ÐµÑĢÐ´Ð¶": 4072,
      "Ã¼rfen": 4073,
      "ĠtrÃ¤": 4074,
      "ĠtÃ¤glich": 4075,
      "lause": 4076,
      "Ġstehen": 4077,
      "ĠÐ½Ð°Ð¿ÑĢÐ¸ÐºÐ»Ð°Ð´": 4078,
      "meinsam": 4079,
      "Ġabs": 4080,
      "Ġerholt": 4081,
      "ĠArtik": 4082,
      "Ð¾ÑĢÑıÐ´Ð¾Ðº": 4083,
      "ĠÐ·Ð¼ÑĸÐ½ÑİÐ²Ð°ÑĤÐ¸": 4084,
      "Ð¸ÑĤÑĤÑı": 4085,
      "Ġgesp": 4086,
      "Ġbleibt": 4087,
      "ĠÐ½ÐµÐ¿ÑĢÐ°Ð²Ð¸Ð»ÑĮÐ½Ðµ": 4088,
      "Ã¤ngt": 4089,
      "Ġrecht": 4090,
      "uper": 4091,
      "Ð¾Ð²Ð°Ð½Ð°": 4092,
      "ĠÐ²Ð¾Ð½Ð°": 4093,
      "ĠÐ³ÐµÐ½Ð¸ÑĤÐ¸Ð²Ð½Ð¸Ð¹": 4094,
      "ĠÑģÐ¾Ð±Ð°Ðº": 4095,
      "Ġkleine": 4096,
      "Ġ20": 4097,
      "ĠÑĪÐº": 4098,
      "Ġweg": 4099,
      "ĠÐ¼Ð¾Ð´Ð°Ð»ÑĮÐ½Ð¾Ð³Ð¾": 4100,
      "ĠÑĸÐ½ÑĦÐ¾ÑĢÐ¼": 4101,
      "eltsam": 4102,
      "Ġlangweilig": 4103,
      "ĠheiÃŁ": 4104,
      "ĠÐ¿Ð¸ÑĤÐ°Ð»ÑĮÐ½Ðµ": 4105,
      "Ġgebacken": 4106,
      "ĠâĨĴ": 4107,
      "ĠÐºÐ½Ð¸Ð³Ð°": 4108,
      "ĠPassiv": 4109,
      "Ġrund": 4110,
      "ordinate": 4111,
      "ĠÐ¿Ð¾Ð³Ð¾Ð´Ð¶": 4112,
      "ÑģÑĮÐºÐ¸Ð¹": 4113,
      "Einen": 4114,
      "Ġhinten": 4115,
      "ĠĠĠĠĠĠĠĠ": 4116,
      "ĠÐ·Ð½Ð°ÑĩÐµÐ½Ð½Ñı": 4117,
      "bringen": 4118,
      "ĠSchulter": 4119,
      "ĠÐ¿ÑĢÐ¸ÑģÑĥÐ´Ð¾Ðº": 4120,
      "ĠÐ°Ð²ÑĤÐ¾Ð¼": 4121,
      "ĠÐ²Ð¸ÑģÑĤÐ°ÑĩÐ°ÑĶ": 4122,
      "onatlich": 4123,
      "Ġschwierig": 4124,
      "ĠPatienten": 4125,
      "ĠÐ·Ð²ÐµÑĢÑĤÐ°Ð½Ð½Ñı": 4126,
      "lernen": 4127,
      "ĠÐ¿Ð¾ÑĤÑĸÐ¼": 4128,
      "Ġclause": 4129,
      "ĠÐ´ÑĥÐ¶Ðµ": 4130,
      "ĠÐ¾Ð´Ð½ÑĸÑĶÑĹ": 4131,
      "âĹı": 4132,
      "Ġsubordinate": 4133,
      "Ġrechts": 4134,
      "18": 4135,
      "19": 4136,
      "HÃ¶r": 4137,
      "Iss": 4138,
      "Je": 4139,
      "Lie": 4140,
      "bild": 4141,
      "dur": 4142,
      "fi": 4143,
      "hand": 4144,
      "iss": 4145,
      "lig": 4146,
      "lant": 4147,
      "na": 4148,
      "nah": 4149,
      "tre": 4150,
      "twor": 4151,
      "ww": 4152,
      "zi": 4153,
      "zten": 4154,
      "Ð¾ÑģÑĤ": 4155,
      "ÑĸÐ»Ðµ": 4156,
      "Ð»Ñĸ": 4157,
      "ĠÐ²ÑĸÑĢ": 4158,
      "ÑĩÐ°": 4159,
      "ĠÐŁÐ¾ÑĢÑıÐ´Ð¾Ðº": 4160,
      "ĠÐ´ÑĸÐ¹": 4161,
      "ĠÐ¿Ð¾ÑĢ": 4162,
      "Ġisst": 4163,
      "ĠÐ·Ð´": 4164,
      "ĠÐ½Ð¾Ð²": 4165,
      "Ġmiete": 4166,
      "Ġsonn": 4167,
      "ander": 4168,
      "ĠÐ¼ÑĥÐ·": 4169,
      "Ġgearbeitet": 4170,
      "ĠÐ¿ÑĢÐ¸ÑģÑĤ": 4171,
      "ĠÐ¿ÑĢÐ¾Ð´": 4172,
      "ĠÐ¾ÑĢ": 4173,
      "Ð¾Ð´Ð¸": 4174,
      "Ġwicht": 4175,
      "Ġwann": 4176,
      "ĠÐ²Ð¸ÐºÐ¾ÑĢÐ¸ÑģÑĤÐ¾Ð²ÑĥÑİÑĩÐ¸": 4177,
      "ĠÐ²Ð¸ÐºÐ¾ÑĢÐ¸ÑģÑĤÐ¾Ð²ÑĥÑİÑĤÑĮÑģÑı": 4178,
      "ĠFest": 4179,
      "ĠFolgen": 4180,
      "Ġeinmal": 4181,
      "gendw": 4182,
      "arn": 4183,
      "ĠHimm": 4184,
      "ĠÐºÐ¾Ð³Ð¾ÑģÑĮ": 4185,
      "ĠWort": 4186,
      "ĠWarum": 4187,
      "Ġfrage": 4188,
      "Ð¾Ð»Ð¸": 4189,
      "Ġschmeckt": 4190,
      "ÃŁlich": 4191,
      "zufrieden": 4192,
      "ĠÐ²ÐºÐ°Ð·ÑĥÑİÑĤÑĮ": 4193,
      "Ġgleich": 4194,
      "ĠÑģÐ¿ÑĢÑıÐ¼": 4195,
      "ĠÐ²Ð¶Ð¸Ð²Ð°ÑĶÐ¼Ð¾": 4196,
      "ĠÐ´ÑĢÑĥÐ³ÑĸÐ¹": 4197,
      "ĠÐ¿ÑĸÐ´Ð¼ÐµÑĤÑĥ": 4198,
      "ĠÐ½Ð°Ð¼": 4199,
      "ĠÐ³Ð°ÑĢ": 4200,
      "ĠÐ·Ð°Ð¹Ð¼ÐµÐ½Ð½Ð¸ÐºÑĥ": 4201,
      "Ġantwor": 4202,
      "ĠÐ¾ÑģÐ¾Ð±Ð¸ÑģÑĤ": 4203,
      "Ġtief": 4204,
      "ĠÐ°ÐºÑĥÐ·Ð°ÑĤÐ¸Ð²Ð½Ð¾Ð¼Ñĥ": 4205,
      "ĠÐ¿ÑĢÐ¸ÐºÐ¼ÐµÑĤÐ½Ð¸ÐºÐ¸": 4206,
      "Ð°Ð½ÑĤ": 4207,
      "ĠunmÃ¶glich": 4208,
      "ĠunhÃ¶flich": 4209,
      "ĠÐ·Ð¼ÑĸÐ½ÐµÐ½Ð¸Ð¹": 4210,
      "ĠÐ¾Ð·Ð½Ð°ÑĩÐµÐ½Ð½Ñı": 4211,
      "ĠÐ¾Ð¿ÑĥÑģÐºÐ°ÑĶÑĤÑĮÑģÑı": 4212,
      "ult": 4213,
      "Ġwarte": 4214,
      "Ġwarum": 4215,
      "putzt": 4216,
      "ĠÑģÑĤÐ°Ð²Ð¸ÑĤÑĮ": 4217,
      "ĠÐĴÐ¶Ð¸Ð²Ð°Ñİ": 4218,
      "Ã¼ttert": 4219,
      "ÑīÐµÐ½Ð½Ñı": 4220,
      "finden": 4221,
      "ĠÑĩÐ¸ÑģÐ»Ñĥ": 4222,
      "ĠÐ¼Ð¾Ð¶Ðµ": 4223,
      "ĠÐ¼Ð¾Ð¶Ð½Ð°": 4224,
      "Ġkochen": 4225,
      "ĠÐ·Ð°Ð¼ÑĸÐ½": 4226,
      "ĠÐ´Ð°ÑĤÐ¸Ð²Ñĸ": 4227,
      "Ã¤chstes": 4228,
      "Ġaufgemacht": 4229,
      "schieden": 4230,
      "ĠÐĿÐ°": 4231,
      "Ġreparieren": 4232,
      "Ġwerde": 4233,
      "stellt": 4234,
      "ĠÐ³ÐµÐ½itiv": 4235,
      "Ġkontrol": 4236,
      "zÃ¤hlt": 4237,
      "gehÃ¶rt": 4238,
      "Ġklettern": 4239,
      "ĠÐ³Ð¾Ð²Ð¾ÑĢÑıÑĩÐ¾Ð¼Ñĥ": 4240,
      "ĠÃ¼be": 4241,
      "ĠBilden": 4242,
      "Ġinternational": 4243,
      "Ġlocker": 4244,
      "Ġprivat": 4245,
      "ĠÑĥÐ½ÑĸÐ²ÐµÑĢÑģÐ¸ÑĤ": 4246,
      "ĠArtikel": 4247,
      "Ġgesprochen": 4248,
      "ĠÑĸÐ½ÑĦÐ¾ÑĢÐ¼Ð°ÑĨÑĸ": 4249,
      "gendwo": 4250,
      "ĠHimmel": 4251,
      "ĠÐĴÐ¶Ð¸Ð²Ð°ÑİÑĩÐ¸": 4252,
      "25": 4253,
      "Buch": 4254,
      "Dat": 4255,
      "aren": 4256,
      "bauen": 4257,
      "dir": 4258,
      "eb": 4259,
      "eiere": 4260,
      "nÃ¶t": 4261,
      "rund": 4262,
      "rgendwo": 4263,
      "sel": 4264,
      "sehe": 4265,
      "udie": 4266,
      "wÃ¤": 4267,
      "xt": 4268,
      "Ðľ": 4269,
      "Ġal": 4270,
      "Ġ................................": 4271,
      "Ð½ÑĶ": 4272,
      "Ð½Ð¾Ðº": 4273,
      "Ð¾ÑĤÐ¸": 4274,
      "ÐµÐ½Ð°": 4275,
      "ÑĸÑĤÐ°": 4276,
      "Ð¸ÑĨ": 4277,
      "ÑĢÐµ": 4278,
      "ÑĢÐ¸": 4279,
      "ÑĥÐ»Ñı": 4280,
      "ÑĥÑĪ": 4281,
      "recklich": 4282,
      "ĠÐ²ÐµÑĩ": 4283,
      "ĠÐ´Ð²Ð¾": 4284,
      "Ð¸ÐºÐ¸": 4285,
      "innen": 4286,
      "Ð¼Ñĸ": 4287,
      "ĠÐ·Ð±": 4288,
      "ĠÐ½Ñĸ": 4289,
      "ĠÐ½ÑĮÐ¾Ð³Ð¾": 4290,
      "Ġmonatlich": 4291,
      "Ġseltsam": 4292,
      "Ð²ÑĸÐ·": 4293,
      "ĠÐ¼Ð°Ð³": 4294,
      "eiden": 4295,
      "Ġgeschw": 4296,
      "Ġgemeinsam": 4297,
      "Ð½Ð¾ÑĹ": 4298,
      "ĠSpa": 4299,
      "ĠÐ²Ð¸ÐºÐ¾ÑĢÐ¸ÑģÑĤÐ¾Ð²ÑĥÑĶ": 4300,
      "ĠÐ½Ð°ÑĨÑĸ": 4301,
      "ÐºÑĥÐ²": 4302,
      "ĠÐ·Ð°Ð±": 4303,
      "schÃ¶": 4304,
      "Ġnah": 4305,
      "Ġnehmen": 4306,
      "Ð±ÑĥÐ´": 4307,
      "ĠMund": 4308,
      "ĠkÃ¼n": 4309,
      "atik": 4310,
      "ĠÐºÐ²": 4311,
      "ĠÐ½ÐµÐ·": 4312,
      "Ġflei": 4313,
      "ĠfÃ¼t": 4314,
      "Ġfolgen": 4315,
      "Ġfeiere": 4316,
      "Ð¾Ð»ÑĮ": 4317,
      "ĠGer": 4318,
      "ĠÑıÐºÑĸÑģÑĤÑĮ": 4319,
      "ĠÐ²ÐºÐ°Ð·ÑĥÐ²Ð°ÑĤÐ¸": 4320,
      "ĠLicht": 4321,
      "ĠLinks": 4322,
      "ivpronomen": 4323,
      "ische": 4324,
      "igt": 4325,
      "ĠRelativ": 4326,
      "Ġleh": 4327,
      "ĠÐ³Ð¾ÑĤ": 4328,
      "ĠÐ°ÐºÑĥÐ·Ð°ÑĤÐ¸Ð²Ñĥ": 4329,
      "ierte": 4330,
      "ĠÐ½ÑĸÐ¼ÐµÑĨÑĮÐºÐ¾ÑĹ": 4331,
      "andern": 4332,
      "ÑıÐ¼Ð¸": 4333,
      "Ġstell": 4334,
      "Ð°Ð¼Ð°": 4335,
      "usst": 4336,
      "ĠÐ¿ÐµÑĢÑĦÐµÐºÑĤÐ½Ð¾Ð³Ð¾": 4337,
      "Ġwirklich": 4338,
      "Ġverkauft": 4339,
      "liegt": 4340,
      "ĠÑģÐ»Ð¾Ð²Ñĸ": 4341,
      "ĠÐ·Ð°Ñģ": 4342,
      "ahrschein": 4343,
      "ĠErgÃ¤nzen": 4344,
      "ĠReflex": 4345,
      "Ġgesagt": 4346,
      "Ġinteressan": 4347,
      "ĠÐ¾ÑģÐ½Ð¾Ð²Ð½Ðµ": 4348,
      "Ġreserv": 4349,
      "Ã¼nscht": 4350,
      "ĠÑĤÐµÐ¿ÐµÑĢÑĸÑĪÐ½ÑĮÐ¾Ð³Ð¾": 4351,
      "ima": 4352,
      "Ġvorbe": 4353,
      "Ð°Ð¹Ð¼ÐµÐ½Ð½Ð¸Ðº": 4354,
      "schwimmen": 4355,
      "Ġpro": 4356,
      "ĠNeben": 4357,
      "Ġ10": 4358,
      "ĠÐĹÐ°Ð¹Ð¼ÐµÐ½Ð½Ð¸Ðº": 4359,
      "ĠFotogra": 4360,
      "ehlen": 4361,
      "ĠUnterschied": 4362,
      "ĠhÃ¶flich": 4363,
      "Ð¾Ð½Ð°Ð»ÑĮ": 4364,
      "ĠGeschÃ¤ft": 4365,
      "ĠÐºÑĥÐ´Ð¸": 4366,
      "Ġorgan": 4367,
      "schule": 4368,
      "ĠÃ¶ffnet": 4369,
      "ĠÃ¶ffentlich": 4370,
      "spielt": 4371,
      "ĠÐ¿ÑĢÐ¸ÑģÐ»ÑĸÐ²Ð½Ð¸Ðº": 4372,
      "Ġbenutzen": 4373,
      "ĠÑĢÐµÑĦÐ»ÐµÐºÑģÐ¸Ð²Ð½Ð¾Ð³Ð¾": 4374,
      "ĠÐ²ÑĸÐ´Ð¾ÐºÑĢÐµÐ¼Ð»ÑİÐ²Ð°Ð»ÑĮÐ½Ð¸Ñħ": 4375,
      "ĠÑĥÑĤÐ¾ÑĩÐ½Ð¸ÑĤÐ¸": 4376,
      "ĠÐ¿ÐµÐ²Ð½Ð¾Ð³Ð¾": 4377,
      "Ġdanke": 4378,
      "ĠÑħÐ°ÑĢÐ°ÐºÑĤÐµÑĢÐ¸ÑģÑĤ": 4379,
      "ĠÐ¿ÑĢÐ¾Ð¿Ð¾Ð·Ð¸": 4380,
      "Ġbeschwere": 4381,
      "Ġmutig": 4382,
      "Ġnette": 4383,
      "ĠÑģÐºÐ¾ÑĢÐ¾ÑĩÐµÐ½Ð½Ñı": 4384,
      "klÃ¤rt": 4385,
      "Ġputze": 4386,
      "Ġflach": 4387,
      "Ġglatt": 4388,
      "rennba": 4389,
      "ĠbewÃ¶lkt": 4390,
      "ĠGebÃ¤ude": 4391,
      "ĠÐ°Ð²ÑĤÐ¾Ð¼Ð¾Ð±": 4392,
      "bildung": 4393,
      "fix": 4394,
      "ĠÐ¿ÑĢÐ¸ÑģÑĤÐ°Ð²": 4395,
      "ĠÑģÐ¿ÑĢÑıÐ¼Ð¾Ð²Ð°Ð½Ð°": 4396,
      "nÃ¶tig": 4397,
      "Ġ................................................................": 4398,
      "ĠÐ´Ð²Ð¾Ñħ": 4399,
      "ĠÐ½Ð°ÑĨÑĸÐ¾Ð½Ð°Ð»ÑĮ": 4400,
      "ahrscheinlich": 4401,
      "ĠFotografen": 4402,
      ",-": 4403,
      "24": 4404,
      "Auf": 4405,
      "Meine": 4406,
      "Zie": 4407,
      "brau": 4408,
      "eren": 4409,
      "gation": 4410,
      "klet": 4411,
      "mÃ¤": 4412,
      "mlich": 4413,
      "mpf": 4414,
      "oder": 4415,
      "pro": 4416,
      "teil": 4417,
      "ure": 4418,
      "ustig": 4419,
      "wollen": 4420,
      "ztes": 4421,
      "zogen": 4422,
      "Ð¾Ñħ": 4423,
      "Ð¾Ð½Ñĥ": 4424,
      "Ð°Ð½Ñĸ": 4425,
      "ÑĢÐ°Ð´": 4426,
      "Ð½Ð½Ð¸Ð¹": 4427,
      "ĠÐ²Ð¿": 4428,
      "ĠÐ²ÐµÐ»Ð¸Ðº": 4429,
      "Ð¾Ð²Ð¸": 4430,
      "Ð¾Ð²ÑĥÐ²Ð°ÑĤÐ¸": 4431,
      "ĠÐ´ÑĢÑĥ": 4432,
      "iegen": 4433,
      "ÑģÐ»Ñĥ": 4434,
      "Ð¾ÑĢÐ¾Ð¶": 4435,
      "einem": 4436,
      "gegangen": 4437,
      "Ġmal": 4438,
      "beim": 4439,
      "besuchen": 4440,
      "ĠÐ¼ÐµÑĤ": 4441,
      "Ð´Ñİ": 4442,
      "ÐµÑĢÐ°": 4443,
      "Ð°Ð²Ñĥ": 4444,
      "ĠÐ¿ÑĢÐ¸Ð±": 4445,
      "ĠÐ¾Ñĩ": 4446,
      "ĠSte": 4447,
      "Ð¸Ð²Ð°ÑĤÐ¸": 4448,
      "Ð¾Ð´Ð¸ÑĤÐ¸": 4449,
      "Ġhar": 4450,
      "ĠFrei": 4451,
      "ĠFeb": 4452,
      "Ð¾Ð³Ð¾Ð´": 4453,
      "Ã¶ren": 4454,
      "Ġnirgends": 4455,
      "ĠKomm": 4456,
      "ĠDok": 4457,
      "ĠHaupt": 4458,
      "ĠHasen": 4459,
      "ĠTrin": 4460,
      "ĠÐ¿Ð¾ÑĤÑĢÑĸÐ±Ð½Ðµ": 4461,
      "legt": 4462,
      "Ġaufre": 4463,
      "Ġfahre": 4464,
      "Ġba": 4465,
      "Ġbast": 4466,
      "Ġbreit": 4467,
      "Ġschrecklich": 4468,
      "ĠÑĦÐ¾ÑĢÐ¼ÑĥÐ²Ð°Ð½Ð½Ñı": 4469,
      "uten": 4470,
      "cknen": 4471,
      "Ġgrau": 4472,
      "Ã¶chentlich": 4473,
      "ĠLeben": 4474,
      "ĠÑĸÐ¼ÐµÐ½Ð½Ð¸ÐºÑĥ": 4475,
      "amil": 4476,
      "ĠÐ²Ð¸Ð½ÑıÑĤ": 4477,
      "imme": 4478,
      "ÐºÐ¾Ð¼ÐµÐ½Ð´": 4479,
      "ruar": 4480,
      "ĠÑĸÐ½Ð²ÐµÑĢÑģÑĸÑİ": 4481,
      "ĠUm": 4482,
      "Ġlet": 4483,
      "Ġunzufrieden": 4484,
      "ĠÐ·Ð°Ð¿Ð¸ÑĤÐ°Ð»ÑĮ": 4485,
      "geladen": 4486,
      "pricht": 4487,
      "ĠÐ·Ð°ÑĢ": 4488,
      "ĠÐ´Ð¾Ð´Ð°ÑĤÐºÐ¾Ð²": 4489,
      "Ð¸Ð¿Ð¾Ð¼": 4490,
      "isst": 4491,
      "Ġkomme": 4492,
      "ĠÐ²ÑĸÐ´Ð¿Ð¾Ð²ÑĸÐ´Ð´Ñİ": 4493,
      "ahle": 4494,
      "entschei": 4495,
      "Ġbleiben": 4496,
      "Ġgefallen": 4497,
      "Ġaussteigen": 4498,
      "ĠspÃ¼len": 4499,
      "Ġrech": 4500,
      "stens": 4501,
      "ĠÑģÐµÑĢÐµÐ´Ð½ÑĮÐ¾Ð¼Ñĥ": 4502,
      "Ð°Ð¹ÑĤÐµ": 4503,
      "ĠÑħÑĤÐ¾": 4504,
      "ingap": 4505,
      "ĠFernsehen": 4506,
      "ÑĢÐ°Ñħ": 4507,
      "ĠPrÃ¤fix": 4508,
      "ĠwÃ¤re": 4509,
      "kannt": 4510,
      "Ãľber": 4511,
      "ĠhÃ¶ren": 4512,
      "zahlt": 4513,
      "ĠheiÃŁt": 4514,
      "ĠWeg": 4515,
      "troffen": 4516,
      "Ġroten": 4517,
      "lassen": 4518,
      "rÃ¤ume": 4519,
      "ĠÑĸÐ½ÑĦÑĸÐ½ÑĸÑĤÐ¸Ð²Ð¾Ð¼": 4520,
      "stellen": 4521,
      "Ġgetan": 4522,
      "ĠÐ½ÐµÐ¾Ð±ÑħÑĸÐ´Ð½Ð¾": 4523,
      "ĠÐ¿ÑĢÐ¸ÑĤÑıÐ¶Ð°Ð»ÑĮÐ½Ð¸Ð¹": 4524,
      "Ġverwenden": 4525,
      "Ġdanach": 4526,
      "Unter": 4527,
      "ĠÑĤÐµÐ»ÐµÑĦ": 4528,
      "ĠÐ»ÑİÐ±Ð»Ñİ": 4529,
      "Manchmal": 4530,
      "Ġfrostig": 4531,
      "ĠnÃ¤chste": 4532,
      "Ð°ÐºÑĥÐ·Ð°ÑĤÐ¸Ð²": 4533,
      "dire": 4534,
      "regnet": 4535,
      "Ġbisschen": 4536,
      "Ġschmutzig": 4537,
      "ĠÐºÑĸÐ»ÑĮÐº": 4538,
      "ĠÑģÑĤÐ¾ÑģÑĥÑĶÑĤÑĮÑģÑı": 4539,
      "ĠÐ·Ð°Ð¼ÑĸÐ½Ð¸ÑĤÐ¸": 4540,
      "ĠÐ¼Ð°Ð³Ð°Ð·": 4541,
      "Ġgeschwommen": 4542,
      "ĠkÃ¼nstlich": 4543,
      "ĠFebruar": 4544,
      "ĠDokum": 4545,
      "').": 4546,
      "20": 4547,
      "60": 4548,
      "BÃ¼": 4549,
      "ER": 4550,
      "PrÃ¤": 4551,
      "Ste": 4552,
      "Um": 4553,
      "co": 4554,
      "drÃ¼": 4555,
      "eutsch": 4556,
      "fangen": 4557,
      "go": 4558,
      "hle": 4559,
      "hren": 4560,
      "hoch": 4561,
      "hÃ¤lt": 4562,
      "met": 4563,
      "nest": 4564,
      "pft": 4565,
      "ugen": 4566,
      "Ġrei": 4567,
      "ĠÐĨ": 4568,
      "ÑĥÑĤÐ¸": 4569,
      "org": 4570,
      "Ġdann": 4571,
      "Ġdeinen": 4572,
      "ĠÐ²Ð¸Ð±": 4573,
      "ĠÐ´Ð¸Ð²": 4574,
      "ĠÐ¿Ð¾Ð¿": 4575,
      "ĠÐ¿Ð°ÑĢ": 4576,
      "stigen": 4577,
      "stehe": 4578,
      "Ð¼Ð¸": 4579,
      "Ð¼Ð°": 4580,
      "gest": 4581,
      "gemacht": 4582,
      "gekocht": 4583,
      "ÑĸÐ´Ð¾Ð¼": 4584,
      "ĠInfinitiv": 4585,
      "Ġseit": 4586,
      "Ġsamm": 4587,
      "ĠÐ¼Ð¾ÑĢ": 4588,
      "ĠÐ¼ÐµÐ½Ðµ": 4589,
      "ÐµÑĢÐµÐ·": 4590,
      "eige": 4591,
      "Ġgep": 4592,
      "Ġgeputzt": 4593,
      "Ġgetroffen": 4594,
      "ĠÐ¿ÑĢÐ¾Ð±": 4595,
      "ĠSpr": 4596,
      "ĠSeht": 4597,
      "ĠÐ½Ð°ÑıÐ²": 4598,
      "ehle": 4599,
      "ĠÑĩÐ¸Ð¼Ð¾ÑģÑĮ": 4600,
      "Ã¶scht": 4601,
      "Ã¶ll": 4602,
      "ĠÐ·Ð°Ð³": 4603,
      "itzen": 4604,
      "ĠKunden": 4605,
      "ĠMach": 4606,
      "art": 4607,
      "arben": 4608,
      "ĠHut": 4609,
      "ĠTier": 4610,
      "ĠÐºÐ»": 4611,
      "learn": 4612,
      "Ġ->": 4613,
      "Ġfragen": 4614,
      "ĠGlÃ¼ck": 4615,
      "Ġweit": 4616,
      "ĠÑĦÑĸÐ»ÑĮ": 4617,
      "utzt": 4618,
      "ĠÑĸÐ¼ÐµÐ½Ñĸ": 4619,
      "ĠÑıÐºÑĸÐ¹": 4620,
      "irma": 4621,
      "ĠÑĤÐ¾Ð³Ð¾": 4622,
      "ĠÑģÐ¾Ð½": 4623,
      "ĠÑģÐ²ÑĸÑĤ": 4624,
      "Ġzumachen": 4625,
      "ĠLeute": 4626,
      "urcht": 4627,
      "ktiv": 4628,
      "ragt": 4629,
      "Ġlustig": 4630,
      "Ġbekomm": 4631,
      "Ġbezahlen": 4632,
      "ĠÐ³Ð¾ÑĢ": 4633,
      "rennen": 4634,
      "ĠÐ²ÑĸÐ´Ð¾ÐºÑĢÐµÐ¼": 4635,
      "ĠÐ²ÑĸÐ´ÐºÑĢ": 4636,
      "ĠÐ¾Ð´Ð¸Ð½": 4637,
      "hne": 4638,
      "ĠÑĸÐ½ÑĤÐµÑĢ": 4639,
      "fft": 4640,
      "ĠÐ¾ÑģÐ¾Ð±Ð°": 4641,
      "ĠÐ¾ÑģÐ¾Ð±Ð¾Ð²": 4642,
      "ĠÐ¾ÑģÐ¾Ð±Ð¾Ñİ": 4643,
      "ĠHundes": 4644,
      "ĠÐ²Ð¸ÑģÐ»Ð¾Ð²": 4645,
      "ĠÐ·Ð½Ð°ÑħÑĸÐ´Ð½Ð¸Ð¹": 4646,
      "ĠÐ¡Ðµ": 4647,
      "Ð¾Ð·ÑĥÐ¼": 4648,
      "pflan": 4649,
      "ĠÐ¿Ð¾ÐºÐ°Ð·Ñĥ": 4650,
      "ĠunnÃ¶tig": 4651,
      "ĠÐ±ÑĥÐ´Ð¸": 4652,
      "Ġverb": 4653,
      "Ġverbess": 4654,
      "ĠÐľÐ¸": 4655,
      "ĠÐ´Ð¾Ð´Ð°ÑĤÐ¾Ðº": 4656,
      "Ġsieht": 4657,
      "Ġliest": 4658,
      "Ġliegen": 4659,
      "Ð°ÑĢÑĸ": 4660,
      "abschie": 4661,
      "Ġspreche": 4662,
      "ĠÐ½ÐµÐ¿ÑĢÐ°Ð²Ð¸Ð»ÑĮÐ½Ð°": 4663,
      "Ġschwarz": 4664,
      "Ġzwischen": 4665,
      "ĠÐ²Ð¸ÐºÐ¾Ð½Ð°": 4666,
      "findet": 4667,
      "merzen": 4668,
      "mack": 4669,
      "ÑĥÑĤÑĤÑı": 4670,
      "ĠÑĤÑĢÐµÑĤÑĮÐ¾Ð¼Ñĥ": 4671,
      "Ġ18": 4672,
      "gstlich": 4673,
      "ĠKollegen": 4674,
      "uerst": 4675,
      "ĠÐ´Ð°ÑĤÐ¸Ð²Ð½Ð¾Ð³Ð¾": 4676,
      "ĠPrÃ¤position": 4677,
      "Ġsitzen": 4678,
      "ĠPflanzen": 4679,
      "endungen": 4680,
      "Ġbestelle": 4681,
      "ĠÐ²Ð²Ð°Ð¶Ð°Ñİ": 4682,
      "ĠGeschmack": 4683,
      "ostet": 4684,
      "ĠhÃ¤ssliche": 4685,
      "Ġzweimal": 4686,
      "Ġwieder": 4687,
      "Ġgetrunken": 4688,
      "Ð°Ð±ÐµÐ»ÑĮ": 4689,
      "ĠÑĢÐ¾Ð±Ð¾Ñĩ": 4690,
      "wegen": 4691,
      "Ġverwendet": 4692,
      "Ġausgezeichnet": 4693,
      "ĠÐ·Ð½Ð°ÑĩÐµÐ½Ð½Ñĸ": 4694,
      "ĠÑĤÐµÐ»ÐµÐ²ÑĸÐ·": 4695,
      "ĠdÃ¼nn": 4696,
      "ĠÑħÐ°ÑĢÐ°ÐºÑĤÐµÑĢÐ½Ð¸Ð¼": 4697,
      "schlag": 4698,
      "Ġrennen": 4699,
      "Ġschlafen": 4700,
      "ĠÐ¿Ð°ÑĢÑĤÐ¸ÑĨ": 4701,
      "Ð¾Ð»Ð¾Ð³ÑĸÑĹ": 4702,
      "ĠÐ²Ð»Ð°ÑģÐ½ÑĸÑģÑĤÑĮ": 4703,
      "Ġentschuldige": 4704,
      "Ġbestellen": 4705,
      "ĠÐ½Ð°Ð²Ñĩ": 4706,
      "Ð½Ð¾ÑģÐ¸ÑĤÐ¸": 4707,
      "ĠÐ½ÐµÐ¾Ð·Ð½Ð°ÑĩÐµÐ½Ð¸Ð¹": 4708,
      "innern": 4709,
      "schlieÃŁend": 4710,
      "ĠÑģÑĤÑĢÑĥÐºÑĤÑĥÑĢÑĥ": 4711,
      "Ġeckig": 4712,
      "fÃ¼llen": 4713,
      "ĠÃ¤ngstlich": 4714,
      "ĠÑĩÐ¾Ð¼ÑĥÑģÑĮ": 4715,
      "Ġbeliebt": 4716,
      "ĠÐ·Ð¼ÑĸÐ½ÑİÐ²Ð°ÑĤÐ¸ÑģÑı": 4717,
      "Ġsonnig": 4718,
      "ĠÐ³ÐµÐ½itive": 4719,
      "ĠSpaÃŁ": 4720,
      "schÃ¶pft": 4721,
      "Ġorganisch": 4722,
      "ĠÑħÐ°ÑĢÐ°ÐºÑĤÐµÑĢÐ¸ÑģÑĤÐ¸ÐºÑĥ": 4723,
      "ĠÐ¼Ð°Ð³Ð°Ð·Ð¸Ð½": 4724,
      "Ã¶llig": 4725,
      "26": 4726,
      "27": 4727,
      "28": 4728,
      "Ar": 4729,
      "Aus": 4730,
      "Br": 4731,
      "CH": 4732,
      "Keinen": 4733,
      "Pl": 4734,
      "Sp": 4735,
      "TE": 4736,
      "Wei": 4737,
      "Zeit": 4738,
      "Zuerst": 4739,
      "are": 4740,
      "cc": 4741,
      "fr": 4742,
      "funktioniert": 4743,
      "gar": 4744,
      "glau": 4745,
      "hÃ¶rt": 4746,
      "ire": 4747,
      "ient": 4748,
      "keiten": 4749,
      "man": 4750,
      "nap": 4751,
      "oss": 4752,
      "pass": 4753,
      "ptem": 4754,
      "vest": 4755,
      "wo": 4756,
      "ym": 4757,
      "zin": 4758,
      "zip": 4759,
      "zahle": 4760,
      "Ġ.": 4761,
      "ĠrÃ¼h": 4762,
      "Ġek": 4763,
      "ĠÐł": 4764,
      "Ð¾ÑĤÐ°": 4765,
      "ÐµÑģÐ»": 4766,
      "ÐµÑĦ": 4767,
      "ÑıÐº": 4768,
      "ÑıÐ³": 4769,
      "Ð°Ð½Ð½": 4770,
      "ÑĢÐ¾": 4771,
      "ÑĢÑģ": 4772,
      "ÑĥÐ»ÑĮÑĤ": 4773,
      "Ð½Ð½Ð¾Ð¼Ñĥ": 4774,
      "Ġdru": 4775,
      "Ġdick": 4776,
      "Ġdiskut": 4777,
      "Ð¾Ð²Ð¾ÑĢ": 4778,
      "ĠÐ´Ð°ÑİÑĤÑĮ": 4779,
      "ĠÐ´Ð¸ÑĢ": 4780,
      "ÑģÐ½Ð¸Ð¹": 4781,
      "ÑģÑĤÐ²Ð¾": 4782,
      "ÐºÑĸÐ²": 4783,
      "ĠÑĢÑĸÐ·": 4784,
      "ĠÑĢÐ¾Ð»ÑĮ": 4785,
      "Ġihm": 4786,
      "geord": 4787,
      "aue": 4788,
      "ÑĸÐ½ÑĮ": 4789,
      "ĠÐ£ÐºÑĢÐ°ÑĹÐ½": 4790,
      "Ġmei": 4791,
      "best": 4792,
      "Ġsage": 4793,
      "Ġsuper": 4794,
      "Ð°ÑĤÑĥ": 4795,
      "Ð°ÑĤÐ¾Ðº": 4796,
      "icher": 4797,
      "Ð²Ð¾Ñĩ": 4798,
      "anze": 4799,
      "ÐµÑĢÑĤ": 4800,
      "hast": 4801,
      "eier": 4802,
      "Ġgere": 4803,
      "ĠÐ¿ÑĢÐ¾Ð²": 4804,
      "ĠÐ¿ÑĢÐ¸Ð²": 4805,
      "ÑĨÑİ": 4806,
      "ĠÐ°Ð¿": 4807,
      "Ð¾Ð´Ð°": 4808,
      "Ġweht": 4809,
      "Ġwandern": 4810,
      "ĠÐ½Ð°ÑĢ": 4811,
      "ĠFarben": 4812,
      "ĠFirma": 4813,
      "Ð¿Ð»": 4814,
      "ĠBau": 4815,
      "ÐºÑĥÐ¿": 4816,
      "Ð°ÑĤÐ¸Ñĩ": 4817,
      "itter": 4818,
      "Ġnominativ": 4819,
      "Ð±Ð»": 4820,
      "ĠModalverben": 4821,
      "ĠÑīÐµ": 4822,
      "ĠHa": 4823,
      "ĠHil": 4824,
      "achst": 4825,
      "elch": 4826,
      "elma": 4827,
      "ĠWelche": 4828,
      "ÑħÐ°ÑĤÐ¸": 4829,
      "Ð½ÐµÐ½Ð°": 4830,
      "denten": 4831,
      "Ġfurcht": 4832,
      "Ð¾Ð»Ð¾Ð´": 4833,
      "Ġbauen": 4834,
      "ĠÐ¿ÐµÑĢÐµÐ¼": 4835,
      "ÑĪÑĤ": 4836,
      "ĠÐ¿ÑĸÐ´ÐºÑĢ": 4837,
      "ĠÑģÐ¿ÑĢ": 4838,
      "ĠÑģÑĦÐ¾ÑĢÐ¼": 4839,
      "ĠÐ±Ð°Ð½": 4840,
      "ĠÐ±Ð°Ñĩ": 4841,
      "ildet": 4842,
      "ĠÐ·Ð°ÐºÑĢ": 4843,
      "ĠÑģÑĤÐ¾ÑıÐ»Ð¾": 4844,
      "Ġlange": 4845,
      "Ġbede": 4846,
      "ĠÐ²ÑĸÐ´Ð¾ÐºÑĢÐµÐ¼Ð»": 4847,
      "olgt": 4848,
      "piere": 4849,
      "Ġtragen": 4850,
      "Ġteile": 4851,
      "ĠÐ¼ÑĸÑģÑĨÐµÐ¼": 4852,
      "ĠÐ¼ÑĸÑģÑĨÑıÐ¼Ð¸": 4853,
      "ÑĸÐ»ÑĮÑĪ": 4854,
      "ĠÐ½ÐµÐ²Ð¸Ð·Ð½Ð°ÑĩÐµÐ½Ð¸Ñħ": 4855,
      "ĠÐ¿ÑĢÐ¾ÑģÑĤ": 4856,
      "Ġunse": 4857,
      "Ġerinne": 4858,
      "ĠerklÃ¤rt": 4859,
      "ĠÐ±ÑĥÐ»Ð¾": 4860,
      "ĠÐ´Ð¾Ð´Ð°Ð²Ð°ÑĤÐ¸": 4861,
      "gelernt": 4862,
      "ĠSieh": 4863,
      "ĠArztes": 4864,
      "ĠâĢ¦:": 4865,
      "Ġkomment": 4866,
      "neten": 4867,
      "lage": 4868,
      "lafen": 4869,
      "Ġausgeben": 4870,
      "ĠÐ¹Ð´": 4871,
      "Ġsprechen": 4872,
      "ĠStudenten": 4873,
      "ĠÐ»Ð¸ÑģÑĤ": 4874,
      "lanen": 4875,
      "Ġgewonnen": 4876,
      "Ġzerst": 4877,
      "Ð¾ÐºÑĢÐµÐ¼Ð»ÐµÐ½Ñĸ": 4878,
      "ĠÑħÐ¾ÑĤ": 4879,
      "Ã¶rter": 4880,
      "Ġblaues": 4881,
      "ÑīÐµ": 4882,
      "Ġperfekt": 4883,
      "ĠHandlung": 4884,
      "Ġvielleicht": 4885,
      "Meiner": 4886,
      "ĠÐ²Ð¾Ð½Ð¸": 4887,
      "erein": 4888,
      "ĠĠĠ": 4889,
      "Ġ12": 4890,
      "ĠÑĩÐ¸ÑģÐ»Ð¾": 4891,
      "Ġteu": 4892,
      "Ġteste": 4893,
      "ĠÐ½Ð°ÐºÐ°Ð·Ñĥ": 4894,
      "ĠÐ´Ð°ÑĤÐ¸Ð²Ñĥ": 4895,
      "ĠSpielzeug": 4896,
      "ĠÐĴÑĸÐ´Ð¾ÐºÑĢÐµÐ¼Ð»ÐµÐ½Ñĸ": 4897,
      "Ġklug": 4898,
      "gefunden": 4899,
      "klÃ¤": 4900,
      "Ġuntersucht": 4901,
      "ĠÐºÐ¾Ð½ÑģÑĤÑĢÑĥÐºÑĨÑĸÑĹ": 4902,
      "ĠÐ¿Ð¾Ð´Ð¾ÑĢÐ¾Ð¶": 4903,
      "warten": 4904,
      "Ġjog": 4905,
      "ĠÐĿÐµ": 4906,
      "Ġordentlich": 4907,
      "udiert": 4908,
      "ĠhÃ¤sslichen": 4909,
      "ÐµÑģÑĸ": 4910,
      "ĠHerrn": 4911,
      "Ġschreibt": 4912,
      "ĠÐ¿ÑĢÐ¸ÑĤÑıÐ¶Ð½Ð¸Ð¹": 4913,
      "Ġprima": 4914,
      "Ġselbst": 4915,
      "Ġtrainieren": 4916,
      "Geb": 4917,
      "ĠÐ·Ð°Ð»ÐµÐ¶Ð½Ð¾": 4918,
      "ĠdÃ¼nnen": 4919,
      "Ġanderen": 4920,
      "ĠÑĩÐ°ÑģÑĤÐ¸Ð½Ð°Ð¼Ð¸": 4921,
      "Ġtrocken": 4922,
      "ĠÑĩÐ°ÑģÑĤÐ¸Ð½Ñĥ": 4923,
      "ĠÐ²Ð¸ÑĢÐ°Ð·Ñĥ": 4924,
      "ĠÐ»ÑĸÐºÐ°ÑĢ": 4925,
      "Ð¼Ð¾ÑĶÑĹ": 4926,
      "ĠberÃ¼hmt": 4927,
      "ÑĶÐ´Ð½ÑĥÑĶÑĤÑĮÑģÑı": 4928,
      "ĠÐ³ÐµÐ½ÐµÑĤÐ¸Ð²Ð½Ð¸Ð¹": 4929,
      "ĠÐ¿Ð¾Ð¼Ð¸Ð»": 4930,
      "ĠÐ¿ÑĢÐ¸ÐºÐ»Ð°Ð´Ð¾Ð¼": 4931,
      "ĠSeptem": 4932,
      "ĠText": 4933,
      "Ġabsol": 4934,
      "ĠfleiÃŁig": 4935,
      "ĠReflexivpronomen": 4936,
      "ĠNebensatz": 4937,
      "Ġ................................................................................": 4938,
      "Ð¾Ð³Ð¾Ð´Ð½Ñĸ": 4939,
      "Ġaufregend": 4940,
      "amilie": 4941,
      "ingapps": 4942,
      "learningapps": 4943,
      "ĠÑĤÐµÐ»ÐµÐ²ÑĸÐ·Ð¾ÑĢ": 4944,
      "ĠÐ¿Ð°ÑĢÑĤÐ¸ÑĨÐ¸Ð¿Ð¾Ð¼": 4945,
      "napp": 4946,
      "vestor": 4947,
      "geordneten": 4948,
      "ĠÐ¿ÑĸÐ´ÐºÑĢÐµÑģÐ»": 4949,
      "Ġerinnere": 4950,
      "ĠSeptember": 4951,
      "47": 4952,
      "88": 4953,
      "Entschei": 4954,
      "FrÃ¼h": 4955,
      "IL": 4956,
      "Ihr": 4957,
      "Kat": 4958,
      "NG": 4959,
      "Nach": 4960,
      "NÃ¤chstes": 4961,
      "Pf": 4962,
      "RA": 4963,
      "SCH": 4964,
      "TSCH": 4965,
      "UNG": 4966,
      "brechen": 4967,
      "dru": 4968,
      "fest": 4969,
      "fallen": 4970,
      "icken": 4971,
      "jug": 4972,
      "keinen": 4973,
      "lativ": 4974,
      "osten": 4975,
      "rÃ¶": 4976,
      "rigen": 4977,
      "tlich": 4978,
      "ufen": 4979,
      "Ġau": 4980,
      "Ġricht": 4981,
      "ĠÐĵ": 4982,
      "Ð½ÑĤ": 4983,
      "Ð¾ÑĶ": 4984,
      "Ð¸Ð½Ñĥ": 4985,
      "Ð¸ÑĪÐµ": 4986,
      "Ð°ÑĢÑı": 4987,
      "orale": 4988,
      "ente": 4989,
      "ĠdÃ¼rfen": 4990,
      "ÑĶÐ¼": 4991,
      "ĠÐ²Ðº": 4992,
      "ĠÐ´Ð¾Ð¼": 4993,
      "ĠÐ´ÐµÐ½ÑĮ": 4994,
      "ĠÐ¿Ð¾ÑĹ": 4995,
      "infinitiv": 4996,
      "ÐºÐ¾Ð½": 4997,
      "ÑģÐ»ÑĥÑħ": 4998,
      "Ġirgendwo": 4999,
      "gehabt": 5000,
      "ĠÑĢÐµÑĩÐµÐ½ÑĮ": 5001,
      "ĠInvestor": 5002,
      "Ġmel": 5003,
      "bekommen": 5004,
      "Ġse": 5005,
      "Ġsagen": 5006,
      "Ð°ÑĤÐ°": 5007,
      "ĠÐ¼ÑĸÐ¶": 5008,
      "ÐµÑĢÐµ": 5009,
      "Ġged": 5010,
      "Ð°Ð²ÑģÑı": 5011,
      "ĠÑģÑĤÑĢÐ°Ñħ": 5012,
      "ĠÐ¾Ñħ": 5013,
      "ĠÐ¾Ð²Ð¾Ñĩ": 5014,
      "ĠÐ°Ð´": 5015,
      "Ã¼le": 5016,
      "Ġhal": 5017,
      "ĠFall": 5018,
      "ĠFeier": 5019,
      "ĠFamilie": 5020,
      "Ð¾Ð³Ð°": 5021,
      "ĠÑĥÐ¼Ð¾Ð²": 5022,
      "ĠBest": 5023,
      "itzt": 5024,
      "ÐµÑĤÑĸ": 5025,
      "ÑĨÑĸÑİ": 5026,
      "ĠDa": 5027,
      "ĠÑīÐ¾Ð´": 5028,
      "ĠÑĨÑĸÐº": 5029,
      "Ġkom": 5030,
      "Ġknapp": 5031,
      "Ã¤gt": 5032,
      "ĠPrin": 5033,
      "ĠÐºÐ¾Ð³Ð¾": 5034,
      "ĠÐºÐ¸Ð¼Ð¾ÑģÑĮ": 5035,
      "Ð¸Ð»Ð¸": 5036,
      "Ð¸Ð»ÑĮ": 5037,
      "ĠaufgerÃ¤umt": 5038,
      "Ġbl": 5039,
      "see": 5040,
      "zug": 5041,
      "ĠÑĤÐ¾Ð±": 5042,
      "ĠÑĤÑĸÐ»ÑĮÐºÐ¸": 5043,
      "annt": 5044,
      "ĠÐ±ÑĢ": 5045,
      "ĠÐ±ÑĢÐ°ÑĤÐ¸": 5046,
      "ĠÐ¿ÑĢÐ°Ð²Ð¸Ð»ÑĮÐ½Ð¸Ñħ": 5047,
      "ĠÐ´ÑĢÑĥÐ³Ðµ": 5048,
      "ĠLe": 5049,
      "ĠRu": 5050,
      "ĠRei": 5051,
      "Ð¿ÑĢÐ¾": 5052,
      "isten": 5053,
      "Ġbezahlt": 5054,
      "ĠNamen": 5055,
      "Ġhinter": 5056,
      "ĠhÃ¤ngt": 5057,
      "ĠÐ²ÑĸÐ´Ð´ÑĸÐ»ÑĮ": 5058,
      "ÑĦÐµÑģ": 5059,
      "olog": 5060,
      "ĠanschlieÃŁend": 5061,
      "weiz": 5062,
      "Ġtanzen": 5063,
      "ĠÐ¾Ð´Ð½Ð¸Ð½Ð¾Ñİ": 5064,
      "Ð°Ð´Ñĥ": 5065,
      "ĠÑĸÐ½Ð²ÐµÑĢÑģÑĸÑı": 5066,
      "ringen": 5067,
      "Ġstatt": 5068,
      "Ġstreite": 5069,
      "Ġstaubsau": 5070,
      "ĠÐ¿Ð¾ÐºÐ°Ð·ÑĥÑİÑĩÐ¸": 5071,
      "adt": 5072,
      "ĠÑĩÐ°ÑģÑĤÐ¾": 5073,
      "ĠerzÃ¤hlt": 5074,
      "ĠÑĢÐ¾Ð·Ð¿": 5075,
      "Ġob": 5076,
      "ĠÐ²ÑĸÐ´Ð¿ÑĥÑģÑĤ": 5077,
      "Ð¸ÑĤÐµ": 5078,
      "ĠAnna": 5079,
      "ĠÐ¿ÑĢÐ°Ð²Ð¸Ð»ÑĮÐ½Ð¾Ñİ": 5080,
      "ĠÑģÐ¿ÑĸÐ²": 5081,
      "ĠÑĸÐ¼ÐµÐ½Ð½Ð¸ÐºÐ°Ñħ": 5082,
      "Ġguten": 5083,
      "ĠÐºÐ¾Ð¼Ð¿": 5084,
      "Ã¼nsche": 5085,
      "Ġwarne": 5086,
      "Ã¤tter": 5087,
      "ormal": 5088,
      "ĠÑħÐ»": 5089,
      "Ã¤hrst": 5090,
      "ĠprÃ¼": 5091,
      "Ġpasse": 5092,
      "Ġtrinkt": 5093,
      "bstamm": 5094,
      "ĠÐ¿ÑĢÐµÐ´Ð¼ÐµÑĤÑĸÐ²": 5095,
      "Ã¤rm": 5096,
      "ĠÐ³Ð¾Ð²Ð¾ÑĢÐ¸ÑĤÐ¸": 5097,
      "Ġabholen": 5098,
      "halt": 5099,
      "ĠNeffen": 5100,
      "ernsehen": 5101,
      "ĠÑĤÐ°ÐºÐ¸Ñħ": 5102,
      "ĠÑģÐ°Ð¼Ð¸Ð¼": 5103,
      "ĠÐ´Ð°ÑĤÐ¸Ð²Ð½Ð¸Ð¹": 5104,
      "Ġfrisches": 5105,
      "ÑĢÐ°ÑĪ": 5106,
      "ĠMÃ¤dchens": 5107,
      "Ġkleinen": 5108,
      "Ġbraunen": 5109,
      "lÃ¼cklicherweise": 5110,
      "Ġarbeite": 5111,
      "Ð°Ð»Ð¸": 5112,
      "gewaschen": 5113,
      "Ġaufgestanden": 5114,
      "setzt": 5115,
      "Ã¼hren": 5116,
      "schreibt": 5117,
      "ĠheiÃŁen": 5118,
      "opp": 5119,
      "ĠÐĿÑĸ": 5120,
      "ĠÐºÐ¾Ð½ÐºÑĢÐµÑĤÐ½Ð¸Ð¹": 5121,
      "ĠÑĹÑĹ": 5122,
      "ĠÑĹÐ¶": 5123,
      "ĠÐ³ÑĢÐ°Ð¼": 5124,
      "ĠÐ´Ð°ÑĤÑĸÐ²Ð¾Ð¼": 5125,
      "ĠÐ¿Ð¸ÑĤÐ°Ð»ÑĮÐ½Ð¸Ð¼": 5126,
      "recher": 5127,
      "ĠÐŁÑĢÐ°Ð²Ð¸Ð»ÑĮÐ½Ð°": 5128,
      "Ã¼geln": 5129,
      "ĠÐ¼Ð¾Ð¶Ð»Ð¸Ð²Ð¾ÑģÑĤÑĸ": 5130,
      "rÃ¤umt": 5131,
      "ĠÑģÐºÐ»Ð°Ð´Ð½Ð¾Ð¼Ñĥ": 5132,
      "Ġbenutzt": 5133,
      "ĠÐŁÑĢÐ¸ÑģÐ²ÑĸÐ¹Ð½Ñĸ": 5134,
      "ĠVorgestern": 5135,
      "ĠVorschlag": 5136,
      "ĠÐµÐºÑģ": 5137,
      "ÑģÑĮÐºÐ¾Ð³Ð¾": 5138,
      "Ð¸ÑĢÐ°ÑĤÐ¸": 5139,
      "Ġsollte": 5140,
      "ĠÐ½ÐµÐ¾Ð±ÑħÑĸÐ´Ð½ÑĸÑģÑĤÑĮ": 5141,
      "Ġgutes": 5142,
      "ĠÐ¿ÑĢÐ¸ÑĤÑıÐ¶Ð½Ð¾Ð³Ð¾": 5143,
      "werden": 5144,
      "Ġdazu": 5145,
      "Ġsozi": 5146,
      "Ġtrainiert": 5147,
      "Ġleckere": 5148,
      "trinke": 5149,
      "dienen": 5150,
      "ĠÐ¼Ð¾Ð²Ð¸": 5151,
      "ĠÐĽÐµÑģÑĸ": 5152,
      "ĠBilder": 5153,
      "ĠnÃ¤chstes": 5154,
      "ĠÑĩÐ°ÑģÑĤÐ¸Ð½Ð¾Ñİ": 5155,
      "repariert": 5156,
      "ĠÐ²Ð¸ÑĢÐ°Ð·Ð¸ÑĤÐ¸": 5157,
      "Ð¼Ð¾ÑĶÐ¼Ñĥ": 5158,
      "Ġallein": 5159,
      "ĠÐ¯ÐºÑīÐ¾": 5160,
      "Letztes": 5161,
      "ĠÑĦÑĸÐ»Ð¾Ð»Ð¾Ð³ÑĸÑĹ": 5162,
      "Trinkst": 5163,
      "ĠAdjektiv": 5164,
      "Ġinformiere": 5165,
      "ĠtrÃ¤gt": 5166,
      "ĠÐ¾ÑģÐ¾Ð±Ð¸ÑģÑĤÐ¾Ð³Ð¾": 5167,
      "ĠÑĥÐ½ÑĸÐ²ÐµÑĢÑģÐ¸ÑĤÐµÑĤÑĥ": 5168,
      "udieren": 5169,
      "wÃ¤scht": 5170,
      "Ð±ÑĥÐ´ÑĮ": 5171,
      "Ġlehne": 5172,
      "ĠÐ°Ð²ÑĤÐ¾Ð¼Ð¾Ð±ÑĸÐ»ÑĮ": 5173,
      "ĠÐ¿ÑĢÐ¸ÑģÑĤÐ°Ð²ÐºÐ¸": 5174,
      "ĠÐ¾ÑĩÑĸÐº": 5175,
      "ĠFreizeit": 5176,
      "ĠÐ²Ð¸Ð½ÑıÑĤÐºÐ¾Ð²Ð¸Ð¹": 5177,
      "Ġletzten": 5178,
      "Ġgeplant": 5179,
      "ĠÐ¿ÑĢÐ¾Ð±Ð»ÐµÐ¼": 5180,
      "Ġbekomme": 5181,
      "TEIL": 5182,
      "Ġeklig": 5183,
      "ĠÐ£ÐºÑĢÐ°ÑĹÐ½ÐºÐ¸": 5184,
      "Ġfurchtbar": 5185,
      "Ġabsolut": 5186,
      "Katze": 5187,
      "ĠPrinzip": 5188,
      "21": 5189,
      "36": 5190,
      "40": 5191,
      "50": 5192,
      "96": 5193,
      "AT": 5194,
      "Auto": 5195,
      "Apfel": 5196,
      "Ba": 5197,
      "Ber": 5198,
      "Bes": 5199,
      "EF": 5200,
      "EMA": 5201,
      "Fahr": 5202,
      "Ger": 5203,
      "Ges": 5204,
      "HEMA": 5205,
      "Isst": 5206,
      "Mit": 5207,
      "MMA": 5208,
      "OR": 5209,
      "Perfekt": 5210,
      "Rad": 5211,
      "STEIL": 5212,
      "THEMA": 5213,
      "Wenn": 5214,
      "gibt": 5215,
      "hung": 5216,
      "hÃ¤n": 5217,
      "ico": 5218,
      "ja": 5219,
      "junktion": 5220,
      "kolog": 5221,
      "laufen": 5222,
      "meinen": 5223,
      "nst": 5224,
      "nein": 5225,
      "oben": 5226,
      "per": 5227,
      "qu": 5228,
      "rich": 5229,
      "racht": 5230,
      "sau": 5231,
      "sicht": 5232,
      "tschaft": 5233,
      "wÃ¤chst": 5234,
      "welt": 5235,
      "wissen": 5236,
      "©Ð¾": 5237,
      "ÐĶ": 5238,
      "ĠÃ¶": 5239,
      "Ġeigen": 5240,
      "Ð½Ð¾Ð¼": 5241,
      "Ð½ÐµÑĢ": 5242,
      "Ð½Ð°Ð·": 5243,
      "ÐµÑĨÑĸ": 5244,
      "ÑĸÐ»Ð°": 5245,
      "ÑĸÑīÐµÐ½Ð½Ñı": 5246,
      "ÑıÐºÑĥ": 5247,
      "ÑĤÐ²ÐµÑĢÐ´Ð¶": 5248,
      "ÑĢÑĸ": 5249,
      "ÑĢÐ¾Ñģ": 5250,
      "rem": 5251,
      "ret": 5252,
      "enzin": 5253,
      "Ġdicht": 5254,
      "Ġdrei": 5255,
      "ĠÐ²ÑģÑĤ": 5256,
      "ĠÐ²Ð±": 5257,
      "ĠÐ²Ð·": 5258,
      "ĠÐ²ÑĸÐº": 5259,
      "ĠÐ²Ð¸Ð´": 5260,
      "ĠÐ²Ð°ÑĢÑĸ": 5261,
      "ĠÐ´ÑĸÐ²": 5262,
      "ingt": 5263,
      "Ð¾Ð¼Ð°": 5264,
      "steh": 5265,
      "stimmen": 5266,
      "steig": 5267,
      "Ð¼Ð°ÑĤÐ¸": 5268,
      "Ð¼ÑĸÐ¹": 5269,
      "Ð¼Ð¾Ð¶": 5270,
      "ÐºÐ»Ð°Ð´": 5271,
      "ĠIss": 5272,
      "ĠÑĢÐ¾Ðº": 5273,
      "get": 5274,
      "beg": 5275,
      "Ġsingen": 5276,
      "Ġsuche": 5277,
      "Ð²Ð°Ð³": 5278,
      "anst": 5279,
      "Ġdies": 5280,
      "ĠÐ¼Ðµ": 5281,
      "ĠÐ¼Ð¾Ð¼": 5282,
      "ĠÐ¼ÑĸÐ½": 5283,
      "ĠÐ¼Ð°ÑĤ": 5284,
      "ĠÐ¼Ð°Ñİ": 5285,
      "Ð´ÑĸÐ»": 5286,
      "eim": 5287,
      "Ð°Ð²Ð°": 5288,
      "ĠÐ¿ÑĢÐ¾Ð³": 5289,
      "ÑĨÑĤ": 5290,
      "ÑĨÐµÐ½ÑĤ": 5291,
      "ĠSing": 5292,
      "ĠSub": 5293,
      "ĠwÃ¶chentlich": 5294,
      "ĠÐ½Ð°ÑĪ": 5295,
      "Ã¼b": 5296,
      "Ã¼g": 5297,
      "ĠFutter": 5298,
      "Ð¿Ð°ÑĢ": 5299,
      "ĠÑĩÐ¸ÑģÑĤ": 5300,
      "ĠÑĥÐºÑĢÐ°ÑĹÐ½": 5301,
      "Ð½Ð°Ð»": 5302,
      "Ã¶gel": 5303,
      "itz": 5304,
      "Ġeinige": 5305,
      "schr": 5306,
      "ÑĨÑĸÑĹ": 5307,
      "ÑİÑİÑĤÑĮÑģÑı": 5308,
      "ĠÐ²ÑĸÐ´Ð¼ÑĸÐ½ÑİÐ²Ð°Ð½Ð½Ñı": 5309,
      "Ð±Ð¸": 5310,
      "Ð±ÑĥÑĤÐ¸": 5311,
      "ĠMit": 5312,
      "ĠMar": 5313,
      "ĠMat": 5314,
      "ĠMeine": 5315,
      "ĠMacht": 5316,
      "Ġkal": 5317,
      "arfe": 5318,
      "ĠHoch": 5319,
      "ÑĥÐ²Ð°": 5320,
      "elte": 5321,
      "elfe": 5322,
      "ĠÐºÐ°Ð¼": 5323,
      "ĠÐºÐ°ÑĢ": 5324,
      "ĠÐºÐ°ÑĦ": 5325,
      "ÑĤÐ¸ÑģÑı": 5326,
      "ĠÐ¼ÑĸÑģÑı": 5327,
      "ĠÐ½ÐµÐ¿": 5328,
      "leben": 5329,
      "ĠWissen": 5330,
      "ĠWendungen": 5331,
      "ĠWOR": 5332,
      "Ð·Ð°": 5333,
      "Ð·Ð²": 5334,
      "Ġfit": 5335,
      "Ġfern": 5336,
      "Ġfeiern": 5337,
      "Ġfolgt": 5338,
      "Ð¾Ð»Ð¸Ð½": 5339,
      "ĠGRA": 5340,
      "Ġschicke": 5341,
      "Ġschrub": 5342,
      "Ġindire": 5343,
      "zurÃ¼ck": 5344,
      "Ð¾Ð±ÑĢ": 5345,
      "utze": 5346,
      "ĠÑıÐºÐ¾Ð¼Ñĥ": 5347,
      "ĠÐ²ÐºÐ°Ð·Ð°Ð½Ð½Ñı": 5348,
      "ckne": 5349,
      "deckt": 5350,
      "ĠÐ±Ð¾Ð»": 5351,
      "ĠÐ´ÑĢÑĥÐ³Ð¾Ð³Ð¾": 5352,
      "ischt": 5353,
      "igung": 5354,
      "igkeiten": 5355,
      "ĠÐ·Ð°ÐºÑĸÐ½ÑĩÐµÐ½ÑĮ": 5356,
      "ĠÐ¾ÑģÑĸÐ±": 5357,
      "liche": 5358,
      "Ġbeeil": 5359,
      "Ġbezahle": 5360,
      "ĠmÃ¶chtest": 5361,
      "ĠNatur": 5362,
      "ĠÐ³Ð¾Ð´": 5363,
      "ĠhÃ¶rt": 5364,
      "ĠÐ¾Ð´ÑıÐ³": 5365,
      "ĠÐ¾ÑģÐ¾Ð±Ð°Ð¼Ð¸": 5366,
      "ĠÐ¿Ð¾Ð²ÑĸÐ´Ð¾Ð¼": 5367,
      "ierst": 5368,
      "ikers": 5369,
      "laubt": 5370,
      "ĠVER": 5371,
      "ĠVÃ¶gel": 5372,
      "ĠÐ²Ð¸ÑĤÑĢ": 5373,
      "ĠÐ²Ð¸Ð½Ð½Ð¾Ð¼Ñĥ": 5374,
      "ĠÐ¿Ð¸ÑĤÐ°Ð½ÑĮ": 5375,
      "ĠOb": 5376,
      "Ġstorn": 5377,
      "Ð¾Ð·Ð²": 5378,
      "ĠWohin": 5379,
      "ĠÐ¿ÑĢÐ¾ÑĦÐµÑģ": 5380,
      "Ġdeshalb": 5381,
      "Ð°Ð½Ð´": 5382,
      "ĠÑĢÐ¾Ð´Ð¾Ð²Ð¾Ð³Ð¾": 5383,
      "ĠÃ¼bergeordneten": 5384,
      "Ġacc": 5385,
      "Ġunwichtig": 5386,
      "eits": 5387,
      "ĠerschÃ¶pft": 5388,
      "ĠÐ±ÑĥÐ´": 5389,
      "ĠÐ´Ð¾ÑħÑĸÐ´": 5390,
      "prÃ¤": 5391,
      "prache": 5392,
      "lieben": 5393,
      "ĠÐ·Ð°Ñħ": 5394,
      "ĠÐ´Ð¾Ð´Ð°ÑĤÐºÐ°": 5395,
      "ĠâĢ¦.": 5396,
      "ĠÑĦÐ¾ÑĢÐ¼ÑĥÑİÑĤÑĮ": 5397,
      "ĠÐ²ÑĸÐ´Ð¿Ð¾Ð²ÑĸÐ´ÑĮ": 5398,
      "Ġjede": 5399,
      "ĠÑģÐ¿ÑĸÐ»": 5400,
      "ĠÑģÐ¿Ð¾ÑĢÑĤ": 5401,
      "ĠgefÃ¼ttert": 5402,
      "Ġausreich": 5403,
      "âĢľ,": 5404,
      "ĠBlÃ¤tter": 5405,
      "ĠGebt": 5406,
      "Ã¼nf": 5407,
      "ĠschwÃ¼l": 5408,
      "ollte": 5409,
      "Ð»Ð°ÑĪÑĤ": 5410,
      "ĠÑģÐµÑĢÐµÐ´Ð½ÑĸÐ¼": 5411,
      "geblich": 5412,
      "ĠÑĢÑĥÑħÐ¾Ð¼": 5413,
      "Ð¾Ð²Ð°Ð½Ð¸Ð¹": 5414,
      "Ã¼tzen": 5415,
      "richten": 5416,
      "ĠÐ·Ð°Ð²ÐµÑĢÑĪÐµÐ½Ð°": 5417,
      "sprochen": 5418,
      "Ġkoche": 5419,
      "ĠÐ³ÐµÐ½Ð¸ÑĤÐ¸Ð²Ñĸ": 5420,
      "Ġfrische": 5421,
      "ĠÐ¿ÐµÑĢÐµÐ±": 5422,
      "ginnen": 5423,
      "ĠÐ³ÐµÐ½ÑĸÑĤÐ¸Ð²Ð½Ð¸Ð¹": 5424,
      "gefahren": 5425,
      "ĠDeutschland": 5426,
      "zahl": 5427,
      "gewinnen": 5428,
      "hÃ¶re": 5429,
      "ĠÐ¿Ð¾Ð´Ð¾Ð±": 5430,
      "ÐºÐ¾Ð²Ð¾": 5431,
      "Ġheizen": 5432,
      "ĠÐ¢ÑĥÑĤ": 5433,
      "ĠÑģÐ²Ð¾ÑĹ": 5434,
      "Ġrotes": 5435,
      "ĠÐ·ÑĢÐ¾Ð·ÑĥÐ¼": 5436,
      "geschlagen": 5437,
      "wird": 5438,
      "ĠÃ¶ffne": 5439,
      "ĠBeantworten": 5440,
      "ĠArchitekten": 5441,
      "ĠNachrichten": 5442,
      "ĠPolizisten": 5443,
      "Ð¸Ð´Ð°ÑĤ": 5444,
      "Ġgetragen": 5445,
      "ĠÑĦÐ¾ÑĢÐ¼ÑĥÐ»ÑİÐ²Ð°Ð½Ð½Ñı": 5446,
      "Ġeuch": 5447,
      "Ð°ÑĨÑĸÑĹ": 5448,
      "Ġsollten": 5449,
      "weg": 5450,
      "Ġsalzige": 5451,
      "Ġwarmen": 5452,
      "Ġempfehle": 5453,
      "ĠÐ´ÑĥÐ¼ÐºÑĥ": 5454,
      "ĠÑĢÐ°Ð´ÑĸÑģÑĤÑĮ": 5455,
      "ĠÐ·Ð°Ð»ÐµÐ¶Ð½Ð¾ÑģÑĤÑĸ": 5456,
      "ĠÐ¿ÑĢÐ¸ÑģÑĥÐ´ÐºÐ¾Ð¼": 5457,
      "flexive": 5458,
      "ĠÐºÑĥÐ¿Ð¸ÑĤÐ¸": 5459,
      "ĠÐ²Ð¸Ð³Ð»ÑıÐ´": 5460,
      "ĠÐ¿Ð¾Ð±ÑĥÐ´Ð¾Ð²Ð¸": 5461,
      "hole": 5462,
      "Ð´ÑĸÐ»ÑĮÐ½Ñĸ": 5463,
      "Ġnetten": 5464,
      "Gehst": 5465,
      "reparieren": 5466,
      "ĠSeite": 5467,
      "ĠwÃ¼rde": 5468,
      "TIK": 5469,
      "TIEF": 5470,
      "ĠfÃ¼hle": 5471,
      "ĠfÃ¼hren": 5472,
      "Ġbestellt": 5473,
      "ĠSchreiben": 5474,
      "Letzte": 5475,
      "Ġfotografiere": 5476,
      "Ġangekommen": 5477,
      "Ð¸Ð»Ð°ÑģÑı": 5478,
      "ĠbegrÃ¼ÃŁe": 5479,
      "omparativ": 5480,
      "omparation": 5481,
      "ielleicht": 5482,
      "ĠÐ·Ð³ÑĸÐ´": 5483,
      "ĠgieÃŁe": 5484,
      "ĠÐ±Ð°Ð³Ð°ÑĤÐ¾": 5485,
      "ĠÐ·Ð°Ð¹Ð²Ðµ": 5486,
      "Ġherunter": 5487,
      "ĠÑģÐ¾Ð±Ð°ÐºÐ¸": 5488,
      "ĠÐ¿Ð¾Ð³Ð¾Ð´Ð¶ÑĥÑĶÑĤÑĮÑģÑı": 5489,
      "Jede": 5490,
      "durch": 5491,
      "ÑĥÐ»ÑıÑĢ": 5492,
      "ĠÐ²ÐµÑĩÑĸÑĢ": 5493,
      "Ġreserviere": 5494,
      "ĠÐ¿ÑĢÐ¾Ð¿Ð¾Ð·Ð¸ÑĨÑĸÑı": 5495,
      "Ġhart": 5496,
      "ĠHauptsatz": 5497,
      "ĠTrink": 5498,
      "ĠÐºÑĸÐ»ÑĮÐºÑĸÑģÑĤÑĮ": 5499,
      "Steh": 5500,
      "drÃ¼cken": 5501,
      "ĠÐ½Ð°ÑıÐ²Ð½Ð¾ÑģÑĤÑĸ": 5502,
      "ĠÑĦÑĸÐ»ÑĮÐ¼": 5503,
      "ĠÐ¡ÐµÐ¿Ð°ÑĢ": 5504,
      "ĠÐ²ÑĸÐ´Ð¾ÐºÑĢÐµÐ¼Ð»ÑİÑĶÑĤÑĮÑģÑı": 5505,
      "klÃ¤ren": 5506,
      "TSCHAT": 5507,
      "UNGSTEIL": 5508,
      "ĠÑĤÐ¾Ð±ÑĤÐ¾": 5509,
      "ormalerweise": 5510,
      "Gerade": 5511,
      "MMATIK": 5512,
      "ĠÃ¶kolog": 5513,
      "ĠÐ´ÑĸÐ²Ñĩ": 5514,
      "ĠWORTSCHAT": 5515,
      "ĠGRAMMATIK": 5516,
      "ĠVERTIEF": 5517,
      "Ġaccusativ": 5518,
      "Ġausreichend": 5519,
      "ĠÐ¡ÐµÐ¿Ð°ÑĢÐ°Ð±ÐµÐ»ÑĮ": 5520,
      "ĠWORTSCHATZ": 5521,
      "ĠVERTIEFUNGSTEIL": 5522,
      "37": 5523,
      "79": 5524,
      "Ant": 5525,
      "Bl": 5526,
      "Co": 5527,
      "Dan": 5528,
      "Fl": 5529,
      "FuÃŁ": 5530,
      "Grund": 5531,
      "GlÃ¼cklicherweise": 5532,
      "Haus": 5533,
      "Ko": 5534,
      "Nie": 5535,
      "Putzt": 5536,
      "Spiel": 5537,
      "War": 5538,
      "Wachst": 5539,
      "ahl": 5540,
      "fon": 5541,
      "frisch": 5542,
      "fÃ¼hr": 5543,
      "fÃ¼hren": 5544,
      "gab": 5545,
      "gang": 5546,
      "hem": 5547,
      "helfen": 5548,
      "ia": 5549,
      "iÃŁ": 5550,
      "kra": 5551,
      "kzeug": 5552,
      "kehr": 5553,
      "kostet": 5554,
      "mel": 5555,
      "nitten": 5556,
      "ossen": 5557,
      "so": 5558,
      "smittel": 5559,
      "voll": 5560,
      "wend": 5561,
      "wachsen": 5562,
      "zdem": 5563,
      "Ð¡": 5564,
      "Ðļ": 5565,
      "ÐĿ": 5566,
      "ÐŁ": 5567,
      "ĠÑģÐ½": 5568,
      "Ġacht": 5569,
      "Ġend": 5570,
      "ĠÐĩ": 5571,
      "ĠÐ©Ð¾": 5572,
      "Ð¾Ð½Ð¸": 5573,
      "ÐµÐ½Ð¾": 5574,
      "ÑıÑĩ": 5575,
      "ÑıÑĤÑĮ": 5576,
      "ÑĤÑĸÐ²": 5577,
      "ÑĥÐ»": 5578,
      "ÑĥÐºÐ°": 5579,
      "ÑĥÑģÑĤÑĢ": 5580,
      "reflexive": 5581,
      "ÐµÐ½Ð½Ð¾Ð¼Ñĥ": 5582,
      "erinnern": 5583,
      "ÑĮÐ¾Ð³Ð¾Ð´Ð½Ñĸ": 5584,
      "Ð¾Ð²Ðµ": 5585,
      "ĠÐ´Ð²Ð°": 5586,
      "ĠÐ¿Ðµ": 5587,
      "inden": 5588,
      "inform": 5589,
      "ÑģÑĤÐ¾ÑĢ": 5590,
      "ÐºÐ¾Ð²Ñĸ": 5591,
      "Ð¾ÑĢÐ¾": 5592,
      "Ð¾ÑĢÑĥ": 5593,
      "ÑĸÑĶÐ½ÑĤ": 5594,
      "gebt": 5595,
      "gegessen": 5596,
      "Ġmieten": 5597,
      "besuche": 5598,
      "Ġscannen": 5599,
      "Ġspricht": 5600,
      "unehmen": 5601,
      "ĠÐ¼Ð°Ñģ": 5602,
      "Ð´Ð¾": 5603,
      "hackt": 5604,
      "eider": 5605,
      "Ġgeben": 5606,
      "ĠÑģÑĤÐ¾Ð»": 5607,
      "ĠÑģÑĤÐ²ÐµÑĢÐ´Ð¶": 5608,
      "ĠÐ¾ÑĦ": 5609,
      "ĠSat": 5610,
      "ĠStel": 5611,
      "Ð¾Ð´Ð¸Ñĩ": 5612,
      "Ġwahrscheinlich": 5613,
      "ĠwÃ¼nsche": 5614,
      "aufhÃ¶ren": 5615,
      "Ã¼hlt": 5616,
      "ĠFÃ¤": 5617,
      "Ð¿Ðµ": 5618,
      "âĢĺ": 5619,
      "ĠBenzin": 5620,
      "ĠÐ·Ð°Ð´": 5621,
      "itzung": 5622,
      "undheit": 5623,
      "scheint": 5624,
      "schmeckt": 5625,
      "ÑİÑĤÐµÑĢ": 5626,
      "Ġnimmt": 5627,
      "ĠDan": 5628,
      "ĠDann": 5629,
      "ĠÑĨÑĸÐ½": 5630,
      "ĠÑĨÑĮÐ¾Ð³Ð¾": 5631,
      "artet": 5632,
      "ĠHast": 5633,
      "ĠTeil": 5634,
      "ĠPl": 5635,
      "ĠPosition": 5636,
      "ĠPaul": 5637,
      "ĠÐºÐ»Ð°": 5638,
      "ĠAb": 5639,
      "ĠAuss": 5640,
      "ĠAktiv": 5641,
      "Ġaufstehen": 5642,
      "ÑħÑĤÐ¾": 5643,
      "ĠfÃ¤llt": 5644,
      "ĠfÃ¼hl": 5645,
      "Ġbr": 5646,
      "Ġbitter": 5647,
      "ĠÑĦÑĸÑĢ": 5648,
      "ÃŁigen": 5649,
      "Ð³Ð¾Ð²Ð¾ÑĢ": 5650,
      "ĠÑĸÐ¼ÐµÐ½Ð½Ð¾Ð¼Ñĥ": 5651,
      "ĠÑıÐºÐ¸Ð¼": 5652,
      "ĠÑıÐºÐ¾Ñİ": 5653,
      "ÑĢÑĥÑĩ": 5654,
      "irge": 5655,
      "ckst": 5656,
      "Ð°Ð»ÑĮÐ½Ð¸Ñħ": 5657,
      "ĠÐĴÑĸÐ´Ð¼ÑĸÐ½": 5658,
      "ĠÑĤÐ¾Ñĩ": 5659,
      "ucht": 5660,
      "decken": 5661,
      "annte": 5662,
      "ĠSchweiz": 5663,
      "ĠÐ´ÑĢÑĥÐ³Ð°": 5664,
      "ilden": 5665,
      "iven": 5666,
      "igkeit": 5667,
      "ĠRaum": 5668,
      "ĠÐ·Ð°ÐºÑĸÐ½ÑĩÑĥÑĶÑĤÑĮÑģÑı": 5669,
      "ĠEn": 5670,
      "ktion": 5671,
      "ausgeben": 5672,
      "Ġlinks": 5673,
      "zeugen": 5674,
      "tens": 5675,
      "Ġbeantworten": 5676,
      "ĠNehmt": 5677,
      "amit": 5678,
      "Ġhelfe": 5679,
      "ĠÐ²ÑĸÐ´Ñĩ": 5680,
      "ĠÐ¿ÐµÑĢÐµÐ´Ð°ÑĶÑĤÑĮÑģÑı": 5681,
      "Ġangef": 5682,
      "Ġanhalten": 5683,
      "Ġanfangen": 5684,
      "ĠschÃ¶ner": 5685,
      "ĠÐ¾Ð´Ð½Ñĥ": 5686,
      "Ã¼rzt": 5687,
      "Ã¼rzen": 5688,
      "Ġhatte": 5689,
      "ĠÐ¿Ð¾Ð²ÑĤÐ¾ÑĢ": 5690,
      "Ð½ÑĥÑĤÐ¸": 5691,
      "ĠÑĸÐ¼Ð¿ÐµÑĢÐ°ÑĤÐ¸Ð²Ð½Ð°": 5692,
      "ĠÐ·Ð°Ð¿ÐµÑĢÐµÑĩÐµÐ½Ð½ÑıÐ¼": 5693,
      "ĠZie": 5694,
      "sens": 5695,
      "ĠÐ¡ÑĥÐ±": 5696,
      "ĠÑĸÐ½Ð²ÐµÑĢÑģÑĸÑĶÑİ": 5697,
      "ringt": 5698,
      "Ġstar": 5699,
      "ÑģÑĮÐºÐ°": 5700,
      "utet": 5701,
      "Ð°Ð½Ñģ": 5702,
      "Ð°Ð½ÑģÐ¿": 5703,
      "Ġersten": 5704,
      "ĠÐ´Ð¾ÑĨÐµÐ½ÑĤ": 5705,
      "zende": 5706,
      "geld": 5707,
      "gelesen": 5708,
      "gelmÃ¤": 5709,
      "ĠÐľÐµÐ½Ñĸ": 5710,
      "lieÃŁlich": 5711,
      "Ð¾ÑĤÑĥ": 5712,
      "rotzdem": 5713,
      "ĠâĢ¦,": 5714,
      "ĠGesundheit": 5715,
      "nette": 5716,
      "ĠÐ½Ð°Ð»ÐµÐ¶Ð°ÑĤÑĮ": 5717,
      "kennen": 5718,
      "Â»,": 5719,
      "ĠÑĢÐ¾Ð·Ð´ÑĸÐ»Ðµ": 5720,
      "ĠÐºÐ¾Ð»ÑĸÑĢ": 5721,
      "ĠÐ¿ÑĢÐ°Ð²Ð¸Ð»ÑĮÐ½Ð¾ÑĹ": 5722,
      "ĠÐ·Ð°Ð¿Ð¸ÑĤÐ°Ð½Ð½ÑıÐ¼": 5723,
      "arbeiten": 5724,
      "ĠÑģÐ¿ÐµÑĨÑĸ": 5725,
      "ĠausfÃ¼llen": 5726,
      "Ġschneiden": 5727,
      "ennt": 5728,
      "Ð¾ÑĩÐ¸Ð½": 5729,
      "ĠÐ¾ÑģÐ½Ð¾Ð²Ð°": 5730,
      "ĠGew": 5731,
      "ĠÐ¾Ð¿Ð¸ÑģÑĥÑİÑĤÑĮ": 5732,
      "Ġwarten": 5733,
      "ĠKatzen": 5734,
      "Ã¼lle": 5735,
      "Ã¼llt": 5736,
      "Ġza": 5737,
      "Ġzeigt": 5738,
      "ĠÐĴÐ¶Ð¸Ð²Ð°Ð¹ÑĤÐµ": 5739,
      "gebaut": 5740,
      "gebracht": 5741,
      "Ð»Ð¸Ð²Ð¾": 5742,
      "ĠÑħÐ²Ð¾ÑĢ": 5743,
      "ÑīÐ°": 5744,
      "ĠBerge": 5745,
      "ationen": 5746,
      "ationalen": 5747,
      "ĠÐ³Ð¾Ð²Ð¾ÑĢÐ¸ÑĤÑĮ": 5748,
      "ÑĥÑĤÐ±": 5749,
      "ĠÐ·Ð°Ð²ÐµÑĢÑĪÐµÐ½Ð½Ñı": 5750,
      "spreche": 5751,
      "sitzen": 5752,
      "Ġgeschickt": 5753,
      "ĠÐ¿Ð¾ÑĤÑĢÐµÐ±Ð¸": 5754,
      "ĠÐŁÐ¾ÑĤÑĢÑĸÐ±Ð½Ð°": 5755,
      "ĠÐ·Ð°Ð¼Ð¾Ð²": 5756,
      "ĠÐ·Ð²ÐµÑĢÐ½ÐµÐ½Ð°": 5757,
      "ÑıÐ·ÑĥÑĶ": 5758,
      "ÑıÐ·ÐºÑĥ": 5759,
      "ĠSpieler": 5760,
      "Ġwohnen": 5761,
      "ĠÐ¿ÑĸÐ´ÑĢÑıÐ´Ð½Ð¸Ð¼Ð¸": 5762,
      "ĠKonjunktiv": 5763,
      "ĠÑĤÑĢÐ°Ð½ÑģÐ¿": 5764,
      "ĠGeschenke": 5765,
      "ĠÑĢÐµÐºÐ¾Ð¼ÐµÐ½Ð´": 5766,
      "ĠÑĸÐ½ÑĪÐ¸Ð¹": 5767,
      "Ġuntersuche": 5768,
      "Ġlernt": 5769,
      "ĠbestÃ¤t": 5770,
      "rifft": 5771,
      "troll": 5772,
      "ĠÐĿÐ¾Ð¼ÑĸÐ½Ð°ÑĤÐ¸Ð²": 5773,
      "ĠÑĹÑħ": 5774,
      "ĠÑģÐ²Ñı": 5775,
      "ĠÑģÐ²Ð°ÑĢ": 5776,
      "ĠÐ´Ð°ÑĤÑĸÐ²Ð½Ð¾Ð¼Ñĥ": 5777,
      "Ġrote": 5778,
      "ĠPreise": 5779,
      "ĠÐ¿Ð¸ÑĤÐ°Ð»ÑĮÐ½Ð¾Ð³Ð¾": 5780,
      "ĠWerkzeug": 5781,
      "Ð°Ð²Ð»ÑıÑĤÐ¸": 5782,
      "ĠÑģÐ»ÑĸÐ´ÑĥÑĶ": 5783,
      "Ġsparen": 5784,
      "Ð¸Ð´ÑĸÑĤÐ¸": 5785,
      "ĠFinalsatz": 5786,
      "Ġmanchmal": 5787,
      "ĠBesuch": 5788,
      "ĠÐµÐ¼Ð¾": 5789,
      "ĠÑĢÐ¾Ð±Ð¸ÑĤÑĮ": 5790,
      "schuldigen": 5791,
      "Freundin": 5792,
      "zeichne": 5793,
      "Ġempfange": 5794,
      "Ġkonjug": 5795,
      "Ġteilnehmen": 5796,
      "Ġteilgenommen": 5797,
      "canne": 5798,
      "zÃ¤hl": 5799,
      "Ġetw": 5800,
      "Ġdavon": 5801,
      "Ġtreffe": 5802,
      "Ġtrainiere": 5803,
      "bringt": 5804,
      "Ġwunderba": 5805,
      "Ġantiken": 5806,
      "ĠÐ¿Ð¾Ð±ÑĥÐ´Ð¾Ð²Ð°Ð½Ðµ": 5807,
      "Ġinternationalen": 5808,
      "ĠÐ²Ð°Ð¶Ð»Ð¸Ð²Ð¸Ð¹": 5809,
      "Ġentscheiden": 5810,
      "Ð½ÑıÑĤÑĤÑı": 5811,
      "folge": 5812,
      "Ġwechselt": 5813,
      "interessant": 5814,
      "gesprÃ¤ch": 5815,
      "ĠfrÃ¼hstÃ¼ckt": 5816,
      "ĠAdjektive": 5817,
      "ĠÐ¿Ð»Ð°Ð½": 5818,
      "Ġgemalt": 5819,
      "ĠLandschaft": 5820,
      "ĠÑģÐ¾Ð±Ð°ÐºÐ°": 5821,
      "handeln": 5822,
      "www": 5823,
      "ĠÐ²ÑĸÑĢÑİ": 5824,
      "andert": 5825,
      "Ġkontrollieren": 5826,
      "Ġkontrolliere": 5827,
      "ĠÑĸÐ½ÑĦÐ¾ÑĢÐ¼Ð°ÑĨÑĸÑİ": 5828,
      "ĠÐºÐ²Ð°ÑĢÑĤ": 5829,
      "ĠfÃ¼ttere": 5830,
      "ĠÐ½Ð°ÑĨÑĸÐ¾Ð½Ð°Ð»ÑĮÐ½Ð¾Ð³Ð¾": 5831,
      "ÑĢÐ°Ð´ÑĸÑĤÐ¸": 5832,
      "ĠÐ´ÑĢÑĥÐ·": 5833,
      "ĠÐ¼ÐµÑĤÐ¸": 5834,
      "ĠÐ·Ð°ÑĢÐ¿Ð»": 5835,
      "Ġrechnen": 5836,
      "ĠÑĤÐµÐ»ÐµÑĦÐ¾Ð½Ñĥ": 5837,
      "hochschule": 5838,
      "hÃ¤ltnis": 5839,
      "Ġreisen": 5840,
      "ĠÐ¾ÑģÐ¾Ð±Ð¾Ð²Ð¾Ð³Ð¾": 5841,
      "ĠÐ±ÑĥÐ´Ð¸Ð½Ð¾Ðº": 5842,
      "Arbeit": 5843,
      "glauben": 5844,
      "ĠzerstÃ¶rt": 5845,
      "ĠÐ¿Ð¾Ð¼Ð¸Ð»ÐºÐ°": 5846,
      "ĠÐ¿ÑĸÐ´ÐºÑĢÐµÑģÐ»ÑİÑĶ": 5847,
      "feste": 5848,
      "ĠÐ²ÐºÑĸÐ½ÑĨÑĸ": 5849,
      "ĠÑīÐ¾Ð´Ð¾": 5850,
      "ĠÐ²Ð±Ð¸Ð²": 5851,
      "ĠÐ¼Ð¾Ð¼ÐµÐ½ÑĤ": 5852,
      "ĠSubjekt": 5853,
      "ĠÐ¿Ð¾Ð´Ð¾Ð±Ð°ÑĶÑĤÑĮÑģÑı": 5854,
      "ĠÐ·ÑĢÐ¾Ð·ÑĥÐ¼ÑĸÐ»": 5855,
      "ĠÐ·Ð³ÑĸÐ´Ð½Ð¾": 5856,
      "ĠÃ¶kologisch": 5857,
      "Ġaccusative": 5858,
      "Ġendlich": 5859,
      "ĠSatzende": 5860,
      "ĠÑĤÑĢÐ°Ð½ÑģÐ¿Ð¾ÑĢÑĤ": 5861,
      "!!": 5862,
      "')": 5863,
      "07": 5864,
      "34": 5865,
      "48": 5866,
      "Ad": 5867,
      "Best": 5868,
      "Deutsch": 5869,
      "Essen": 5870,
      "Empf": 5871,
      "Fach": 5872,
      "Fast": 5873,
      "FrÃ¼hstÃ¼ck": 5874,
      "Gar": 5875,
      "Ho": 5876,
      "Hand": 5877,
      "HÃ¶rt": 5878,
      "KÃ¼": 5879,
      "Kar": 5880,
      "Lest": 5881,
      "Liter": 5882,
      "Ne": 5883,
      "Park": 5884,
      "SB": 5885,
      "Sal": 5886,
      "Satz": 5887,
      "Tro": 5888,
      "WÃ¼nscht": 5889,
      "Zu": 5890,
      "Zum": 5891,
      "Zimmer": 5892,
      "__": 5893,
      "aar": 5894,
      "bie": 5895,
      "bau": 5896,
      "bist": 5897,
      "blau": 5898,
      "bast": 5899,
      "bieten": 5900,
      "dit": 5901,
      "dig": 5902,
      "dlich": 5903,
      "dÃ¼rfen": 5904,
      "eres": 5905,
      "echs": 5906,
      "fst": 5907,
      "ften": 5908,
      "fall": 5909,
      "fÃ¤l": 5910,
      "film": 5911,
      "fliegt": 5912,
      "gern": 5913,
      "gut": 5914,
      "ii": 5915,
      "ium": 5916,
      "ibst": 5917,
      "jahr": 5918,
      "ki": 5919,
      "komparation": 5920,
      "ler": 5921,
      "lÃ¶": 5922,
      "lag": 5923,
      "modalverben": 5924,
      "perfekt": 5925,
      "punkt": 5926,
      "porale": 5927,
      "seln": 5928,
      "sollen": 5929,
      "ta": 5930,
      "tme": 5931,
      "zte": 5932,
      "zeigt": 5933,
      "Ð¢": 5934,
      "ÐĲ": 5935,
      "Ġ:": 5936,
      "Ġ=": 5937,
      "Ġendet": 5938,
      "ĠÑģÐ»Ñĥ": 5939,
      "Ġpflan": 5940,
      "ÑĸÑħ": 5941,
      "ÑĸÐ°Ð»": 5942,
      "Ð¸ÑĪ": 5943,
      "Ð¸Ð½Ñĸ": 5944,
      "ÑıÑģ": 5945,
      "Ð°ÑĢÑĥ": 5946,
      "Ð¾Ð¹": 5947,
      "ÑĢÐ°Ð·": 5948,
      "ÑĢÑĸÐ²": 5949,
      "ÑĢÐ¾Ð¿": 5950,
      "Ð»Ð¸Ðº": 5951,
      "Ð»ÑĸÑĩ": 5952,
      "ennen": 5953,
      "Ġde": 5954,
      "Ġdar": 5955,
      "Ġdek": 5956,
      "Ġdamit": 5957,
      "erung": 5958,
      "ĠÐ²Ð¸Ð²": 5959,
      "ĠÐ²ÑĸÐ»ÑĮ": 5960,
      "Ð¾Ð²Ð½Ð¸Ð¹": 5961,
      "Ð¾Ð²ÐºÐ°": 5962,
      "ĠÐ´ÐµÑĢ": 5963,
      "ĠÐ´Ð°ÑĤÐ¸": 5964,
      "ĠÐ¿Ð¾ÑıÑģÐ½ÐµÐ½Ð½Ñı": 5965,
      "ĠÐ¿Ð¸Ñģ": 5966,
      "inen": 5967,
      "innt": 5968,
      "stit": 5969,
      "stru": 5970,
      "streiten": 5971,
      "staubsau": 5972,
      "iele": 5973,
      "ĠIhre": 5974,
      "ĠÑĢÐ¸Ð½": 5975,
      "ĠÑĢÐ°Ñħ": 5976,
      "Ð¾ÑĢÐ°": 5977,
      "Ð¾ÑĢÐ¾ÑĪ": 5978,
      "auer": 5979,
      "auert": 5980,
      "aucht": 5981,
      "ĠÑĢÐµÑĩÑĸ": 5982,
      "ĠInsel": 5983,
      "Ġmusst": 5984,
      "bereit": 5985,
      "bereiten": 5986,
      "beginnt": 5987,
      "besucht": 5988,
      "Ġsollen": 5989,
      "Ġsenden": 5990,
      "Ġserv": 5991,
      "angebot": 5992,
      "unft": 5993,
      "ĠÐ¼Ð¾Ñı": 5994,
      "ĠÐ¼Ð¾Ð³": 5995,
      "ĠÐ¼Ð¾Ð³Ð¾": 5996,
      "ĠÐ¼Ð°Ð»": 5997,
      "Ð´Ð°ÑĤÐ¸": 5998,
      "Ð´ÑĢÑĥÐ³": 5999,
      "Ð´Ð°ÑĢ": 6000,
      "haft": 6001,
      "eiger": 6002,
      "Ġgelegt": 6003,
      "Ð°Ð²Ð»ÐµÐ½Ð½Ñı": 6004,
      "ĠÐ¿ÑĢÐ¸Ð³": 6005,
      "ĠÐ¿ÑĢÐ¸Ð´Ð°ÑĤ": 6006,
      "ĠÐ¾Ð³": 6007,
      "teuer": 6008,
      "ĠSelma": 6009,
      "Ð¸Ð²Ð½Ð¸Ð¹": 6010,
      "Ð¸Ð²Ð°Ð½Ð½Ñı": 6011,
      "Ð¾Ð´Ñĥ": 6012,
      "Ð¾Ð´ÑĸÐ¹": 6013,
      "Ð¾Ð´ÐµÐ½": 6014,
      "Ġwach": 6015,
      "Ġweinen": 6016,
      "Ġwehen": 6017,
      "Ð»ÑĮÐ¹": 6018,
      "Ð°ÑĶÑĪ": 6019,
      "ĠÑĩÑĥÐ´": 6020,
      "ĠÑĩÐµÐº": 6021,
      "ĠÑĩÐµÑĢÐµÐ·": 6022,
      "ĠÑĥÑĩÐ°": 6023,
      "esst": 6024,
      "eshalb": 6025,
      "ĠBa": 6026,
      "ĠBÃ¼r": 6027,
      "Ð½Ð°Ð½Ð½Ñı": 6028,
      "Ã¶gen": 6029,
      "Ã¶se": 6030,
      "itik": 6031,
      "Ġeinkaufen": 6032,
      "ÐµÑĤÐµ": 6033,
      "ÐµÑĤÐ°": 6034,
      "schutz": 6035,
      "ÑİÑİÑĤÑĮ": 6036,
      "Ð¶ÐµÐ½Ð½Ñı": 6037,
      "Ð½Ð¸ÑĨÑĤ": 6038,
      "ĠKo": 6039,
      "ĠÑĨÐ¸Ð¼": 6040,
      "ĠkÃ¼hl": 6041,
      "arze": 6042,
      "arzt": 6043,
      "achte": 6044,
      "Ġdenn": 6045,
      "Ã¤ste": 6046,
      "ĠTiere": 6047,
      "ĠTemp": 6048,
      "atte": 6049,
      "elm": 6050,
      "elcher": 6051,
      "Ġ(=": 6052,
      "ĠÐºÐµÑĢ": 6053,
      "ĠÐºÑĸÐ¼": 6054,
      "ĠÐºÐ°ÑĢÑĤ": 6055,
      "ĠÐºÐ°Ð²Ñĥ": 6056,
      "ĠAut": 6057,
      "ĠAbs": 6058,
      "ĠÐ½ÐµÐ³": 6059,
      "lefon": 6060,
      "ĠWÃ¤": 6061,
      "ĠWÃ¶rter": 6062,
      "Ġaufessen": 6063,
      "ĠaufrÃ¤umen": 6064,
      "ÑħÐ°": 6065,
      "Ð·Ð´": 6066,
      "Ġfal": 6067,
      "ĠfÃ¼nf": 6068,
      "Ð¾Ð»Ð°": 6069,
      "ĠbÃ¼geln": 6070,
      "Ð°ÑĤÐ¸Ð²Ð½Ð¸Ð¹": 6071,
      "ĠGo": 6072,
      "ĠGramm": 6073,
      "ĠGÃ¤ste": 6074,
      "ĠÑĦÐ¾ÑĤ": 6075,
      "Ġscharfe": 6076,
      "ÃŁer": 6077,
      "erneinen": 6078,
      "ĠÐ²Ð¸ÐºÐ¾ÑĢÐ¸ÑģÑĤÐ°Ð½Ñĸ": 6079,
      "Ð¾Ð±ÑĸÑĤ": 6080,
      "benutze": 6081,
      "derung": 6082,
      "derlan": 6083,
      "ĠÐ²ÐºÐ°Ð·Ð°Ð½Ð¾": 6084,
      "Ġgo": 6085,
      "ĠÐĴÐ°Ñģ": 6086,
      "Ġmeines": 6087,
      "ĠÑĤÐ¾ÑĢÑĤ": 6088,
      "ĠÑĤÐ¸Ð¶": 6089,
      "ĠÑĤÑĥÑĢ": 6090,
      "ĠÐ¿ÑĸÐ´Ð²Ð¸": 6091,
      "ĠÐ¿ÑĸÐ´ÑĤÐ²ÐµÑĢÐ´Ð¶": 6092,
      "ÑĸÐ¹Ð½Ð°": 6093,
      "ĠÐŁÑĢÐ¸ÐºÐ»Ð°Ð´": 6094,
      "ÐµÐ½ÐµÑĢ": 6095,
      "ÐµÐ½ÑĨÑĸÑı": 6096,
      "ĠÐ±Ð¸": 6097,
      "ĠÐ±Ð°Ñģ": 6098,
      "ÐµÐ´ÑĢÐ¸": 6099,
      "berichten": 6100,
      "ĠLust": 6101,
      "ĠLÃ¤rm": 6102,
      "ĠÐ·Ð°Ð¿ÑĢÐ¾Ñģ": 6103,
      "urz": 6104,
      "ural": 6105,
      "Ð¿ÑĢÐ¸": 6106,
      "ĠEnt": 6107,
      "kten": 6108,
      "Ġlacht": 6109,
      "Ġlaufen": 6110,
      "Ð»ÐµÐ½Ðµ": 6111,
      "Ġbeg": 6112,
      "Ġbesch": 6113,
      "Ġbemer": 6114,
      "Ġbeantwor": 6115,
      "Ġbekannt": 6116,
      "ĠÐ³Ð¾ÑģÑĤÑĸ": 6117,
      "ĠÐ³ÑĸÑĤÐ°": 6118,
      "rennt": 6119,
      "ĠÐ´Ð¾Ð¿Ð¾Ð¼Ð°Ð³": 6120,
      "ĠÐ·Ð°Ð¹Ð¼ÐµÐ½Ð½Ð¸ÐºÑĸÐ²": 6121,
      "olz": 6122,
      "Ġangeblich": 6123,
      "hnung": 6124,
      "weiÃŁ": 6125,
      "Ġtrennba": 6126,
      "Ġtanze": 6127,
      "Ġtrotzdem": 6128,
      "Ġtrifft": 6129,
      "ĠÐ·Ð°Ð¿ÐµÑĢÐµÑĩÐµÐ½Ð½Ñĸ": 6130,
      "ierung": 6131,
      "ĠÐ¶Ð¾Ð²": 6132,
      "ĠÐ¶Ð¸ÑĤÑĤÑı": 6133,
      "ÑĸÐ»ÑĮÑĪÐµ": 6134,
      "rauch": 6135,
      "rauchen": 6136,
      "rufe": 6137,
      "ĠOst": 6138,
      "ĠZus": 6139,
      "Ġstudiert": 6140,
      "Ð¾Ð·Ð¸ÑĤ": 6141,
      "reis": 6142,
      "reise": 6143,
      "ĠÐ¿Ð¾ÐºÑĥÐ¿": 6144,
      "ĠUSB": 6145,
      "Ġkannst": 6146,
      "jeden": 6147,
      "ĠÑĩÐ°ÑģÑĤÐºÐ¸": 6148,
      "geln": 6149,
      "Ġverbs": 6150,
      "Ġverliere": 6151,
      "Ġvergleich": 6152,
      "Ġverabschie": 6153,
      "Ġnachfragen": 6154,
      "prungen": 6155,
      "ĠÐ·Ð°Ð»Ð¸": 6156,
      "Ð¾ÑĤÐµÑĢÐµ": 6157,
      "ĠÐ´Ð¾Ð´Ð°ÑĤÐºÑĥ": 6158,
      "Ġohne": 6159,
      "ĠVerbstamm": 6160,
      "verlieren": 6161,
      "ahres": 6162,
      "altung": 6163,
      "ĠÐ¾Ð·Ð½Ð°ÑĩÐµÐ½Ð¾Ð³Ð¾": 6164,
      "ĠÐ¾Ð·Ð½Ð°ÑĩÐµÐ½Ð¸Ð¹": 6165,
      "ĠÐ¾Ð·Ð½Ð°ÑĩÐµÐ½Ð¸Ð¼": 6166,
      "Ġgesessen": 6167,
      "Ġgesprungen": 6168,
      "ĠÐºÐ¾Ð»ÐµÐ³": 6169,
      "arbeiter": 6170,
      "log": 6171,
      "Ġgeflo": 6172,
      "Ġschneit": 6173,
      "Ġliebt": 6174,
      "able": 6175,
      "ĠspÃ¼le": 6176,
      "ĠStudi": 6177,
      "Ð¾ÑĩÐµ": 6178,
      "Ã¤ndern": 6179,
      "ĠGegen": 6180,
      "ĠÐ»Ðµ": 6181,
      "ĠÐ»Ð¸ÑĪÐµ": 6182,
      "ĠÐ»Ð¾ÑĤÐµÑĢÐµ": 6183,
      "rÃ¤gt": 6184,
      "ÐµÐ·ÑĥÐ»ÑĮÑĤ": 6185,
      "Ã¤tte": 6186,
      "Ġgewachsen": 6187,
      "ĠHauses": 6188,
      "Ġvorne": 6189,
      "Ġvorbei": 6190,
      "gebraucht": 6191,
      "Ã¼ttern": 6192,
      "ĠÑħÐ¾Ð»Ð¾Ð´": 6193,
      "ĠPartner": 6194,
      "Ġblaue": 6195,
      "Ġblauen": 6196,
      "Ġplanen": 6197,
      "Ġtrinkst": 6198,
      "parable": 6199,
      "ÑĸÐºÑģ": 6200,
      "Ð²ÑĸÑĢ": 6201,
      "eispiele": 6202,
      "Ġ11": 6203,
      "Ġ13": 6204,
      "Ġ15": 6205,
      "ĠÐĹÐ²Ð¾ÑĢÐ¾ÑĤ": 6206,
      "ĠÑĤÐ°ÐºÐ¸Ð¼": 6207,
      "ĠArbeits": 6208,
      "Ġgeschlafen": 6209,
      "Ġgeschnitten": 6210,
      "ĠÐ¼Ð¾Ð¶Ñĥ": 6211,
      "Ã¤dt": 6212,
      "Schu": 6213,
      "ĠÐ·Ð²Ð¸Ñĩ": 6214,
      "angsam": 6215,
      "Ġhochladen": 6216,
      "ĠÐ³ÐµÐ½ÑĸÑĤÑĸÐ²": 6217,
      "ĠÐ·Ð²ÐµÑĢÑĤ": 6218,
      "Ġfindet": 6219,
      "Steig": 6220,
      "ositiv": 6221,
      "ÑĢÐ°ÑĦ": 6222,
      "ĠAusbildung": 6223,
      "Ġgehol": 6224,
      "ĠÐ½Ð°Ð´Ð°ÑĶÑĤÑĮÑģÑı": 6225,
      "Ġentlang": 6226,
      "Ġentschieden": 6227,
      "ĠKonjunktion": 6228,
      "ĠMonats": 6229,
      "gefeiert": 6230,
      "gefÃ¤llt": 6231,
      "ĠDeutschen": 6232,
      "schÃ¶nen": 6233,
      "meer": 6234,
      "ĠÐ»ÑİÐ´": 6235,
      "ĠÐ»ÑİÐ´Ð¸": 6236,
      "Ð°ÑĩÐ°": 6237,
      "ammen": 6238,
      "kleine": 6239,
      "Ġgenie": 6240,
      "Ġgenommen": 6241,
      "ĠManchmal": 6242,
      "ĠaufgehÃ¶rt": 6243,
      "ĠgrÃ¼nen": 6244,
      "ĠÑĸÐ½ÑĪÐ¾Ð³Ð¾": 6245,
      "ĠÐŁÑĸÐ´ÑĢÑıÐ´Ð½Ð¸Ð¹": 6246,
      "ĠÐ¿Ð¾Ð´Ð°ÑĢÑĥ": 6247,
      "ĠEsst": 6248,
      "ÐºÐ¾Ð²Ð¸Ð¼": 6249,
      "schreibe": 6250,
      "schreiben": 6251,
      "ÑĥÑģÑĸÐ´": 6252,
      "Ġjung": 6253,
      "ĠÑĹÐ¼": 6254,
      "Ġbringen": 6255,
      "ĠÑģÐ²ÑıÑĤ": 6256,
      "ĠÑģÐ²Ð¾ÑĶ": 6257,
      "ĠÐºÑĥÑĢÑģ": 6258,
      "ohne": 6259,
      "Ð°ÑģÐºÐ°": 6260,
      "geschÃ¤ft": 6261,
      "geschlossen": 6262,
      "ĠÐŁÑĢÐ°Ð²Ð¸Ð»ÑĮÐ½Ðµ": 6263,
      "ĠWinters": 6264,
      "Ġspare": 6265,
      "ĠBÃ¤ckers": 6266,
      "ĠÐºÐ½Ð¸Ð³Ñĥ": 6267,
      "ĠÑĸÐ½ÑĦÑĸÐ½ÑĸÑĤÐ¸Ð²Ð°": 6268,
      "ĠÑĸÐ½ÑĦÑĸÐ½ÑĸÑĤÐ¸Ð²Ñĥ": 6269,
      "ĠÐ¿ÑĢÐ¸ÑĢ": 6270,
      "ĠÐ¿ÑĢÐ¸ÑĩÐ¸": 6271,
      "ĠVerkÃ¤ufers": 6272,
      "ĠStrandes": 6273,
      "ĠOrt": 6274,
      "ĠMechanikers": 6275,
      "ĠÐ¼Ð½Ð¾Ð¶Ð¸Ð½Ñĥ": 6276,
      "konjunktiv": 6277,
      "stellung": 6278,
      "ĠÐµÐºÐ¾Ð½": 6279,
      "reichen": 6280,
      "ĠTopfes": 6281,
      "ĠÐ²Ð²ÑĸÑĩÐ»Ð¸Ð²Ð¾ÑģÑĤÑĸ": 6282,
      "ĠQR": 6283,
      "zentr": 6284,
      "ĠVerbrecher": 6285,
      "wechs": 6286,
      "Reg": 6287,
      "Ġempfehlen": 6288,
      "ĠÐ¿ÐµÐ²Ð½Ð¸Ð¹": 6289,
      "ĠMinuten": 6290,
      "ĠÐ¿Ð¾Ð²ÐµÑĢÑħ": 6291,
      "kochen": 6292,
      "mÃ¼de": 6293,
      "gehst": 6294,
      "ĠMesse": 6295,
      "onnern": 6296,
      "Ġleckeren": 6297,
      "Ġleckerer": 6298,
      "Ġleckeres": 6299,
      "trinken": 6300,
      "trinkst": 6301,
      "ĠÐ»ÑİÐ±Ð¸ÑĤÑĮ": 6302,
      "Ġdunkl": 6303,
      "Ġgestanden": 6304,
      "ÑİÐ³ÑĥÐ²Ð°ÑĤÐ¸": 6305,
      "ÑıÑĤÐ¸ÑģÑı": 6306,
      "Ġfroh": 6307,
      "ĠÑģÐ¼Ð°Ðº": 6308,
      "ĠÑģÐ¼Ð°Ñĩ": 6309,
      "Ġandere": 6310,
      "ĠÐ³ÑĢÐ¾ÑĪÐµÐ¹": 6311,
      "ĠÐ²Ð¸Ð³ÑĢ": 6312,
      "schnei": 6313,
      "ĠschlieÃŁen": 6314,
      "ĠschlieÃŁe": 6315,
      "ĠschlieÃŁlich": 6316,
      "ĠÐ·Ð°Ð¿Ð¸ÑĤÑĥÑĶ": 6317,
      "ĠÐ·Ð°Ð¿Ð¸ÑĤÐ°ÑĤÐ¸": 6318,
      "Ð°Ð³Ð°ÑĤÐ¾": 6319,
      "hoffen": 6320,
      "ÑĥÐ½Ð¾Ðº": 6321,
      "Ġmutigen": 6322,
      "ĠÑħÐ¾ÑĩÐµ": 6323,
      "langweilig": 6324,
      "Ġentscheidet": 6325,
      "ĠÐ»ÑĸÐºÐ°ÑĢÑı": 6326,
      "ĠLieblingsort": 6327,
      "Ġwechseln": 6328,
      "Ġfotografiert": 6329,
      "Schreibt": 6330,
      "ĠÑģÑĤÑĢÑĥÐºÑĤÑĥÑĢÐ°": 6331,
      "Ġeng": 6332,
      "Ġatme": 6333,
      "Ġatmen": 6334,
      "ĠÑģÑĤÑĥÐ´ÐµÐ½ÑĤÑĸÐ²": 6335,
      "ĠÐºÑĢÐ°ÑīÐµ": 6336,
      "ĠAls": 6337,
      "ĠÑĩÐ¾Ð»Ð¾Ð²ÑĸÐºÐ¾Ð²Ñĸ": 6338,
      "ĠtrÃ¤gst": 6339,
      "ĠĠĠĠĠĠĠĠĠĠĠĠĠĠĠĠ": 6340,
      "Jeden": 6341,
      "Lies": 6342,
      "nahm": 6343,
      "ĠÐ´ÑĸÐ¹ÑģÐ½": 6344,
      "ĠÐ¿Ð¾ÑĢÐ°Ð´Ñĥ": 6345,
      "Ġwichtige": 6346,
      "ultur": 6347,
      "Ġalle": 6348,
      "ÐºÑĥÐ²Ð°ÑĤÐ¸": 6349,
      "Ġfolgenden": 6350,
      "ĠGerÃ¤t": 6351,
      "ĠRelativpronomen": 6352,
      "Ġstellt": 6353,
      "ĠÐ·Ð°ÑģÑĸÐ±": 6354,
      "Zieh": 6355,
      "teilnehmen": 6356,
      "ÑģÐ»ÑĥÐ³": 6357,
      "Ġbacke": 6358,
      "Ġbastle": 6359,
      "ĠÐ·Ð°Ð¿Ð¸ÑĤÐ°Ð»ÑĮÐ½Ðµ": 6360,
      "Ãľbermorgen": 6361,
      "Ġgetanzt": 6362,
      "ĠDokument": 6363,
      "ĠDokumente": 6364,
      "BÃ¼geleisen": 6365,
      "ĠÐ´Ð¸Ð²Ð¸ÑĤÐ¸ÑģÑı": 6366,
      "gestiegen": 6367,
      "Ġsammle": 6368,
      "ĠÐ²ÑĸÐ´Ð¾ÐºÑĢÐµÐ¼Ð¸ÑĤÐ¸": 6369,
      "ĠÐ²ÑĸÐ´ÐºÑĢÐ¸ÑĤÑĤÑı": 6370,
      "ĠÑĸÐ½ÑĤÐµÑĢÐ½": 6371,
      "ĠÐ²Ð¸ÑģÐ»Ð¾Ð²Ð¸ÑĤÐ¸": 6372,
      "Ġverbessert": 6373,
      "ĠÑĢÐ¾Ð±Ð¾ÑĩÐ¸Ð¹": 6374,
      "ĠÃ¤ngstlichen": 6375,
      "garten": 6376,
      "passiv": 6377,
      "ĠrÃ¼hre": 6378,
      "Ġmeistens": 6379,
      "ĠÐ½Ð°ÑĢÐ¾Ð´Ð¶ÐµÐ½Ð½Ñı": 6380,
      "ÐºÑĥÐ¿Ð¸ÑĤÐ¸": 6381,
      "elches": 6382,
      "ĠÐ±Ð°Ð½ÐºÑĥ": 6383,
      "ĠÐ±Ð°ÑĩÑĥ": 6384,
      "Ġbedeutet": 6385,
      "ĠÐ¹Ð´ÐµÐ¼Ð¾": 6386,
      "Ġjoggen": 6387,
      "FrÃ¼her": 6388,
      "Ġseparable": 6389,
      "Ġgedacht": 6390,
      "ĠÐ¾ÑħÐ¾ÑĩÐµ": 6391,
      "ĠÐ²ÑĸÐ´Ð´ÑĸÐ»ÑĮÐ½Ð¸Ñħ": 6392,
      "ĠÑħÐ»ÑĸÐ±": 6393,
      "ĠÐ¿ÑĢÐ¾Ð±Ð»ÐµÐ¼Ð°": 6394,
      "tschafts": 6395,
      "Ġdiesem": 6396,
      "ĠÐ¿ÑĢÐ¾Ð³ÑĢ": 6397,
      "ĠSingular": 6398,
      "ĠÑĥÐºÑĢÐ°ÑĹÐ½ÑģÑĮÐº": 6399,
      "schrift": 6400,
      "ĠMaria": 6401,
      "ĠÐºÐ°ÑĦÐµÐ´ÑĢÐ¸": 6402,
      "Ð¾Ð»Ð¸Ð½ÑģÑĮÐºÐ¾Ð³Ð¾": 6403,
      "Ð¾Ð±ÑĢÐ°Ð¶": 6404,
      "ĠObjekt": 6405,
      "ĠÐ±ÑĥÐ´ÑĮ": 6406,
      "Codes": 6407,
      "ĠÐ¼Ð°ÑģÐºÑĥ": 6408,
      "Ġangefangen": 6409,
      "Ġkonjugierte": 6410,
      "Garage": 6411,
      "ĠÑģÐ»ÑĥÐ¶": 6412,
      "ĠÐ²Ð¸Ð²Ñĩ": 6413,
      "stitut": 6414,
      "ĠÐºÑĸÐ¼Ð½": 6415,
      "Ġfalsch": 6416,
      "ĠGrammatik": 6417,
      "ĠÐ±Ð°ÑģÐµÐ¹": 6418,
      "ĠÐ·Ð°Ð»Ð¸ÑĪ": 6419,
      "ĠStudium": 6420,
      "ĠÐºÑĥÑĢÑģÑĥ": 6421,
      "ĠÐµÐºÐ¾Ð½Ð¾Ð¼": 6422,
      ");": 6423,
      "33": 6424,
      "35": 6425,
      "45": 6426,
      "49": 6427,
      "57": 6428,
      "67": 6429,
      "Ab": 6430,
      "Ap": 6431,
      "Beispiele": 6432,
      "DrauÃŁen": 6433,
      "Eis": 6434,
      "Fin": 6435,
      "Gibt": 6436,
      "Jetzt": 6437,
      "Koch": 6438,
      "Langsam": 6439,
      "Me": 6440,
      "No": 6441,
      "Neben": 6442,
      "Oben": 6443,
      "Pro": 6444,
      "PrÃ¼fung": 6445,
      "Part": 6446,
      "RÃ¤umt": 6447,
      "TÃ¼r": 6448,
      "Urlaub": 6449,
      "Warum": 6450,
      "Welche": 6451,
      "azieren": 6452,
      "blei": 6453,
      "boden": 6454,
      "com": 6455,
      "dan": 6456,
      "dativ": 6457,
      "dopp": 6458,
      "fro": 6459,
      "frage": 6460,
      "feiern": 6461,
      "fÃ¼hlen": 6462,
      "fliegen": 6463,
      "gl": 6464,
      "hst": 6465,
      "hein": 6466,
      "hil": 6467,
      "hÃ¶r": 6468,
      "hinter": 6469,
      "kurs": 6470,
      "len": 6471,
      "leh": 6472,
      "licht": 6473,
      "lle": 6474,
      "lese": 6475,
      "lÃ¤uft": 6476,
      "mut": 6477,
      "mag": 6478,
      "mieten": 6479,
      "nei": 6480,
      "namen": 6481,
      "pÃ¤": 6482,
      "passen": 6483,
      "rim": 6484,
      "ritten": 6485,
      "sum": 6486,
      "sichtig": 6487,
      "sÃ¤t": 6488,
      "sort": 6489,
      "sehr": 6490,
      "salz": 6491,
      "sÃ¤tze": 6492,
      "scannen": 6493,
      "seits": 6494,
      "ton": 6495,
      "tut": 6496,
      "train": 6497,
      "uster": 6498,
      "ulieren": 6499,
      "verein": 6500,
      "wendet": 6501,
      "ziert": 6502,
      "zog": 6503,
      "zone": 6504,
      "Ãĸ": 6505,
      "Ð£": 6506,
      "Ðŀ": 6507,
      "Ðł": 6508,
      "ĠÐ¥": 6509,
      "Ð½ÑĸÐº": 6510,
      "ÑĸÑģÐ½": 6511,
      "Ð°ÑģÐ»": 6512,
      "Ð°Ð½Ð¸Ð¹": 6513,
      "ÑĢÐ¸ÑģÑĤ": 6514,
      "ÑĢÑĸÑĹ": 6515,
      "ÑĢÐ¾ÑĪ": 6516,
      "ÑĥÐ»Ð¸": 6517,
      "ress": 6518,
      "regelmÃ¤": 6519,
      "Ð»ÑĸÐ²": 6520,
      "endes": 6521,
      "Ġdre": 6522,
      "Ġdicke": 6523,
      "Ġdeutsch": 6524,
      "ĠÐ²Ð¼": 6525,
      "ĠÐ²ÑĸÐ´Ð¼": 6526,
      "ĠÐ²ÐµÐ´": 6527,
      "ĠÐ²Ð¿ÑĢ": 6528,
      "ĠÐ²Ð¸Ñģ": 6529,
      "ĠÐ²Ð°ÑĢÑĤ": 6530,
      "ĠÐ²ÐµÑģ": 6531,
      "Ð¾Ð²Ñĥ": 6532,
      "Ð¾Ð²Ð¾Ð»": 6533,
      "ĠÐ´Ð¾ÑĢ": 6534,
      "ĠÐ´ÐµÑĤ": 6535,
      "ĠÐ´Ð¶": 6536,
      "ĠÐ´Ð¾Ðº": 6537,
      "ĠÐ¿Ð¾Ð²Ñĸ": 6538,
      "ĠÐ¿Ð°Ð´": 6539,
      "ĠÐ¿ÑĸÑĪ": 6540,
      "ĠÐ¿Ð»Ð°": 6541,
      "ÑĸÐ¿": 6542,
      "ÑģÐ½Ñĸ": 6543,
      "inder": 6544,
      "ÑģÑĤÐµÑĢ": 6545,
      "ÑģÑĤÐ¸Ð²": 6546,
      "Ð¾Ð¼ÐµÑĢ": 6547,
      "stich": 6548,
      "stand": 6549,
      "stadt": 6550,
      "Ð¼Ðµ": 6551,
      "Ð¼Ð¾Ð½": 6552,
      "iesen": 6553,
      "ÐºÐ¾Ð³Ð¾": 6554,
      "ÐºÐ¾Ð²Ð°": 6555,
      "ÐºÐ¾Ð³Ð¾ÑģÑĮ": 6556,
      "ĠÑĢÐ¾": 6557,
      "ĠÑĢÐ¾Ð±Ð¸ÑĤÐ¸": 6558,
      "Ð¾ÑĢÐ¾Ð²": 6559,
      "ĠÐ·Ð¸Ð¼": 6560,
      "ĠÐ·ÑĥÑģÑĤÑĢ": 6561,
      "einander": 6562,
      "ĠÐ½Ð¾Ð²Ð¸Ð¹": 6563,
      "ĠÐ½Ð¾Ð¼ÐµÑĢ": 6564,
      "gekommen": 6565,
      "gegeben": 6566,
      "gesehen": 6567,
      "geregt": 6568,
      "ĠÑĢÐµÑĩÐµÐ¹": 6569,
      "ĠInse": 6570,
      "ĠÐ´ÑĸÑĶÑģÐ»Ð¾Ð²Ñĸ": 6571,
      "ĠmÃ¶glich": 6572,
      "ĠmÃ¶gen": 6573,
      "belie": 6574,
      "beschw": 6575,
      "begrÃ¼": 6576,
      "bezahlen": 6577,
      "Ġsal": 6578,
      "Ð¸ÑģÑĤÐ¸Ñĩ": 6579,
      "Ð°ÑĤÐ¾ÑĢ": 6580,
      "Ð°ÑĤÐ¸ÐºÐ¸": 6581,
      "Ð²Ð¸Ð¹": 6582,
      "Ð²Ð°ÑĢ": 6583,
      "Ð²Ð°Ð¶Ð°Ñİ": 6584,
      "ank": 6585,
      "ans": 6586,
      "anziehen": 6587,
      "Ġdiese": 6588,
      "ĠÐ¼Ð¾ÑĹ": 6589,
      "ĠÐ¼ÑĢÑĸÑĹ": 6590,
      "Ð´ÐµÑĢ": 6591,
      "ÐµÑĢÐ²": 6592,
      "eist": 6593,
      "Ġgelegen": 6594,
      "Ġgestellt": 6595,
      "ĠÐ¿ÑĢÐµÑĦ": 6596,
      "ĠÐ¾Ð¿ÐµÑĢ": 6597,
      "ÑĨÑĸÐ²": 6598,
      "telefon": 6599,
      "ĠSachen": 6600,
      "Ð¸Ð²Ð¾": 6601,
      "Ð¸Ð²ÑģÑı": 6602,
      "ĠÐ°ÑĢ": 6603,
      "ÑĹÑĹ": 6604,
      "Ð¾Ð´Ð½Ñı": 6605,
      "Ġwelche": 6606,
      "Ġwaren": 6607,
      "Ġwollte": 6608,
      "Ġwelcher": 6609,
      "ĠÐ½Ð°ÑĥÐº": 6610,
      "Ã¼ge": 6611,
      "Ð»ÑĮÐ½Ð¸Ð¹": 6612,
      "Ð°ÑĶÑĤÐµ": 6613,
      "Ð¾Ð³Ñĥ": 6614,
      "Ð¾Ð³ÑĤÐ¸": 6615,
      "Ð¾Ð³ÑĢÐ°ÑĦ": 6616,
      "Ð¿Ñĸ": 6617,
      "Ð¿ÑĤ": 6618,
      "Ð¿ÑĸÐ´": 6619,
      "Ð¿ÐµÑĤ": 6620,
      "ĠÑĥÐºÑĥ": 6621,
      "ĠÑĥÑģÐ¿": 6622,
      "ĠÑĥÐ²Ð°Ð³": 6623,
      "esung": 6624,
      "eswegen": 6625,
      "âĢĵ": 6626,
      "âĢŀ": 6627,
      "ĠBist": 6628,
      "ĠBade": 6629,
      "Ã¶st": 6630,
      "Ã¶hn": 6631,
      "Ã¶bel": 6632,
      "Ġeines": 6633,
      "scheinen": 6634,
      "schmerzen": 6635,
      "genehm": 6636,
      "ĠÐ¿Ð¾ÑĶÐ´Ð½ÑĥÑĶÑĤÑĮÑģÑı": 6637,
      "Ġnimmst": 6638,
      "Ġnormalerweise": 6639,
      "ĠÐ²ÑĸÐ´Ð¼ÑĸÐ½Ð¸ÑĤÐ¸": 6640,
      "ĠÐ²ÑĸÐ´Ð¼ÑĸÐ½ÑıÑĤÐ¸": 6641,
      "ĠKan": 6642,
      "ĠKultur": 6643,
      "ĠMo": 6644,
      "ĠMÃ¼cken": 6645,
      "ĠDen": 6646,
      "ĠDem": 6647,
      "ĠkÃ¤": 6648,
      "ĠHÃ¶r": 6649,
      "Ã¤he": 6650,
      "Ã¤hlt": 6651,
      "ĠTest": 6652,
      "ĠTour": 6653,
      "ĠTage": 6654,
      "ĠTÃ¤ter": 6655,
      "atÃ¼r": 6656,
      "aters": 6657,
      "ĠÐ°ÑĢÑĤÐ¸ÐºÑĥÐ»": 6658,
      "ĠÐºÐ°Ð¶": 6659,
      "ĠÐºÐ°Ð½Ð´": 6660,
      "lecker": 6661,
      "ĠWenn": 6662,
      "ĠWelt": 6663,
      "ĠWelches": 6664,
      "Ð½ÐµÑĨÑĮ": 6665,
      "Ð½ÐµÐ´ÑĸÐ»": 6666,
      "denken": 6667,
      "Ġfrei": 6668,
      "Ġfast": 6669,
      "ĠfÃ¼hlen": 6670,
      "ĠfÃ¤hrst": 6671,
      "Ġbuche": 6672,
      "ĠGrÃ¼": 6673,
      "ĠGerm": 6674,
      "aler": 6675,
      "ĠÑıÐ±Ð»": 6676,
      "Ġschmer": 6677,
      "Ġschaue": 6678,
      "ĠÑĦÐ¾ÑĢÐ¼ÑĥÑĶÑĤÑĮÑģÑı": 6679,
      "ĠÐ¾Ð±Ð¾Ð²": 6680,
      "ĠÐ¾Ð±ÐµÑĢ": 6681,
      "Ð¾Ð±ÑĢÐµ": 6682,
      "utzen": 6683,
      "heben": 6684,
      "ĠÑıÐºÐ¾Ð³Ð¾": 6685,
      "ĠÐ²ÐºÐ°Ð·ÑĥÐ²Ð°Ð½Ð½Ñı": 6686,
      "ÑĢÑĥÐ¶": 6687,
      "Ð°Ð»ÑĮÐ½Ð°": 6688,
      "ĠÐĴÐ°ÑĪ": 6689,
      "ĠÐĴÐ¾Ð½Ð¸": 6690,
      "ĠÑĤÐ°Ð¼": 6691,
      "ĠÑĤÐ²Ð°ÑĢ": 6692,
      "ÑĪÑĥ": 6693,
      "ÑĸÐ¹Ð½Ð¸Ð¹": 6694,
      "ĠÑģÑĥ": 6695,
      "ĠÑģÐ²ÑĸÐ¹": 6696,
      "ĠÑģÑĥÐ¼": 6697,
      "ĠÑģÑĮÐ¾Ð³Ð¾Ð´Ð½Ñĸ": 6698,
      "ĠÑģÐ¸Ð´ÑĸÑĤÐ¸": 6699,
      "ĠÑģÑĥÑģÑĸÐ´": 6700,
      "ĠvÃ¶llig": 6701,
      "ÐµÐ½ÑĤÑĢ": 6702,
      "ÐµÐ½ÑĤÐ¸": 6703,
      "uchtet": 6704,
      "deut": 6705,
      "Ġzuletzt": 6706,
      "ĠÐ¿ÑĸÐ´ÑĢÑıÐ´Ð½Ð°": 6707,
      "ĠÐ±ÐµÑĢ": 6708,
      "ĠÐ±ÑĸÐ»ÑĮÑĪ": 6709,
      "Ð½Ð¸Ð¼Ð¸": 6710,
      "ĠÐ´ÑĢÑĥÐ³Ñĥ": 6711,
      "ĠÐ´ÑĢÑĥÐ³Ð¸Ð¼": 6712,
      "Ġmitgenommen": 6713,
      "Ġmitgebracht": 6714,
      "ÑĸÐ²Ð½Ð¸ÑĨÑĤ": 6715,
      "urfen": 6716,
      "ĠEl": 6717,
      "ĠÐ¾ÑģÐ²Ñĸ": 6718,
      "ktur": 6719,
      "ÑģÑĤÐ°Ð²Ð¸ÑĤÐ¸": 6720,
      "Ġlau": 6721,
      "Ġlassen": 6722,
      "ĠÐ¾Ð±ÑģÑĤÐ°Ð²Ð¸Ð½Ð¾Ñİ": 6723,
      "Ð»ÐµÐ½Ð¸Ð¹": 6724,
      "Ġbekann": 6725,
      "Ġbereite": 6726,
      "Ġbereitet": 6727,
      "ĠNein": 6728,
      "ĠNest": 6729,
      "ĠNomen": 6730,
      "ĠNÃ¤chstes": 6731,
      "ĠNico": 6732,
      "ĠÐ·Ð°Ð¹Ð¼": 6733,
      "ĠÐ²ÑĸÐ´Ð²ÑĸÐ´": 6734,
      "olks": 6735,
      "Ġangenehm": 6736,
      "ĠÐ¾Ð´Ð½Ðµ": 6737,
      "pieren": 6738,
      "Ġtun": 6739,
      "ume": 6740,
      "ĠÐ¾Ð´Ð½Ð¸Ð½Ñĥ": 6741,
      "ĠÐ¶Ð¸ÑĤÐ¸": 6742,
      "ĠVoll": 6743,
      "immten": 6744,
      "ĠÐ½ÐµÐ²Ð¸Ð·Ð½Ð°ÑĩÐµÐ½Ñĸ": 6745,
      "raut": 6746,
      "ĠÐ¶ÑĸÐ½ÐºÐ°": 6747,
      "ĠÐ¶ÑĸÐ½ÐºÐ¸": 6748,
      "ruft": 6749,
      "ruhen": 6750,
      "ÐµÐºÑĤÐ¾ÑĢ": 6751,
      "ÐµÐºÑĤÐ¸Ð²": 6752,
      "Ġstreiten": 6753,
      "Ġsteige": 6754,
      "Ġkaufst": 6755,
      "dukt": 6756,
      "Ð°ÐºÑĥÑĶ": 6757,
      "ĠÐ¿ÑĢÑıÐ¼Ð¾Ð¼Ñĥ": 6758,
      "ĠÐ¿Ð¾ÑĩÐ°ÑĤÐ¾Ðº": 6759,
      "Ġleben": 6760,
      "Ġunangen": 6761,
      "Ġerk": 6762,
      "ĠerhÃ¶": 6763,
      "ĠerklÃ¤ren": 6764,
      "negation": 6765,
      "Ġverkaufen": 6766,
      "Ð¾Ð¶Ð½Ð°": 6767,
      "Ġnachgeschlagen": 6768,
      "lies": 6769,
      "ĠÐ¿ÑĢÐ¸ÑģÐ²ÑĸÐ¹Ð½Ñĸ": 6770,
      "ĠParkhaus": 6771,
      "ĠVersprechen": 6772,
      "ĠVerkehr": 6773,
      "Ð¸ÑĤÐ¸Ð¹": 6774,
      "lade": 6775,
      "vergessen": 6776,
      "verstanden": 6777,
      "verbess": 6778,
      "ĠÐ½Ð°Ð·Ð¸Ð²Ð½Ð¾Ð³Ð¾": 6779,
      "ĠÐ¼ÑĸÑģÑĨÐµÐ²": 6780,
      "Ġsieben": 6781,
      "Ġgesungen": 6782,
      "Ġinteressiert": 6783,
      "ÑĸÑĪÐ°ÑĤÐ¸": 6784,
      "ĠÑģÐ¿ÑĢÑı": 6785,
      "ĠÑģÐ¿ÑĸÐ»ÑĮ": 6786,
      "low": 6787,
      "ĠÐºÐ¾Ð½ÑĤÐ°Ðº": 6788,
      "ĠausdrÃ¼cken": 6789,
      "ĠÐºÐ¾Ð¼Ð°Ñħ": 6790,
      "Ð¾ÑĩÐ¸": 6791,
      "ĠÐ¾ÑģÐ½Ð¾Ð²Ð¸": 6792,
      "ĠÐ¾ÑģÐ½Ð¾Ð²Ñĥ": 6793,
      "ĠÐ¾ÑģÐ½Ð¾Ð²Ð½Ð¾Ð³Ð¾": 6794,
      "ĠÐ·Ð²Ð¾ÑĢÐ¾ÑĤÐ½Ñĸ": 6795,
      "ĠÐ¾ÑĤÑĢÐ¸Ð¼Ð°ÑĤÐ¸": 6796,
      "ĠGeben": 6797,
      "ĠÐ»Ð°ÑģÐºÐ°": 6798,
      "Ġschnelles": 6799,
      "astelt": 6800,
      "Ġschwarze": 6801,
      "Ġwarme": 6802,
      "kkusativ": 6803,
      "Ã¼lst": 6804,
      "ĠSchwarz": 6805,
      "Ġgeweht": 6806,
      "Ġgewartet": 6807,
      "ĠgroÃŁes": 6808,
      "Ġzunehmen": 6809,
      "abei": 6810,
      "ĠgelÃ¶scht": 6811,
      "bleh": 6812,
      "gerufen": 6813,
      "Ð»Ð¸Ð²Ð¸Ð¹": 6814,
      "ienen": 6815,
      "Ð¾Ð²Ð°Ð½Ñĸ": 6816,
      "Ð°Ð¹Ð¾Ð¼": 6817,
      "ĠÐ±ÐµÐ·Ð¿Ðµ": 6818,
      "ĠÑħÐ²": 6819,
      "Ã¶ffnen": 6820,
      "ÑīÐ¾Ð¼Ñĥ": 6821,
      "ÑīÐ°Ð´": 6822,
      "ĠÑģÑĤÐ°Ð½ÑĸÐ²": 6823,
      "ĠBergen": 6824,
      "finde": 6825,
      "Ġpass": 6826,
      "Ġpassen": 6827,
      "Ġpaar": 6828,
      "Ġabnehmen": 6829,
      "Ð²ÑĸÐ»": 6830,
      "Ġbesuchte": 6831,
      "spann": 6832,
      "spÃ¼len": 6833,
      "spazieren": 6834,
      "ĠNegation": 6835,
      "ĠÑĤÐ°ÐºÑĸ": 6836,
      "ĠÑĤÐ°ÐºÐ¸Ð¹": 6837,
      "ĠÑĩÐ¸ÑģÐ»Ð°": 6838,
      "freue": 6839,
      "ĠÐ·Ð°ÐºÑĸÐ½ÑĩÐµÐ½Ð½ÑıÐ¼Ð¸": 6840,
      "ĠÐ¼Ð¾Ð¶ÑĥÑĤÑĮ": 6841,
      "Schw": 6842,
      "Schau": 6843,
      "Schmerz": 6844,
      "ĠStadtrand": 6845,
      "ĠÐ·Ð²ÑĥÑĩ": 6846,
      "ĠKindes": 6847,
      "ĠKindern": 6848,
      "Ġhochgeladen": 6849,
      "ĠÐ¿Ð¾ÑĩÐ¸Ð½Ð°ÑĤÐ¸": 6850,
      "ĠÐºÐ¾Ð¼Ð°Ð½Ð´Ð°": 6851,
      "Wasser": 6852,
      "ĠÐĴÑĸÐ´Ð´ÑĸÐ»ÑĮÐ½Ñĸ": 6853,
      "ĠÑģÐ¿Ð¾ÑģÑĸÐ±": 6854,
      "ĠKonto": 6855,
      "gefÃ¤hr": 6856,
      "kannst": 6857,
      "Jacke": 6858,
      "Ġ22": 6859,
      "Ġgerannt": 6860,
      "ĠÑĪÐµÑĦ": 6861,
      "ĠÐ§Ð¸": 6862,
      "ĠÐ§Ð¾Ð¼Ñĥ": 6863,
      "ĠgrÃ¼ne": 6864,
      "ĠÑĸÐ½ÑĪÐµ": 6865,
      "ĠÑĸÐ½ÑĪÐ°": 6866,
      "Ġlernst": 6867,
      "ĠGebirge": 6868,
      "ĠÐ´ÑĸÑĶÑģÐ»ÑĸÐ²Ð½Ð¸Ð¼": 6869,
      "ĠÐ²Ð²Ð°Ð¶": 6870,
      "ĠNoten": 6871,
      "ĠheiÃŁe": 6872,
      "ĠChefs": 6873,
      "ĠÐºÐ¾Ð½ÐºÑĢÐµÑĤÐ½Ðµ": 6874,
      "ĠÐºÐ¾Ð½ÐºÑĢÐµÑĤÐ½Ñĥ": 6875,
      "unterst": 6876,
      "untergegangen": 6877,
      "ĠÐºÐ½Ð¸Ð¶": 6878,
      "geschrieben": 6879,
      "Ġgebraucht": 6880,
      "000": 6881,
      "ĠÃ¶ffnen": 6882,
      "fahrt": 6883,
      "waltung": 6884,
      "ÐµÑģÑĥ": 6885,
      "ÑĸÑĤÐ½Ð¸Ð¹": 6886,
      "Ġrepariere": 6887,
      "ĠProbleme": 6888,
      "ĠÐĴÑĸÐ´Ð¾ÐºÑĢÐµÐ¼Ð»ÑİÐ²Ð°Ð½Ðµ": 6889,
      "ĠÐĴÑĸÐ´Ð¾ÐºÑĢÐµÐ¼Ð»ÑİÐ²Ð°Ð½Ñĸ": 6890,
      "Ġdeinem": 6891,
      "ĠÐºÐ¾Ð½ÑĤÐµÐºÑģÑĤ": 6892,
      "ĠÑģÑĤÐ°Ð²Ð»ÑıÑĤÑĮ": 6893,
      "ĠKarte": 6894,
      "ĠKopfschmerzen": 6895,
      "Ġhole": 6896,
      "ĠÐºÐ¾Ð»ÑĮÐ¾ÑĢÐ¾Ð¼": 6897,
      "ĠÐ²Ð¶Ð¸ÑĤÐºÑĥ": 6898,
      "ĠÐ§Ð°ÑģÑĤÐ¸Ð½Ð°": 6899,
      "gieÃŁen": 6900,
      "ĠÑĩÐ¾Ð»Ð¾Ð²ÑĸÑĩÐ¸Ð¼Ð¸": 6901,
      "Ð°ÑĨÑĸÑİ": 6902,
      "ĠÑĢÐ¾Ð±Ð¾ÑĤÐ¸": 6903,
      "ĠRegeln": 6904,
      "Ġsetzt": 6905,
      "Ġsetzen": 6906,
      "ĠÐ½ÐµÐ¾Ð±ÑħÑĸÐ´Ð½Ð¾ÑģÑĤÑĸ": 6907,
      "ĠÐ¿ÐµÑĢÐµÑħÑĸÐ´Ð½Ðµ": 6908,
      "Ġdurchlesen": 6909,
      "sagen": 6910,
      "ÑĸÑĩÐ½Ð¸Ð¹": 6911,
      "Ġsalzigen": 6912,
      "Ð²Ð°Ð»Ð°": 6913,
      "Rechnung": 6914,
      "heim": 6915,
      "heiÃŁt": 6916,
      "ĠÐ·Ð½Ð°Ðº": 6917,
      "ĠÐ·Ð½Ð¸Ð¶": 6918,
      "Ġhungrigen": 6919,
      "ĠÐŀÐ±ÑģÑĤÐ°Ð²Ð¸Ð½Ð¸": 6920,
      "ĠÐ¿ÐµÐ²Ð½Ð¸Ð¼": 6921,
      "Ġkontroll": 6922,
      "Ġteilen": 6923,
      "Ġausgegeben": 6924,
      "kosten": 6925,
      "zÃ¤hle": 6926,
      "Ġspannende": 6927,
      "Unser": 6928,
      "ĠÐ´ÑĥÐ¼ÐºÐ¸": 6929,
      "ĠÐ¼ÑĸÑģÑĤÐ¾": 6930,
      "ĠÐ¼ÑĸÑģÑĤÐ°": 6931,
      "ĠÐ¼ÑĸÑģÑĤÐ¸ÑĤÐ¸": 6932,
      "Ġziemlich": 6933,
      "ÑĶÐ´Ð½Ð°Ð½Ð½Ñı": 6934,
      "ĠÐ²Ð»Ð°ÑģÑĤÐ¸Ð²": 6935,
      "Ġfaulen": 6936,
      "serviere": 6937,
      "schlÃ¤gt": 6938,
      "ĠnÃ¼tzliche": 6939,
      "Ġklettere": 6940,
      "Ġbillige": 6941,
      "otografiere": 6942,
      "ĠÐ³Ð¾Ð²Ð¾ÑĢÑıÑīÐ¾Ð¼Ñĥ": 6943,
      "Ġanderer": 6944,
      "verbrauch": 6945,
      "Angst": 6946,
      "Ġrenne": 6947,
      "Ġrennst": 6948,
      "ĠÐ²Ð¸Ð³ÑĢÐ°ÑĪ": 6949,
      "ÑĨÐµÐ²Ñĸ": 6950,
      "Ġschlage": 6951,
      "Ġschlafe": 6952,
      "Ġantike": 6953,
      "Ġtrocknen": 6954,
      "ÑıÐ²ÐºÑĥ": 6955,
      "ĠÑħÐ¾ÑĩÐµÑĤÐµ": 6956,
      "trolliere": 6957,
      "Ġmodernen": 6958,
      "ĠSeid": 6959,
      "Ã¼hrt": 6960,
      "ĠPatient": 6961,
      "Ġputzen": 6962,
      "Ġentschuldigen": 6963,
      "ĠÐ²ÑĸÐ´Ð¾ÐºÑĢÐµÐ¼Ð»ÑİÐ²Ð°Ð»ÑĮÐ½Ð¸Ð¼Ð¸": 6964,
      "ĠLieblingsessen": 6965,
      "folg": 6966,
      "folgt": 6967,
      "Ð»ÑıÑĤÐ¸ÑģÑı": 6968,
      "ĠÐ¿ÑĢÐ°ÑĨÑİÑĶ": 6969,
      "temporale": 6970,
      "ĠSchreibt": 6971,
      "ĠÐºÐ¾ÑĢÐ¾ÑĤ": 6972,
      "ĠfrÃ¼hstÃ¼cke": 6973,
      "Ġangezogen": 6974,
      "Schreib": 6975,
      "Trink": 6976,
      "ĠÐ·Ð»Ð¾ÑĩÐ¸": 6977,
      "ĠbegrÃ¼ÃŁen": 6978,
      "rubbt": 6979,
      "ĠÐ¼Ð°Ð¹Ð±ÑĥÑĤÐ½ÑĮÐ¾Ð³Ð¾": 6980,
      "ĠÐ¿Ð¾ÑģÐ¸Ð»": 6981,
      "ĠAlpen": 6982,
      "ĠgieÃŁen": 6983,
      "ĠlÃ¶sche": 6984,
      "Ġabsagen": 6985,
      "uperlativ": 6986,
      "ĠÑĪÐºÐ¾Ð»Ð°": 6987,
      "Liebling": 6988,
      "treffen": 6989,
      "Ġwichtiges": 6990,
      "Ġantworten": 6991,
      "Ġantwortet": 6992,
      "ulture": 6993,
      "Ġalten": 6994,
      "ĠÐ²ÐµÑĩÐµÑĢ": 6995,
      "ĠÐºÐ²Ð¸ÑĤ": 6996,
      "ĠÐ½ÐµÐ·Ð»ÑĸÑĩ": 6997,
      "ĠfÃ¼ttern": 6998,
      "ĠRelativsatz": 6999,
      "Ġinteressanten": 7000,
      "Ġreservieren": 7001,
      "Ġvorbereitet": 7002,
      "rennbare": 7003,
      "ĠÐ½Ð°ÑĨÑĸÐ¾Ð½Ð°Ð»ÑĮÐ½Ð¸Ð¹": 7004,
      "brauche": 7005,
      "problem": 7006,
      "ĠÐ²Ð¿Ð»Ð¸Ð²": 7007,
      "ĠÐ²ÐµÐ»Ð¸ÐºÐ¸Ð¹": 7008,
      "entscheide": 7009,
      "ĠPrÃ¤fixe": 7010,
      "PrÃ¤teritum": 7011,
      "ĠÐ¼Ð¾ÑĢÑĸ": 7012,
      "ĠÐ²ÑĸÐ´Ð¾ÐºÑĢÐµÐ¼Ð»ÐµÐ½Ðµ": 7013,
      "ĠÐ²Ð¸ÐºÐ¾Ð½Ð°Ð½Ñĥ": 7014,
      "Ausbildung": 7015,
      "BrÃ¶tchen": 7016,
      "WeiÃŁt": 7017,
      "irekte": 7018,
      "ymn": 7019,
      "ĠÐłÐ¾Ð·": 7020,
      "Ġdrucken": 7021,
      "ĠÐ´Ð¸ÑĢÐ¸Ð³": 7022,
      "icherheit": 7023,
      "Ġgereist": 7024,
      "ĠBauern": 7025,
      "ĠHilf": 7026,
      "ĠHilfe": 7027,
      "ĠÑħÐ¾ÑĤÑĸÐ»Ð°": 7028,
      "Geburtstag": 7029,
      "Pflan": 7030,
      "Ġrichtige": 7031,
      "ĠÐ´Ð¾Ð¼Ð¾Ð²": 7032,
      "ĠÐ¾Ð²Ð¾ÑĩÑĸ": 7033,
      "ĠÐ°Ð´ÑĢ": 7034,
      "Ġhalten": 7035,
      "ĠÑĥÐ¼Ð¾Ð²Ñĥ": 7036,
      "ĠBestell": 7037,
      "ĠÑĨÑĸÐºÐ°Ð²Ð¸": 7038,
      "Ġkomisch": 7039,
      "ĠÐ±ÑĢÐ°ÐºÑĥÑĶ": 7040,
      "ĠRuhe": 7041,
      "ĠReihen": 7042,
      "ĠÐ²ÑĸÐ´Ð¿ÑĥÑģÑĤÐºÑĥ": 7043,
      "ĠÐ³ÑĢÐ°Ð¼Ð°ÑĤÐ¸Ñĩ": 7044,
      "richen": 7045,
      "ĠÐ²Ð°ÑĢÑĸÐ°Ð½ÑĤ": 7046,
      "stehst": 7047,
      "getrunken": 7048,
      "ĠÐ¼Ð°ÑĤÐµÑĢ": 7049,
      "ĠHochzeit": 7050,
      "Ġschrubbe": 7051,
      "Ġbeeilt": 7052,
      "Ð¾Ð·Ð²Ð¾Ð»": 7053,
      "ĠÑģÐ¿ÑĸÐ»ÐºÑĥÐ²": 7054,
      "Flug": 7055,
      "Ð¡Ð»Ð¾Ð²": 7056,
      "ĠÐ¿ÐµÐºÐ°ÑĢ": 7057,
      "ĠStelle": 7058,
      "ĠÐ·Ð°Ð´Ð¾Ð²Ð¾Ð»": 7059,
      "ĠfÃ¼hlst": 7060,
      "ĠÐĴÑĸÐ´Ð¼ÑĸÐ½Ð¾Ðº": 7061,
      "Ġstarke": 7062,
      "ĠÑĢÐ¾Ð·Ð´ÑĸÐ»ÐµÐ½Ðµ": 7063,
      "ĠÐĿÐ¾Ð¼ÑĸÐ½Ð°ÑĤÐ¸Ð²Ñĸ": 7064,
      "ĠÑģÐ²Ð°ÑĢÐ¸ÑĤÐ¸ÑģÑı": 7065,
      "ĠÐºÐ²Ð°ÑĢÑĤÐ¸": 7066,
      "struktur": 7067,
      "ĠÑĢÐ°ÑħÑĥÐ½Ð¾Ðº": 7068,
      "ĠÐ¼Ð¾Ð³Ð»Ð¸": 7069,
      "ĠÑĥÑĩÐ°ÑģÑĤÑĮ": 7070,
      "ĠBÃ¼rger": 7071,
      "ĠAbsicht": 7072,
      "ĠÐ½ÐµÐ³Ð°ÑĤÐ¸Ð²": 7073,
      "Ġgoogel": 7074,
      "ĠÐ¶Ð¾Ð²ÑĤ": 7075,
      "ĠZusammen": 7076,
      "Ġvergleiche": 7077,
      "Ġgeflogen": 7078,
      "ÐµÐ·ÑĥÐ»ÑĮÑĤÐ°ÑĤ": 7079,
      "Schule": 7080,
      "ĠÐ»ÑİÐ´Ð¸Ð½Ð°": 7081,
      "Ġdunklen": 7082,
      "ĠÑĥÐºÑĢÐ°ÑĹÐ½ÑģÑĮÐºÑĸÐ¹": 7083,
      "ĠÐ¼Ð°ÑģÐºÑĥÐ»Ñĸ": 7084,
      "ĠÐ±Ð°ÑģÐµÐ¹Ð½": 7085,
      "Partizip": 7086,
      "ĠÐ¿ÑĢÐµÑĦÑĸÐºÑģ": 7087,
      "ĠÑĥÐºÑĥÑģ": 7088,
      "ĠBadezimmer": 7089,
      "atÃ¼rlich": 7090,
      "Ġschmerzt": 7091,
      "Ġunangenehm": 7092,
      ".,": 7093,
      "39": 7094,
      "97": 7095,
      "Atme": 7096,
      "Bei": 7097,
      "Bund": 7098,
      "Bitte": 7099,
      "Brot": 7100,
      "Beispiel": 7101,
      "Dru": 7102,
      "Darf": 7103,
      "Ent": 7104,
      "Euro": 7105,
      "FÃ¤hrt": 7106,
      "FÃ¼ll": 7107,
      "Gie": 7108,
      "Gabel": 7109,
      "Hob": 7110,
      "Immer": 7111,
      "Komparativ": 7112,
      "Links": 7113,
      "Men": 7114,
      "Museum": 7115,
      "Monat": 7116,
      "Nimm": 7117,
      "Pol": 7118,
      "Pers": 7119,
      "Preis": 7120,
      "Positiv": 7121,
      "Ruf": 7122,
      "Reis": 7123,
      "Setz": 7124,
      "Selma": 7125,
      "Superlativ": 7126,
      "Temp": 7127,
      "Verd": 7128,
      "Vielleicht": 7129,
      "Zwei": 7130,
      "bo": 7131,
      "dein": 7132,
      "dich": 7133,
      "erer": 7134,
      "fel": 7135,
      "freund": 7136,
      "frei": 7137,
      "flie": 7138,
      "frÃ¼hstÃ¼ck": 7139,
      "fernsehen": 7140,
      "fÃ¼ttern": 7141,
      "gn": 7142,
      "gru": 7143,
      "glie": 7144,
      "han": 7145,
      "hang": 7146,
      "hÃ¤sslich": 7147,
      "horn": 7148,
      "itel": 7149,
      "iÃ¤t": 7150,
      "kei": 7151,
      "kom": 7152,
      "kalt": 7153,
      "kul": 7154,
      "ksam": 7155,
      "kleid": 7156,
      "kaputt": 7157,
      "lauf": 7158,
      "lungs": 7159,
      "lesung": 7160,
      "nig": 7161,
      "neit": 7162,
      "ness": 7163,
      "national": 7164,
      "nimmst": 7165,
      "pern": 7166,
      "pra": 7167,
      "prÃ¼": 7168,
      "port": 7169,
      "passt": 7170,
      "ppen": 7171,
      "planen": 7172,
      "ris": 7173,
      "richte": 7174,
      "sah": 7175,
      "soll": 7176,
      "singen": 7177,
      "singe": 7178,
      "spricht": 7179,
      "sgesprÃ¤ch": 7180,
      "tner": 7181,
      "tanzen": 7182,
      "trÃ¤gt": 7183,
      "ufe": 7184,
      "uht": 7185,
      "viel": 7186,
      "wÃ¼r": 7187,
      "wende": 7188,
      "wald": 7189,
      "wick": 7190,
      "wunder": 7191,
      "ys": 7192,
      "zwei": 7193,
      "Ðĳ": 7194,
      "Ðķ": 7195,
      "Ġ!": 7196,
      "Ġus": 7197,
      "ĠÑĸÐ³": 7198,
      "ĠrÃ¤ume": 7199,
      "ĠrÃ¤umt": 7200,
      "Ð½Ð°Ð²": 7201,
      "Ð½ÐºÑĥ": 7202,
      "Ð½ÑİÑĶ": 7203,
      "ÐµÑı": 7204,
      "ÐµÐ»Ñı": 7205,
      "ÑĸÑĨ": 7206,
      "ÑıÑģÐ½": 7207,
      "ÑıÑİÑĤÑĮÑģÑı": 7208,
      "Ð°ÐµÑĢ": 7209,
      "Ð°Ð½Ð°": 7210,
      "ÑĤÐ½Ð¸Ð¹": 7211,
      "ÑĢÐ°Ð±": 7212,
      "ÑĢÐ¾Ð±ÑĸÑĤ": 7213,
      "chten": 7214,
      "orden": 7215,
      "oriert": 7216,
      "Ð»Ð¸Ð¹": 7217,
      "Ð»ÐµÐ½": 7218,
      "Ð»ÑĸÐº": 7219,
      "Ð»Ð¸Ð·": 7220,
      "enke": 7221,
      "Ġdicken": 7222,
      "Ġdabei": 7223,
      "ĠÐ²ÐµÑĢÑĪ": 7224,
      "ĠÐ²ÐµÐ»": 7225,
      "ĠÐ²ÑĸÑĤ": 7226,
      "ĠÐ²ÑĥÐ»Ð¸": 7227,
      "Ð¾Ð²ÑĥÑĶ": 7228,
      "Ð¾Ð²ÑĸÐ¹": 7229,
      "Ð¾Ð²Ð°ÑĢ": 7230,
      "ÑĩÐºÐ°": 7231,
      "ÑĩÐ¸ÑĤ": 7232,
      "ÑĩÐµÑĢÐµÐ·": 7233,
      "ĠÐ´Ñı": 7234,
      "ĠÐ´Ð¾Ð²": 7235,
      "ĠÐ´ÑĸÐ·": 7236,
      "ĠÐ´Ð¾Ð±ÑĢÐµ": 7237,
      "ĠÐ¿Ð¾Ð¶": 7238,
      "ĠÐ¿Ð¾Ð´Ñĸ": 7239,
      "ĠÐ¿Ð°Ð¿": 7240,
      "ĠÐ¿Ð°Ñģ": 7241,
      "ĠÐ¿ÑĸÑĤÐ¸": 7242,
      "ĠÐ¿Ð¾Ð·Ð¸": 7243,
      "ÑģÐ½Ð¾": 7244,
      "Ð¸ÐºÐ¾Ñİ": 7245,
      "ina": 7246,
      "inner": 7247,
      "ination": 7248,
      "inigt": 7249,
      "ÑģÑĤÐ°Ð²": 7250,
      "ÑģÑĤÐ°Ð½Ð½": 7251,
      "Ð¾Ð¼Ð°ÑĤ": 7252,
      "strin": 7253,
      "steigt": 7254,
      "Ð¼Ð¾ÑĹ": 7255,
      "Ð¼ÐµÐ½ÑĤ": 7256,
      "ieg": 7257,
      "ÐºÐ»": 7258,
      "ÐºÐºÑĥÐ·Ð°ÑĤÐ¸Ð²": 7259,
      "ÐºÐ¾ÑĪ": 7260,
      "ĠIhr": 7261,
      "ĠIran": 7262,
      "asil": 7263,
      "asus": 7264,
      "asium": 7265,
      "ĠÑĢÐµÐ¼": 7266,
      "ĠÑĢÑĸÑĩ": 7267,
      "Ð¾ÑĢÐ¸": 7268,
      "ĠÐ·ÐµÐ¼": 7269,
      "einsteigen": 7270,
      "ĠÐ½Ð¾Ñģ": 7271,
      "ĠÐ½ÑĥÐ´": 7272,
      "ĠÐ½Ð¸Ð¼Ð¸": 7273,
      "ÐµÑĩÑĩÐ¸": 7274,
      "geset": 7275,
      "gearbeitet": 7276,
      "gestellt": 7277,
      "gespielt": 7278,
      "gesprochen": 7279,
      "auk": 7280,
      "auss": 7281,
      "auber": 7282,
      "Ġmesse": 7283,
      "ĠmiÃŁ": 7284,
      "bed": 7285,
      "bew": 7286,
      "bere": 7287,
      "beende": 7288,
      "becken": 7289,
      "beginnen": 7290,
      "Ġson": 7291,
      "Ġseinen": 7292,
      "Ġsatt": 7293,
      "Ġsinge": 7294,
      "Ð°ÑĤÑĸ": 7295,
      "ichert": 7296,
      "ichtet": 7297,
      "Ð²Ð¸Ð´": 7298,
      "Ð²Ð°Ð¶Ð»Ð¸Ð²": 7299,
      "Ð²ÐµÐ»Ð¸Ðº": 7300,
      "Ð²ÑĢÐ¾Ð¿": 7301,
      "Ð»ÑıÑĶÑĤÑĮÑģÑı": 7302,
      "Ð»ÑıÑĤÐ¾ÑĢ": 7303,
      "Ġdieser": 7304,
      "unst": 7305,
      "unkel": 7306,
      "unfreundlich": 7307,
      "ĠÐ¼Ð°Ð²": 7308,
      "ĠÐ¼ÑĸÐ¹": 7309,
      "ĠÐ¼ÑĥÑģ": 7310,
      "ĠÐ¼Ð°ÑĪ": 7311,
      "Ð´Ð½Ð¸Ð¹": 7312,
      "Ð´ÑĥÐ¼": 7313,
      "Ð´Ð½Ñı": 7314,
      "Ð´ÐµÐ½ÑĮ": 7315,
      "ÐµÑĢÐ¼": 7316,
      "ÐµÑĢÑħ": 7317,
      "ÐµÑĢÐµÐ»": 7318,
      "haften": 7319,
      "Ġgesen": 7320,
      "Ġgebl": 7321,
      "Ġgegeben": 7322,
      "Ġgeklet": 7323,
      "Ġgesetzt": 7324,
      "Ġgedeckt": 7325,
      "Ġgehackt": 7326,
      "Ġgezeigt": 7327,
      "Ð°Ð²Ð´": 7328,
      "Ð°Ð²ÐµÑĨÑĮ": 7329,
      "Ð°Ð²Ð¸Ð¼Ð¾": 7330,
      "ĠÑģÑĤÑĸÐ»": 7331,
      "ĠÑģÑĤÐ¾Ð¼Ð°ÑĤ": 7332,
      "ĠÐ¿ÑĢÐ¸Ðº": 7333,
      "ĠÐ¿ÑĢÐ°Ð²Ð¸Ð»Ð¾": 7334,
      "ĠÐ¾ÑģÑĤÐ°Ð½Ð½": 7335,
      "ÑĨÑĸÐ½": 7336,
      "ÑĨÑĸÑĶÑİ": 7337,
      "tete": 7338,
      "ĠSet": 7339,
      "ĠSpe": 7340,
      "ĠSort": 7341,
      "ĠSaf": 7342,
      "ĠSitzung": 7343,
      "Ð¸Ð²Ð°ÑĶ": 7344,
      "ĠÐ°ÐºÑĥ": 7345,
      "Ð¾Ð´Ð½Ð°": 7346,
      "Ġwischen": 7347,
      "Ġwachsen": 7348,
      "Ġwelch": 7349,
      "aufrÃ¤umen": 7350,
      "aufgerÃ¤umt": 7351,
      "ĠÐ½Ð°Ñģ": 7352,
      "ĠÐ½Ð°ÑģÑĤÑĢ": 7353,
      "Ã¼ÃŁe": 7354,
      "Ð°ÑĶÐ¼": 7355,
      "ehnt": 7356,
      "ĠFa": 7357,
      "Ð¿Ð¾": 7358,
      "Ð¿ÐµÑĩ": 7359,
      "Ð¿Ð¾Ð»": 7360,
      "Ð¿Ð°Ð´": 7361,
      "ĠÑĩÐ¸ÑĤ": 7362,
      "ĠÑĩÐ°Ð¹": 7363,
      "ĠÑĥÑĢ": 7364,
      "ĠÑĥÑĩ": 7365,
      "ĠÑĥÐ¶Ðµ": 7366,
      "ĠÑĥÑģÑĸ": 7367,
      "ĠBo": 7368,
      "ĠBet": 7369,
      "ĠBord": 7370,
      "ĠBlog": 7371,
      "ÐºÑĥÑĢÑģ": 7372,
      "Ġeins": 7373,
      "schlo": 7374,
      "schrieben": 7375,
      "schlagen": 7376,
      "schlage": 7377,
      "ĠÐ¿Ð¾ÑĪ": 7378,
      "ĠÐ¿Ð¾ÑħÐ¾Ð´Ð¶ÐµÐ½Ð½Ñı": 7379,
      "ĠÐ¿Ð¾Ð½ÑıÑĤÑĤÑı": 7380,
      "ĠÐ¿Ð¾Ð½ÐµÐ´ÑĸÐ»": 7381,
      "ĠÐ¿Ð¾ÑģÑĤÐ°Ð²Ð¸ÑĤÐ¸": 7382,
      "Ð¶ÑĥÐ²Ð°ÑĤÐ¸": 7383,
      "Ð¶Ð¸ÑĤ": 7384,
      "ĠÐ²ÑĸÐ´Ð¼ÑĸÐ½ÑİÑİÑĤÑĮÑģÑı": 7385,
      "ĠKre": 7386,
      "ĠKom": 7387,
      "ĠKreu": 7388,
      "ĠKrim": 7389,
      "ĠMet": 7390,
      "ĠMÃ¼n": 7391,
      "ĠDur": 7392,
      "ĠÑĨÐµÐ½ÑĤÑĢ": 7393,
      "Ġkennen": 7394,
      "ĠHei": 7395,
      "ĠHenne": 7396,
      "Ã¤uÃŁ": 7397,
      "ĠTh": 7398,
      "ĠTo": 7399,
      "ĠTÃ¤t": 7400,
      "ĠTaschen": 7401,
      "ĠTurm": 7402,
      "atme": 7403,
      "elst": 7404,
      "elprÃ¤": 7405,
      "ĠÐºÐ¸Ð¼": 7406,
      "ĠÐºÐ»Ð°Ð´": 7407,
      "ĠÐºÐ°Ð¿": 7408,
      "ĠAu": 7409,
      "ĠAber": 7410,
      "ond": 7411,
      "onders": 7412,
      "ĠÐ½ÐµÐ¼Ð°": 7413,
      "ĠÐ½ÐµÐ½Ð°Ð·": 7414,
      "leer": 7415,
      "lest": 7416,
      "ĠWar": 7417,
      "ĠWagen": 7418,
      "ĠWare": 7419,
      "Ġaufzu": 7420,
      "ĠaufhÃ¶ren": 7421,
      "ÑĢÑıÑĤÐ¸": 7422,
      "Ð·Ð²Ð¸ÑĩÐ°Ð¹": 7423,
      "Ð·Ð°Ð±": 7424,
      "Ð½ÐµÐ½Ðµ": 7425,
      "Ġfallen": 7426,
      "Ġfernsehen": 7427,
      "ĠfÃ¼lle": 7428,
      "Ġbuchen": 7429,
      "ĠblÃ¼": 7430,
      "Ġbreiten": 7431,
      "Ġbacken": 7432,
      "Ġbreite": 7433,
      "Ġbaue": 7434,
      "Ġbildet": 7435,
      "Ġbilden": 7436,
      "ĠÑĦÑĥÑĤÐ±": 7437,
      "Ġschenke": 7438,
      "Ð³Ð°": 7439,
      "Ð³Ð°ÑĶÑĤÑĮÑģÑı": 7440,
      "ĠÐĶÐ¾Ð´": 7441,
      "ĠÐĶÐ°ÑĤÐ¸Ð²Ð½Ð¸Ð¹": 7442,
      "zustimmen": 7443,
      "Ð¾Ð±Ð¸Ð²": 7444,
      "utto": 7445,
      "ĠÑıÐºÐ¾ÑĹ": 7446,
      "ĠÑıÐºÐ±Ð¸": 7447,
      "Ð¼ÐµÑĤÐ¾Ð´Ð¸Ñĩ": 7448,
      "Ð½Ð¸ÐºÐ¸": 7449,
      "Ð½Ð¸ÐºÐ°": 7450,
      "Ð½Ð¸ÐºÐ°ÑĤÐ¸": 7451,
      "Ð°Ð»ÑĮÐ½Ðµ": 7452,
      "Ð°Ð»ÑĮÐ½Ð¸Ðº": 7453,
      "Ġgrauen": 7454,
      "Ġganzen": 7455,
      "Ġgibst": 7456,
      "ĠÑĤÐ¾": 7457,
      "ĠÑĤÐ¾ÑĢ": 7458,
      "ĠÑĤÐ¾Ð±Ñĸ": 7459,
      "ĠÑĤÐ¾Ð¹": 7460,
      "ĠÑĤÐ¾Ð²Ð°ÑĢ": 7461,
      "sser": 7462,
      "ĠÑģÐ°Ð´": 7463,
      "ĠÑģÐ¸Ð»ÑĮ": 7464,
      "ÐµÐ½Ñİ": 7465,
      "ÐµÐ½ÑĪ": 7466,
      "dere": 7467,
      "hrlich": 7468,
      "Ġzugenommen": 7469,
      "Ġzuerst": 7470,
      "ĠSchn": 7471,
      "ĠSchmerzen": 7472,
      "ĠSchlieÃŁlich": 7473,
      "ĠÐ±Ñĸ": 7474,
      "ĠÐ±Ñİ": 7475,
      "ĠÐ±Ð°Ð·": 7476,
      "ĠÐ±ÑĥÐ²": 7477,
      "ĠÐ±ÑĸÐ»Ñı": 7478,
      "ĠÐ±ÑĸÐ»": 7479,
      "ĠÐ±Ð°Ð»": 7480,
      "ÑĢÑĥÐ³Ð°": 7481,
      "ÐµÐ´ÐµÐ½Ð½Ñı": 7482,
      "berg": 7483,
      "ĠSterns": 7484,
      "ĠStÃ¤d": 7485,
      "Ġmitbringen": 7486,
      "ÐºÑĤÑĥÑĢ": 7487,
      "ĠRuf": 7488,
      "ĠRhein": 7489,
      "ĠRiesen": 7490,
      "ĠÐ·Ð°ÐºÐ¾Ñħ": 7491,
      "Ð¿ÑĢÐ¾Ð²": 7492,
      "ĠÐ¾ÑģÐ²ÑĸÑĤ": 7493,
      "terst": 7494,
      "ĠÐ½Ð°Ð³": 7495,
      "ĠÐ½Ð°Ð¹": 7496,
      "rate": 7497,
      "Ã¶nn": 7498,
      "ausziehen": 7499,
      "Ġlangen": 7500,
      "Ġlache": 7501,
      "Ġlachen": 7502,
      "Ð°Ð¶Ð¸ÑĤÐ¸": 7503,
      "iste": 7504,
      "ĠÐ¾Ð±ÑģÑĤÐ°Ð²Ð¸Ð½": 7505,
      "ĠÑĸÐ¼ÐµÐ½Ð½Ð¸ÐºÐ¸": 7506,
      "Ġbeende": 7507,
      "Ġbeenden": 7508,
      "Ġbefindet": 7509,
      "Ġbeginnen": 7510,
      "Ġbesser": 7511,
      "ĠNie": 7512,
      "ĠNational": 7513,
      "ĠNÃ¤he": 7514,
      "ĠÐ³Ð°Ð·": 7515,
      "ĠÐ³ÑĥÐ±": 7516,
      "ĠÐ³Ð¾Ð´Ð¸": 7517,
      "Ġhol": 7518,
      "Ġhand": 7519,
      "ĠhÃ¤lt": 7520,
      "ĠhÃ¤tte": 7521,
      "ĠÐ²ÑĸÐ´Ð´": 7522,
      "ĠÐ²ÑĸÐ´Ð½Ð¾": 7523,
      "ĠÐ²ÑĸÐ´Ð¾Ð±ÑĢÐ°Ð¶": 7524,
      "ĠÐ´Ð¾Ð¿Ð¾Ð¼Ð¾Ð³ÑĤÐ¸": 7525,
      "Ġangerufen": 7526,
      "ĠÑĸÐ½Ð¾Ð·": 7527,
      "ĠÑĸÐ½ÑģÑĤÑĢÑĥ": 7528,
      "weiter": 7529,
      "weisen": 7530,
      "ĠÐ¾ÑģÐ¾Ð±Ð»Ð¸Ð²Ð¾": 7531,
      "ĠÐ¿Ð¾Ð²Ð½Ð¸Ð¹": 7532,
      "ĠtrÃ¤ume": 7533,
      "ĠÐ°ÐºÑĥÐ·Ð°ÑĤÐ¸Ð²Ð°": 7534,
      "ĠÐ·Ð°Ð¿ÐµÑĢÐµÑĩÑĥÑĶÑĤÑĮÑģÑı": 7535,
      "ierten": 7536,
      "ĠTische": 7537,
      "ÑĨÑĮÐºÐ°": 7538,
      "ĠÐ¶ÑĥÑĢ": 7539,
      "ĠHunde": 7540,
      "ĠVort": 7541,
      "ĠÐ²Ð¸Ð½Ð½Ð¸Ð¹": 7542,
      "immung": 7543,
      "ÐºÐ¾Ð¼Ð¿ÐµÑĤ": 7544,
      "ĠÑĤÐµÐ¼": 7545,
      "otter": 7546,
      "otto": 7547,
      "ĠZe": 7548,
      "ĠÐ¡Ð»ÑĸÐ²": 7549,
      "ĠJahre": 7550,
      "Ð¾Ð½ÑĤ": 7551,
      "Ð¾Ð½ÑĥÐ²Ð°ÑĤÐ¸": 7552,
      "ÑĶÐºÑĤÑĥ": 7553,
      "rinner": 7554,
      "Ġsteigen": 7555,
      "Ġstimme": 7556,
      "Ġstudieren": 7557,
      "Ð¾Ð·Ð²ÑĸÐ»": 7558,
      "indirekte": 7559,
      "ĠÐ¿ÑĢÐ¾ÑĤ": 7560,
      "Ġkauft": 7561,
      "ĠÐ²Ð¸ÑĢÑĸÑĪ": 7562,
      "dumm": 7563,
      "duzieren": 7564,
      "usste": 7565,
      "Ð°Ð½Ð¾Ð²": 7566,
      "Ð°Ð½ÑĤÐ¸": 7567,
      "ĠÐ¿Ð¾ÐºÐ°Ð·ÑĥÑİÑĤÑĮ": 7568,
      "ĠÐ¿Ð¾ÑĩÐ°ÑĤÐ¸": 7569,
      "ĠÐ¿Ð¾ÑĩÐ¸Ð½Ð°": 7570,
      "Ġableh": 7571,
      "Ġunbest": 7572,
      "ĠungefÃ¤hr": 7573,
      "Ġerholen": 7574,
      "Ġerinnern": 7575,
      "Ġerlaubt": 7576,
      "ĠerzÃ¤hle": 7577,
      "neben": 7578,
      "ĠÑĢÐ¾Ð·Ð¼Ð¾Ð²": 7579,
      "gelehnt": 7580,
      "Ġverdien": 7581,
      "Ġverschieden": 7582,
      "Ġverstehe": 7583,
      "Ġverspreche": 7584,
      "liebe": 7585,
      "lieÃŁ": 7586,
      "ĠÐ·Ð°Ð»": 7587,
      "ĠÐ·Ð°ÑħÑĸÐ´": 7588,
      "ĠÐ·Ð°ÑıÐ²ÐºÑĥ": 7589,
      "ĠÐĴÐ¸ÐºÐ¾ÑĢÐ¸ÑģÑĤÐ°Ð½Ð¾": 7590,
      "ĠÐ²ÑĸÐ´Ð¿Ð¾Ð²Ñĸ": 7591,
      "ĠÐ²ÑĸÐ´Ð¿Ð¾Ñĩ": 7592,
      "ĠVergleich": 7593,
      "ĠVerwaltung": 7594,
      "Ð¸ÑĤÑĥ": 7595,
      "verl": 7596,
      "verloren": 7597,
      "entiere": 7598,
      "entschuld": 7599,
      "kennt": 7600,
      "ĠÐ¿Ð¾ÑĢÑıÐ´ÐºÐ¾Ð¼": 7601,
      "ĠErzÃ¤hl": 7602,
      "ĠÐ¾Ð·Ð½Ð°ÑĩÐµÐ½Ð¸Ñħ": 7603,
      "Ġgespe": 7604,
      "Ġglaubst": 7605,
      "nergie": 7606,
      "ĠProdukt": 7607,
      "locker": 7608,
      "Ġausger": 7609,
      "Ġausruhen": 7610,
      "ĠÐ¾Ð¿Ð¸ÑĤ": 7611,
      "Ġschnei": 7612,
      "mittag": 7613,
      "ĠÑĥÐ·Ð³Ð¾Ð´Ð¶ÐµÐ½Ð½Ñı": 7614,
      "Wohnung": 7615,
      "ĠÐ¹ÑĤÐ¸": 7616,
      "ĠÐºÐ¾Ð¼Ð°ÑĢ": 7617,
      "ĠÐ²Ð¸Ð¿Ð°Ð´Ð¾Ðº": 7618,
      "gangenheit": 7619,
      "Ġspringen": 7620,
      "Ġspringt": 7621,
      "ĠÐ½ÐµÐ¿ÑĢÐ°Ð²Ð¸Ð»ÑĮÐ½Ð¸Ð¼": 7622,
      "ĠÐ½Ð°Ð¿ÑĢÑıÐ¼ÐºÐ¾Ð¼": 7623,
      "Ã¤nge": 7624,
      "Ã¤nder": 7625,
      "Ã¤ngst": 7626,
      "ĠGefahr": 7627,
      "ĠÐ»Ñĸ": 7628,
      "ĠÐ»ÑĸÐ¶": 7629,
      "ĠÐ»ÐµÐ³": 7630,
      "ĠÐ»ÐµÐ¶": 7631,
      "lane": 7632,
      "Ã¼nsch": 7633,
      "Ġschwache": 7634,
      "Ġschwachen": 7635,
      "Ġschwimmt": 7636,
      "Ġschwimme": 7637,
      "ĠÐ¾Ð¿Ð¸ÑģÑĥÑĶÐ¼Ð¾": 7638,
      "Ġwartet": 7639,
      "ĠÐ¿Ð¸ÑĤÐ°Ð½Ð½ÑıÐ¼": 7640,
      "ĠHof": 7641,
      "putzen": 7642,
      "Ġgewandert": 7643,
      "Ð»Ð°Ð»Ð°": 7644,
      "Ð¹Ð¾Ð³Ð¾": 7645,
      "ĠÐ¿ÑĢÐ°Ð²Ð¸Ð»ÑĮÐ½Ð¸Ð¼Ð¸": 7646,
      "Ġzeigen": 7647,
      "ĠSozi": 7648,
      "gerade": 7649,
      "german": 7650,
      "gebacken": 7651,
      "ĠÐ´ÑĸÑıÑĤÐ¸": 7652,
      "Ġumsteigen": 7653,
      "Ġumgestiegen": 7654,
      "Ð¾Ð²Ð°Ð½Ð¾": 7655,
      "Ġmagst": 7656,
      "ĠÑħÐ¾Ð±Ñĸ": 7657,
      "ĠÑħÐ¾ÑĢÐ¾ÑĪ": 7658,
      "ĠÑĢÐ¾Ð·Ð´ÑĸÐ»ÑĮÐ½Ñĸ": 7659,
      "ÑĤÐµÐ¹": 7660,
      "ĠÑĥÑĤÐ²Ð¾ÑĢÑİÑİÑĤÑĮ": 7661,
      "Ġplane": 7662,
      "Ð¸ÑĩÐ°ÑĤÐ¸": 7663,
      "Ð¸ÑĩÐ½Ð¸Ð¹": 7664,
      "ĠÐ¿ÑĢÐµÐ´Ð¼ÐµÑĤÐ¾Ð¼": 7665,
      "ĠDekl": 7666,
      "ĠBraten": 7667,
      "ĠÐ²Ð¸ÐºÐ¾Ð½Ð°ÑĤÐ¸": 7668,
      "Meinung": 7669,
      "igent": 7670,
      "ĠÐ²ÐºÐ°Ð·ÑĸÐ²ÑĨÑĸ": 7671,
      "ĠabgerÃ¤umt": 7672,
      "Ġabgelehnt": 7673,
      "spro": 7674,
      "spitze": 7675,
      "sparen": 7676,
      "springen": 7677,
      "illst": 7678,
      "Ġ14": 7679,
      "Ġ16": 7680,
      "Ġ17": 7681,
      "Ġ19": 7682,
      "ĠÐĹÐ°": 7683,
      "sitze": 7684,
      "Ġgeschaut": 7685,
      "Ġgeschrubbt": 7686,
      "sicherung": 7687,
      "Ġkopiere": 7688,
      "Schlaf": 7689,
      "Schokolade": 7690,
      "ickst": 7691,
      "Stick": 7692,
      "Stadt": 7693,
      "ĠÐ´Ð°ÑĤÐ¸Ð²Ð½Ð¾Ð¼Ñĥ": 7694,
      "ÑĸÐ»Ð»Ñı": 7695,
      "ÑıÐ·ÐºÐ¾Ð²Ð¸Ð¼": 7696,
      "ĠÐ¿ÐµÑĢÐµÐºÐ»Ð°Ð´": 7697,
      "ĠAusstellung": 7698,
      "ĠÐ²ÑĸÐ´Ð¾ÐºÑĢÐµÐ¼Ð»ÑİÐ²Ð°": 7699,
      "ehlt": 7700,
      "ĠÐ³ÐµÐ½ÑĸÑĤÐ¸Ð²Ñĥ": 7701,
      "ĠÐ½Ð°Ð´Ð·Ð²Ð¸ÑĩÐ°Ð¹": 7702,
      "ĠBÃ¤ren": 7703,
      "ĠwÃ¤hren": 7704,
      "Ġkluge": 7705,
      "ĠSchÃ¼lern": 7706,
      "ĠÑĤÑĢÐ°Ð¿": 7707,
      "gefallen": 7708,
      "Ġbraucht": 7709,
      "alsÃ¤tze": 7710,
      "Ã¤chste": 7711,
      "ĠPersonen": 7712,
      "Ð°Ð»Ð¸ÑĤÐ¸": 7713,
      "Ġ21": 7714,
      "Ġ25": 7715,
      "Ð°ÑĩÐ°ÑĤÐ¸": 7716,
      "endung": 7717,
      "ĠÑĢÐµÑĨÐµ": 7718,
      "ĠÑĢÐµÑģÑĤÐ¾ÑĢ": 7719,
      "gewann": 7720,
      "Ġgenossen": 7721,
      "holst": 7722,
      "ÐµÐ²Ð»Ð°ÑĪÑĤ": 7723,
      "ĠÑĪÑĥÐº": 7724,
      "ĠÑĪÐ°ÑĦ": 7725,
      "ĠMeiner": 7726,
      "ĠÐ§Ð°Ñģ": 7727,
      "ĠÐ´Ð°ÑĤÐµÐ»ÑĮ": 7728,
      "ĠÑĸÐ½ÑĪÑĥ": 7729,
      "ĠÑĸÐ½ÑĪÐ¾ÑĹ": 7730,
      "Ġuntersuchen": 7731,
      "Ġunterhalten": 7732,
      "bungsgesprÃ¤ch": 7733,
      "sieh": 7734,
      "ĠÐ¿Ð¾Ð´ÑıÐºÑĥ": 7735,
      "ÐºÑĢÐµÑĤÐ°ÑĢ": 7736,
      "ÐºÐ¾Ð²Ð¾Ð¼Ñĥ": 7737,
      "ĠflieÃŁt": 7738,
      "ĠGeschichte": 7739,
      "ĠGeschichten": 7740,
      "Erd": 7741,
      "trocknen": 7742,
      "Ġjunge": 7743,
      "ĠAmt": 7744,
      "ĠÐ¢Ð°Ðº": 7745,
      "ĠÑĹÐ´": 7746,
      "ĠÑĹÑģÑĤÐ¸": 7747,
      "untersuchen": 7748,
      "Ġbringst": 7749,
      "Mails": 7750,
      "ĠÐ·ÑĢÐ¾Ð±Ð¸Ð²": 7751,
      "ĠFahrers": 7752,
      "ĠÐ³ÑĢÑĥÐ´Ð½Ñı": 7753,
      "Ð°ÑģÐ¸Ðº": 7754,
      "geschoss": 7755,
      "Ġgebildet": 7756,
      "Ġgeblieben": 7757,
      "ĠPiloten": 7758,
      "ĠBruders": 7759,
      "Ġfreundliche": 7760,
      "Ġfreundlichen": 7761,
      "ĠEuropa": 7762,
      "ĠEuropÃ¤": 7763,
      "ĠÃ¶ffnest": 7764,
      "ĠBewer": 7765,
      "ĠBezug": 7766,
      "ĠBedeut": 7767,
      "Interesse": 7768,
      "Inseln": 7769,
      "Institut": 7770,
      "ĠKochs": 7771,
      "ĠÑĸÐ½ÑĦÑĸÐ½ÑĸÑĤÐ¸Ð²Ñĸ": 7772,
      "Ġzweiten": 7773,
      "ustand": 7774,
      "ustige": 7775,
      "ĠÑģÐºÐ»Ð°Ð´Ð½Ð¸Ñħ": 7776,
      "groÃŁen": 7777,
      "ĠfrÃ¼her": 7778,
      "ĠKindergarten": 7779,
      "zieht": 7780,
      "ĠWirtschafts": 7781,
      "Ġhoffen": 7782,
      "ĠÐ²Ð¶Ð¸ÑĤÐµ": 7783,
      "ĠÐ§Ð°ÑģÑĤÐ¸Ð½Ð¸": 7784,
      "ĠÑĢÐµÑĦÐ»ÐµÐºÑģÐ¸Ð²Ð½Ð¸Ð¹": 7785,
      "ĠÐ¿Ð¾Ð³Ð¾Ð´Ð¸": 7786,
      "Seid": 7787,
      "wieder": 7788,
      "Ġschreiben": 7789,
      "ĠÐ¶ÑĸÐ½Ð¾ÑĩÐ¸Ð¼Ð¸": 7790,
      "ĠÐ²Ð²ÑĸÑĩÐ»Ð¸Ð²ÑĸÑģÑĤÑĮ": 7791,
      "ÐµÐ»ÑĮÑģ": 7792,
      "ĠErdgeschoss": 7793,
      "erviere": 7794,
      "ĠÐ¿Ð¾Ð±ÑĸÑĩ": 7795,
      "Ġschlimm": 7796,
      "ĠÑĢÐ¾Ð·ÑĤÐ°ÑĪÑĥÐ²Ð°ÑĤÐ¸": 7797,
      "ĠÑĢÐ¾Ð·Ð´ÑĸÐ»ÑĮÐ½Ð¸Ð¼Ð¸": 7798,
      "Rektion": 7799,
      "baren": 7800,
      "heizen": 7801,
      "heiÃŁen": 7802,
      "ĠInformationen": 7803,
      "Ġverwende": 7804,
      "ĠÑģÐ¿Ð¾Ð»ÑĥÑĩÐ½Ð¸ÐºÐ¾Ð¼": 7805,
      "ĠÐļÐ¾Ð»Ð¸": 7806,
      "Ð»ÑİÑĩ": 7807,
      "ĠÐ¿Ð¾Ð²ÐµÑĢÑģÑĸ": 7808,
      "Ġunfreundlichen": 7809,
      "Ġausgesehen": 7810,
      "higkeit": 7811,
      "ĠÐ´ÑĥÐ¼Ð°Ñİ": 7812,
      "ĠEinkommen": 7813,
      "ĠÐ¿ÐµÑĢÐµÑħÑĸÐ´Ð½Ð¸Ð¼Ð¸": 7814,
      "ĠÑĢÐ°Ð´Ð¾ÑģÑĤÑĸ": 7815,
      "ĠÐ·Ð°Ð»ÐµÐ¶Ð¸ÑĤÑĮ": 7816,
      "ĠAntwor": 7817,
      "ĠgefÃ¤hrliche": 7818,
      "dienst": 7819,
      "ĠdÃ¼nne": 7820,
      "ĠÐ¼Ð¾Ð²ÑĨÑİ": 7821,
      "ĠÐ¼Ð¾Ð²ÑĨÐµÐ²Ñĸ": 7822,
      "Ġgesto": 7823,
      "Ġgestritten": 7824,
      "schlieÃŁt": 7825,
      "Ġkurzen": 7826,
      "Ð¼ÑĥÐ»ÑıÑĤÐ¾ÑĢ": 7827,
      "ĠÐ¿ÑĢÐ¾Ð¿ÑĥÑģÐºÐ°ÑĶÑĤÑĮÑģÑı": 7828,
      "ĠnÃ¼tzlichen": 7829,
      "ĠHex": 7830,
      "Ġfrostigen": 7831,
      "ĠÐ³Ð¾Ð²Ð¾ÑĢÑıÑĤÑĮ": 7832,
      "ĠÃ¼b": 7833,
      "ĠGehst": 7834,
      "ĠÑģÑĤÑĢÐ°Ð¶": 7835,
      "ĠÑģÑĤÑĢÐµÑģÑĥ": 7836,
      "schnell": 7837,
      "schneit": 7838,
      "ĠschlieÃŁt": 7839,
      "Ġbeschwert": 7840,
      "Ġbeschweren": 7841,
      "Ġtrock": 7842,
      "Ġniedr": 7843,
      "ĠÐ²ÑĸÐ´ÑģÑĥÑĤÐ½ÑĶ": 7844,
      "ÑĥÐ½ÐºÐ¸": 7845,
      "ĠÐ¿Ð°ÑĢÑĤÐ½ÐµÑĢ": 7846,
      "Ġschmutzige": 7847,
      "ĠgÃ¼nstigen": 7848,
      "neuen": 7849,
      "ĠÑħÐ¾ÑĩÑĥ": 7850,
      "ĠÑħÐ¾ÑĩÐµÐ¼Ð¾": 7851,
      "ĠÑģÐºÐ¾ÑĢÐ¾ÑĩÐµÐ½Ñĥ": 7852,
      "ĠÑģÐºÐ¾ÑĢÐ¾ÑĩÐµÐ½Ð°": 7853,
      "Ġregnerischen": 7854,
      "ÐĴÐ¸": 7855,
      "ĠÐ²Ð°Ð¶Ð»Ð¸Ð²Ð¾": 7856,
      "ĠwÃ¼rzen": 7857,
      "Ġunordentlichen": 7858,
      "langsam": 7859,
      "Ġentscheide": 7860,
      "klÃ¤rst": 7861,
      "ĠÐ²Ð»Ð°ÑģÐ½Ð¾ÑģÑĤÑĸ": 7862,
      "ĠberÃ¼hmte": 7863,
      "ĠberÃ¼hmten": 7864,
      "ĠÐ¿Ð¾Ð»ÑĸÑĤ": 7865,
      "ĠÐ¿ÑĢÐ°ÑĨÑİÐ²Ð°ÑĤÐ¸": 7866,
      "ĠÐ¿ÑĢÐ°ÑĨÐµÐ²Ð»Ð°ÑĪÑĤ": 7867,
      "ĠÐºÑĸÐ»ÑĮÐºÐ°": 7868,
      "ĠÐ½ÐµÐ¾Ð·Ð½Ð°ÑĩÐµÐ½Ð¾Ð³Ð¾": 7869,
      "Ġflachen": 7870,
      "ĠSchreib": 7871,
      "ĠÐ¯ÐºÐ±Ð¸": 7872,
      "Konzert": 7873,
      "Konjunktiv": 7874,
      "interessieren": 7875,
      "ĠKannst": 7876,
      "Ġweitermachen": 7877,
      "Ġweitergehen": 7878,
      "rennbar": 7879,
      "herunter": 7880,
      "Ġatmet": 7881,
      "ĠÐ¿ÑĢÐ¸Ð¹Ð¼Ð°ÑĤÐ¸": 7882,
      "ÐºÐ°ÑĢÐ¶": 7883,
      "ĠÃ¤ndern": 7884,
      "ĠÐ·Ð³Ð°Ð´": 7885,
      "ĠÐ¼Ð°Ð¹Ð±ÑĥÑĤÐ½ÑĶ": 7886,
      "ĠÐºÑĢÐ°ÑĹ": 7887,
      "Ġinformiert": 7888,
      "ĠÑģÐµÑĢÐ²Ñĸ": 7889,
      "ĠlÃ¶schen": 7890,
      "Ġbelieb": 7891,
      "ĠÐ·Ð°Ð¹Ð²Ð¸Ñħ": 7892,
      "ĠheiÃŁer": 7893,
      "nahme": 7894,
      "treten": 7895,
      "ÑĸÐ»ÐµÑĨÑĮ": 7896,
      "ĠÐ·Ð´Ð°ÑĤ": 7897,
      "ĠÐ¼ÑĥÐ·Ð¸ÐºÑĥ": 7898,
      "ĠÐ¾ÑĢÐµÐ½Ð´": 7899,
      "ĠÐ½Ð°Ð¼ÑĸÑĢ": 7900,
      "ĠÐ¾Ð·Ð½Ð°ÑĩÐµÐ½Ð½ÑıÐ¼": 7901,
      "ĠÑĥÐ½ÑĸÐ²ÐµÑĢÑģÐ¸ÑĤÐµÑĤÑĸ": 7902,
      "ĠÑĸÐ½ÑĦÐ¾ÑĢÐ¼Ð°ÑĨÑĸÑı": 7903,
      "258": 7904,
      "udiere": 7905,
      "ĠÐ½ÑĸÑĩÐ¾Ð³Ð¾": 7906,
      "ĠGericht": 7907,
      "Ġstellen": 7908,
      "ĠÐ·Ð°ÑģÑĸÐ´": 7909,
      "Ġvorbereiten": 7910,
      "ĠÐ¿ÑĢÐ¸ÑģÐ»ÑĸÐ²Ð½Ð¸ÐºÐ¸": 7911,
      "ĠÐ°Ð²ÑĤÐ¾Ð¼Ð¾Ð±ÑĸÐ»Ñı": 7912,
      "brauchen": 7913,
      "ĠÐ²Ð¿ÐµÐ²": 7914,
      "Ġbackt": 7915,
      "Ġbasteln": 7916,
      "ĠÐ·Ð°Ð¿Ð¸ÑĤÐ°Ð»ÑĮÐ½Ð¾Ð¼Ñĥ": 7917,
      "ĠÐ´Ð¾Ð´Ð°ÑĤÐºÐ¾Ð²Ð¾Ð³Ð¾": 7918,
      "Unterricht": 7919,
      "Untersuchen": 7920,
      "Umwelt": 7921,
      "ĠÐĨÐ½": 7922,
      "ĠÐ¿Ð¾Ð¿ÑĥÐ»ÑıÑĢ": 7923,
      "Ġsammeln": 7924,
      "ĠSprach": 7925,
      "ĠÐºÐ»ÑĸÑĶÐ½ÑĤ": 7926,
      "ĠÑģÐ¾Ð½ÑıÑĩ": 7927,
      "ĠÐ¾ÑģÐ¾Ð±Ð¾Ð²Ð¸Ð¼": 7928,
      "pflanzt": 7929,
      "Ġausgezeichneten": 7930,
      "ĠÐ½Ð°Ð²ÑĩÐ°Ð½Ð½Ñı": 7931,
      "Ausflug": 7932,
      "irekt": 7933,
      "ossess": 7934,
      "ĠrÃ¼hren": 7935,
      "ÑıÐºÑĸ": 7936,
      "Ġdiskutiere": 7937,
      "ĠÐ´Ð¸ÑĢÐµÐºÑĤÐ¾ÑĢ": 7938,
      "ĠÐ¿ÑĢÐ¸Ð²Ð°ÑĤ": 7939,
      "ĠÐ°Ð¿ÐµÐ»ÑĮÑģ": 7940,
      "ĠHaare": 7941,
      "ĠÐ¿ÐµÑĢÐµÐ¼ÑĸÑīÐµÐ½Ð½Ñı": 7942,
      "ĠÑģÑĦÐ¾ÑĢÐ¼Ð¾Ð²Ð°Ð½Ðµ": 7943,
      "ĠÐ·Ð°ÐºÑĢÐ¸ÑĤ": 7944,
      "ĠÐ¿ÑĢÐ¾ÑģÑĤÐ¾": 7945,
      "Ġunseren": 7946,
      "Ġkommentiere": 7947,
      "Ġteures": 7948,
      "Ġaustrin": 7949,
      "Ġrichtigen": 7950,
      "ĠÐ´Ð¾Ð¼Ð°ÑĪ": 7951,
      "ĠÐ¿Ð¾ÑĹÑħÐ°ÑĤÐ¸": 7952,
      "ÑģÐ»ÑĥÑħÐ°ÑĤÐ¸": 7953,
      "Ġmelde": 7954,
      "ĠÑģÑĤÑĢÐ°ÑħÐ¾Ð²ÐºÐ°": 7955,
      "Ġblitzen": 7956,
      "ĠReisen": 7957,
      "Ġstaubsauge": 7958,
      "ĠÑĢÐ¾Ð·Ð¿Ð¾ÑĩÐ¸Ð½": 7959,
      "ĠprÃ¼fen": 7960,
      "ĠÑĹÐ¶Ð°": 7961,
      "ĠÐ³ÑĢÐ°Ð¼Ð°ÑĤÐ¸ÐºÐ¸": 7962,
      "ĠÐµÐºÑģÐºÑĥÑĢÑģ": 7963,
      "Ġsoziale": 7964,
      "ĠAdjektivs": 7965,
      "ĠÐ¾ÑĩÑĸÐºÑĥÐ²Ð°Ð½Ð½Ñı": 7966,
      "hÃ¤ng": 7967,
      "hÃ¤ngen": 7968,
      "sauber": 7969,
      "Ġeigentlich": 7970,
      "remd": 7971,
      "ĠÐ²Ð·ÑĥÑĤÑĤÑı": 7972,
      "begann": 7973,
      "Ã¼bern": 7974,
      "Ã¼gle": 7975,
      "Ġkalte": 7976,
      "ÑĥÐ²Ð°Ð½Ð¸Ñħ": 7977,
      "ĠÐ¼ÑĸÑģÑıÑĨÑĮ": 7978,
      "ĠÐ²Ð¸ÑĤÑĢÐ°ÑĤÐ¸": 7979,
      "Ġstornieren": 7980,
      "ĠÐ·Ð°ÑħÐ¸ÑģÑĤ": 7981,
      "ĠÑģÐ¿Ð¾ÑĢÑĤÑĥ": 7982,
      "ĠÑĢÑĥÑħÐ¾Ð¼Ð¸Ð¼": 7983,
      "ĠÐ¿ÐµÑĢÐµÐ±ÑĥÐ²Ð°Ð½Ð½Ñı": 7984,
      "ĠTrinkgeld": 7985,
      "ĠÐ´ÑĸÐ²ÑĩÐ¸Ð½": 7986,
      "ĠÐ¡ÐµÐ¿Ð°ÑĢÐ°Ð±ÐµÐ»ÑĮÐ½Ðµ": 7987,
      "Antwor": 7988,
      "FuÃŁball": 7989,
      "GrundsÃ¤t": 7990,
      "Hausauf": 7991,
      "fÃ¼hrung": 7992,
      "hematik": 7993,
      "melden": 7994,
      "ĠÐĩÐ¼": 7995,
      "ĠÑģÑĤÐ²ÐµÑĢÐ´Ð¶ÑĥÐ²": 7996,
      "ĠÐ¾ÑĦÑĸÑģ": 7997,
      "ĠDanach": 7998,
      "ĠÑĨÑĸÐ½Ð°": 7999
    },
    "merges": [
      [
        "Ġ",
        "Ð"
      ],
      [
        "Ð",
        "½"
      ],
      [
        "Ð",
        "¾"
      ],
      [
        "Ð",
        "µ"
      ],
      [
        "Ñ",
        "ĸ"
      ],
      [
        "Ð",
        "¸"
      ],
      [
        "Ñ",
        "ı"
      ],
      [
        "Ñ",
        "ģ"
      ],
      [
        "Ð",
        "°"
      ],
      [
        "Ñ",
        "Ĥ"
      ],
      [
        "Ð¾",
        "Ð"
      ],
      [
        "Ñ",
        "Ģ"
      ],
      [
        "c",
        "h"
      ],
      [
        "Ð¸",
        "Ð"
      ],
      [
        "Ñ",
        "ĥ"
      ],
      [
        "Ð½",
        "Ð½"
      ],
      [
        "r",
        "e"
      ],
      [
        "Ðµ",
        "Ð½Ð½"
      ],
      [
        "o",
        "r"
      ],
      [
        "Ð",
        "»"
      ],
      [
        "e",
        "n"
      ],
      [
        "re",
        "c"
      ],
      [
        "or",
        "rec"
      ],
      [
        "orrec",
        "t"
      ],
      [
        "Ġ",
        "d"
      ],
      [
        "Ñ",
        "Ķ"
      ],
      [
        "e",
        "r"
      ],
      [
        "Ñ",
        "Į"
      ],
      [
        "ÐµÐ½Ð½",
        "Ñı"
      ],
      [
        "Ġ",
        "'"
      ],
      [
        "ĠÐ",
        "²"
      ],
      [
        "Ð¾Ð",
        "²"
      ],
      [
        "Ñ",
        "ĩ"
      ],
      [
        "ĠÐ",
        "Ł"
      ],
      [
        "ĠÐ",
        "´"
      ],
      [
        "ĠÐ",
        "¿"
      ],
      [
        "Ñĸ",
        "Ð"
      ],
      [
        "Ð¾",
        "Ñı"
      ],
      [
        "Ñģ",
        "Ð½"
      ],
      [
        "Ð¸Ð",
        "º"
      ],
      [
        "Ð°",
        "Ð"
      ],
      [
        "Ġ",
        "C"
      ],
      [
        "Ð¾Ñı",
        "ÑģÐ½"
      ],
      [
        "i",
        "n"
      ],
      [
        "Ð¾ÑıÑģÐ½",
        "ÐµÐ½Ð½Ñı"
      ],
      [
        "â",
        "ľ"
      ],
      [
        "ð",
        "Ł"
      ],
      [
        "ĵ",
        "Ŀ"
      ],
      [
        "ĠÐŁ",
        "Ð¾ÑıÑģÐ½ÐµÐ½Ð½Ñı"
      ],
      [
        "ĠC",
        "orrect"
      ],
      [
        "âľ",
        "ħ"
      ],
      [
        "ðŁ",
        "ĵĿ"
      ],
      [
        "Ñģ",
        "ÑĤ"
      ],
      [
        "Ð¾Ð",
        "¼"
      ],
      [
        "s",
        "t"
      ],
      [
        "Ð",
        "¼"
      ],
      [
        "i",
        "e"
      ],
      [
        "Ð",
        "º"
      ],
      [
        "Ġ",
        "I"
      ],
      [
        "a",
        "s"
      ],
      [
        "Ñģ",
        "Ð»"
      ],
      [
        "Ġ",
        "ÑĢ"
      ],
      [
        "Ġ",
        "i"
      ],
      [
        "Ð¾",
        "ÑĢ"
      ],
      [
        "ĠÐ",
        "·"
      ],
      [
        "ÑĤ",
        "ÑĮ"
      ],
      [
        "e",
        "in"
      ],
      [
        "ĠÐ",
        "½"
      ],
      [
        "Ñĸ",
        "ÑĶ"
      ],
      [
        "ÑģÐ»",
        "Ð¾Ð²"
      ],
      [
        "Ðµ",
        "Ñĩ"
      ],
      [
        "g",
        "e"
      ],
      [
        "a",
        "u"
      ],
      [
        "ÑĸÐ",
        "´"
      ],
      [
        "ÑĸÑĶ",
        "ÑģÐ»Ð¾Ð²"
      ],
      [
        "Ð¾Ð¼",
        "Ñĥ"
      ],
      [
        "Ñĸ",
        "Ð½"
      ],
      [
        "Ġ",
        "Ñ"
      ],
      [
        "ĠÑĢ",
        "ÐµÑĩ"
      ],
      [
        "ĠI",
        "n"
      ],
      [
        "ĠÐ",
        "£"
      ],
      [
        "I",
        "ch"
      ],
      [
        "c",
        "orrect"
      ],
      [
        "â",
        "Ŀ"
      ],
      [
        "ĠIn",
        "correct"
      ],
      [
        "âĿ",
        "Į"
      ],
      [
        "ĠÐ´",
        "ÑĸÑĶÑģÐ»Ð¾Ð²"
      ],
      [
        "Ġ",
        "m"
      ],
      [
        "b",
        "e"
      ],
      [
        "Ġ",
        "s"
      ],
      [
        "Ð¸",
        "ÑģÑĤ"
      ],
      [
        "Ð°",
        "ÑĤ"
      ],
      [
        "i",
        "ch"
      ],
      [
        "Ð¾ÑĢ",
        "Ð¸ÑģÑĤ"
      ],
      [
        "Ð¸Ðº",
        "Ð¾ÑĢÐ¸ÑģÑĤ"
      ],
      [
        "Ð",
        "²"
      ],
      [
        "ÐµÐ½Ð½",
        "Ñĸ"
      ],
      [
        "ĠÑĢÐµÑĩ",
        "ÐµÐ½Ð½Ñĸ"
      ],
      [
        "Ð»",
        "Ñı"
      ],
      [
        "ĠÐ²",
        "Ð¸ÐºÐ¾ÑĢÐ¸ÑģÑĤ"
      ],
      [
        "Ġi",
        "st"
      ],
      [
        "Ġd",
        "as"
      ],
      [
        "a",
        "n"
      ],
      [
        "Ñģ",
        "Ñı"
      ],
      [
        "Ġd",
        "ie"
      ],
      [
        "u",
        "n"
      ],
      [
        "ĠÐ",
        "¼"
      ],
      [
        "Ð",
        "´"
      ],
      [
        "Ðµ",
        "ÑĢ"
      ],
      [
        "ÑĤÑĮ",
        "ÑģÑı"
      ],
      [
        "h",
        "a"
      ],
      [
        "Ñĥ",
        "ÑĶ"
      ],
      [
        "e",
        "i"
      ],
      [
        "Ġ",
        "ge"
      ],
      [
        "Ð°Ð",
        "²"
      ],
      [
        "Ġ",
        "ÑģÑĤ"
      ],
      [
        "ĠÐ´ÑĸÑĶÑģÐ»Ð¾Ð²",
        "Ð¾"
      ],
      [
        "ĠÐ¿",
        "ÑĢ"
      ],
      [
        "Ð½",
        "Ð¾"
      ],
      [
        "ĠÐ",
        "¾"
      ],
      [
        "Ñ",
        "Ĩ"
      ],
      [
        "t",
        "e"
      ],
      [
        "Ġ",
        "S"
      ],
      [
        "Ð¸Ð",
        "²"
      ],
      [
        "Ð¸Ð",
        "¹"
      ],
      [
        "ĠÐ",
        "°"
      ],
      [
        "Ñ",
        "Ĺ"
      ],
      [
        "Ð¾Ð",
        "´"
      ],
      [
        "ĠÐ´",
        "Ð»Ñı"
      ],
      [
        "Ġ",
        "w"
      ],
      [
        "au",
        "f"
      ],
      [
        "ĠÐ²Ð¸ÐºÐ¾ÑĢÐ¸ÑģÑĤ",
        "Ð¾Ð²"
      ],
      [
        "ÑĸÐ´",
        "Ð¼"
      ],
      [
        "ĠÐ½",
        "Ð°"
      ],
      [
        "Ã",
        "¼"
      ],
      [
        "ĠI",
        "ch"
      ],
      [
        "Ð»",
        "ÑĮ"
      ],
      [
        "Ð°",
        "ÑĶ"
      ],
      [
        "e",
        "h"
      ],
      [
        "Ġ",
        "ha"
      ],
      [
        "Ġd",
        "er"
      ],
      [
        "'",
        "."
      ],
      [
        "Ġ",
        "F"
      ],
      [
        "Ð¾Ð",
        "³"
      ],
      [
        "Ð",
        "¿"
      ],
      [
        "Ġ",
        "Ñĩ"
      ],
      [
        "Ġ",
        "Ñĥ"
      ],
      [
        "e",
        "s"
      ],
      [
        "â",
        "Ģ"
      ],
      [
        "Ð¾Ð³",
        "Ð¾"
      ],
      [
        "Ġ",
        "B"
      ],
      [
        "Ð½",
        "Ð°"
      ],
      [
        "Ðº",
        "Ñĥ"
      ],
      [
        "Ð¾",
        "ÑĹ"
      ],
      [
        "Ã",
        "¶"
      ],
      [
        "ĠÐ·",
        "Ð°Ð"
      ],
      [
        "Ð¸Ð",
        "¼"
      ],
      [
        "Ð°ÑĤ",
        "Ð¸"
      ],
      [
        "i",
        "t"
      ],
      [
        "ich",
        "t"
      ],
      [
        "ÑĤ",
        "ÑĢ"
      ],
      [
        "Ġ",
        "ein"
      ],
      [
        "un",
        "d"
      ],
      [
        "Ðµ",
        "ÑĤ"
      ],
      [
        "Ġ",
        "âĢ"
      ],
      [
        "s",
        "ch"
      ],
      [
        "ÑĨ",
        "Ñĸ"
      ],
      [
        "Ñ",
        "İ"
      ],
      [
        "g",
        "en"
      ],
      [
        "ĠÐ¿",
        "Ð¾"
      ],
      [
        "Ð",
        "¶"
      ],
      [
        "ĠÑģÑĤ",
        "Ð¾ÑĹ"
      ],
      [
        "ĠÑģÑĤÐ¾ÑĹ",
        "ÑĤÑĮ"
      ],
      [
        "Ġ",
        "n"
      ],
      [
        "Ġha",
        "be"
      ],
      [
        "ÑĸÐ´Ð¼",
        "ÑĸÐ½"
      ],
      [
        "ĠÐ²",
        "ÑĸÐ´Ð¼ÑĸÐ½"
      ],
      [
        "Ð",
        "±"
      ],
      [
        "ÐµÐ½Ð½",
        "Ð¸Ðº"
      ],
      [
        "ÑĥÑĶ",
        "ÑĤÑĮÑģÑı"
      ],
      [
        "Ð½",
        "Ð¸"
      ],
      [
        "Ġ",
        "K"
      ],
      [
        "e",
        "m"
      ],
      [
        "Ġ",
        "M"
      ],
      [
        "Ġ",
        "D"
      ],
      [
        "ĠÑ",
        "ī"
      ],
      [
        "ĠÑ",
        "Ĩ"
      ],
      [
        "Ġ",
        "k"
      ],
      [
        "Ð°Ð",
        "·"
      ],
      [
        "a",
        "r"
      ],
      [
        "ÑĢ",
        "ÑĤ"
      ],
      [
        "Ġ",
        "H"
      ],
      [
        "ÑĮ",
        "Ð¾Ð¼Ñĥ"
      ],
      [
        "a",
        "ch"
      ],
      [
        "Ġd",
        "en"
      ],
      [
        "ÑĢÑĤ",
        "Ð¸Ðº"
      ],
      [
        "Ã",
        "¤"
      ],
      [
        "Ġi",
        "ch"
      ],
      [
        "Ġ",
        "T"
      ],
      [
        "ÑĸÐ",
        "±"
      ],
      [
        "a",
        "t"
      ],
      [
        "ĠÐ°",
        "ÑĢÑĤÐ¸Ðº"
      ],
      [
        "ĠâĢ",
        "ĵ"
      ],
      [
        "Ñĥ",
        "Ð²"
      ],
      [
        "ÑĤÑĢ",
        "ÑĸÐ±"
      ],
      [
        "Ð½",
        "Ð¾Ð¼Ñĥ"
      ],
      [
        "ĠÑĨ",
        "ÑĮÐ¾Ð¼Ñĥ"
      ],
      [
        "e",
        "l"
      ],
      [
        "Ġ",
        "("
      ],
      [
        "Ġ",
        "P"
      ],
      [
        "ĠÑĢ",
        "Ð¾Ð´"
      ],
      [
        "ĠÐ",
        "º"
      ],
      [
        "ĠÑī",
        "Ð¾"
      ],
      [
        "Ġ",
        "A"
      ],
      [
        "ĠÐ¿Ð¾",
        "ÑĤÑĢÑĸÐ±"
      ],
      [
        "ÑĤ",
        "Ð¸"
      ],
      [
        "Ð½",
        "Ð¸Ð¹"
      ],
      [
        "ÑĸÐ",
        "¼"
      ],
      [
        "ĠÐ²Ð¸ÐºÐ¾ÑĢÐ¸ÑģÑĤÐ¾Ð²",
        "ÑĥÑĶÑĤÑĮÑģÑı"
      ],
      [
        "ĠÐ¼",
        "Ñĸ"
      ],
      [
        "o",
        "n"
      ],
      [
        "Ð¸Ð",
        "»"
      ],
      [
        "'",
        ","
      ],
      [
        "ĠÐ½",
        "Ðµ"
      ],
      [
        "ÑĥÐ²",
        "Ð°ÑĤÐ¸"
      ],
      [
        "l",
        "e"
      ],
      [
        "Ġ",
        "-"
      ],
      [
        "Ġ",
        "W"
      ],
      [
        "ĠÐ¿Ð¾ÑĤÑĢÑĸÐ±",
        "Ð½Ð¾"
      ],
      [
        "ĠÑĩ",
        "Ð°"
      ],
      [
        "ĠÐ¼Ñĸ",
        "Ñģ"
      ],
      [
        "Ġ",
        "auf"
      ],
      [
        "Ð°Ð²",
        "Ð¸Ð»"
      ],
      [
        "Ñ",
        "ħ"
      ],
      [
        "ÑĢ",
        "Ñı"
      ],
      [
        "Ð¾Ð",
        "º"
      ],
      [
        "Ð",
        "·"
      ],
      [
        "Ð½",
        "Ðµ"
      ],
      [
        "Ġs",
        "eh"
      ],
      [
        "Ġ",
        "ÑĶ"
      ],
      [
        "d",
        "en"
      ],
      [
        "Ġ",
        "f"
      ],
      [
        "Ñĸ",
        "ÑģÐ»"
      ],
      [
        "ÑĸÑģÐ»",
        "Ñı"
      ],
      [
        "Ð¾Ð",
        "»"
      ],
      [
        "Ġ",
        "b"
      ],
      [
        "Ð°ÑĤ",
        "Ð¸Ð²"
      ],
      [
        "ĠÐ¿",
        "ÐµÑĢ"
      ],
      [
        "ÑĤ",
        "Ð°"
      ],
      [
        "Ġ",
        "G"
      ],
      [
        "a",
        "l"
      ],
      [
        "Ð¼",
        "ÐµÐ½Ð½Ð¸Ðº"
      ],
      [
        "Ġ",
        "Ñı"
      ],
      [
        "Ġw",
        "ei"
      ],
      [
        "ĠÑ",
        "Ħ"
      ],
      [
        "Ġs",
        "ch"
      ],
      [
        "D",
        "as"
      ],
      [
        "D",
        "er"
      ],
      [
        "s",
        "e"
      ],
      [
        "Ã",
        "Ł"
      ],
      [
        "Ð¾ÑĢ",
        "Ð¼"
      ],
      [
        "ĠÐ²Ð¸ÐºÐ¾ÑĢÐ¸ÑģÑĤÐ¾Ð²",
        "ÑĥÐ²Ð°ÑĤÐ¸"
      ],
      [
        "er",
        "n"
      ],
      [
        "Ġ",
        "in"
      ],
      [
        "Ð",
        "³"
      ],
      [
        "Ð¾Ð²",
        "Ñĸ"
      ],
      [
        "ĠÑĦ",
        "Ð¾ÑĢÐ¼"
      ],
      [
        "m",
        "m"
      ],
      [
        "ĠÐ",
        "Ķ"
      ],
      [
        "Ġn",
        "icht"
      ],
      [
        ".",
        "."
      ],
      [
        "ĠÐ²Ð¸ÐºÐ¾ÑĢÐ¸ÑģÑĤ",
        "Ð°"
      ],
      [
        "Ð½Ð°",
        "Ñĩ"
      ],
      [
        "ĠÑĩÐ°",
        "Ñģ"
      ],
      [
        "z",
        "u"
      ],
      [
        "Ġ",
        "Ñĸ"
      ],
      [
[...]
