{
  "version": "1.0",
  "truncation": null,
  "padding": null,
  "added_tokens": [
    {
      "id": 0,
      "content": "<PAD>",
      "single_word": false,
      "lstrip": false,
      "rstrip": false,
      "normalized": false,
      "special": true
    },
    {
      "id": 1,
      "content": "<BOS>",
      "single_word": false,
      "lstrip": false,
      "rstrip": false,
      "normalized": false,
      "special": true
    },
    {
      "id": 2,
      "content": "<EOS>",
      "single_word": false,
      "lstrip": false,
      "rstrip": false,
      "normalized": false,
      "special": true
    },
    {
      "id": 3,
      "content": "<UNK>",
      "single_word": false,
      "lstrip": false,
      "rstrip": false,
      "normalized": false,
      "special": true
    }
  ],
  "normalizer": null,
  "pre_tokenizer": {
    "type": "ByteLevel",
    "add_prefix_space": false,
    "trim_offsets": true,
    "use_regex": true
  },
  "post_processor": null,
  "decoder": {
    "type": "ByteLevel",
    "add_prefix_space": true,
    "trim_offsets": true,
    "use_regex": true
  },
  "model": {
    "type": "BPE",
    "dropout": null,
    "unk_token": "<UNK>",
    "continuing_subword_prefix": null,
    "end_of_word_suffix": null,
    "fuse_unk": false,
    "byte_fallback": false,
    "ignore_merges": false,
    "vocab": {
      "<PAD>": 0,
      "<BOS>": 1,
      "<EOS>": 2,
      "<UNK>": 3,
      "!": 4,
      "\"": 5,
      "%": 6,
      "'": 7,
      "(": 8,
      ")": 9,
      "*": 10,
      "+": 11,
      ",": 12,
      "-": 13,
      ".": 14,
      "/": 15,
      "0": 16,
      "1": 17,
      "2": 18,
      "3": 19,
      "4": 20,
      "5": 21,
      "6": 22,
      "7": 23,
      "8": 24,
      "9": 25,
      ":": 26,
      ";": 27,
      "=": 28,
      ">": 29,
      "?": 30,
      "A": 31,
      "B": 32,
      "C": 33,
      "D": 34,
      "E": 35,
      "F": 36,
      "G": 37,
      "H": 38,
      "I": 39,
      "J": 40,
      "K": 41,
      "L": 42,
      "M": 43,
      "N": 44,
      "O": 45,
      "P": 46,
      "Q": 47,
      "R": 48,
      "S": 49,
      "T": 50,
      "U": 51,
      "V": 52,
      "W": 53,
      "X": 54,
      "Y": 55,
      "Z": 56,
      "[": 57,
      "]": 58,
      "_": 59,
      "`": 60,
      "a": 61,
      "b": 62,
      "c": 63,
      "d": 64,
      "e": 65,
      "f": 66,
      "g": 67,
      "h": 68,
      "i": 69,
      "j": 70,
      "k": 71,
      "l": 72,
      "m": 73,
      "n": 74,
      "o": 75,
      "p": 76,
      "q": 77,
      "r": 78,
      "s": 79,
      "t": 80,
      "u": 81,
      "v": 82,
      "w": 83,
      "x": 84,
      "y": 85,
      "z": 86,
      "¡": 87,
      "¢": 88,
      "£": 89,
      "¤": 90,
      "¥": 91,
      "¦": 92,
      "§": 93,
      "¨": 94,
      "©": 95,
      "«": 96,
      "®": 97,
      "¯": 98,
      "°": 99,
      "±": 100,
      "²": 101,
      "³": 102,
      "´": 103,
      "µ": 104,
      "¶": 105,
      "·": 106,
      "¸": 107,
      "¹": 108,
      "º": 109,
      "»": 110,
      "¼": 111,
      "½": 112,
      "¾": 113,
      "¿": 114,
      "Â": 115,
      "Ã": 116,
      "Ê": 117,
      "Ð": 118,
      "Ñ": 119,
      "Ò": 120,
      "â": 121,
      "ï": 122,
      "ð": 123,
      "Ċ": 124,
      "Ġ": 125,
      "Ģ": 126,
      "ģ": 127,
      "Ĥ": 128,
      "ĥ": 129,
      "Ħ": 130,
      "ħ": 131,
      "Ĩ": 132,
      "ĩ": 133,
      "Ī": 134,
      "ī": 135,
      "ĭ": 136,
      "Į": 137,
      "İ": 138,
      "ı": 139,
      "Ĳ": 140,
      "ĳ": 141,
      "Ĵ": 142,
      "ĵ": 143,
      "Ķ": 144,
      "ķ": 145,
      "ĸ": 146,
      "Ĺ": 147,
      "ĺ": 148,
      "Ļ": 149,
      "ļ": 150,
      "Ľ": 151,
      "ľ": 152,
      "Ŀ": 153,
      "ŀ": 154,
      "Ł": 155,
      "ł": 156,
      "ĠÐ": 157,
      "Ð½": 158,
      "Ð¾": 159,
      "Ð¸": 160,
      "Ðµ": 161,
      "Ñĸ": 162,
      "Ñı": 163,
      "Ñģ": 164,
      "Ð°": 165,
      "ÑĤ": 166,
      "Ð¾Ð": 167,
      "ÑĢ": 168,
      "ch": 169,
      "Ð¸Ð": 170,
      "Ñĥ": 171,
      "Ð½Ð½": 172,
      "re": 173,
      "ÐµÐ½Ð½": 174,
      "or": 175,
      "en": 176,
      "Ð»": 177,
      "rec": 178,
      "orrec": 179,
      "orrect": 180,
      "Ġd": 181,
      "er": 182,
      "ÑĶ": 183,
      "ÐµÐ½Ð½Ñı": 184,
      "ÑĮ": 185,
      "Ð¾Ð²": 186,
      "ĠÐŁ": 187,
      "ĠÐ²": 188,
      "Ñĩ": 189,
      "ĠÐ¿": 190,
      "Ġ'": 191,
      "ĠÐ´": 192,
      "in": 193,
      "Ð¾Ñı": 194,
      "ÑĸÐ": 195,
      "Ð¸Ðº": 196,
      "Ð°Ð": 197,
      "ÑģÐ½": 198,
      "ĠC": 199,
      "Ð¾ÑıÑģÐ½": 200,
      "Ð¾ÑıÑģÐ½ÐµÐ½Ð½Ñı": 201,
      "âľ": 202,
      "ðŁ": 203,
      "ĵĿ": 204,
      "ĠÐŁÐ¾ÑıÑģÐ½ÐµÐ½Ð½Ñı": 205,
      "ĠCorrect": 206,
      "âľħ": 207,
      "ðŁĵĿ": 208,
      "ĠI": 209,
      "ÑģÑĤ": 210,
      "ie": 211,
      "st": 212,
      "Ð¾Ð¼": 213,
      "Ð¼": 214,
      "as": 215,
      "Ðº": 216,
      "ÑģÐ»": 217,
      "ĠÑĢ": 218,
      "Ġi": 219,
      "Ð¾ÑĢ": 220,
      "ein": 221,
      "ĠIn": 222,
      "correct": 223,
      "âĿ": 224,
      "ĠIncorrect": 225,
      "âĿĮ": 226,
      "ĠÐ½": 227,
      "ĠÐ·": 228,
      "au": 229,
      "ge": 230,
      "ÑĤÑĮ": 231,
      "ÑģÐ»Ð¾Ð²": 232,
      "ÑĸÑĶ": 233,
      "ÐµÑĩ": 234,
      "ÑĸÑĶÑģÐ»Ð¾Ð²": 235,
      "Ġs": 236,
      "Ġm": 237,
      "ÑĸÐ½": 238,
      "Ð¾Ð¼Ñĥ": 239,
      "ÑĸÐ´": 240,
      "Ich": 241,
      "be": 242,
      "ĠÑ": 243,
      "ÑĤÐ¸": 244,
      "ĠÑĢÐµÑĩ": 245,
      "ĠÐ£": 246,
      "ĠÐ´ÑĸÑĶÑģÐ»Ð¾Ð²": 247,
      "ich": 248,
      "Ð²": 249,
      "Ð¸ÑģÑĤ": 250,
      "Ð¾ÑĢÐ¸ÑģÑĤ": 251,
      "Ð¸ÐºÐ¾ÑĢÐ¸ÑģÑĤ": 252,
      "Ð»Ñı": 253,
      "Ġdie": 254,
      "Ġist": 255,
      "Ġdas": 256,
      "un": 257,
      "an": 258,
      "ĠÐ²Ð¸ÐºÐ¾ÑĢÐ¸ÑģÑĤ": 259,
      "ĠÐ¼": 260,
      "ÐµÐ½Ð½Ñĸ": 261,
      "ĠÑĢÐµÑĩÐµÐ½Ð½Ñĸ": 262,
      "ha": 263,
      "Ð´": 264,
      "ÑģÑı": 265,
      "ei": 266,
      "Ð°Ð²": 267,
      "Ð½Ð¾": 268,
      "Ġge": 269,
      "te": 270,
      "ĠIch": 271,
      "ĠÐ°": 272,
      "ĠÐ¿ÑĢ": 273,
      "ÐµÑĢ": 274,
      "Ð¾Ð²Ñĥ": 275,
      "ÑĤÑĮÑģÑı": 276,
      "ĠS": 277,
      "ĠÐ´ÑĸÑĶÑģÐ»Ð¾Ð²Ð¾": 278,
      "ĠÑģÑĤ": 279,
      "âĢ": 280,
      "Ð¾Ð´": 281,
      "ÑĨ": 282,
      "Ð¸Ð¹": 283,
      "Ġw": 284,
      "ĠÐ²Ð¸ÐºÐ¾ÑĢÐ¸ÑģÑĤÐ¾Ð²Ñĥ": 285,
      "Ð¸Ð²": 286,
      "ÑĶÑĤÑĮÑģÑı": 287,
      "auf": 288,
      "ĠÐ¾": 289,
      "Ã¼": 290,
      "ĠÐ´Ð»Ñı": 291,
      "eh": 292,
      "Ġha": 293,
      "Ð»ÑĮ": 294,
      "Ġder": 295,
      "ĠB": 296,
      "ĠF": 297,
      "Ð°ÑĤÐ¸": 298,
      "ÑĸÐ´Ð¼": 299,
      "ĠÐ½Ð°": 300,
      "Ð¾Ð³": 301,
      "es": 302,
      "ÑĹ": 303,
      "ĠâĢ": 304,
      "ÑĤÑĢ": 305,
      "'.": 306,
      "Ð¾Ð³Ð¾": 307,
      "Ã¶": 308,
      "ĠÐ¿Ð¾": 309,
      "it": 310,
      "Ġein": 311,
      "ĠÑĩ": 312,
      "ĠD": 313,
      "ÐºÑĥ": 314,
      "sch": 315,
      "gen": 316,
      "Ġn": 317,
      "icht": 318,
      "ĠÑĥ": 319,
      "und": 320,
      "Ð½Ð°": 321,
      "Ð¿": 322,
      "Ġhabe": 323,
      "ĠÐ·Ð°Ð": 324,
      "ĠM": 325,
      "Ð¶": 326,
      "ĠH": 327,
      "Ð¸Ð¼": 328,
      "ÐµÐ½Ð½Ð¸Ðº": 329,
      "ÑĸÐ±": 330,
      "ĠâĢĵ": 331,
      "ĠK": 332,
      "Ġden": 333,
      "ÑĤÑĢÑĸÐ±": 334,
      "ÑĨÑĸ": 335,
      "em": 336,
      "ÐµÑĤ": 337,
      "Ġich": 338,
      "Ð°ÑĶ": 339,
      "Ð¾ÑĹ": 340,
      "ar": 341,
      "Ð°ÑĤ": 342,
      "Ġk": 343,
      "ĠT": 344,
      "Ã¤": 345,
      "ÑĸÐ´Ð¼ÑĸÐ½": 346,
      "ĠÐ²ÑĸÐ´Ð¼ÑĸÐ½": 347,
      "ÑĢÑĤ": 348,
      "ĠÐ¿Ð¾ÑĤÑĢÑĸÐ±": 349,
      "Ð±": 350,
      "ach": 351,
      "ÑĢÑĤÐ¸Ðº": 352,
      "ĠA": 353,
      "Ñİ": 354,
      "Ð½Ð¸": 355,
      "Ð²Ð°ÑĤÐ¸": 356,
      "ĠÐ½Ðµ": 357,
      "Ð¸Ð»": 358,
      "ĠÑĢÐ¾Ð´": 359,
      "el": 360,
      "ĠÐ°ÑĢÑĤÐ¸Ðº": 361,
      "ĠÐ¿Ð¾ÑĤÑĢÑĸÐ±Ð½Ð¾": 362,
      "on": 363,
      "Ġ-": 364,
      "ĠÑĨ": 365,
      "at": 366,
      "Ð¾ÑĹÑĤÑĮ": 367,
      "ĠÑģÑĤÐ¾ÑĹÑĤÑĮ": 368,
      "le": 369,
      "Ð°Ð·": 370,
      "ĠÐº": 371,
      "ĠW": 372,
      "ÑĮÐ¾Ð¼Ñĥ": 373,
      "ĠÑī": 374,
      "Ġseh": 375,
      "Ð½Ð¸Ð¹": 376,
      "Ð°Ð²Ð¸Ð»": 377,
      "ĠP": 378,
      "Ġ(": 379,
      "Ð½Ð¾Ð¼Ñĥ": 380,
      "al": 381,
      "Ġb": 382,
      "Ġauf": 383,
      "ÑĸÐ¼": 384,
      "ĠÐ¼Ñĸ": 385,
      "ĠÐ²Ð¸ÐºÐ¾ÑĢÐ¸ÑģÑĤÐ¾Ð²ÑĥÑĶÑĤÑĮÑģÑı": 386,
      "ĠÑĨÑĮÐ¾Ð¼Ñĥ": 387,
      "Ġsch": 388,
      "ÑĸÑģÐ»": 389,
      "ÑĸÑģÐ»Ñı": 390,
      "Ð·": 391,
      "ĠÐ¼ÑĸÑģ": 392,
      "ĠÐ²Ð¸ÐºÐ¾ÑĢÐ¸ÑģÑĤÐ¾Ð²ÑĥÐ²Ð°ÑĤÐ¸": 393,
      "Ð¾Ð»": 394,
      "..": 395,
      "Ġnicht": 396,
      "Das": 397,
      "',": 398,
      "Ð½Ðµ": 399,
      "Ġwei": 400,
      "Ð¼ÐµÐ½Ð½Ð¸Ðº": 401,
      "ÃŁ": 402,
      "den": 403,
      "ĠÐĶ": 404,
      "ĠÑĦ": 405,
      "ĠÑīÐ¾": 406,
      "ÑĢÑı": 407,
      "ĠG": 408,
      "Ð¾Ðº": 409,
      "mm": 410,
      "Ð°Ð²Ð¸Ð»ÑĮ": 411,
      "ut": 412,
      "se": 413,
      "Ñħ": 414,
      "Ð¾ÑĢÐ¼": 415,
      "Ġmein": 416,
      "Ð°ÑĤÐ¸Ð²": 417,
      "Ġsehe": 418,
      "Ġf": 419,
      "Ġin": 420,
      "Ð¾Ð²Ñĸ": 421,
      "der": 422,
      "Ð°Ð½Ð½": 423,
      "ĠÑĤ": 424,
      "ĠÑĩÐ°": 425,
      "Ð³": 426,
      "ĠÑĦÐ¾ÑĢÐ¼": 427,
      "Ġv": 428,
      "ÑĥÑĶ": 429,
      "ĠÑĢÐ¾Ð´Ñĥ": 430,
      "ĠÐ¿ÐµÑĢ": 431,
      "uch": 432,
      "zu": 433,
      "Ġg": 434,
      "ĠÑĶ": 435,
      "Der": 436,
      "ben": 437,
      "ck": 438,
      "ern": 439,
      "ĠÑĸÐ¼": 440,
      "ĠÐ°ÑĢÑĤÐ¸ÐºÐ»ÑĮ": 441,
      "ĠÐ¾Ð±": 442,
      "ro": 443,
      "ĠÐŁÑĢ": 444,
      "ĠÑı": 445,
      "Ð°Ð»ÑĮ": 446,
      "he": 447,
      "de": 448,
      "Ð½Ð°Ñĩ": 449,
      "ÑĢÑĥ": 450,
      "ss": 451,
      "ĠÐĴ": 452,
      "orgen": 453,
      "Ð½Ð¸Ðº": 454,
      "Ð¼ÐµÑĤ": 455,
      "ÐºÐ°Ð·": 456,
      "Ð¾Ð±": 457,
      "ĠÐ²ÑĸÐ´Ð¼ÑĸÐ½ÐºÑĥ": 458,
      "ÑĩÐ¾Ð³Ð¾": 459,
      "ÐµÐ½": 460,
      "Ġdem": 461,
      "ĠÑģ": 462,
      "Ð¸ÑĤ": 463,
      "ĠÐ²ÐºÐ°Ð·": 464,
      "ĠÐ²Ð¶": 465,
      "ĠÐ¼Ð°ÑĶ": 466,
      "ĠÑĩÐ°Ñģ": 467,
      "ĠÑĸ": 468,
      "ĠÐ±": 469,
      "ĠÐ¿ÑĸÐ´": 470,
      "ir": 471,
      "Ã¶ch": 472,
      "ÐµÐ´": 473,
      "ÑĸÐ¹": 474,
      "ĠÐ¼ÑĸÑģÑĨÑĸ": 475,
      "Ð¸ÐºÐ¼ÐµÑĤ": 476,
      "Ð¸ÐºÐ¼ÐµÑĤÐ½Ð¸Ðº": 477,
      "ĠÐ¿ÑĢÐ°Ð²Ð¸Ð»ÑĮ": 478,
      "ÑĢÑıÐ´": 479,
      "reund": 480,
      "ung": 481,
      "Ġeinen": 482,
      "hr": 483,
      "Ġzu": 484,
      "isch": 485,
      "ĠÑģÑĤÐ¾Ñı": 486,
      "ĠÑıÐº": 487,
      "et": 488,
      "ĠÑĢÐµÑĩÐµÐ½Ð½Ñı": 489,
      "Ã¶n": 490,
      "ĠL": 491,
      "Ã¶chte": 492,
      "Ð°ÑĶÑĤÑĮÑģÑı": 493,
      "ann": 494,
      "ĠSch": 495,
      "·Ð½Ð°Ñĩ": 496,
      "ĠÐ´ÑĢÑĥ": 497,
      "ĠÐ²Ð¶Ð¸Ð²": 498,
      "Ð°Ð²Ð¸": 499,
      "ĠÐ¿ÑĸÐ´ÑĢÑıÐ´": 500,
      "ÑĸÐ½ÑĨÑĸ": 501,
      "Ð°Ð½Ð½Ñı": 502,
      "ĠÑģÑĤÐ¾ÑıÑĤÐ¸": 503,
      "ĠÐ´ÑĢÑĥÐ³": 504,
      "ÑĪ": 505,
      "ber": 506,
      "Ġweil": 507,
      "Ð°Ð½Ð¾": 508,
      "Ġdass": 509,
      "ĠÑĩÐ¾Ð»": 510,
      "ĠÑĩÐ¾Ð»Ð¾Ð²Ñĸ": 511,
      "Ġmit": 512,
      "ĠSt": 513,
      "ÑĸÐ²": 514,
      "ĠFreund": 515,
      "das": 516,
      "ĠDas": 517,
      "ĠÐ²Ð¸ÐºÐ¾ÑĢÐ¸ÑģÑĤÐ°Ð½Ð¾": 518,
      "il": 519,
      "iv": 520,
      "Ð¸Ð¹Ð¼ÐµÐ½Ð½Ð¸Ðº": 521,
      "ÐºÑĤ": 522,
      "ĠE": 523,
      "Ð»Ðµ": 524,
      "ÑĸÐ´Ð¼ÐµÑĤ": 525,
      "Ġdu": 526,
      "ĠÐŁÑĸÑģÐ»Ñı": 527,
      "ĠÑĦÐ¾ÑĢÐ¼Ñĸ": 528,
      "ĠÐ·Ð°Ðº": 529,
      "ĠÐ´ÑĢÑĥÐ³Ð¾Ð¼Ñĥ": 530,
      "ĠR": 531,
      "ÑĩÐµÐ½Ð½Ñı": 532,
      "ĠÐ´ÑĸÑĶÑģÐ»Ð¾Ð²Ð°": 533,
      "ĠÐ·Ð°ÐºÑĸÐ½": 534,
      "ag": 535,
      "Ð¸Ð·Ð½Ð°Ñĩ": 536,
      "ĠÐ·Ð°Ð¿": 537,
      "pie": 538,
      "ĠschÃ¶n": 539,
      "ĠÐ·Ð°ÐºÑĸÐ½ÑĩÐµÐ½Ð½Ñı": 540,
      "ĠÑĩÐ¾Ð»Ð¾Ð²ÑĸÑĩÐ¾Ð³Ð¾": 541,
      "ig": 542,
      "ra": 543,
      "lich": 544,
      "ten": 545,
      "Ð¿ÑĢ": 546,
      "ÑģÑĤÐ°Ð²Ð¸": 547,
      "aus": 548,
      "ĠÑĸÐ¼ÐµÐ½Ð½Ð¸Ðº": 549,
      "ĠÐ²ÐºÐ°Ð·ÑĥÑĶ": 550,
      "ter": 551,
      "ĠBuch": 552,
      "ĠÐ¿ÑĸÑģÐ»Ñı": 553,
      "die": 554,
      "ĠÐ½Ð°Ð": 555,
      "ĠÐ¾Ð±ÑģÑĤÐ°Ð²Ð¸": 556,
      "ren": 557,
      "Ġim": 558,
      "ur": 559,
      "che": 560,
      "ĠÐ²Ð¶Ð¸Ð²Ð°ÑĶÑĤÑĮÑģÑı": 561,
      "Die": 562,
      "ĠÐ¿ÑĸÐ´Ð¼ÐµÑĤ": 563,
      "ĠÐ¿Ð¾Ð²": 564,
      "ĠmÃ¶chte": 565,
      "Ð½Ð¸Ð¼": 566,
      "ĠN": 567,
      "ĠÐ³": 568,
      "ĠÑĩÐ°ÑģÑĥ": 569,
      "Ġbe": 570,
      "Ġl": 571,
      "ĠÐĶÐ»Ñı": 572,
      "ÑĸÑĶÑģÐ»Ð¾Ð²Ð¾": 573,
      "....": 574,
      "ĠÐĶÑĸÑĶÑģÐ»Ð¾Ð²Ð¾": 575,
      "ĠÐ¾Ð±ÑģÑĤÐ°Ð²Ð¸Ð½Ð¸": 576,
      "ze": 577,
      "am": 578,
      "ĠÐ¿ÑĸÐ´ÑĢÑıÐ´Ð½Ð¾Ð¼Ñĥ": 579,
      "Ð°Ð¶": 580,
      "ĠTisch": 581,
      "Ð·Ð°ÑĤÐ¸Ð²": 582,
      "ĠÐ¾Ñģ": 583,
      "ĠHund": 584,
      "ÐºÑĥÐ·Ð°ÑĤÐ¸Ð²": 585,
      "Ġes": 586,
      "Ġmach": 587,
      "Ð¾Ð¿": 588,
      "ĠÐ¿Ð¾Ð²Ð¸": 589,
      "est": 590,
      "ĠÐ´Ð°Ð²": 591,
      "ist": 592,
      "kt": 593,
      "omm": 594,
      "ĠÐ´Ð°Ð²Ð°Ð»ÑĮ": 595,
      "ĠÐ´ÑĸÑĶÑģÐ»Ð¾Ð²Ð¾Ð¼": 596,
      "ier": 597,
      "Ġan": 598,
      "ĠÐºÑĸÐ½ÑĨÑĸ": 599,
      "ĠÐ¿ÐµÑĢÐµÐ´": 600,
      "Ð°Ð³": 601,
      "chen": 602,
      "ĠÐ·Ð°Ð¹": 603,
      "ĠÐ¿ÑĢÐ¸Ð¹Ð¼ÐµÐ½Ð½Ð¸Ðº": 604,
      "ol": 605,
      "wei": 606,
      "Ġh": 607,
      "Ð½Ñĸ": 608,
      "Ġgebe": 609,
      "piel": 610,
      "ÐºÐ¸": 611,
      "Ġmich": 612,
      "Ð½Ñĥ": 613,
      "ĠÐ·Ð°Ð¹Ð¼ÐµÐ½Ð½Ð¸Ðº": 614,
      "ft": 615,
      "Ġbin": 616,
      "ĠÐ°ÐºÑĥÐ·Ð°ÑĤÐ¸Ð²": 617,
      "Ã¼r": 618,
      "ativ": 619,
      "Ġgehe": 620,
      "ÑĦ": 621,
      "Ð¿ÐµÑĢ": 622,
      "hn": 623,
      "ĠÐ½Ð°Ð¿": 624,
      ").": 625,
      "ĠÐŁÑĢÐ¸ÐºÐ¼ÐµÑĤÐ½Ð¸Ðº": 626,
      "ĠÐ¿Ð¾Ð²Ð¸Ð½Ð½": 627,
      "ĠÐ´Ð¾Ð¿": 628,
      "ĠÐ¼ÑĸÑģÑĨ": 629,
      "ĠÐ²Ð¸Ð¼": 630,
      "Ġt": 631,
      "um": 632,
      "ĠÐ²ÑĸÐ´": 633,
      "Ġvon": 634,
      "ĠweiÃŁ": 635,
      "ĠÐ²Ð¸Ð¼Ð°Ð³": 636,
      "Ð¸Ñģ": 637,
      "ĠZ": 638,
      "Ð½Ð¾Ð³Ð¾": 639,
      "ÐµÑĢÐµÑĩ": 640,
      "ĠÐ¾Ð´": 641,
      "ĠDer": 642,
      "ĠÐ°ÑĢÑĤÐ¸ÐºÐ»Ñı": 643,
      "rau": 644,
      "ff": 645,
      "ĠÐ²ÑĸÐ´Ð¼ÑĸÐ½Ð¾Ðº": 646,
      "Ġhat": 647,
      "rÃ¼": 648,
      "ĠÐ·Ð½Ð°": 649,
      "ĠÐ½ÐµÐ²": 650,
      "hen": 651,
      "ÐºÐ°": 652,
      "ÑĶÐºÑĤ": 653,
      "om": 654,
      "lau": 655,
      "ĠÐ¿Ð¸ÑĤ": 656,
      "ĠV": 657,
      "ĠÐ¶": 658,
      "mein": 659,
      "ĠÐ²Ð¸": 660,
      "ÑĸÑĹ": 661,
      "ĠÐ´Ð¾Ð¿Ð¾Ð¼": 662,
      "ĠÐ½ÐµÐ²Ð¸Ð·Ð½Ð°Ñĩ": 663,
      "pf": 664,
      "ĠÐ·Ð°Ð¿ÐµÑĢÐµÑĩ": 665,
      "Ð²ÐµÑĢ": 666,
      "sein": 667,
      "ÑĨÑĮ": 668,
      "Ġeine": 669,
      "lei": 670,
      "ĠÑĤÐ¾Ð¼Ñĥ": 671,
      "ÑĸÐ¶": 672,
      "Ð°Ð¼": 673,
      "ĠÑĸÐ½": 674,
      "ĠÐ²Ð¸Ð¼Ð°Ð³Ð°ÑĶ": 675,
      "ik": 676,
      "haben": 677,
      "ĠÐ¾Ð´Ð½Ð¸": 678,
      "ĠÐ¡": 679,
      "imm": 680,
      "Ġund": 681,
      "Ġer": 682,
      "ssen": 683,
      "ÑĸÐ»ÑĮ": 684,
      "Ð¸ÑĤÐ¸": 685,
      "ÐµÑĨÑĮ": 686,
      "all": 687,
      "ĠÐ¿ÑĸÐ´Ð¼ÐµÑĤÐ¾Ð¼": 688,
      "ru": 689,
      "Ġins": 690,
      "ot": 691,
      "ĠÐ¾ÑģÐ¾Ð±": 692,
      "ÑħÑĸÐ´": 693,
      "Ġst": 694,
      "ĠÐ´Ð¾Ð¿Ð¾Ð¼ÑĸÐ¶": 695,
      "ause": 696,
      "Ð°Ð´": 697,
      "Morgen": 698,
      "ĠWo": 699,
      "ĠJ": 700,
      "Ġdes": 701,
      "ĠÐ¶ÑĸÐ½": 702,
      "ÐµÐ½Ð¾Ð³Ð¾": 703,
      "ĠÑĸÐ¼Ð¿ÐµÑĢ": 704,
      "ran": 705,
      "ĠÑĢÐ¾Ð´Ð¾Ð²": 706,
      "ĠÑĸÐ¼Ð¿ÐµÑĢÐ°ÑĤÐ¸Ð²": 707,
      "ell": 708,
      "Ġle": 709,
      "ÑģÑĮ": 710,
      "ind": 711,
      "Ã¼ber": 712,
      "us": 713,
      "ĠÐ¶ÑĸÐ½Ð¾": 714,
      "einen": 715,
      "weil": 716,
      "ÑĢÑıÐ¼": 717,
      "ĠÐ¿Ð¾Ð²Ð¸Ð½Ð½Ð¾": 718,
      "Ð¾Ð·": 719,
      "ĠÐ·Ð°Ð¿ÐµÑĢÐµÑĩÐµÐ½Ð½Ñı": 720,
      "ĠHause": 721,
      "ute": 722,
      "Ð¾Ð²Ð¾": 723,
      "ĠÐ±Ñĥ": 724,
      "Ġmache": 725,
      "Ð°Ð½Ð½Ñĸ": 726,
      "ug": 727,
      "Ġsich": 728,
      "ÑĸÐ¼ÐµÑĨÑĮ": 729,
      "ĠÐ¡Ð»": 730,
      "ÐºÐ¾Ð¼": 731,
      "ĠO": 732,
      "ĠÐ¿ÑĢÐ¾": 733,
      "Ð»ÐµÐ¶": 734,
      "Ð²ÐµÑĢÑģ": 735,
      "sen": 736,
      "ĠÐ½ÑĸÐ¼ÐµÑĨÑĮ": 737,
      "rin": 738,
      "ĠÐ²Ð¸ÑĢ": 739,
      "Ġver": 740,
      "ĠÐ½ÑĸÐ¼ÐµÑĨÑĮÐº": 741,
      "Ġa": 742,
      "ĠPar": 743,
      "uto": 744,
      "ĠÐ¡Ð»Ð¾Ð²Ð¾": 745,
      "eine": 746,
      "ĠÐ¼Ð¾Ð²Ñĸ": 747,
      "Ġnach": 748,
      "zt": 749,
      "and": 750,
      "mach": 751,
      "asche": 752,
      "ĠMorgen": 753,
      "ĠAuto": 754,
      "rei": 755,
      "ĠU": 756,
      "du": 757,
      "ÑģÑĤÑĮ": 758,
      "âĢľ": 759,
      "ĠÐ¾Ð´Ð½Ð¸Ð½Ð¸": 760,
      "ĠÐ½ÑĸÐ¼ÐµÑĨÑĮÐºÑĸÐ¹": 761,
      "ad": 762,
      "nicht": 763,
      "ĠSie": 764,
      "eit": 765,
      "ĠÑĤÐµ": 766,
      "ĠÑıÐºÐµ": 767,
      "Ġkomm": 768,
      "Ġ\"": 769,
      "Ð°Ð½": 770,
      "je": 771,
      "ĠÐ·Ð½Ð°ÑħÑĸÐ´": 772,
      "ĠÐ²Ð¸ÑĢÐ°Ð¶": 773,
      "dem": 774,
      "ĠÐ¿ÑĢÐ¸ÐºÐ¼ÐµÑĤÐ½Ð¸Ðº": 775,
      "reu": 776,
      "Ġmeine": 777,
      "ĠÐ½Ð°Ð¿ÑĢ": 778,
      "hl": 779,
      "ne": 780,
      "gt": 781,
      "ĠÃ¼ber": 782,
      "ĠDie": 783,
      "........": 784,
      "ĠÐ´Ðµ": 785,
      "Ġkann": 786,
      "ĠÐ½Ð°Ð¿ÑĢÐ¸Ðº": 787,
      "Ð¾Ð¶": 788,
      "Ġgehen": 789,
      "Ġkauf": 790,
      "ion": 791,
      "Ð¾Ð½": 792,
      "ke": 793,
      "Ġspiel": 794,
      "rer": 795,
      "ÐµÐ½Ð¸Ð¹": 796,
      "ÑıÐ¼": 797,
      "des": 798,
      "ĠÐ¶ÑĸÐ½Ð¾ÑĩÐ¾Ð³Ð¾": 799,
      "ĠÐ½Ð°Ð¿ÑĢÐ¸ÐºÑĸÐ½ÑĨÑĸ": 800,
      "ÑģÐ»ÑĸÐ²": 801,
      "och": 802,
      "Ð²Ð¾ÑĢ": 803,
      "estern": 804,
      "ÐµÐºÑĤ": 805,
      "kauf": 806,
      "Ð°Ðº": 807,
      "ĠâĢŀ": 808,
      "ÑİÑĤÑĮ": 809,
      "ĠWas": 810,
      "ĠÑĢÐ¾Ð´Ð¾Ð²Ð¾Ð¼Ñĥ": 811,
      "ĠÐ±ÑĥÑĤÐ¸": 812,
      "Ð²ÑĸÐ¹": 813,
      "ĠÐ²Ð¸ÑĢÐ°Ð¶ÐµÐ½Ð½Ñı": 814,
      "nen": 815,
      "Ð¸Ð½Ð°": 816,
      "ĠÐ´Ð¾": 817,
      "Ġwir": 818,
      "ĠÑĸÐ¼ÐµÐ½Ð½Ð¸ÐºÐ¾Ð¼": 819,
      "ÑĥÐ²Ð°ÑĤÐ¸": 820,
      "tere": 821,
      "ĠÐ¿Ð¾Ñĩ": 822,
      "ĠÐ·Ð½Ð°ÑħÑĸÐ´Ð½Ð¾Ð¼Ñĥ": 823,
      "ĠâĢ¦": 824,
      "zen": 825,
      "ĠÑĢÐ¾Ð·": 826,
      "ĠÐ°ÐºÑĥÐ·Ð°ÑĤÐ¸Ð²Ñĸ": 827,
      "ser": 828,
      "Ð¿ÑĢÐ°Ð²Ð¸Ð»ÑĮ": 829,
      "Ġmorgen": 830,
      "ĠÐ¼ÑĸÑģÑĨÑı": 831,
      "Ð¸ÑģÐ²ÑĸÐ¹": 832,
      "Ð¾ÑĢÑı": 833,
      "ĠÐ¿ÑĢÑıÐ¼": 834,
      "esen": 835,
      "ĠLeh": 836,
      "ĠÐ´Ð¾Ð¿Ð¾Ð¼ÑĸÐ¶Ð½Ðµ": 837,
      "ĠÐ²Ð¸Ð·Ð½Ð°Ñĩ": 838,
      "ĠÐ¼Ð¸": 839,
      "ĠÐ¾ÑģÐ¾Ð±Ð¸": 840,
      "Ġun": 841,
      "ĠÐ½ÐµÐ¿ÑĢÐ°Ð²Ð¸Ð»ÑĮ": 842,
      "Ð¾ÑĤ": 843,
      "dass": 844,
      "Ð¾Ð´Ð¶": 845,
      "Ð¾Ð´Ð°Ð»ÑĮ": 846,
      "ÑĦÐµÐºÑĤ": 847,
      "pfel": 848,
      "Ð¸ÑĤÑĮ": 849,
      "ÑģÑĤÑĸ": 850,
      "ĠMann": 851,
      "ĠÐĴÐ¸ÐºÐ¾ÑĢÐ¸ÑģÑĤ": 852,
      "ĠÑĸÐ½Ð²ÐµÑĢÑģ": 853,
      "ahr": 854,
      "ken": 855,
      "ĠÑĦÐ¾ÑĢÐ¼Ñĥ": 856,
      "ÑĤÑĢÐµ": 857,
      "ĠÑģÐ»Ð¾Ð²": 858,
      "Ġsehr": 859,
      "gel": 860,
      "ĠÐ¿ÐµÑĢÑĪ": 861,
      "ĠÐ·Ð°": 862,
      "ĠÐ·Ð°Ð¿Ð¸ÑĤ": 863,
      "wor": 864,
      "ĠEr": 865,
      "ap": 866,
      "ant": 867,
      "ĠÑĩÐ°ÑģÑĤ": 868,
      "ĠÐ½ÐµÐ²Ð¸Ð·Ð½Ð°ÑĩÐµÐ½Ð¾Ð³Ð¾": 869,
      "fen": 870,
      "cker": 871,
      "Dativ": 872,
      "rÃ¤": 873,
      "ĠÐ·Ð¼": 874,
      "ĠVer": 875,
      "Ã¼ck": 876,
      "ver": 877,
      "is": 878,
      "ĠÐ¿Ð¾Ðº": 879,
      "ĠÐ´Ð¾Ð´": 880,
      "arbe": 881,
      "ĠAr": 882,
      "ĠÐŁÑĢÐ¸Ð¹Ð¼ÐµÐ½Ð½Ð¸Ðº": 883,
      "teress": 884,
      "ĠÐĴÐ¸ÐºÐ¾ÑĢÐ¸ÑģÑĤÐ¾Ð²Ñĥ": 885,
      "ĠÑĸÐ½Ð²ÐµÑĢÑģÑĸÑĹ": 886,
      "la": 887,
      "ĠÐ´Ñĸ": 888,
      "laube": 889,
      "ĠÐ¿Ð¸ÑĤÐ°Ð½Ð½Ñĸ": 890,
      "Ð¾ÑĢÑıÐ´": 891,
      "ĠÐ·Ð¼ÑĸÐ½": 892,
      "ĠfÃ¼r": 893,
      "fe": 894,
      "ĠÐ¿ÐµÑĢÑĦÐµÐºÑĤ": 895,
      "ĠÐ·Ð°Ð²": 896,
      "Ð°ÑĤÐºÑĥ": 897,
      "Ġglaube": 898,
      "nt": 899,
      "Ð¸Ð¿": 900,
      "ĠPark": 901,
      "ĠLehrer": 902,
      "net": 903,
      "ÑĸÑĤ": 904,
      "ĠÐ¿Ð¾ÐºÐ°Ð·": 905,
      "ah": 906,
      "Ð´Ð¸": 907,
      "Ġkein": 908,
      "ent": 909,
      "tel": 910,
      "Ġwasche": 911,
      "stern": 912,
      "ht": 913,
      "mit": 914,
      "Â«": 915,
      "ÐµÐ·": 916,
      "Ð°Ð²Ð¸Ð»Ð¾": 917,
      "ĠÐ´Ð°Ð²Ð°Ð»ÑĮÐ½Ð¸Ð¹": 918,
      "Â»": 919,
      "Ġhe": 920,
      "ĠÂ«": 921,
      "ĠÐ¿ÑĢÐ¸ÑģÐ²ÑĸÐ¹": 922,
      "ÐµÑĢÐµÐ´": 923,
      "ĠKin": 924,
      "Ã¤n": 925,
      "angen": 926,
      "Ġinteress": 927,
      "ul": 928,
      "ĠApfel": 929,
      "ĠÑīÐ¾Ð±": 930,
      "roÃŁ": 931,
      "Ġkaufe": 932,
      "Ġheute": 933,
      "Ġje": 934,
      "Ð¿ÑĢÐ°Ð²Ð¸Ð»Ð¾": 935,
      "Du": 936,
      "Ð»Ñİ": 937,
      "ÐµÐ¼": 938,
      "ĠGes": 939,
      "ĠÐ¿Ð¾ÑĢÑıÐ´": 940,
      "ĠPro": 941,
      "kauft": 942,
      "Ġmir": 943,
      "bt": 944,
      "seh": 945,
      "Ġblei": 946,
      "ĠÑĸÐ¼ÐµÐ½Ð½Ð¸ÐºÐ°": 947,
      "Ð°ÑĢ": 948,
      "Ġsie": 949,
      "ĠÐ¿ÑĢÐ°Ð²Ð¸Ð»ÑĮÐ½Ð¾": 950,
      "ĠÐĴÐ¸ÐºÐ¾ÑĢÐ¸ÑģÑĤÐ¾Ð²ÑĥÑĶÑĤÑĮÑģÑı": 951,
      "mÃ¶chte": 952,
      "alt": 953,
      "Ġo": 954,
      "ĠÐ°Ð±": 955,
      "ĠÐ°Ð±Ð¾": 956,
      "ab": 957,
      "eu": 958,
      "ĠDu": 959,
      "ĠÐ½Ð°Ð»ÐµÐ¶": 960,
      "ĠÑĥÐ·": 961,
      "Ġjeden": 962,
      "ĠÑĥÐ·Ð³": 963,
      "Ð¾Ñİ": 964,
      "ĠÐ±Ð°Ð¶": 965,
      "ĠÑĥÐ·Ð³Ð¾Ð´Ð¶": 966,
      "ĠÐ±Ð°Ð¶Ð°Ð½Ð½Ñı": 967,
      "ĠÐ²ÑĸÐ´Ð¿": 968,
      "atze": 969,
      "Ġschn": 970,
      "ĠRe": 971,
      "ĠmÃ¼": 972,
      "eht": 973,
      "ĠÐ¿Ð¾ÑĩÐ°ÑĤÐºÑĥ": 974,
      "ÑĤÑĢÐ¸Ð¼": 975,
      "elle": 976,
      "ĠFreundin": 977,
      "Ġam": 978,
      "rot": 979,
      "ĠÐľ": 980,
      "cke": 981,
      "ĠNach": 982,
      "ner": 983,
      "Ġmeinem": 984,
      "Ġaber": 985,
      "ĠÑģÐ»ÑĸÐ²": 986,
      "Ð¾Ð²ÑĸÐ´": 987,
      "ĠKatze": 988,
      "ĠÐ½ÐµÐ¿": 989,
      "ĠÐ´Ð°Ð²Ð°Ð»ÑĮÐ½Ð¾Ð¼Ñĥ": 990,
      "im": 991,
      "uf": 992,
      "ers": 993,
      "ÐºÑĸÐ»ÑĮ": 994,
      "Ġgut": 995,
      "machen": 996,
      "Ð¾Ð´Ð°Ð»ÑĮÐ½Ðµ": 997,
      "Wo": 998,
      "ĠÐ¹": 999,
      "ĠgroÃŁ": 1000,
      "gangen": 1001,
      "lo": 1002,
      "ichtig": 1003,
      "ĠÑĢÐ¾Ð·Ð´": 1004,
      "Ġz": 1005,
      "Ð¾Ð¼ÑĸÐ½": 1006,
      "ĠÐ¾ÑĤÑĢÐ¸Ð¼": 1007,
      "ĠÑĤÐ°": 1008,
      "Ġbleibe": 1009,
      "Ð¾Ð¼ÑĸÐ½Ð°ÑĤÐ¸Ð²": 1010,
      "ĠÐ²Ð¸Ð¿": 1011,
      "Ġgew": 1012,
      "ĠÐºÐ¾Ð½": 1013,
      "ĠÐ²ÑĸÐ´Ð¿Ð¾Ð²ÑĸÐ´": 1014,
      "ĠÐ½ÐµÐ¿ÑĢÑıÐ¼": 1015,
      "ÐºÑĸÐ»ÑĮÐºÐ¸": 1016,
      "Ġaus": 1017,
      "ĠGar": 1018,
      "ĠÐŁÑĢÐ¸": 1019,
      "ĠÑģÐµÑĢÐµÐ´": 1020,
      "ĠÐ´Ð¾Ð´Ð°ÑĤ": 1021,
      "kk": 1022,
      "uÃŁ": 1023,
      "Ġsind": 1024,
      "ehm": 1025,
      "ĠÑģÐ¿": 1026,
      "Ġlege": 1027,
      "ĠÑģÐµÑĢÐµÐ´Ð½": 1028,
      "pe": 1029,
      "uss": 1030,
      "atz": 1031,
      "ĠÐ¾ÑģÐºÑĸÐ»ÑĮÐºÐ¸": 1032,
      "Ġinteressant": 1033,
      "lie": 1034,
      "ĠÐ¿Ð¾Ð¼": 1035,
      "ĠÐ·Ð²Ð¾ÑĢ": 1036,
      "ĠSchu": 1037,
      "ĠÐ½Ð°Ð¿ÑĢÑıÐ¼": 1038,
      "ĠÐ¿ÑĢÑıÐ¼Ð¸Ð¼": 1039,
      "orm": 1040,
      "ĠÐ·Ð²Ð¾ÑĢÐ¾ÑĤ": 1041,
      "Ġp": 1042,
      "ĠÐ½Ð¾Ð¼ÑĸÐ½Ð°ÑĤÐ¸Ð²": 1043,
      "itte": 1044,
      "ĠÐ´ÑĸÑĶ": 1045,
      "ĠÐ²Ð¸Ð¿Ð°Ð´": 1046,
      "ÑĤÐµ": 1047,
      "res": 1048,
      "Ð»Ð°": 1049,
      "ĠÐ¾Ð·": 1050,
      "ĠÑıÐºÐ¸Ð¹": 1051,
      "Ġschnell": 1052,
      "ĠÐ¿Ð¾Ð¼Ð¸Ð»": 1053,
      "Gestern": 1054,
      "ĠÐ½Ð°Ð·": 1055,
      "Ġgegangen": 1056,
      "ĠBer": 1057,
      "Ã¤t": 1058,
      "Ġfreu": 1059,
      "ĠÐ¿ÐµÑĢÑĪÐ¾Ð¼Ñĥ": 1060,
      "ĠKino": 1061,
      "Ð¾Ñĩ": 1062,
      "ieren": 1063,
      "gessen": 1064,
      "Ð°Ð¼Ð¸": 1065,
      "enn": 1066,
      "ÑĮÐ¾Ð³Ð¾": 1067,
      "Ġwar": 1068,
      "ĠFuÃŁ": 1069,
      "ĠÐ¼ÑĸÑģÑĨÐµ": 1070,
      "ÑĶÐºÑĤÐ¾Ð¼": 1071,
      "ĠWasser": 1072,
      "kein": 1073,
      "Ġgef": 1074,
      "Ġgekauft": 1075,
      "ĠÐ°Ð»Ðµ": 1076,
      "ĠÐºÐ¾Ð»": 1077,
      "ĠÐ´ÑĸÑĹ": 1078,
      "Ð¼Ð¾": 1079,
      "ĠÐ¿ÑĢÐ¸Ð¹Ð¼ÐµÐ½Ð½Ð¸ÐºÐ°": 1080,
      "such": 1081,
      "ĠÐ¦": 1082,
      "Ð¸Ð²Ð½Ð¾Ð¼Ñĥ": 1083,
      "ĠÐ½ÐµÐ²Ð¸Ð·Ð½Ð°ÑĩÐµÐ½Ð¸Ð¹": 1084,
      "ĠÐ¾Ð·Ð½Ð°Ñĩ": 1085,
      "ast": 1086,
      "ert": 1087,
      "tet": 1088,
      "ĠÐ»": 1089,
      "Ġsp": 1090,
      "ĠÐ²ÑĸÐ´Ð¼ÑĸÐ½ÐºÐ¾Ð¼": 1091,
      "ĠÐ½ÐµÐ¿ÑĢÐ°Ð²Ð¸Ð»ÑĮÐ½Ð¸Ð¹": 1092,
      "ĠÐ²Ð¸Ð¿Ð°Ð´ÐºÑĥ": 1093,
      "ĠÐºÐ¾Ð¼": 1094,
      "Ð°ÑİÑĤÑĮ": 1095,
      "itt": 1096,
      "ĠAn": 1097,
      "eld": 1098,
      "Ð½ÑĸÑģÑĤÑĮ": 1099,
      "immer": 1100,
      "ÑĤÑĢÐµÐ±": 1101,
      "Ġfreue": 1102,
      "ĠÐ¦Ðµ": 1103,
      "),": 1104,
      "iz": 1105,
      "Ġre": 1106,
      "ÑĸÑģÑĤÑĮ": 1107,
      "Ġesse": 1108,
      "ĠÐ½Ð°Ð·Ð¸Ð²Ð½Ð¾Ð¼Ñĥ": 1109,
      "Ñī": 1110,
      "Ġmag": 1111,
      "ĠÐ¾Ð¿": 1112,
      "Ġneu": 1113,
      "Ġbitte": 1114,
      "Ġschw": 1115,
      "ommen": 1116,
      "ĠmÃ¼de": 1117,
      "ihr": 1118,
      "ÑĥÑħ": 1119,
      "ster": 1120,
      "ĠFl": 1121,
      "ĠÐ¿ÑĢÐ°Ð²Ð¸Ð»ÑĮÐ½Ð¸Ð¹": 1122,
      "Ġzum": 1123,
      "ĠÃ": 1124,
      "ÑĸÐ½Ð½": 1125,
      "Ġvor": 1126,
      "ĠSchw": 1127,
      "Ġgestern": 1128,
      "ĠÑģÑĤÐ°Ð²Ð¸": 1129,
      "ĠÐ±ÐµÐ·": 1130,
      "ĠÐ·Ð°Ð¹Ð¼ÐµÐ½Ð½Ð¸ÐºÐ°": 1131,
      "Ã¼l": 1132,
      "Ð¶Ð´Ð¸": 1133,
      "Ġkommt": 1134,
      "ĠÐ·Ð°Ð¿Ð¸ÑĤÐ°Ð½Ð½Ñı": 1135,
      "ĠÐ·Ð°Ð²Ð¶Ð´Ð¸": 1136,
      "Ð¼Ð°ÑĶ": 1137,
      "bel": 1138,
      "ild": 1139,
      "ĠÐ¿Ð¾ÑĢÑıÐ´Ð¾Ðº": 1140,
      "ball": 1141,
      "sp": 1142,
      "Ð¾Ð·Ð½Ð°Ñĩ": 1143,
      "iel": 1144,
      "Ġgern": 1145,
      "ĠStu": 1146,
      "piele": 1147,
      "iert": 1148,
      "bl": 1149,
      "our": 1150,
      "ÑĥÐ²": 1151,
      "ĠMon": 1152,
      "ĠAkk": 1153,
      "ĠÐ¿ÑĢÐ¸ÑģÐ²ÑĸÐ¹Ð½Ð¸Ð¹": 1154,
      "hst": 1155,
      "ps": 1156,
      "Ð¹": 1157,
      "ende": 1158,
      "ĠÐ²ÑĸÐ´Ð¼ÑĸÐ½ÐºÐ°": 1159,
      "ĠÑģÐµÑĢÐµÐ´Ð½ÑĮÐ¾Ð³Ð¾": 1160,
      "haus": 1161,
      "Ġihr": 1162,
      "ĠGarten": 1163,
      "ĠBr": 1164,
      "Ð¾Ð»Ð¾Ð´": 1165,
      "ĠÐ³Ð¾Ð²": 1166,
      "ÑĶÐºÑĤÐ°": 1167,
      "................": 1168,
      "ĠÐ¿Ð¾ÐºÐ°Ð·ÑĥÑĶ": 1169,
      "\".": 1170,
      "Ð¾Ð²Ð°": 1171,
      "ĠBl": 1172,
      "ÃŁen": 1173,
      "ĠÑĩÐ°ÑģÑĸ": 1174,
      "ahn": 1175,
      "lan": 1176,
      "Ð´Ðµ": 1177,
      "ĠTag": 1178,
      "Ġzur": 1179,
      "Ġlie": 1180,
      "ĠÐ´Ð¾Ð´Ð°ÑĤÐºÐ¾Ð¼": 1181,
      "Am": 1182,
      "bs": 1183,
      "ee": 1184,
      "ÑĢÐµÐ¼": 1185,
      "ĠÑĢÑĥÑħ": 1186,
      "Ġwichtig": 1187,
      "ĠÑīÐ¾ÑģÑĮ": 1188,
      "ÑĸÐ½Ð½Ñı": 1189,
      "Ã¤hr": 1190,
      "cken": 1191,
      "ĠWoche": 1192,
      "ĠÐ´ÑĸÑİ": 1193,
      "ĠÐľÐ¾Ð´Ð°Ð»ÑĮÐ½Ðµ": 1194,
      "ÑĸÑı": 1195,
      "ÑĸÑĪ": 1196,
      "ĠSo": 1197,
      "ĠÑģÑĤÐ°": 1198,
      "Ð½Ð¸Ñħ": 1199,
      "ĠÐ¾ÑĤÑĢÐ¸Ð¼ÑĥÑĶ": 1200,
      "ĠFuÃŁball": 1201,
      "ÑĥÑĤ": 1202,
      "ing": 1203,
      "ĠÐ¾Ð¿Ð¸Ñģ": 1204,
      "Ġum": 1205,
      "ĠÐ¯": 1206,
      "Ġ'-": 1207,
      "Ã¼n": 1208,
      "ĠÐ½ÐµÐ¼Ð°ÑĶ": 1209,
      "ĠÑĦÐ¾ÑĢÐ¼Ð°": 1210,
      "Ġtrin": 1211,
      "ĠÐ½Ð¾Ð¼ÑĸÐ½Ð°ÑĤÐ¸Ð²Ñĸ": 1212,
      "ĠÐ¿Ð¾Ð¼Ð¸Ð»ÐºÐ¸": 1213,
      "sten": 1214,
      "ĠHer": 1215,
      "Ã¤l": 1216,
      "ĠÐ³ÑĢ": 1217,
      "Ġspielst": 1218,
      "ĠSchule": 1219,
      "bar": 1220,
      "to": 1221,
      "ĠÑħ": 1222,
      "hat": 1223,
      "ĠBÃ¼": 1224,
      "ÑİÑĶÑĤÑĮÑģÑı": 1225,
      "att": 1226,
      "ĠÐŁÑĢÐ¸ÐºÐ¼ÐµÑĤÐ½Ð¸ÐºÐ¸": 1227,
      "ĠÐ½Ð°Ð»ÐµÐ¶Ð¸ÑĤÑĮ": 1228,
      "ief": 1229,
      "stag": 1230,
      "ĠMe": 1231,
      "Ð¾ÐºÑĢÐµÐ¼": 1232,
      "ĠÑģÐ»Ð¾Ð²Ð°": 1233,
      "ĠÐ¾Ð·Ð½Ð°ÑĩÐ°ÑĶ": 1234,
      "//": 1235,
      "://": 1236,
      "tps": 1237,
      "ĠÐ²Ð¾Ð»Ð¾Ð´": 1238,
      "ĠÐ¿Ð¾Ð·Ð½Ð°Ñĩ": 1239,
      "ĠÐ¾ÑģÐ½": 1240,
      "ĠÐ¿Ð¸ÑĤÐ°Ð½Ð½Ñı": 1241,
      "ÑĸÑĤÐ¸Ð²": 1242,
      "ĠÐ¿Ð¾Ð·Ð½Ð°ÑĩÐµÐ½Ð½Ñı": 1243,
      "ĠÑĸÐ¼Ð¿ÐµÑĢÐ°ÑĤÐ¸Ð²Ð°": 1244,
      "rage": 1245,
      "ĠÑĸÐ¼Ð¿ÐµÑĢÐ°ÑĤÐ¸Ð²Ñĥ": 1246,
      "ĠÐ²Ð¾Ð»Ð¾Ð´ÑĸÐ½Ð½Ñı": 1247,
      "ĠHand": 1248,
      "Ġviel": 1249,
      "ester": 1250,
      "oll": 1251,
      "ĠÑģÑĤÐ°Ð½Ñĥ": 1252,
      "spiel": 1253,
      "ĠÐŁÐ¾": 1254,
      "asse": 1255,
      "Ġgel": 1256,
      "ĠÑĩÐ¸": 1257,
      "ĠÐĴÐ¶": 1258,
      "sehen": 1259,
      "ĠÐĹ": 1260,
      "Ð»Ð¸Ð²": 1261,
      "geb": 1262,
      "ĠBau": 1263,
      "ĠHaus": 1264,
      "rad": 1265,
      "ĠÐ²Ð¸Ð·Ð½Ð°ÑĩÐµÐ½Ð¾Ð³Ð¾": 1266,
      "ĠÐºÐ¾Ð»Ð¸": 1267,
      "ĠÐŁÐ¾ÑĤÑĢÑĸÐ±": 1268,
      "rik": 1269,
      "Ġru": 1270,
      "ÑĢÐ°": 1271,
      "ÑĥÑĶÑĤÑĮÑģÑı": 1272,
      "let": 1273,
      "ĠUn": 1274,
      "Ð¾Ñģ": 1275,
      "reit": 1276,
      "ine": 1277,
      "Ġspiele": 1278,
      "ĠÐ¿ÑĢÐ¸Ð½Ð°": 1279,
      "ĠTÃ¼r": 1280,
      "ĠStad": 1281,
      "ĠÐ¿ÑĢÐ¸Ð½Ð°Ð»ÐµÐ¶": 1282,
      "ade": 1283,
      "aft": 1284,
      "Ð°Ð¹": 1285,
      "ĠÐ¿Ð¾ÑĤÑĢÐµÐ±": 1286,
      "Ð¸Ð¼Ð¾": 1287,
      "ÑİÑĶ": 1288,
      "ill": 1289,
      "rank": 1290,
      "Ġab": 1291,
      "dw": 1292,
      "ien": 1293,
      "og": 1294,
      "ĠFrau": 1295,
      "ĠGe": 1296,
      "ĠGeld": 1297,
      "ĠÑĩÐ¾Ð»Ð¾Ð²ÑĸÑĩ": 1298,
      "ĠÐ·Ð²Ð¾ÑĢÐ¾ÑĤÐ½Ðµ": 1299,
      "igen": 1300,
      "Ð¸Ð½": 1301,
      "ĠÑĨÐµ": 1302,
      "ĠGestern": 1303,
      "utsch": 1304,
      "Ð»ÐµÐ¼": 1305,
      "ragen": 1306,
      "ĠÐ³ÐµÐ½": 1307,
      "ĠZeit": 1308,
      "Im": 1309,
      "fin": 1310,
      "Ġte": 1311,
      "Ð¸Ð½Ð¸": 1312,
      "ĠBild": 1313,
      "ĠÑĥÑĤ": 1314,
      "ĠÐ¿Ð¾ÑĤÑĢÑĸÐ±ÐµÐ½": 1315,
      "Ġblau": 1316,
      "utter": 1317,
      "Ġmacht": 1318,
      "ĠÐĴÐ¶Ð¸Ð²": 1319,
      "richt": 1320,
      "ĠĠ": 1321,
      "ĠBÃ¤": 1322,
      "ĠRei": 1323,
      "ahren": 1324,
      "af": 1325,
      "Ġ1": 1326,
      "ort": 1327,
      "ĠÐ²ÐºÐ°Ð·ÑĸÐ²": 1328,
      "ĠÐ¿ÑĢÐ°Ð²Ð¸Ð»ÑĮÐ½Ñĥ": 1329,
      "Ġsteht": 1330,
      "ĠÑĥÐ·Ð³Ð¾Ð´Ð¶ÑĥÐ²Ð°ÑĤÐ¸": 1331,
      "ĠÐ¾ÑģÐ½Ð¾Ð²": 1332,
      "ige": 1333,
      "Ð½Ð¾Ð¶": 1334,
      "iere": 1335,
      "ĠStra": 1336,
      "ĠPart": 1337,
      "ĠÐ³Ð¾Ð²Ð¾ÑĢ": 1338,
      "Ð¾ÐºÑĢÐµÐ¼Ð»Ñİ": 1339,
      "ĠÐ¼Ð¾Ð¶": 1340,
      "hal": 1341,
      "ĠÑĢÐ¾Ð·Ð´ÑĸÐ»ÑĮ": 1342,
      "ce": 1343,
      "Ġmuss": 1344,
      "ĠÐ¼Ð½Ð¾Ð¶": 1345,
      "Ã¶ff": 1346,
      "ation": 1347,
      "dent": 1348,
      "Ð¿ÑĢÐ¸ÐºÐ¼ÐµÑĤÐ½Ð¸Ðº": 1349,
      "Ġbesuch": 1350,
      "ĠÐŁÐ¾ÑĤÑĢÑĸÐ±Ð½Ð¾": 1351,
      "ga": 1352,
      "mer": 1353,
      "Ð½Ð¾ÑģÑĤÑĸ": 1354,
      "aufmachen": 1355,
      "ĠFarbe": 1356,
      "ĠDe": 1357,
      "ĠMitt": 1358,
      "ĠHo": 1359,
      "arkt": 1360,
      "ÃŁe": 1361,
      "ĠUhr": 1362,
      "ĠÐ´ÑĸÑĶÐ¿ÑĢÐ¸ÐºÐ¼ÐµÑĤÐ½Ð¸Ðº": 1363,
      "ĠÑĢÑĥÑħÑĥ": 1364,
      "ĠÑĢÐ¾Ð´Ð¾Ð¼": 1365,
      "hÃ¶": 1366,
      "os": 1367,
      "ÑĥÐ´": 1368,
      "enster": 1369,
      "ĠSal": 1370,
      "ÑħÐ¾Ð´": 1371,
      "Ð¾ÐºÑĢÐµÐ¼Ð»ÑİÐ²": 1372,
      "Ġ+": 1373,
      "ĠÐ¿ÑĢÐµÐ´": 1374,
      "ĠÐ·Ð°Ð¼": 1375,
      "ĠÐ¿ÑĢÐ¸ÐºÐ¼ÐµÑĤÐ½Ð¸ÐºÐ°": 1376,
      "ĠÐĲ": 1377,
      "Ð»Ð°Ð´": 1378,
      "ĠÐ¿Ð¾ÑıÑģÐ½": 1379,
      "ĠII": 1380,
      "beit": 1381,
      "Ġgesch": 1382,
      "ĠFenster": 1383,
      "ĠÑĢÐ¾Ð´Ñĸ": 1384,
      "ĠÐ¿ÑĢÐ°Ð²Ð¸Ð»ÑĮÐ½Ðµ": 1385,
      "macht": 1386,
      "Ġgewesen": 1387,
      "ĠÐ²Ð¾": 1388,
      "Ġkalt": 1389,
      "Ð½ÐµÐ½": 1390,
      "ĠÐ¿ÑĸÐ´ÑĢÑıÐ´Ð½Ðµ": 1391,
      "Ġlecker": 1392,
      "usativ": 1393,
      "ĠÑĤÑĢÐµ": 1394,
      "Ð¸Ñĩ": 1395,
      "ĠÐ´Ð°": 1396,
      "ang": 1397,
      "ĠKon": 1398,
      "ĠÐ°ÑĢÑĤÐ¸ÐºÐ»ÐµÐ¼": 1399,
      "ĠÐ¼Ð¸Ð½Ñĥ": 1400,
      "Ã¤nde": 1401,
      "ĠÐ½ÐµÐ¿ÑĢÑıÐ¼Ð¸Ð¼": 1402,
      "ĠÑĤÑĢÐµÑĤÑĮ": 1403,
      "tern": 1404,
      "uer": 1405,
      "ĠÐŁÑĸÐ´Ð¼ÐµÑĤ": 1406,
      "ichte": 1407,
      "ungen": 1408,
      "ĠHÃ¤nde": 1409,
      "ĠKÃ¼": 1410,
      "ĠÐ´Ð¾Ð¿Ð¾Ð¼ÑĸÐ¶Ð½Ð¸Ð¼": 1411,
      "wordw": 1412,
      "Ġoder": 1413,
      "resour": 1414,
      "ĠÑĩÐ¸ÑģÐ»": 1415,
      "ĠÐ¿Ð¾ÑıÑģÐ½ÑİÑĶ": 1416,
      "ĠÐ¼Ð¸Ð½ÑĥÐ»": 1417,
      "wordwall": 1418,
      "resource": 1419,
      "gin": 1420,
      "lÃ¤": 1421,
      "ÑĸÐ»": 1422,
      "cht": 1423,
      "reut": 1424,
      "stelle": 1425,
      "etz": 1426,
      "ĠÐ³Ðµ": 1427,
      "ĠÐ¿Ð¾Ð²Ð¸Ð½ÐµÐ½": 1428,
      "ĠÐ¹Ð´Ðµ": 1429,
      "ÑĸÑĪÐ½": 1430,
      "ĠÐ²ÐºÐ°Ð·ÑĸÐ²ÐºÐ¸": 1431,
      "ite": 1432,
      "par": 1433,
      "ÑĤÐ¸Ð²": 1434,
      "eil": 1435,
      "eln": 1436,
      "meine": 1437,
      "ĠWohn": 1438,
      "ĠÑĤÐµÐ¿ÐµÑĢ": 1439,
      "Ġgerne": 1440,
      "von": 1441,
      "ÑĸÐ·": 1442,
      "ĠÐŁÑĢÐ°Ð²Ð¸Ð»ÑĮ": 1443,
      "ĠÐ²ÐºÐ°Ð·Ð°ÑĤÐ¸": 1444,
      "Ã¶nnen": 1445,
      "https": 1446,
      "ĠÑĤÑĢÐµÑĤÑĮÐ¾ÑĹ": 1447,
      "ĠÑĤÐµÐ¿ÐµÑĢÑĸÑĪÐ½": 1448,
      "bst": 1449,
      "Ġj": 1450,
      "ĠKa": 1451,
      "Ð½Ð¸ÑĤÐ¸Ð²": 1452,
      "ĠPf": 1453,
      "ĠLie": 1454,
      "Ġspielt": 1455,
      "ĠÐ¿ÑĢÐµÐ´Ð¼ÐµÑĤ": 1456,
      "chm": 1457,
      "ÑĥÐ±": 1458,
      "ÑĸÐº": 1459,
      "aschen": 1460,
      "ĠÐ´ÑĸÑı": 1461,
      "ĠÐ¾Ð¿Ð¸ÑģÑĥ": 1462,
      "ĠÐ¿Ð¾ÑĤÑĢÐµÐ±ÑĥÑĶ": 1463,
      "ĠÐ´ÑĸÑĶÐ¿ÑĢÐ¸ÐºÐ¼ÐµÑĤÐ½Ð¸ÐºÐ¾Ð¼": 1464,
      "ĠÐ³ÐµÐ½Ð¸ÑĤÐ¸Ð²": 1465,
      "freu": 1466,
      "Ð½ÐµÐ½Ð½Ñı": 1467,
      "ĠÐ²Ð¸Ðº": 1468,
      "ĠÑģÐ°Ð¼": 1469,
      "ĠEssen": 1470,
      "ĠschÃ¶ne": 1471,
      "ĠÑĢÐ¾Ð´Ð¾Ð²Ð¸Ð¹": 1472,
      "Ã¤hrt": 1473,
      "osit": 1474,
      "ĠÐ´Ð°Ð½Ð¾Ð¼Ñĥ": 1475,
      "ger": 1476,
      "ift": 1477,
      "up": 1478,
      "ÑĸÐ½Ð²ÐµÑĢÑģ": 1479,
      "âĢ¦": 1480,
      "Ġhaben": 1481,
      "ĠÑĤÐ°Ðº": 1482,
      "ĠÐ¿ÐµÑĢÐµ": 1483,
      "ilm": 1484,
      "ĠÑģÐ»Ð¾Ð²Ð¾": 1485,
      "ĠÑĥÑĤÐ²Ð¾ÑĢ": 1486,
      "ÑĸÐ½Ð²ÐµÑĢÑģÑĸÑı": 1487,
      "ek": 1488,
      "sich": 1489,
      "zimmer": 1490,
      "Ð¸Ð³": 1491,
      "ass": 1492,
      "ĠFahr": 1493,
      "ĠPrÃ¤": 1494,
      "Ġfin": 1495,
      "Ġessen": 1496,
      "ranken": 1497,
      "ĠÐ·Ð¼ÑĸÐ½ÑİÑĶÑĤÑĮÑģÑı": 1498,
      "ĠNachbar": 1499,
      "ick": 1500,
      "Ð¾ÑģÑĤÑĸ": 1501,
      "ÑĥÐ¼": 1502,
      "ĠÐ²Ð¸ÐºÐ¾ÑĢÐ¸ÑģÑĤÐ°Ð½Ð½Ñı": 1503,
      "Ġgegessen": 1504,
      "ĠSp": 1505,
      "ĠSpiel": 1506,
      "ĠHal": 1507,
      "Ġko": 1508,
      "ĠÐ¿ÑĢÐ°Ð²Ð¸Ð»ÑĮÐ½Ð¸Ð¼": 1509,
      "Ġmachen": 1510,
      "ĠStadt": 1511,
      "ĠÐĲÑĢÑĤÐ¸Ðº": 1512,
      "Ġgen": 1513,
      "erfe": 1514,
      "ĠÑĢÑĸÐ´": 1515,
      "ank": 1516,
      "Ġwo": 1517,
      "schw": 1518,
      "ĠPap": 1519,
      "Ġmeiner": 1520,
      "Ġfreut": 1521,
      "ĠNe": 1522,
      "âĢľ.": 1523,
      "ĠÐ²Ð¸Ð·Ð½Ð°ÑĩÐµÐ½Ð¸Ð¹": 1524,
      "ĠArbeit": 1525,
      "ĠÐ²ÑĸÐ´Ð¿Ð¾Ð²ÑĸÐ´Ð°ÑĶ": 1526,
      "gst": 1527,
      "lin": 1528,
      "ron": 1529,
      "ĠÑĢÐµ": 1530,
      "Ð½Ð¾ÑĹ": 1531,
      "ehen": 1532,
      "ĠBrot": 1533,
      "ĠÑĸÐ¼ÐµÐ½Ð½Ð¸ÐºÑĸÐ²": 1534,
      "ĠÐ´Ð°Ð²Ð°Ð»ÑĮÐ½Ð¸Ð¼": 1535,
      "jekt": 1536,
      "ĠÐ½Ð°Ð¿ÑĢÑıÐ¼Ð¾Ðº": 1537,
      "freuen": 1538,
      "ĠÐĲÑĢÑĤÐ¸ÐºÐ»ÑĮ": 1539,
      "ĠÐ¢": 1540,
      "Ð°Ð»": 1541,
      "end": 1542,
      "ĠSchÃ¼l": 1543,
      "ĠÐ¿ÑĸÐ´Ð¼ÐµÑĤÐ°": 1544,
      "Ġrufe": 1545,
      "osition": 1546,
      "erfekt": 1547,
      "St": 1548,
      "opf": 1549,
      "ĠÐ²Ð²": 1550,
      "Ġsein": 1551,
      "ĠFot": 1552,
      "ĠMan": 1553,
      "ĠÐĴÑĸÐ´": 1554,
      "ĠLehrers": 1555,
      "ĠÐ½Ð°Ð¿ÑĢÑıÐ¼ÐºÑĥ": 1556,
      "ĠMonat": 1557,
      "Ġtrinke": 1558,
      "Ġrot": 1559,
      "ÑĸÑĢ": 1560,
      "ÑĩÐ¸": 1561,
      "ĠMein": 1562,
      "ÑİÐ²Ð°ÑĤÐ¸": 1563,
      "mmer": 1564,
      "uchen": 1565,
      "eter": 1566,
      "ĠÐ´Ð°Ð²Ð°Ð»ÑĮÐ½Ð¾Ð³Ð¾": 1567,
      "ume": 1568,
      "ĠÐ¶ÑĸÐ½Ð¾Ñĩ": 1569,
      "ĠÑĤÐµÐ¿ÐµÑĢÑĸÑĪÐ½ÑĮÐ¾Ð¼Ñĥ": 1570,
      "Was": 1571,
      "age": 1572,
      "Ð°Ð¿": 1573,
      "ĠFilm": 1574,
      "Ð°ÑĤÐ¸Ñĩ": 1575,
      "unde": 1576,
      "det": 1577,
      "ĠhÃ¶": 1578,
      "omin": 1579,
      "wort": 1580,
      "ĠFlug": 1581,
      "ĠÐ³ÐµÐ½ÑĸÑĤÐ¸Ð²": 1582,
      "ĠÑĥÐ·Ð³Ð¾Ð´Ð¶ÑĥÐ²Ð°ÑĤÐ¸ÑģÑı": 1583,
      "ĠÐ³Ð¾Ð²Ð¾ÑĢÐ¸Ð¼Ð¾": 1584,
      "ĠDeutsch": 1585,
      "hol": 1586,
      "unge": 1587,
      "ĠwÃ¤": 1588,
      "schaft": 1589,
      "ett": 1590,
      "Ð°ÐºÐºÑĥÐ·Ð°ÑĤÐ¸Ð²": 1591,
      "ĠÐ³ÑĢÐ°Ð¼": 1592,
      "Ġteuer": 1593,
      "ominativ": 1594,
      "Sch": 1595,
      "Ãľ": 1596,
      "Ġgeha": 1597,
      "ÐµÑĢÑĪ": 1598,
      "ĠFern": 1599,
      "ĠFrÃ¼": 1600,
      "unden": 1601,
      "ĠMÃ¤": 1602,
      "ĠKu": 1603,
      "ĠKranken": 1604,
      "Ġlang": 1605,
      "chenk": 1606,
      "ĠÐ·Ð½Ð°Ñİ": 1607,
      "Ġkommst": 1608,
      "ĠÐºÐ¾Ð¼Ð°Ð½": 1609,
      "ĠBÃ¼ro": 1610,
      "ĠÐ¾ÑģÐ½Ð¾Ð²Ð½Ð¸Ð¼": 1611,
      "merz": 1612,
      "ĠSchÃ¼ler": 1613,
      "amm": 1614,
      "ere": 1615,
      "kommen": 1616,
      "ll": 1617,
      "satz": 1618,
      "Ð½Ñı": 1619,
      "Ð°Ñĩ": 1620,
      "ĠÐ¼Ð°ÑİÑĤÑĮ": 1621,
      "ĠSup": 1622,
      "Ġwill": 1623,
      "ehl": 1624,
      "Ġmeinen": 1625,
      "ĠÑģÑĤÐ°Ð²Ð¸ÑĤÑĮÑģÑı": 1626,
      "form": 1627,
      "glich": 1628,
      "vom": 1629,
      "ÐºÑģ": 1630,
      "Ġsau": 1631,
      "ĠSon": 1632,
      "Ã¼h": 1633,
      "ĠForm": 1634,
      "ĠKind": 1635,
      "ĠÐ°ÑĢÑĤÐ¸ÐºÐ»": 1636,
      "Ġbrau": 1637,
      "ĠStau": 1638,
      "olle": 1639,
      "ffe": 1640,
      "ĠGeschenk": 1641,
      "ĠÑĥÐ·Ð³Ð¾Ð´Ð¶ÑĥÑĶÑĤÑĮÑģÑı": 1642,
      "ĠÃĦ": 1643,
      "Ġliegt": 1644,
      "ĠÐĴÐ¶Ð¸Ð²Ð°ÑĶÑĤÑĮÑģÑı": 1645,
      "Mein": 1646,
      "ma": 1647,
      "ĠÐ·Ð²": 1648,
      "Ġsit": 1649,
      "ĠÐ¼Ð¾Ð´Ð°Ð»ÑĮ": 1650,
      "schie": 1651,
      "ĠAp": 1652,
      "ĠAus": 1653,
      "ĠÐºÑĥ": 1654,
      "ĠWie": 1655,
      "ĠÐ½Ð°Ðº": 1656,
      "zeug": 1657,
      "immen": 1658,
      "othe": 1659,
      "ĠWochen": 1660,
      "ĠJa": 1661,
      "ĠJahr": 1662,
      "ĠÐ³ÑĢÐ°Ð¼Ð°ÑĤÐ¸Ñĩ": 1663,
      "Ist": 1664,
      "lÃ¼ck": 1665,
      "position": 1666,
      "rig": 1667,
      "ÐµÐ²": 1668,
      "ÑĸÑĩ": 1669,
      "ÑıÐ·": 1670,
      "ÐºÑĢ": 1671,
      "gehen": 1672,
      "ĠÐ²Ð¸ÐºÐ¾ÑĢÐ¸ÑģÑĤÐ¾Ð²ÑĥÑĶ": 1673,
      "itiv": 1674,
      "Ġkl": 1675,
      "Ã¤ch": 1676,
      "ĠAben": 1677,
      "ĠÐ½Ð°Ð´": 1678,
      "ĠÐ¿Ð¾Ð²Ð¸Ð½Ð½Ð°": 1679,
      "hstÃ¼ck": 1680,
      "ĠÐ²Ð¾Ð½Ð¾": 1681,
      "ĠÐ½Ð°ÐºÐ°Ð·": 1682,
      "ĠWochenende": 1683,
      "ip": 1684,
      "Ġ2": 1685,
      "Ġarbe": 1686,
      "Ð½ÑĸÐ¹": 1687,
      "Ð°Ñİ": 1688,
      "ÑĥÑİÑĤÑĮ": 1689,
      "rech": 1690,
      "ĠChe": 1691,
      "ste": 1692,
      "Ġgesehen": 1693,
      "Ġwenn": 1694,
      "ĠKl": 1695,
      "acht": 1696,
      "ĠSchmerz": 1697,
      "ffen": 1698,
      "rÃ¼n": 1699,
      "rufen": 1700,
      "ehmen": 1701,
      "ĠBaum": 1702,
      "ĠÑĥÑĤÐ²Ð¾ÑĢÐµÐ½Ð½Ñı": 1703,
      "vier": 1704,
      "Ġau": 1705,
      "unkt": 1706,
      "Ġgeht": 1707,
      "ĠDat": 1708,
      "ĠKolle": 1709,
      "ĠÑģÐ²": 1710,
      "reundlich": 1711,
      "Ġhier": 1712,
      "ĠÑĸÐ½ÑĪ": 1713,
      "ĠÐ·Ð°Ð²ÐµÑĢÑĪ": 1714,
      "rie": 1715,
      "ust": 1716,
      "ĠÐĿ": 1717,
      "aut": 1718,
      "geben": 1719,
      "ĠKuchen": 1720,
      "ĠWe": 1721,
      "set": 1722,
      "ÐµÐ½Ñĸ": 1723,
      "ĠRad": 1724,
      "ĠÐºÐ¾Ð½ÑĤÐµ": 1725,
      "ĠÐ·Ð°Ð¼ÑĸÑģÑĤÑĮ": 1726,
      "Ġgehabt": 1727,
      "ĠÐºÐ¾Ð½ÑĤÐµÐº": 1728,
      "bung": 1729,
      "fon": 1730,
      "sam": 1731,
      "ĠÐ§": 1732,
      "ÑĸÐ»Ñı": 1733,
      "ĠÐ¼Ð°ÑĤÐ¸": 1734,
      "Ã¼t": 1735,
      "Ð¾Ð³Ð¾ÑģÑĮ": 1736,
      "ĠMutter": 1737,
      "elt": 1738,
      "ĠÐ²Ð¶Ð¸Ð²Ð°ÑĤÐ¸": 1739,
      "ĠÐ¾Ð´Ð½Ð¸Ð½Ñĸ": 1740,
      "ĠÐ¿ÑĢÑıÐ¼Ð¾Ð³Ð¾": 1741,
      "ĠÑĩÐ°ÑģÑĤÐ¸Ð½Ð°": 1742,
      "Â».": 1743,
      "ĠÑĢÐ¾Ð·Ð´ÑĸÐ»ÑĮÐ½Ðµ": 1744,
      "gabe": 1745,
      "sst": 1746,
      "ĠÑĤÑĢ": 1747,
      "Ġent": 1748,
      "tes": 1749,
      "ĠBus": 1750,
      "schrei": 1751,
      "ĠKell": 1752,
      "ĠÑĢÐµÑĩÐµÐ½Ð½ÑıÑħ": 1753,
      "Ġstelle": 1754,
      "usik": 1755,
      "Ġkaufen": 1756,
      "Ġspielen": 1757,
      "ĠÐ½ÐµÐ¿ÑĢÐ°Ð²Ð¸Ð»ÑĮÐ½Ð¾": 1758,
      "lavier": 1759,
      "ÑĥÐ²Ð°Ð½Ð½Ñı": 1760,
      "ogra": 1761,
      "ĠStraÃŁe": 1762,
      "Ġfinde": 1763,
      "ĠFernseh": 1764,
      "nung": 1765,
      "ĠÐ¿Ð¾Ð´": 1766,
      "ĠÐ´Ð°ÑĤ": 1767,
      "ase": 1768,
      "essen": 1769,
      "iten": 1770,
      "ĠGr": 1771,
      "Ġlern": 1772,
      "ĠÐ¿Ð¸ÑĤÐ°Ð»ÑĮ": 1773,
      "ĠÐ¾ÑģÐ¾Ð±Ñĸ": 1774,
      "ĠOr": 1775,
      "aput": 1776,
      "apto": 1777,
      "ĠVerben": 1778,
      "ĠÑģÑĤÐ°Ð²Ð¸ÑĤÐ¸": 1779,
      "aptop": 1780,
      "Wir": 1781,
      "latz": 1782,
      "uft": 1783,
      "Ð°Ñģ": 1784,
      "auran": 1785,
      "ĠÑģÑĤÐ°Ð½": 1786,
      "ĠKlavier": 1787,
      "Ġkeine": 1788,
      "ĠÐ¿ÑĢÐ°Ð²Ð¸Ð»ÑĮÐ½Ð¾Ð³Ð¾": 1789,
      "estauran": 1790,
      "ĠÑĸÐ¼Ð¿ÐµÑĢÐ°ÑĤÐ¸Ð²Ñĸ": 1791,
      "ĠStuhl": 1792,
      "ĠÐ¼Ð½Ð¾Ð¶Ð¸Ð½Ð¸": 1793,
      "ĠÑģÐ°Ð¼Ðµ": 1794,
      "ĠÐºÐ¾Ð½ÑĤÐµÐºÑģÑĤÑĸ": 1795,
      "estaurant": 1796,
      "her": 1797,
      "pt": 1798,
      "ensch": 1799,
      "ĠÐ´Ð°ÑĤÐ¸Ð²": 1800,
      "ĠFrage": 1801,
      "ĠTrau": 1802,
      "ald": 1803,
      "Ġbist": 1804,
      "Ġschm": 1805,
      "uchs": 1806,
      "ĠÑģÐ¾Ð±": 1807,
      "ĠÐ¿ÑĸÐ´ÑĢÑıÐ´Ð½Ð¸Ð¼": 1808,
      "ĠFreunden": 1809,
      "ĠEs": 1810,
      "ĠRestaurant": 1811,
      "ĠZimmer": 1812,
      "Ġwird": 1813,
      "ĠÐ¿Ð¾ÑĢÑıÐ´ÐºÑĥ": 1814,
      "ĠÐ¿ÑĢÐ¸Ð½Ð°Ð»ÐµÐ¶Ð½ÑĸÑģÑĤÑĮ": 1815,
      "Ð¾ÐºÑĢÐµÐ¼Ð»ÑİÐ²Ð°Ð»ÑĮ": 1816,
      "lÃ¼cklich": 1817,
      "aputt": 1818,
      "In": 1819,
      "zert": 1820,
      "ĠÑĪ": 1821,
      "ĠBe": 1822,
      "ĠKauf": 1823,
      "ele": 1824,
      "ĠLaptop": 1825,
      "ĠÐ¿ÐµÑĢÑĦÐµÐºÑĤÑĥ": 1826,
      "ĠAkkusativ": 1827,
      "ĠHandy": 1828,
      "Nein": 1829,
      "ho": 1830,
      "mich": 1831,
      "ÑĥÑİ": 1832,
      "Ġdich": 1833,
      "testelle": 1834,
      "Ġkaputt": 1835,
      "utz": 1836,
      "ĠÐ¿ÑĢÐ°Ð²Ð¸Ð»ÑĮÐ½Ð¾Ð¼Ñĥ": 1837,
      "agt": 1838,
      "ĠÐ¿Ð¾ÐºÐ°Ð·Ð°ÑĤÐ¸": 1839,
      "ehme": 1840,
      "izip": 1841,
      "blem": 1842,
      "ĠÐ³ÑĢÐ°Ð¼Ð°ÑĤÐ¸ÑĩÐ½Ð¾ÑĹ": 1843,
      "ax": 1844,
      "buch": 1845,
      "nis": 1846,
      "ob": 1847,
      "ok": 1848,
      "put": 1849,
      "sie": 1850,
      "Ð¾ÑĪ": 1851,
      "Ð°ÑģÑĤ": 1852,
      "asch": 1853,
      "ÐºÑĨÑĸ": 1854,
      "ĠÐ·Ð²ÐµÑĢ": 1855,
      "ĠFuchs": 1856,
      "schÃ¶n": 1857,
      "ĠMarkt": 1858,
      "ĠMusik": 1859,
      "ĠAd": 1860,
      "ĠAuf": 1861,
      "ĠPers": 1862,
      "ĠPerfekt": 1863,
      "ĠÑģÑĥÐ±": 1864,
      "etter": 1865,
      "ĠÐ´ÑĢÑĥÐ³Ð¾ÑĹ": 1866,
      "ĠÐ·Ð°ÐºÑĸÐ½ÑĩÐµÐ½Ð½ÑıÐ¼": 1867,
      "ĠÐ°ÐºÑĥÐ·Ð°ÑĤÐ¸Ð²Ð¾Ð¼": 1868,
      "ffee": 1869,
      "iker": 1870,
      "ĠÐ¿ÐµÑĢÑĦÐµÐºÑĤÐ½Ð¸Ð¹": 1871,
      "ular": 1872,
      "................................": 1873,
      "ĠUnter": 1874,
      "ĠFahrrad": 1875,
      "Ãľbung": 1876,
      "ĠFernseher": 1877,
      "fa": 1878,
      "las": 1879,
      "uro": 1880,
      "war": 1881,
      "Ð°ÑĪ": 1882,
      "rechen": 1883,
      "Ġdir": 1884,
      "Ġimmer": 1885,
      "ĠÐ·ÑĢ": 1886,
      "ĠBall": 1887,
      "empf": 1888,
      "ĠkÃ¶nnen": 1889,
      "ĠÐºÐ½": 1890,
      "alen": 1891,
      "Ð»ÐµÐºÑģ": 1892,
      "ĠNichte": 1893,
      "Ġbei": 1894,
      "ĠÐ²ÑĸÐ´Ð±": 1895,
      "rÃ¼f": 1896,
      "hlen": 1897,
      "Ġzwei": 1898,
      "ÑīÐ¾": 1899,
      "ĠSchwester": 1900,
      "ĠÐ¼Ð¸Ð½ÑĥÐ»Ð¾Ð¼Ñĥ": 1901,
      "ĠKaffee": 1902,
      "ĠHaltestelle": 1903,
      "ĠÐ²Ð¸ÐºÐ¾ÑĢÐ¸ÑģÑĤÐ¾Ð²ÑĥÑĶÐ¼Ð¾": 1904,
      "Ġauch": 1905,
      "dchen": 1906,
      "io": 1907,
      "ost": 1908,
      "rt": 1909,
      "wie": 1910,
      "ÐºÐ¾Ñİ": 1911,
      "anrufen": 1912,
      "Ð°ÑĤÐ¸ÑģÑı": 1913,
      "ess": 1914,
      "ater": 1915,
      "Ġger": 1916,
      "ĠgrÃ¼n": 1917,
      "ĠschÃ¶nen": 1918,
      "ame": 1919,
      "ÑĦÐ»ÐµÐºÑģ": 1920,
      "umen": 1921,
      "Ġunter": 1922,
      "ĠÐ´ÑĸÑĶÑģÐ»ÑĸÐ²": 1923,
      "ĠBerlin": 1924,
      "Ġgelesen": 1925,
      "ĠZeitung": 1926,
      "ĠÐŁÑĢÐ°Ð²Ð¸Ð»ÑĮÐ½Ð¸Ð¹": 1927,
      "positionen": 1928,
      "ĠÐ´Ð°ÑĤÑĸÐ²": 1929,
      "elefon": 1930,
      "risch": 1931,
      "Ð¾Ð½Ð°": 1932,
      "Ð¾Ð½Ñĥ": 1933,
      "erm": 1934,
      "ĠIst": 1935,
      "stell": 1936,
      "Ð°Ð²Ð»Ñı": 1937,
      "Ġget": 1938,
      "Ġgemacht": 1939,
      "ĠMensch": 1940,
      "ĠTasche": 1941,
      "ĠTelefon": 1942,
      "Ã¤uf": 1943,
      "ĠAm": 1944,
      "ĠAnt": 1945,
      "ĠWetter": 1946,
      "Ġbrin": 1947,
      "ĠfÃ¤hrt": 1948,
      "etzt": 1949,
      "ĠÐ²Ð¸Ð¼Ð°Ð³Ð°ÑİÑĤÑĮ": 1950,
      "leid": 1951,
      "ĠVerk": 1952,
      "ĠArzt": 1953,
      "ĠÑģÐ¿Ð¾Ñģ": 1954,
      "ĠStudent": 1955,
      "ĠÐ¿ÑĢÐ¸Ð½Ð°Ð»ÐµÐ¶Ð½Ð¾ÑģÑĤÑĸ": 1956,
      "ĠMÃ¤dchen": 1957,
      "ĠÐºÐ¾Ð¼Ð°Ð½Ð´": 1958,
      "ĠÐ°ÑĢÑĤÐ¸ÐºÐ»ÑĸÐ²": 1959,
      "ograf": 1960,
      "ĠKaufhaus": 1961,
      "ĠPerson": 1962,
      "ÑĦÐ»ÐµÐºÑģÐ¸Ð²": 1963,
      "00": 1964,
      "Er": 1965,
      "dik": 1966,
      "kann": 1967,
      "anz": 1968,
      "Ġges": 1969,
      "âĢĻ": 1970,
      "itÃ¤t": 1971,
      "scht": 1972,
      "schei": 1973,
      "Ġnehme": 1974,
      "ĠWur": 1975,
      "ĠGem": 1976,
      "ĠEuro": 1977,
      "ĠÑĸÐ½ÑĦ": 1978,
      "ĠÑĩÐ°ÑģÑĤÐºÐ°": 1979,
      "ĠÑĢÐ¾Ð·Ð´ÑĸÐ»Ñı": 1980,
      "ĠBrief": 1981,
      "ĠSofa": 1982,
      "ĠKonzert": 1983,
      "ĠMeinung": 1984,
      "rÃ¼fung": 1985,
      "eute": 1986,
      "gnet": 1987,
      "kon": 1988,
      "Ġ/": 1989,
      "Ġâ": 1990,
      "ÑĥÑģ": 1991,
      "Ð¾Ð²Ð¸Ð¹": 1992,
      "ÑģÑĤÑĢÑĥ": 1993,
      "arf": 1994,
      "ĠGast": 1995,
      "ÐµÐ½Ñĥ": 1996,
      "ĠÑĸÐ¼ÐµÐ½Ð½Ð¸ÐºÐ°Ð¼Ð¸": 1997,
      "ĠKinder": 1998,
      "ĠNacht": 1999,
      "ĠÐ»Ñİ": 2000,
      "bsau": 2001,
      "ĠReis": 2002,
      "ĠPartizip": 2003,
      "ĠÑĢÐµÑĦÐ»ÐµÐºÑģÐ¸Ð²": 2004,
      "ĠÐ³ÐµÐ½ÑĸÑĤÐ¸Ð²Ñĸ": 2005,
      "axi": 2006,
      "ĠÐºÐ½Ð¸Ð³": 2007,
      "dikam": 2008,
      "hin": 2009,
      "iff": 2010,
      "mal": 2011,
      "ÐµÑģ": 2012,
      "unter": 2013,
      "ĠÐ¼Ð¾Ð´Ð°Ð»ÑĮÐ½Ðµ": 2014,
      "Ġgeb": 2015,
      "Ã¼se": 2016,
      "ĠBier": 2017,
      "Ã¶glich": 2018,
      "Ġeiner": 2019,
      "genie": 2020,
      "ĠMot": 2021,
      "ĠMetz": 2022,
      "zur": 2023,
      "ckt": 2024,
      "ÐµÐ½Ð¸Ð¼": 2025,
      "Ð¸ÑĤÐ¾": 2026,
      "irt": 2027,
      "ramm": 2028,
      "urs": 2029,
      "ĠÐ¹Ð¾Ð³Ð¾": 2030,
      "ĠhÃ¶re": 2031,
      "Ġsauber": 2032,
      "ĠJacke": 2033,
      "aschine": 2034,
      "ĠÑĢÐ¾Ð·Ð´ÑĸÐ»ÑıÑĶÑĤÑĮÑģÑı": 2035,
      "Ver": 2036,
      "bad": 2037,
      "lug": 2038,
      "ĠÑĢÐ¾Ð±": 2039,
      "gef": 2040,
      "Ġso": 2041,
      "ĠBad": 2042,
      "ĠBank": 2043,
      "Ġeinem": 2044,
      "schrank": 2045,
      "Ġkeinen": 2046,
      "ĠTaxi": 2047,
      "Ġ-âĢľ": 2048,
      "ĠÐºÐ¾Ð¼Ñĥ": 2049,
      "ÐµÐ½ÑĤ": 2050,
      "ĠÑģÐº": 2051,
      "ivers": 2052,
      "Ġhoch": 2053,
      "laub": 2054,
      "leisch": 2055,
      "ruder": 2056,
      "Ġkommen": 2057,
      "hlschrank": 2058,
      "ĠÐ¿Ð¾ÑĩÐ¸Ð½Ð°": 2059,
      "ĠProf": 2060,
      "ĠProblem": 2061,
      "Ã¤lt": 2062,
      "ĠMedikam": 2063,
      "ÑħÐ¾Ð´Ð¸": 2064,
      "ternet": 2065,
      "ĠKÃ¼hlschrank": 2066,
      "ĠFormular": 2067,
      "ĠWiese": 2068,
      "ĠGemÃ¼se": 2069,
      "genieur": 2070,
      "ĠMotor": 2071,
      "iversitÃ¤t": 2072,
      "itet": 2073,
      "lÃ¼": 2074,
      "Ġ*": 2075,
      "ordent": 2076,
      "enut": 2077,
      "ĠInternet": 2078,
      "ĠIngenieur": 2079,
      "ĠsÃ¼": 2080,
      "Ã¶s": 2081,
      "ĠnÃ¤ch": 2082,
      "ĠKil": 2083,
      "ĠKleid": 2084,
      "ark": 2085,
      "arre": 2086,
      "ĠTre": 2087,
      "ĠPul": 2088,
      "ĠÐ¿ÑĢÐ°Ð²Ð¸Ð»ÑĮÐ½ÑĸÐ¹": 2089,
      "ĠLine": 2090,
      "ĠÐ²Ð¶Ð¸Ð²Ð°ÑĶ": 2091,
      "nee": 2092,
      "ĠÐĹÐ°Ð¿": 2093,
      "ĠGeb": 2094,
      "ĠParty": 2095,
      "Ã¶ffel": 2096,
      "ĠWohnung": 2097,
      "rone": 2098,
      "ĠÐ½Ð°ÐºÐ°Ð·Ð¾Ð²": 2099,
      "Ġarbeiten": 2100,
      "ĠWebs": 2101,
      "ĠVerkÃ¤uf": 2102,
      "ĠÑģÐ¿Ð¾ÑģÐ¾Ð±": 2103,
      "ĠMotorrad": 2104,
      "ordentlich": 2105,
      "ĠLineal": 2106,
      "Nominativ": 2107,
      "heit": 2108,
      "ibt": 2109,
      "oden": 2110,
      "Ġe": 2111,
      "Ġro": 2112,
      "ĠÐŁÑĸÐ´": 2113,
      "gesch": 2114,
      "ĠBruder": 2115,
      "ĠFisch": 2116,
      "itarre": 2117,
      "itrone": 2118,
      "ĠPrÃ¼fung": 2119,
      "Ð¸ÑĤÐµ": 2120,
      "Ð¸ÑĤÐ°Ð½Ð½Ñı": 2121,
      "Ã¶chten": 2122,
      "ille": 2123,
      "ĠNo": 2124,
      "ĠNot": 2125,
      "ĠÐ°ÐºÑĥÐ·Ð°ÑĤÐ¸Ð²Ð½Ð¸Ð¹": 2126,
      "ĠZitrone": 2127,
      "ĠÐ·Ð½Ð°ÑħÐ¾Ð´Ð¸": 2128,
      "omput": 2129,
      "immbad": 2130,
      "lover": 2131,
      "ĠBeruf": 2132,
      "Ġschwimmen": 2133,
      "ĠUniversitÃ¤t": 2134,
      "ĠFlugzeug": 2135,
      "ĠÐ¼Ð¾Ð´Ð°Ð»ÑĮÐ½Ð¸Ð¼": 2136,
      "ĠOrd": 2137,
      "essor": 2138,
      "ĠAntwort": 2139,
      "ĠPullover": 2140,
      "ĠÐ·Ð½Ð°ÑħÐ¾Ð´Ð¸ÑĤÑĮÑģÑı": 2141,
      "ail": 2142,
      "ech": 2143,
      "eben": 2144,
      "kel": 2145,
      "rlaub": 2146,
      "ĠÑģÐ»": 2147,
      "ÑĸÑĤÐ¸": 2148,
      "ÑĤÐ¾": 2149,
      "erk": 2150,
      "ĠÐ²ÑĸÐ½": 2151,
      "ĠComput": 2152,
      "bei": 2153,
      "ĠÑĹ": 2154,
      "ange": 2155,
      "eigen": 2156,
      "Ġgehst": 2157,
      "ehe": 2158,
      "ĠBes": 2159,
      "ĠDach": 2160,
      "schu": 2161,
      "ĠKar": 2162,
      "ĠWand": 2163,
      "Ġflie": 2164,
      "ischen": 2165,
      "ĠLÃ¶ffel": 2166,
      "Ġdur": 2167,
      "ampe": 2168,
      "ĠZu": 2169,
      "ĠZug": 2170,
      "ĠVor": 2171,
      "Ð¸ÑĤÐ¸ÑģÑı": 2172,
      "range": 2173,
      "ÑģÑĮÐº": 2174,
      "ĠOrange": 2175,
      "Ð°Ð½ÑĮ": 2176,
      "lafen": 2177,
      "ĠSchwimmbad": 2178,
      "endet": 2179,
      "rika": 2180,
      "ĠReise": 2181,
      "Ġbesucht": 2182,
      "ĠMantel": 2183,
      "ĠRadio": 2184,
      "ÑĥÑİÑĩÐ¸": 2185,
      "ĠProfessor": 2186,
      "ĠMedikament": 2187,
      "ĠÐŁÑĸÐ´ÑĢÑıÐ´": 2188,
      "Nicht": 2189,
      "gramm": 2190,
      "keit": 2191,
      "nehmen": 2192,
      "pa": 2193,
      "rzt": 2194,
      "uge": 2195,
      "Ġal": 2196,
      "Ð¸Ñħ": 2197,
      "ÑĥÑĩ": 2198,
      "Ġman": 2199,
      "Ã¶t": 2200,
      "atur": 2201,
      "ĠWol": 2202,
      "ĠPil": 2203,
      "Ġfreundlich": 2204,
      "Ġfrisch": 2205,
      "dern": 2206,
      "ĠÐŁÑĢÐ¸ÑģÐ²ÑĸÐ¹": 2207,
      "ĠStein": 2208,
      "ĠStift": 2209,
      "ĠschÃ¶nes": 2210,
      "ĠJunge": 2211,
      "kaufen": 2212,
      "ĠÐ¿ÐµÑĢÑĪÐ¾ÑĹ": 2213,
      "mittel": 2214,
      "Ġoft": 2215,
      "ĠNachricht": 2216,
      "ĠMeer": 2217,
      "ĠKuh": 2218,
      "ÐºÑĢÐµÑĤ": 2219,
      "ĠChefin": 2220,
      "ĠAufgabe": 2221,
      "ÑģÑĤÑĢÑĥÐºÑĨÑĸ": 2222,
      "ĠWebsite": 2223,
      "ĠVerkÃ¤ufer": 2224,
      "ĠComputer": 2225,
      "Sh": 2226,
      "ate": 2227,
      "gie": 2228,
      "tag": 2229,
      "Ð¸ÑĢ": 2230,
      "orte": 2231,
      "Ð»Ð¾": 2232,
      "Ð¸ÐºÐ»Ð°Ð´": 2233,
      "ĠÑģÑĤÐ°Ð²Ð»Ñı": 2234,
      "aufen": 2235,
      "ĠÑĩÐ¾Ð³Ð¾ÑģÑĮ": 2236,
      "ĠMil": 2237,
      "Ã¤hn": 2238,
      "ĠWind": 2239,
      "ĠGitarre": 2240,
      "ĠSchiff": 2241,
      "ĠStÃ¼ck": 2242,
      "ĠÐ¿Ð¾Ð²Ð¸Ð½Ð½Ñĸ": 2243,
      "immt": 2244,
      "Ã¼cken": 2245,
      "ĠGesch": 2246,
      "ĠGesicht": 2247,
      "Ġspann": 2248,
      "ĠSohn": 2249,
      "ĠHerr": 2250,
      "ĠÑĩÐ¾Ð»Ð¾Ð²ÑĸÑĩÐ¸Ð¹": 2251,
      "ĠBÃ¤cker": 2252,
      "ĠSalbe": 2253,
      "ĠKÃ¼che": 2254,
      "ĠFoto": 2255,
      "ĠFrÃ¼hstÃ¼ck": 2256,
      "Ġschmutz": 2257,
      "ĠÑģÐ¾Ð±Ð¾Ñİ": 2258,
      "ĠÐŁÑĸÐ´ÑĢÑıÐ´Ð½Ðµ": 2259,
      "Shirt": 2260,
      "ĠMilch": 2261,
      "Mail": 2262,
      "bahn": 2263,
      "ppe": 2264,
      "sse": 2265,
      "ud": 2266,
      "inter": 2267,
      "stehen": 2268,
      "gerei": 2269,
      "gestern": 2270,
      "eiert": 2271,
      "Ġwie": 2272,
      "ĠBett": 2273,
      "iter": 2274,
      "ĠHem": 2275,
      "ĠKurs": 2276,
      "ĠPost": 2277,
      "Ġaufge": 2278,
      "Ġaufmachen": 2279,
      "Ġfahren": 2280,
      "ssel": 2281,
      "ĠÐ²Ð¶Ð¸ÑĤÐ¾": 2282,
      "ĠÑĢÐµÑĩÐµÐ½Ð½ÑıÐ¼": 2283,
      "ĠSchnee": 2284,
      "ila": 2285,
      "ĠRom": 2286,
      "Ġbegin": 2287,
      "zeich": 2288,
      "ommer": 2289,
      "ĠÐ¿ÑĢÐ¸Ð¹Ð¼ÐµÐ½Ð½Ð¸ÐºÐ¾Ð¼": 2290,
      "rand": 2291,
      "ĠErde": 2292,
      "ĠÐºÐ¾Ð½ÑģÑĤÑĢÑĥÐºÑĨÑĸ": 2293,
      "resse": 2294,
      "Ã¤tze": 2295,
      "ennis": 2296,
      "ĠÃľ": 2297,
      "halter": 2298,
      "ĠÑĩÐ¸ÑģÐ»Ð¾Ð¼": 2299,
      "chmaschine": 2300,
      "Ġgenug": 2301,
      "ĠPapier": 2302,
      "ĠÐ·Ð°Ð²ÐµÑĢÑĪÐµÐ½Ñĥ": 2303,
      "wiebel": 2304,
      "ĠMetzgerei": 2305,
      "rztin": 2306,
      "ĠWolke": 2307,
      "Wie": 2308,
      "wo": 2309,
      "waschen": 2310,
      "ĠQ": 2311,
      "ĠÐµ": 2312,
      "ÑĤÑı": 2313,
      "Ð¸Ð±": 2314,
      "Ð¸Ð´": 2315,
      "ins": 2316,
      "unsch": 2317,
      "eiÃŁ": 2318,
      "Ð½Ð¾Ñİ": 2319,
      "ĠFleisch": 2320,
      "Ã¶r": 2321,
      "Ġbenut": 2322,
      "ĠLampe": 2323,
      "ĠSchlÃ¼": 2324,
      "ĠStunde": 2325,
      "rain": 2326,
      "ĠBuchhalter": 2327,
      "Ġho": 2328,
      "ĠZwiebel": 2329,
      "ĠOma": 2330,
      "ĠUrlaub": 2331,
      "Ð¾Ð´Ð¶ÐµÐ½Ð½Ñı": 2332,
      "ĠÐ½Ð°Ð»ÐµÐ¶Ð½ÑĸÑģÑĤÑĮ": 2333,
      "ehmt": 2334,
      "ĠSchuhe": 2335,
      "izbuch": 2336,
      "Ġrepar": 2337,
      "ÑĥÐ²Ð°ÑĶÑĤÑĮÑģÑı": 2338,
      "ĠÐ¼Ð¾Ð¶Ð»Ð¸Ð²": 2339,
      "ĠWohnzimmer": 2340,
      "ĠÐ¿ÑĢÐµÐ´Ð¼ÐµÑĤÐ°": 2341,
      "ĠPaprika": 2342,
      "holen": 2343,
      "ĠStaubsau": 2344,
      "setzen": 2345,
      "ĠÐ²ÑĸÐ´Ð±ÑĥÐ²Ð°ÑĶÑĤÑĮÑģÑı": 2346,
      "ĠÐ¿Ð¾ÑĩÐ¸Ð½Ð°ÑĶÑĤÑĮÑģÑı": 2347,
      "ĠOrdner": 2348,
      "ĠRoman": 2349,
      "ĠSchlÃ¼ssel": 2350,
      "?'": 2351,
      "agessen": 2352,
      "flug": 2353,
      "oo": 2354,
      "prech": 2355,
      "use": 2356,
      "Ġ8": 2357,
      "ĠÐļ": 2358,
      "ÑĸÑİ": 2359,
      "ÑĤÐµÑĢ": 2360,
      "Ð¾Ð²Ð½ÐµÐ½Ð½Ñı": 2361,
      "Ġsagt": 2362,
      "ÑĸÐ½ÑĸÑĤÐ¸Ð²": 2363,
      "ane": 2364,
      "ĠSam": 2365,
      "ĠSommer": 2366,
      "ĠBoden": 2367,
      "ĠDru": 2368,
      "schen": 2369,
      "Ð¸Ð¼Ð¸": 2370,
      "ĠAst": 2371,
      "ĠWir": 2372,
      "Ġsehen": 2373,
      "ĠPass": 2374,
      "ĠfrÃ¼": 2375,
      "ĠEi": 2376,
      "Ġbereit": 2377,
      "Ġlesen": 2378,
      "Ġlila": 2379,
      "rauen": 2380,
      "dessen": 2381,
      "ĠWaschmaschine": 2382,
      "ĠMannes": 2383,
      "ĠÐ·Ð°Ð¿Ð¸ÑĤÐ°Ð½Ð½Ñĸ": 2384,
      "antwor": 2385,
      "ĠÑĩÐ°ÑģÑĤÐºÐ¾Ñİ": 2386,
      "ĠÐ·Ð¼ÑĸÐ½Ð¸ÑĤÐ¸": 2387,
      "ĠÐ¿ÐµÑĢÑĦÐµÐºÑĤÑĸ": 2388,
      "ĠProjekt": 2389,
      "abatt": 2390,
      "ĠÐºÐ¾Ð½ÐºÑĢÐµÑĤ": 2391,
      "ĠBerg": 2392,
      "Ġgefahren": 2393,
      "Ġneuen": 2394,
      "Ð¹ÑĤÐµ": 2395,
      "ĠBrille": 2396,
      "gebnis": 2397,
      "ĠStraÃŁen": 2398,
      "ĠÐ¼Ð½Ð¾Ð¶Ð¸": 2399,
      "Ð¾ÐºÑĢÐµÐ¼Ð»ÑİÐ²Ð°": 2400,
      "ĠÐ²Ð¸ÐºÐ¾Ð½": 2401,
      "Ġbrauche": 2402,
      "ĠÃĦrztin": 2403,
      "Ġsitzt": 2404,
      "ĠÐ·ÑĢÐ¾Ð±": 2405,
      "ĠÑĸÐ½ÑĦÑĸÐ½ÑĸÑĤÐ¸Ð²": 2406,
      "ĠsÃ¼ÃŁ": 2407,
      "ĠHemd": 2408,
      "ĠÃľber": 2409,
      "ĠStaubsauger": 2410,
      "ĠSamstag": 2411,
      "Ja": 2412,
      "Wann": 2413,
      "fte": 2414,
      "klich": 2415,
      "walt": 2416,
      "zeit": 2417,
      "ĠÑĤÐ¸": 2418,
      "Ġet": 2419,
      "ÐµÐ±": 2420,
      "orf": 2421,
      "enden": 2422,
      "ĠÐ¿Ð¾Ð³": 2423,
      "Ð°Ð±": 2424,
      "anane": 2425,
      "ĠÐ¿ÑĢÐ¸ÐºÐ»Ð°Ð´": 2426,
      "ĠÑģÑĤÑĢÑĥ": 2427,
      "ehr": 2428,
      "ese": 2429,
      "schir": 2430,
      "ĠKir": 2431,
      "ĠTasse": 2432,
      "ĠTorte": 2433,
      "ĠTennis": 2434,
      "onn": 2435,
      "Ġgute": 2436,
      "Ġgibt": 2437,
      "ĠÐ²Ð¶Ðµ": 2438,
      "zept": 2439,
      "olade": 2440,
      "ĠÐ´Ð¾Ð¿Ð¾Ð²Ð½ÐµÐ½Ð½Ñı": 2441,
      "reis": 2442,
      "hlt": 2443,
      "ocht": 2444,
      "ĠÐ½ÐµÐ¿ÑĢÑıÐ¼Ð¾Ð³Ð¾": 2445,
      "ÑĤÑĢÐµÐ±Ð°": 2446,
      "Ġneue": 2447,
      "ĠBlatt": 2448,
      "spielt": 2449,
      "ĠHausauf": 2450,
      "lette": 2451,
      "letzt": 2452,
      "ĠĠĠĠ": 2453,
      "ĠMittagessen": 2454,
      "ÑħÐ¾Ð´Ð¸ÑĤÑĮ": 2455,
      "schwester": 2456,
      "otheke": 2457,
      "okolade": 2458,
      "ĠAdresse": 2459,
      "ĠTreppe": 2460,
      "ĠBesprech": 2461,
      "ĠPilot": 2462,
      "Ã¤hnchen": 2463,
      "ĠDrucker": 2464,
      "schirm": 2465,
      "10": 2466,
      "vor": 2467,
      "Ġr": 2468,
      "Ð°ÑĨÑĸ": 2469,
      "ÑĥÐº": 2470,
      "ĠIm": 2471,
      "Ġsoll": 2472,
      "Ð¾Ð´Ð¸ÑĤÑĮ": 2473,
      "ĠHÃ¤hnchen": 2474,
      "ĠKopf": 2475,
      "emp": 2476,
      "arum": 2477,
      "Ã¤se": 2478,
      "Ã¤ter": 2479,
      "Ã¤ft": 2480,
      "ĠÐºÑĸÐ½": 2481,
      "ĠPol": 2482,
      "ĠGlas": 2483,
      "ĠÐ¿ÑĢÐ°Ð²Ð¸Ð»ÑĮÐ½Ñĸ": 2484,
      "ĠÐ²Ð¶Ð¸Ð²Ð°Ð½Ð½Ñĸ": 2485,
      "ĠFreunde": 2486,
      "ĠFreundschaft": 2487,
      "ÐºÑĤÑĥ": 2488,
      "urke": 2489,
      "ĠNase": 2490,
      "Ġlaut": 2491,
      "ktlich": 2492,
      "iertel": 2493,
      "Ġhung": 2494,
      "rÃ¼cke": 2495,
      "Ġstark": 2496,
      "mache": 2497,
      "ĠErd": 2498,
      "ĠErgebnis": 2499,
      "ĠVerb": 2500,
      "ntag": 2501,
      "ĠÐ¿ÑĢÐ¸ÑģÐ²ÑĸÐ¹Ð½Ðµ": 2502,
      "abrik": 2503,
      "euer": 2504,
      "ĠRezept": 2505,
      "loren": 2506,
      "Ġregnet": 2507,
      "Ã¼nktlich": 2508,
      "ĠÑĩÐ¾Ð»Ð¾Ð²ÑĸÑĩÐ¾Ð¼Ñĥ": 2509,
      "ĠMittag": 2510,
      "ĠÐ²Ð¸ÐºÐ¾Ð½Ñĥ": 2511,
      "ĠÐĴÑĸÐ´Ð¾ÐºÑĢÐµÐ¼Ð»ÑİÐ²Ð°Ð»ÑĮ": 2512,
      "ĠKrankenschwester": 2513,
      "ĠSonntag": 2514,
      "ĠApotheke": 2515,
      "ĠKlasse": 2516,
      "unktion": 2517,
      "ĠNotizbuch": 2518,
      "Ġetw": 2519,
      "ĠBesprechung": 2520,
      "ĠÐ²Ð¸ÐºÐ¾Ð½ÑĥÑĶÑĤÑĮÑģÑı": 2521,
      "ĠÐĴÑĸÐ´Ð¾ÐºÑĢÐµÐ¼Ð»ÑİÐ²Ð°Ð»ÑĮÐ½Ñĸ": 2522,
      "):": 2523,
      "aden": 2524,
      "frie": 2525,
      "uitt": 2526,
      "zÃ¤": 2527,
      "¸ļ": 2528,
      "Ġempf": 2529,
      "ĠÑĤÑĢÐµÐ±Ð°": 2530,
      "ÐµÐ¹": 2531,
      "rerin": 2532,
      "erie": 2533,
      "ĠÐ¿ÐµÐ²": 2534,
      "gew": 2535,
      "ĠÐ¼Ð¾Ð²Ð°": 2536,
      "ĠSaft": 2537,
      "Ġwas": 2538,
      "ĠDorf": 2539,
      "ĠMaus": 2540,
      "ĠTom": 2541,
      "ĠÑĨÑĸÐ¹": 2542,
      "ĠWunsch": 2543,
      "ĠPreis": 2544,
      "Ġber": 2545,
      "zum": 2546,
      "dee": 2547,
      "ĠEis": 2548,
      "urt": 2549,
      "olgen": 2550,
      "rÃ¼ck": 2551,
      "omen": 2552,
      "Ġverw": 2553,
      "zent": 2554,
      "rÃ¤ume": 2555,
      "ĠProgramm": 2556,
      "ablette": 2557,
      "ĠRegen": 2558,
      "ĠBÃ¤r": 2559,
      "ĠÐ¹Ð´ÐµÑĤÑĮÑģÑı": 2560,
      "ĠKrankenhaus": 2561,
      "ĠKellner": 2562,
      "ĠZucker": 2563,
      "Ã¶tchen": 2564,
      "ĠKirche": 2565,
      "uittung": 2566,
      "ĠTomate": 2567,
      "Ein": 2568,
      "ak": 2569,
      "ba": 2570,
      "nal": 2571,
      "Ã©": 2572,
      "ĠÐ²Ð»Ð°": 2573,
      "inken": 2574,
      "aul": 2575,
      "beere": 2576,
      "Ð²Ð°": 2577,
      "ĠÐ¿ÑĢÐ°Ð²Ð¸Ð»": 2578,
      "ĠBrÃ¼cke": 2579,
      "itze": 2580,
      "ĠDame": 2581,
      "Ġdenke": 2582,
      "ĠTee": 2583,
      "ĠTick": 2584,
      "ĠÐ²ÑĸÐ´Ð¼ÑĸÐ½ÑİÐ²Ð°ÑĤÐ¸": 2585,
      "lex": 2586,
      "...": 2587,
      "ĠGurke": 2588,
      "ĠSchokolade": 2589,
      "ĠEin": 2590,
      "ĠViertel": 2591,
      "ĠJob": 2592,
      "Ġverloren": 2593,
      "reude": 2594,
      "ĠLehrerin": 2595,
      "ĠmÃ¼ssen": 2596,
      "ĠÐ²ÑĸÐ´Ð¿Ð¾Ð²ÑĸÐ´Ð½Ð¾": 2597,
      "ĠÐ½ÐµÐ¿ÑĢÑıÐ¼Ð¸Ð¹": 2598,
      "Ã¼ll": 2599,
      "ĠMontag": 2600,
      "ĠBlume": 2601,
      "spielen": 2602,
      "gebot": 2603,
      "ĠBauch": 2604,
      "afÃ©": 2605,
      "ĠSuppe": 2606,
      "ĠAbendessen": 2607,
      "alender": 2608,
      "Ġgerade": 2609,
      "Ġâ¸ļ": 2610,
      "echs": 2611,
      "Ġdurch": 2612,
      "ĠÐŁÑĢÐ¸ÑģÐ²ÑĸÐ¹Ð½Ð¸Ð¹": 2613,
      "ĠStraÃŁenbahn": 2614,
      "ĠÐ²Ð¸ÐºÐ¾Ð½ÑĥÑĶ": 2615,
      "ĠÐ·ÑĢÐ¾Ð±Ð¸ÑĤÐ¸": 2616,
      "ĠÑģÑĤÑĢÑĥÐºÑĤÑĥ": 2617,
      "ĠÐºÑĸÐ½ÐµÑĨÑĮ": 2618,
      "ĠTicket": 2619,
      "-,": 2620,
      "11": 2621,
      "An": 2622,
      "fach": 2623,
      "flex": 2624,
      "komm": 2625,
      "kÃ¶nnen": 2626,
      "land": 2627,
      "mÃ¼": 2628,
      "samm": 2629,
      "Ġdein": 2630,
      "erwei": 2631,
      "ĠÐ²Ñĩ": 2632,
      "ĠÐ´ÑĥÐ¼": 2633,
      "ĠCafÃ©": 2634,
      "ĠIdee": 2635,
      "ĠÑĢÐ°Ð´": 2636,
      "Ġsal": 2637,
      "ĠÐ´ÑĸÑĶÑģÐ»Ð¾Ð²Ð°Ð¼Ð¸": 2638,
      "Ð²Ð¾": 2639,
      "ĠÐ²Ð¸ÐºÐ¾ÑĢÐ¸ÑģÑĤÐ°Ð½Ð½Ñĸ": 2640,
      "hafen": 2641,
      "ĠSee": 2642,
      "ĠBanane": 2643,
      "ĠFabrik": 2644,
      "ĠFeuer": 2645,
      "itum": 2646,
      "Ġnie": 2647,
      "ĠHÃ¤l": 2648,
      "ĠKÃ¤se": 2649,
      "ĠThe": 2650,
      "ĠToch": 2651,
      "ĠÐ²ÑĸÐ´Ð¼ÑĸÐ½ÑİÑĶÑĤÑĮÑģÑı": 2652,
      "lekt": 2653,
      "ĠWein": 2654,
      "ĠWald": 2655,
      "ĠPlan": 2656,
      "ÑħÐ¾Ð´Ð¶ÐµÐ½Ð½Ñı": 2657,
      "ĠfÃ¼h": 2658,
      "ÐµÐ½ÑĮ": 2659,
      "ĠÐ²ÐºÐ°Ð·ÑĥÑİÑĩÐ¸": 2660,
      "ĠÑıÐºÑīÐ¾": 2661,
      "ÑĪÐµ": 2662,
      "ive": 2663,
      "ĠRabatt": 2664,
      "teritum": 2665,
      "ÐµÑĢÐµÑĩÐµÐ½Ð½Ñı": 2666,
      "ĠRegel": 2667,
      "ĠGarage": 2668,
      "ĠAngst": 2669,
      "ournal": 2670,
      "toff": 2671,
      "ollen": 2672,
      "Ġbesuche": 2673,
      "Ġwohn": 2674,
      "ĠÐ²Ð²Ð¾Ð´Ð¸ÑĤÑĮ": 2675,
      "ĠwÃ¤scht": 2676,
      "ĠSuperm": 2677,
      "ĠAusflug": 2678,
      "ĠÐºÑĥÐ¿": 2679,
      "ĠAbend": 2680,
      "ĠKollegin": 2681,
      "ĠÐ§Ð°ÑģÑĤ": 2682,
      "hof": 2683,
      "ĠÐĹÐ°Ð¿ÐµÑĢÐµÑĩÐµÐ½Ð½Ñı": 2684,
      "ĠKartoff": 2685,
      "Ð¾ÐºÑĢÐµÐ¼Ð»ÑİÐ²Ð°Ð½Ðµ": 2686,
      "ĠPoliz": 2687,
      "erweise": 2688,
      "ĠHÃ¤lfte": 2689,
      "ĠTochter": 2690,
      "ĠSupermarkt": 2691,
      "Akk": 2692,
      "Sie": 2693,
      "agen": 2694,
      "abel": 2695,
      "flich": 2696,
      "hre": 2697,
      "issen": 2698,
      "morgen": 2699,
      "tik": 2700,
      "wir": 2701,
      "Ġor": 2702,
      "Ġren": 2703,
      "ĠÐĳ": 2704,
      "ĠÐŀ": 2705,
      "chite": 2706,
      "ÑĥÐ»ÑĮ": 2707,
      "ord": 2708,
      "erst": 2709,
      "ÐºÐ¾Ð¼Ñĥ": 2710,
      "Ġisst": 2711,
      "Ð¾ÑĢÑĤ": 2712,
      "ĠInform": 2713,
      "gelei": 2714,
      "Ġgek": 2715,
      "âĢĿ": 2716,
      "Ġwer": 2717,
      "ĠFreude": 2718,
      "Ġnoch": 2719,
      "ĠMes": 2720,
      "ĠKoch": 2721,
      "ĠTal": 2722,
      "ĠTopf": 2723,
      "ĠTablette": 2724,
      "ĠPeter": 2725,
      "ĠPlatz": 2726,
      "Ġbis": 2727,
      "ĠschlÃ¤": 2728,
      "ĠÑĤÑĥÑĤ": 2729,
      "ĠÑĦÐ¾ÑĢÐ¼Ð¸": 2730,
      "Ġganz": 2731,
      "ĠÐ¿ÑĸÐ´ÑħÐ¾Ð´Ð¸ÑĤÑĮ": 2732,
      "irne": 2733,
      "ĠStrand": 2734,
      "urm": 2735,
      "Ġlese": 2736,
      "meinem": 2737,
      "ĠJournal": 2738,
      "ÑģÐ»ÑĸÐ²Ð½Ð¸Ðº": 2739,
      "ĠÑģÐ»Ð¾Ð²Ð¾Ð¼": 2740,
      "verben": 2741,
      "arbeitet": 2742,
      "ĠArchite": 2743,
      "ahrer": 2744,
      "lossen": 2745,
      "Ġausge": 2746,
      "ĠBrÃ¶tchen": 2747,
      "iefel": 2748,
      "ÑĢÐ°ÑĹ": 2749,
      "ĠBildschirm": 2750,
      "afel": 2751,
      "gaben": 2752,
      "ĠÐ¿ÑĢÐ¸ÐºÐ¼ÐµÑĤÐ½Ð¸ÐºÐ°Ñħ": 2753,
      "Ġjetzt": 2754,
      "ĠÐ¿ÐµÑĢÐµÑħÑĸÐ´": 2755,
      "eks": 2756,
      "othek": 2757,
      "ĠTraube": 2758,
      "ĠÐ·Ð²ÐµÑĢÐ½ÐµÐ½Ð½Ñı": 2759,
      "schÃ¶ne": 2760,
      "ĠÐ´Ð°ÑĤÑĸÐ²Ð½Ð¸Ð¼": 2761,
      "ĠÑģÑĤÐ°Ð²Ð»ÑıÑĤÑĮÑģÑı": 2762,
      "Ġspannend": 2763,
      "ĠErdbeere": 2764,
      "ĠPolizist": 2765,
      "ĠJournalist": 2766,
      "Sei": 2767,
      "brin": 2768,
      "eg": 2769,
      "hren": 2770,
      "ibl": 2771,
      "iothek": 2772,
      "kar": 2773,
      "kÃ¤lt": 2774,
      "ttps": 2775,
      "Ð°Ñħ": 2776,
      "ÑĤÐ°ÑĪ": 2777,
      "Ð¸Ð¶": 2778,
      "reich": 2779,
      "era": 2780,
      "erd": 2781,
      "stig": 2782,
      "Ġihn": 2783,
      "ĠSand": 2784,
      "ĠSerie": 2785,
      "ĠBirne": 2786,
      "Ġeinfach": 2787,
      "Ð½Ð°ÑħÐ¾Ð´Ð¶ÐµÐ½Ð½Ñı": 2788,
      "ĠKam": 2789,
      "ĠKalender": 2790,
      "ember": 2791,
      "Ġken": 2792,
      "Ġkrank": 2793,
      "ĠTafel": 2794,
      "ĠAll": 2795,
      "ÑİÑĤÑĮÑģÑı": 2796,
      "ĠPak": 2797,
      "ĠÑĦÐ¾ÑĢÐ¼Ð¾Ñİ": 2798,
      "ĠglÃ¼cklich": 2799,
      "rocken": 2800,
      "sslich": 2801,
      "ĠÑıÐºÑĸ": 2802,
      "ĠÑıÐºÐ°": 2803,
      "ĠElekt": 2804,
      "ĠRÃ¼cken": 2805,
      "ĠÐ´ÑĸÑĶÑģÐ»Ð¾Ð²Ð°Ñħ": 2806,
      "Ġlei": 2807,
      "Ġhttps": 2808,
      "ĠÐ¼ÑĸÑģÑĨÐµÐ·": 2809,
      "ĠÐ·Ð°Ð¿ÐµÑĢÐµÑĩÑĥÑĶ": 2810,
      "ĠOpa": 2811,
      "ĠÐ·Ð°Ð¿Ð¸ÑĤÐ°Ð½ÑĮ": 2812,
      "ĠÐ½Ð¾Ð¼ÑĸÐ½Ð°ÑĤÐ¸Ð²Ð½Ð¾Ð¼Ñĥ": 2813,
      "ĠÃĸ": 2814,
      "bling": 2815,
      "riker": 2816,
      "ĠHotel": 2817,
      "ĠPflan": 2818,
      "ĠNebel": 2819,
      "ĠÃĦpfel": 2820,
      "ÑĸÑĩÐ»Ð¸Ð²": 2821,
      "ĠSchmerzmittel": 2822,
      "ĠStudentin": 2823,
      "ĠÑģÐ»ÑĸÐ´": 2824,
      "Ġschmutzig": 2825,
      "Ġbeginnt": 2826,
      "ĠÐ¼Ð½Ð¾Ð¶Ð¸Ð½Ñĸ": 2827,
      "frieden": 2828,
      "ibliothek": 2829,
      "kÃ¤ltung": 2830,
      "ĠPaket": 2831,
      "ĠElektriker": 2832,
      "ĠÐ¼ÑĸÑģÑĨÐµÐ·Ð½Ð°ÑħÐ¾Ð´Ð¶ÐµÐ½Ð½Ñı": 2833,
      "Geht": 2834,
      "di": 2835,
      "ks": 2836,
      "ock": 2837,
      "pr": 2838,
      "wer": 2839,
      "wasche": 2840,
      "Ġall": 2841,
      "ĠÃ¶ff": 2842,
      "cher": 2843,
      "Ð»Ð¸": 2844,
      "ergie": 2845,
      "ĠÐ¿Ð¾Ð±": 2846,
      "Ð¾ÑĢÐ¾": 2847,
      "ante": 2848,
      "test": 2849,
      "ĠSÃ¤tze": 2850,
      "Ã¼gel": 2851,
      "ĠButter": 2852,
      "ĠFahrer": 2853,
      "ĠDativ": 2854,
      "schein": 2855,
      "ĠMin": 2856,
      "ĠMehl": 2857,
      "Ã¤sslich": 2858,
      "ĠAuge": 2859,
      "ĠGeh": 2860,
      "ĠLiter": 2861,
      "ĠÐ³Ð¾Ð»": 2862,
      "Ġtrain": 2863,
      "ĠÐ¿ÑĢÐ¸ÐºÐ¼ÐµÑĤÐ½Ð¸ÐºÑĸÐ²": 2864,
      "ĠErkÃ¤ltung": 2865,
      "ĠÐ´Ð¾Ð´Ð°ÑĤÐ¸": 2866,
      "ĠÐ·Ð¼ÑĸÐ½Ð¸": 2867,
      "ahre": 2868,
      "ĠReg": 2869,
      "ĠÐ¾ÑĤÑĢÐ¸Ð¼ÑĥÑİÑĤÑĮ": 2870,
      "ĠÐ·Ð²Ð¾ÑĢÐ¾ÑĤÐ½Ð¾Ð³Ð¾": 2871,
      "ĠHerz": 2872,
      "ĠStadion": 2873,
      "ĠÑĥÐ·Ð³Ð¾Ð´Ð¶ÑĥÐ²Ð°ÑĤÐ¸ÑģÑĮ": 2874,
      "hÃ¶ren": 2875,
      "ĠSalz": 2876,
      "ĠLiebe": 2877,
      "ĠPrÃ¤positionen": 2878,
      "ĠSport": 2879,
      "ronomen": 2880,
      "ĠÐ²Ð²ÑĸÑĩÐ»Ð¸Ð²": 2881,
      "ĠFlughafen": 2882,
      "ĠKugel": 2883,
      "Ġlangsam": 2884,
      "ĠSonne": 2885,
      "ÑıÐ·Ð¾Ðº": 2886,
      "ĠÐºÐ¾Ð¼Ð°Ð½Ð´Ñĥ": 2887,
      "ĠQuittung": 2888,
      "urtstag": 2889,
      "ĠTheater": 2890,
      "geleisen": 2891,
      "Heute": 2892,
      "Kein": 2893,
      "Vor": 2894,
      "ai": 2895,
      "fahr": 2896,
      "trauen": 2897,
      "za": 2898,
      "zie": 2899,
      "ïĥ": 2900,
      "Ġ3": 2901,
      "Ġrau": 2902,
      "Ġalt": 2903,
      "ÐµÐ»": 2904,
      "ÑĥÑģÑĤ": 2905,
      "ieber": 2906,
      "Ð²Ð°Ð½Ð½Ñı": 2907,
      "ĠÐ²Ð¸ÐºÐ¾ÑĢÐ¸ÑģÑĤÐ°ÑĤÐ¸": 2908,
      "eispiel": 2909,
      "ĠSatz": 2910,
      "ĠBahn": 2911,
      "ĠBibliothek": 2912,
      "ĠHe": 2913,
      "ĠKeks": 2914,
      "aten": 2915,
      "ĠWerk": 2916,
      "ĠWinter": 2917,
      "sszimmer": 2918,
      "ische": 2919,
      "ĠStiefel": 2920,
      "Ġbest": 2921,
      "ĠÐ°ÐºÑĥÐ·Ð°ÑĤÐ¸Ð²Ñĥ": 2922,
      "ĠZahn": 2923,
      "leist": 2924,
      "Ġerin": 2925,
      "ĠOn": 2926,
      "ÑĥÐ²Ð°ÑĤÐ¸ÑģÑı": 2927,
      "teresse": 2928,
      "ĠÑĢÐ¾Ð·ÑĤÐ°ÑĪ": 2929,
      "laden": 2930,
      "laster": 2931,
      "ĠRech": 2932,
      "Wohin": 2933,
      "ĠgroÃŁe": 2934,
      "Ġzie": 2935,
      "ĠÐ²ÑĸÐ´Ð¿Ð¾Ð²ÑĸÐ´Ð°ÑĤÐ¸": 2936,
      "ĠAnwalt": 2937,
      "ĠÑħÐ¾Ñĩ": 2938,
      "ĠBÃ¼geleisen": 2939,
      "Ð¸Ð¼Ð¾ÑģÑĮ": 2940,
      "ĠLied": 2941,
      "chmal": 2942,
      "Station": 2943,
      "ĠFotograf": 2944,
      "ĠÐ¶ÑĸÐ½Ð¾ÑĩÐ¸Ð¹": 2945,
      "ĠÐ¶ÑĸÐ½Ð¾ÑĩÐ¸Ð¼": 2946,
      "ĠDatei": 2947,
      "schreiber": 2948,
      "Ġlernen": 2949,
      "ĠWurst": 2950,
      "ĠGeburtstag": 2951,
      "ÐµÐ±Ðµ": 2952,
      "Ġetwas": 2953,
      "ĠÐ²Ð»Ð°ÑģÐ½": 2954,
      "ĠÐ²ÑĩÐ¸ÑĤÐµ": 2955,
      "ĠKartoffel": 2956,
      "ĠKugelschreiber": 2957,
      "ïĥĺ": 2958,
      "Un": 2959,
      "by": 2960,
      "groÃŁ": 2961,
      "ib": 2962,
      "prÃ¤": 2963,
      "pronomen": 2964,
      "sa": 2965,
      "sind": 2966,
      "welle": 2967,
      "ĠÑĸÐ·": 2968,
      "ĠÐĽ": 2969,
      "Ð°ÑĢÑĤ": 2970,
      "Ġda": 2971,
      "ĠÐŁÐµÑĢ": 2972,
      "ÐºÑĢÐ°ÑĹ": 2973,
      "ĠÑĢÐ°Ð·": 2974,
      "ĠInteresse": 2975,
      "unken": 2976,
      "habe": 2977,
      "Ġgespielt": 2978,
      "ĠÐ°Ð²": 2979,
      "Ġwaschen": 2980,
      "Ã¼hr": 2981,
      "ĠFieber": 2982,
      "Ġnett": 2983,
      "Ã¤r": 2984,
      "leich": 2985,
      "alkon": 2986,
      "Ġbun": 2987,
      "ĠÐ¼ÑĸÑģÑĤ": 2988,
      "Ġschle": 2989,
      "rochen": 2990,
      "rowelle": 2991,
      "ĠÑģÐµÐ±Ðµ": 2992,
      "ĠzurÃ¼ck": 2993,
      "ĠLaden": 2994,
      "ĠSchul": 2995,
      "ĠSchaf": 2996,
      "ĠSchinken": 2997,
      "ĠFreundes": 2998,
      "Ġange": 2999,
      "ĠÐ·Ð°Ð¹Ð¼ÐµÐ½Ð½Ð¸ÐºÐ¾Ð¼": 3000,
      "ikrowelle": 3001,
      "ĠÐ´Ð¾Ð¿Ð¾Ð¼ÑĸÐ¶Ð½Ð¾Ð³Ð¾": 3002,
      "ĠOstern": 3003,
      "Ġvergessen": 3004,
      "Ġverletzt": 3005,
      "ĠÑĤÐµÐ»Ðµ": 3006,
      "ĠÐ²Ð¸ÑĢÐ°Ð¶Ð°ÑĶ": 3007,
      "Ġunordentlich": 3008,
      "ĠÑĩÐ°ÑģÑĤÐ¸Ð½Ð¸": 3009,
      "ĠÐĴÐ¸ÐºÐ¾ÑĢÐ¸ÑģÑĤÐ¾Ð²ÑĥÐ¹ÑĤÐµ": 3010,
      "ĠFluss": 3011,
      "ĠÐ³Ð¾Ð²Ð¾ÑĢÑı": 3012,
      "ĠBlumen": 3013,
      "Ġtrinken": 3014,
      "ĠHerd": 3015,
      "ĠÐ¼Ð¾Ð¶Ð½Ð°": 3016,
      "Ð¸ÑĩÐ°Ð¹": 3017,
      "ĠNachbarin": 3018,
      "ĠDeutsche": 3019,
      "ĠApp": 3020,
      "ĠKeller": 3021,
      "ĠGrund": 3022,
      "ĠUnterricht": 3023,
      "ĠÐ»ÑİÐ±": 3024,
      "Ġfliegt": 3025,
      "wohn": 3026,
      "Ġhoffe": 3027,
      "ĠÃľbersetzen": 3028,
      "ĠÐ´Ð¾Ð¿Ð¾Ð²Ð½ÐµÐ½Ð½ÑıÐ¼": 3029,
      "ĠÐ¿ÑĢÐ°Ð²Ð¸Ð»Ð¾Ð¼": 3030,
      "mÃ¼ssen": 3031,
      "karte": 3032,
      "ĠAllergie": 3033,
      "leistift": 3034,
      "ĠOnkel": 3035,
      "ĠÑĢÐ¾Ð·ÑĤÐ°ÑĪÑĥÐ²Ð°Ð½Ð½Ñı": 3036,
      "ĠRechnung": 3037,
      "Bahn": 3038,
      "bie": 3039,
      "dicht": 3040,
      "eb": 3041,
      "lern": 3042,
      "me": 3043,
      "ri": 3044,
      "woch": 3045,
      "ÐµÐ»ÑĮ": 3046,
      "ÐµÐ½Ð¸Ñħ": 3047,
      "ÑıÐ²": 3048,
      "regt": 3049,
      "Ð¾Ð²Ð¸": 3050,
      "ĠÐŁÐ¸ÑĤÐ°Ð½Ð½Ñı": 3051,
      "ÑĸÐ³": 3052,
      "ÐºÐ¾Ð²": 3053,
      "ĠÐ·Ð½": 3054,
      "ĠÐ¿ÑĢÐ¸Ñĩ": 3055,
      "ÐµÑĢÑĤ": 3056,
      "ĠSek": 3057,
      "Ġweh": 3058,
      "ĠFragen": 3059,
      "gend": 3060,
      "ĠMai": 3061,
      "Ð¶Ðµ": 3062,
      "atiker": 3063,
      "Ġschon": 3064,
      "ĠÑĤÐ¸Ð¿": 3065,
      "ĠÐ¿ÑĢÐ°Ð²Ð¸Ð»ÑĮÐ½Ð°": 3066,
      "ĠÐ¿ÑĸÐ´ÑĢÑıÐ´Ð½Ð¸Ð¹": 3067,
      "ilden": 3068,
      "ĠEnt": 3069,
      "ĠEsszimmer": 3070,
      "ĠRicht": 3071,
      "Ġbekommen": 3072,
      "Ð°Ð³Ð°ÑĤ": 3073,
      "ĠhÃ¤sslich": 3074,
      "ÑĦÐ¾ÑĢÐ¼": 3075,
      "Ġteil": 3076,
      "ĠJungen": 3077,
      "ĠÐ¿ÑĢÐ¸ÐºÐ¼ÐµÑĤÐ½Ð¸ÐºÐ¾Ð¼": 3078,
      "hling": 3079,
      "ĠVertrauen": 3080,
      "ĠÐŁÑĢÐ¸ÑģÐ»ÑĸÐ²Ð½Ð¸Ðº": 3081,
      "ĠFlur": 3082,
      "ĠSchwein": 3083,
      "ĠAkku": 3084,
      "ĠÐ³ÑĢÐ¾ÑĪ": 3085,
      "finitiv": 3086,
      "halten": 3087,
      "ĠMittwoch": 3088,
      "ĠKabel": 3089,
      "ĠFrÃ¼hling": 3090,
      "ĠTraum": 3091,
      "ĠÐºÐ½Ð¸Ð³Ð°": 3092,
      "ĠÑģÐ¿Ð¾ÑģÐ¾Ð±Ñĥ": 3093,
      "schuhe": 3094,
      "antworten": 3095,
      "ĠÐ¿ÐµÐ²Ð½Ð¾Ð³Ð¾": 3096,
      "ĠArchitekt": 3097,
      "ĠKamera": 3098,
      "ĠÃĸl": 3099,
      "ĠRegal": 3100,
      "ĠÐŁÐµÑĢÑĦÐµÐºÑĤ": 3101,
      ".:": 3102,
      "15": 3103,
      "?'.": 3104,
      "Hast": 3105,
      "LA": 3106,
      "Man": 3107,
      "Nehmt": 3108,
      "dung": 3109,
      "ko": 3110,
      "klÃ¤": 3111,
      "lung": 3112,
      "lesen": 3113,
      "pp": 3114,
      "rach": 3115,
      "runken": 3116,
      "umm": 3117,
      "zieren": 3118,
      "recklich": 3119,
      "steigen": 3120,
      "asst": 3121,
      "Ð²Ð¸ÑĩÐ°Ð¹": 3122,
      "anden": 3123,
      "ĠÐ¼ÐµÐ½Ñĸ": 3124,
      "Ð´ÑĸÐ»ÑĮ": 3125,
      "Ð°Ð²Ð°ÑĤÐ¸": 3126,
      "ĠÐ¿ÑĢÐ¾Ð¿": 3127,
      "ĠÐ¿ÑĢÐ¸Ñģ": 3128,
      "ĠÑģÑĤÑĢ": 3129,
      "ÑĨÑı": 3130,
      "ĠwÃ¼r": 3131,
      "ĠÐ²Ð¸ÐºÐ¾ÑĢÐ¸ÑģÑĤÐ¾Ð²ÑĥÑİÑĤÑĮ": 3132,
      "ĠBleistift": 3133,
      "ĠFeld": 3134,
      "Ð¾Ð³Ð¾Ñİ": 3135,
      "genommen": 3136,
      "Ġneben": 3137,
      "ĠTante": 3138,
      "achten": 3139,
      "Ġschrei": 3140,
      "ĠGabel": 3141,
      "Ġfaul": 3142,
      "ĠÑģÐ¼": 3143,
      "Ð¸ÑĤÑı": 3144,
      "unger": 3145,
      "ĠLuft": 3146,
      "ĠLÃ¶s": 3147,
      "ĠSchrank": 3148,
      "ĠSturm": 3149,
      "ĠNud": 3150,
      "Ġlust": 3151,
      "ĠZoo": 3152,
      "rauÃŁen": 3153,
      "ĠÐ´Ð¾Ð¿Ð¾Ð¼Ð¾Ð³Ð¾Ñİ": 3154,
      "immel": 3155,
      "Ġsicher": 3156,
      "ĠArm": 3157,
      "feff": 3158,
      "Ġoben": 3159,
      "ĠgroÃŁen": 3160,
      "Ġgefunden": 3161,
      "Ġneues": 3162,
      "ĠBluse": 3163,
      "inger": 3164,
      "ĠÐ¾Ð¿Ð¸ÑģÑĥÑĶ": 3165,
      "Ã¼nst": 3166,
      "reiten": 3167,
      "illig": 3168,
      "ĠÑĩÐ¾Ð»Ð¾Ð²ÑĸÑĩÐ¸Ð¼": 3169,
      "ĠSalat": 3170,
      "ĠPferd": 3171,
      "ĠLiebling": 3172,
      "ĠHals": 3173,
      "ĠÐ¢ÑĥÑĤ": 3174,
      "Ġlangweil": 3175,
      "schieden": 3176,
      "ĠÑĤÑĢÐµÑĤ": 3177,
      "Ġbringe": 3178,
      "ĠNote": 3179,
      "Ġhungrig": 3180,
      "sammen": 3181,
      "ĠÐ§Ð°ÑģÑĤÐºÐ°": 3182,
      "ĠBahnhof": 3183,
      "ĠLÃ¶sung": 3184,
      "ĠNudeln": 3185,
      "Be": 3186,
      "Fragen": 3187,
      "Gen": 3188,
      "Re": 3189,
      "bby": 3190,
      "dien": 3191,
      "od": 3192,
      "platz": 3193,
      "rich": 3194,
      "spiele": 3195,
      "wichtig": 3196,
      "Ð¾ÑģÑĤ": 3197,
      "ÐµÐº": 3198,
      "ÑģÐ¿": 3199,
      "ÑĤÐ¾ÑĢ": 3200,
      "chan": 3201,
      "ÑĥÐ¿": 3202,
      "Ð»ÐµÐ½Ð½Ñı": 3203,
      "erv": 3204,
      "ĠÐŁÐµÑĢÐµÐ´": 3205,
      "ĠÐ²Ð¸ÑģÑĤ": 3206,
      "ĠÐ´Ñĥ": 3207,
      "inks": 3208,
      "iele": 3209,
      "stet": 3210,
      "Ġsel": 3211,
      "ĠDien": 3212,
      "ĠMikrowelle": 3213,
      "ĠHimmel": 3214,
      "Ð°ÑĶÐ¼Ð¾": 3215,
      "ĠTast": 3216,
      "ĠAug": 3217,
      "onner": 3218,
      "ĠPause": 3219,
      "ĠPfeff": 3220,
      "Ð¾Ð»Ð¾Ð³": 3221,
      "ĠGÃ¼r": 3222,
      "ÐºÐ°Ð·Ð°ÑĤÐ¸": 3223,
      "Ð¾Ð±ÑħÑĸÐ´": 3224,
      "ÐµÐ½Ð´": 3225,
      "ĠÐ²Ð¶Ð¸ÑĤÐ¸": 3226,
      "ilft": 3227,
      "ĠRock": 3228,
      "Ġbeg": 3229,
      "Ġbeim": 3230,
      "Ġtre": 3231,
      "Ġtrage": 3232,
      "Ġtrocken": 3233,
      "ĠÐ²ÑĸÐ´Ð¾ÐºÑĢÐµÐ¼Ð»ÑİÐ²Ð°Ð½Ðµ": 3234,
      "allen": 3235,
      "ruf": 3236,
      "Ġlecke": 3237,
      "Ð¾Ð·Ð¸": 3238,
      "ĠOhr": 3239,
      "ĠÐ²Ð¸ÑĢÐ°Ð·": 3240,
      "Ġuns": 3241,
      "verb": 3242,
      "Ã¤ngst": 3243,
      "ĠÑģÐ¿Ð¾Ð»": 3244,
      "ĠspÃ¤ter": 3245,
      "ĠÐºÐ¾Ð¼Ð¸": 3246,
      "ĠMond": 3247,
      "ĠMechan": 3248,
      "ĠHandschuhe": 3249,
      "Ġgelb": 3250,
      "ĠHobby": 3251,
      "hÃ¶flich": 3252,
      "Ġgeschlossen": 3253,
      "ĠPflaster": 3254,
      "schied": 3255,
      "ĠChef": 3256,
      "ĠKollege": 3257,
      "ĠÑĢÐµÑĦÐ»ÐµÐºÑģÐ¸Ð²Ð½Ð¾Ð³Ð¾": 3258,
      "ĠKilo": 3259,
      "Ġals": 3260,
      "ĠGeschÃ¤ft": 3261,
      "Ġrepariert": 3262,
      "ĠÐ¿ÑĢÐ¸ÐºÐ»Ð°Ð´Ñĥ": 3263,
      "unktioniert": 3264,
      "Akkusativ": 3265,
      "ĠInformatiker": 3266,
      "ĠMesser": 3267,
      "ĠschlÃ¤ft": 3268,
      "ĠPflanze": 3269,
      "ĠMinute": 3270,
      "ĠÐ³Ð¾Ð»Ð¾Ð²": 3271,
      "ÐºÑĢÐ°ÑĹÐ½": 3272,
      "ĠSekunde": 3273,
      "ĠRichter": 3274,
      "LAN": 3275,
      "ĠÐ¿ÑĢÐ¸ÑģÑĥÐ´": 3276,
      "ĠÑĤÑĢÐµÑĤÑĸÐ¹": 3277,
      "ĠGÃ¼rtel": 3278,
      "13": 3279,
      "16": 3280,
      "22": 3281,
      "ale": 3282,
      "freundlich": 3283,
      "gÃ¤n": 3284,
      "kl": 3285,
      "keine": 3286,
      "wenn": 3287,
      "zel": 3288,
      "ÐĴ": 3289,
      "Ġ,": 3290,
      "Ð¸Ð½Ñĥ": 3291,
      "ÐµÐ½Ðµ": 3292,
      "ÐµÐ³": 3293,
      "ÑıÑĤÐ¸": 3294,
      "ÑģÑĸ": 3295,
      "Ð°ÑĨ": 3296,
      "ÑĥÐ·": 3297,
      "ĠdÃ¼n": 3298,
      "ÑĮÐ¾ÑĢ": 3299,
      "aum": 3300,
      "Ġsin": 3301,
      "Ġset": 3302,
      "ĠmÃ¶chten": 3303,
      "eigt": 3304,
      "Ġgem": 3305,
      "ÑĨÐµ": 3306,
      "ĠBalkon": 3307,
      "ĠFinger": 3308,
      "itten": 3309,
      "ĠDonner": 3310,
      "sche": 3311,
      "schlie": 3312,
      "Ġnur": 3313,
      "ĠHase": 3314,
      "ĠHitze": 3315,
      "ĠHÃ¼gel": 3316,
      "ĠKn": 3317,
      "achen": 3318,
      "elche": 3319,
      "athaus": 3320,
      "ĠÐºÑĢ": 3321,
      "ĠWLAN": 3322,
      "Ġschrecklich": 3323,
      "ĠÑģÐºÐ°Ð·Ð°ÑĤÐ¸": 3324,
      "Ġzusammen": 3325,
      "ĠÐ²Ð¶Ð¸Ð²Ð°Ð½Ð½Ñı": 3326,
      "ĠÐ¿ÑĸÐ´ÑĢÑıÐ´Ð½Ð¾Ð³Ð¾": 3327,
      "ĠStern": 3328,
      "Ġlade": 3329,
      "Ġhell": 3330,
      "Ġtut": 3331,
      "Ġtrau": 3332,
      "umt": 3333,
      "ĠÐ²ÑĸÐ´Ñģ": 3334,
      "ĠÐ²ÑĸÐ´Ð¾ÐºÑĢÐµÐ¼Ð»ÑİÐ²Ð°Ð»ÑĮ": 3335,
      "ometer": 3336,
      "Ġlet": 3337,
      "Ġleicht": 3338,
      "nere": 3339,
      "serv": 3340,
      "ĠÐ²Ð¸Ð·Ð½Ð°ÑĩÐµÐ½Ð¸Ð¼": 3341,
      "ĠProzent": 3342,
      "ĠÐ½Ð°Ð»ÐµÐ¶Ð½Ð¾ÑģÑĤÑĸ": 3343,
      "Woher": 3344,
      "ĠgefÃ¤hr": 3345,
      "Ġspa": 3346,
      "ĠAngebot": 3347,
      "lang": 3348,
      "ĠÐ¯Ðº": 3349,
      "findet": 3350,
      "ĠÑĥÑĤÐ¾Ñĩ": 3351,
      "iges": 3352,
      "ĠHose": 3353,
      "ĠFahrkarte": 3354,
      "ehler": 3355,
      "Ġklein": 3356,
      "ĠKlemp": 3357,
      "ĠWurzel": 3358,
      "ĠnÃ¤chsten": 3359,
      "ĠKilometer": 3360,
      "Ġrosa": 3361,
      "eiertag": 3362,
      "zeichnet": 3363,
      "Ġsalz": 3364,
      "Ġnied": 3365,
      "ĠHeft": 3366,
      "Ġschlecht": 3367,
      "ĠAugust": 3368,
      "ĠÑģÐ¿Ð¾Ð»ÑĥÑĩ": 3369,
      "ĠDonnerstag": 3370,
      "ĠgefÃ¤hrlich": 3371,
      "ĠKlempner": 3372,
      ".)": 3373,
      "12": 3374,
      "14": 3375,
      "Freund": 3376,
      "fol": 3377,
      "hei": 3378,
      "keinen": 3379,
      "son": 3380,
      "Ġ...": 3381,
      "ÑıÑĤ": 3382,
      "erien": 3383,
      "ÑĶÐ´": 3384,
      "statt": 3385,
      "standen": 3386,
      "ĠÐ½Ð°Ð²": 3387,
      "gekauft": 3388,
      "Ġmie": 3389,
      "tem": 3390,
      "ĠSpie": 3391,
      "ĠBeispiel": 3392,
      "ĠFehler": 3393,
      "ĠFeiertag": 3394,
      "ĠFerien": 3395,
      "ĠâĢľ": 3396,
      "ĠÐ¿Ð¾ÑĤ": 3397,
      "ĠHunger": 3398,
      "arz": 3399,
      "ĠTe": 3400,
      "elfen": 3401,
      "Ġschein": 3402,
      "Ġscharf": 3403,
      "Ġfest": 3404,
      "Ġvom": 3405,
      "uche": 3406,
      "Ð°Ð»ÑĮÐ½Ð¸Ð¹": 3407,
      "Ð¾Ð±Ñĸ": 3408,
      "ĠÑģÑĤÐ¾ÑıÑĤÑĮ": 3409,
      "ĠLunge": 3410,
      "ĠRathaus": 3411,
      "ierig": 3412,
      "ĠerzÃ¤": 3413,
      "reitet": 3414,
      "ĠÐ²Ð¸Ð·Ð½Ð°ÑĩÐµÐ½Ð¸Ñħ": 3415,
      "ahrschein": 3416,
      "gelesen": 3417,
      "ĠÐ·Ð°Ð»ÐµÐ¶": 3418,
      "lagen": 3419,
      "entlich": 3420,
      "ĠÐ¿ÑĢÐ¸ÑģÐ²ÑĸÐ¹Ð½Ð¾Ð³Ð¾": 3421,
      "Ð°ÑĢÑĸ": 3422,
      "ckerei": 3423,
      "Ġpro": 3424,
      "ĠpÃ¼nktlich": 3425,
      "Ð¾ÑĩÐ°ÑĤÐºÑĥ": 3426,
      "ĠÐ·Ð°Ð¿Ð¸ÑĤÐ°Ð½Ð½ÑıÑħ": 3427,
      "Ð¾Ð²Ð°Ð½Ðµ": 3428,
      "ĠSocken": 3429,
      "ĠÐĹÐ°Ð¹": 3430,
      "ĠGedicht": 3431,
      "ĠBÃ¤ckerei": 3432,
      "ĠÑĩÐ¸ÑģÐ»Ñĸ": 3433,
      "ĠÐ¼Ð¸Ð½ÑĥÐ»Ð¾Ð³Ð¾": 3434,
      "ĠPrÃ¤teritum": 3435,
      "ĠNachbarn": 3436,
      "Ġkostet": 3437,
      "Ġgenommen": 3438,
      "ĠNeffe": 3439,
      "kannt": 3440,
      "Ã¶glichkeit": 3441,
      "ĠÐ½Ð°ÐºÐ°Ð·Ð¾Ð²Ð¾Ð¼Ñĥ": 3442,
      "ĠÐ½Ð°ÐºÐ°Ð·Ð¾Ð²Ð¾Ð³Ð¾": 3443,
      "eiÃŁt": 3444,
      "ĠPasswort": 3445,
      "ĠfÃ¼hle": 3446,
      "Ġbisschen": 3447,
      "ĠÑĢÐ°Ð·Ð¾Ð¼": 3448,
      "Genitiv": 3449,
      "odal": 3450,
      "ĠDienstag": 3451,
      "ĠPfeffer": 3452,
      "ĠMechaniker": 3453,
      "ĠÐ²ÑĸÐ´ÑģÑĥÑĤ": 3454,
      "Ġletz": 3455,
      "ĠÑģÐ¿Ð¾Ð»ÑĥÑĩÐ½Ð¸Ðº": 3456,
      "ĠSpiegel": 3457,
      "ahrscheinlich": 3458,
      "ĠÐĹÐ°Ð¹Ð¼ÐµÐ½Ð½Ð¸Ðº": 3459,
      "17": 3460,
      "30": 3461,
      "Ihr": 3462,
      "fahren": 3463,
      "gumm": 3464,
      "kte": 3465,
      "nach": 3466,
      "ogel": 3467,
      "rz": 3468,
      "we": 3469,
      "Ġ5": 3470,
      "Ð½Ð¾Ðº": 3471,
      "Ð½ÑĸÐ²": 3472,
      "ÑĸÐ»Ðµ": 3473,
      "ÑĤÐ°Ðº": 3474,
      "ÑĢÐ°ÑĤÐ¸": 3475,
      "ÑĥÑĢ": 3476,
      "ÑĥÑĤÑĮ": 3477,
      "enig": 3478,
      "Ġdick": 3479,
      "Ġdarf": 3480,
      "ĠdrauÃŁen": 3481,
      "auen": 3482,
      "aupt": 3483,
      "Ġseine": 3484,
      "Ġsonn": 3485,
      "Ġsagen": 3486,
      "Ġmehr": 3487,
      "Ð»ÑıÑĤÐ¸": 3488,
      "ĠÐ¿ÑĢÐ¸": 3489,
      "ĠÐ¿ÑĢÐ¸ÑĤÑı": 3490,
      "Ġeinmal": 3491,
      "achsen": 3492,
      "ĠWei": 3493,
      "Ġbast": 3494,
      "Ġbillig": 3495,
      "Ġschlafen": 3496,
      "Ð¾Ð»Ð¸": 3497,
      "deutsch": 3498,
      "ĠÑģÑĦÐ¾ÑĢÐ¼": 3499,
      "ungs": 3500,
      "Ġdumm": 3501,
      "renn": 3502,
      "urz": 3503,
      "urcht": 3504,
      "ĠlÃ¤": 3505,
      "Ġmachst": 3506,
      "iergumm": 3507,
      "Ġande": 3508,
      "Ġher": 3509,
      "ĠVogel": 3510,
      "ĠJul": 3511,
      "ĠÐ±ÑĥÐ»Ð¾": 3512,
      "ĠObst": 3513,
      "Ð°Ð½ÑĤ": 3514,
      "ĠÐ·Ð½Ð°ÑħÑĸÐ´Ð½Ð¾Ð³Ð¾": 3515,
      "Ġunten": 3516,
      "rÃ¤umen": 3517,
      "isst": 3518,
      "Ð¾ÑĢÑıÐ´Ð¾Ðº": 3519,
      "ĠÐ¿ÐµÑĢÑĦÐµÐºÑĤÐ½Ð¾Ð¼Ñĥ": 3520,
      "ult": 3521,
      "ĠÑģÐµÑĢÐµÐ´Ð½ÑĮÐ¾Ð¼Ñĥ": 3522,
      "peich": 3523,
      "Ġput": 3524,
      "ĠÐ¿Ð¾Ð¼Ð¸Ð»ÐºÐ°": 3525,
      "Ġwarm": 3526,
      "ĠÐºÐ¾Ð»ÑĮÐ¾ÑĢ": 3527,
      "suchen": 3528,
      "ĠAnruf": 3529,
      "sprechen": 3530,
      "ĠHerbst": 3531,
      "Ã¤ll": 3532,
      "Ġbesuchen": 3533,
      "ĠÐ·Ð°Ð¼ÑĸÐ½": 3534,
      "Ġjog": 3535,
      "Ġkochen": 3536,
      "holt": 3537,
      "ĠÐºÐ¾Ð¼Ð°Ð½Ð´Ð¸": 3538,
      "Ã¼hm": 3539,
      "Ġsitze": 3540,
      "ĠRadiergumm": 3541,
      "Ã¼tze": 3542,
      "Ġentschei": 3543,
      "schreiben": 3544,
      "Ġlerne": 3545,
      "ĠÐ¿Ð¸ÑĤÐ°Ð»ÑĮÐ½Ðµ": 3546,
      "scheidung": 3547,
      "ĠÑĢÐµÑĦÐ»ÐµÐºÑģÐ¸Ð²Ð½Ð¸Ð¼": 3548,
      "ĠnÃ¤chste": 3549,
      "Ġaufgeregt": 3550,
      "ĠÐ¼Ð¾Ð¶Ð»Ð¸Ð²Ð¾ÑģÑĤÑĸ": 3551,
      "ĠHausaufgaben": 3552,
      "Ġorange": 3553,
      "Ġgekocht": 3554,
      "Ġwerden": 3555,
      "Ġkenne": 3556,
      "lernen": 3557,
      "ĠÐ³ÑĢÐ¾ÑĪÑĸ": 3558,
      "Ġlangweilig": 3559,
      "ĠTastatur": 3560,
      "Ġsetze": 3561,
      "schlieÃŁen": 3562,
      "Ġscheint": 3563,
      "ĠÐ¿ÑĢÐ¸ÑĤÑıÐ¶": 3564,
      "ĠJuli": 3565,
      "Es": 3566,
      "Geh": 3567,
      "Lie": 3568,
      "Teil": 3569,
      "fÃ¤hrt": 3570,
      "hle": 3571,
      "junkt": 3572,
      "kten": 3573,
      "mÃ¶chten": 3574,
      "rag": 3575,
      "vester": 3576,
      "wischen": 3577,
      "·Ð²Ð¸ÑĩÐ°Ð¹": 3578,
      "ÐµÐ¶": 3579,
      "ÑĸÑģÑĤ": 3580,
      "ĠÐŁÐ¾ÑĢÑıÐ´Ð¾Ðº": 3581,
      "ĠÐ¿Ð»": 3582,
      "Ð²Ñĸ": 3583,
      "uni": 3584,
      "Ð´Ð¶": 3585,
      "eige": 3586,
      "Ġgegen": 3587,
      "ĠÐ¿ÑĢÐ°ÑĨ": 3588,
      "ĠSe": 3589,
      "ĠSil": 3590,
      "ĠÑģÑĤÐ¾Ñģ": 3591,
      "Ġwind": 3592,
      "ĠÑĩÐµÑĢ": 3593,
      "ĠÐ·Ð°Ð·Ð²Ð¸ÑĩÐ°Ð¹": 3594,
      "ĠMÃ¼tze": 3595,
      "ÑĨÑĸÑı": 3596,
      "legen": 3597,
      "ĠÑĦÑĸÐ»": 3598,
      "Ġfro": 3599,
      "Ġfahre": 3600,
      "Ġviele": 3601,
      "ĠÐĴÑĸÐ½": 3602,
      "ĠÑģÐµÑĢ": 3603,
      "ĠStunden": 3604,
      "ĠRes": 3605,
      "Ġbefindet": 3606,
      "amen": 3607,
      "ierst": 3608,
      "Ġhilft": 3609,
      "ffnung": 3610,
      "ĠVater": 3611,
      "meiner": 3612,
      "ĠJuni": 3613,
      "Ġverkauft": 3614,
      "eits": 3615,
      "ĠÐ¿ÑĢÐ¸ÐºÐ¼ÐµÑĤÐ½Ð¸ÐºÐ°Ð¼Ð¸": 3616,
      "ĠÑĦÐ¾ÑĢÐ¼ÑĥÐ»Ñİ": 3617,
      "Ã¤ngt": 3618,
      "Ġinteressan": 3619,
      "ĠÑģÐ¿Ð¾ÑĩÐ°ÑĤÐºÑĥ": 3620,
      "pekt": 3621,
      "Ġschwer": 3622,
      "Ġruft": 3623,
      "ĠÐ¼Ð¾Ð¶Ðµ": 3624,
      "ĠÑĢÐ¾Ð·Ð´ÑĸÐ»ÑĮÐ½Ð¸Ð¼": 3625,
      "ĠÐ¢Ð¸": 3626,
      "Ð½ÑıÑĤ": 3627,
      "Ð°ÑĩÐ°ÑĶ": 3628,
      "ĠÐ¼Ð¾Ð´Ð°Ð»ÑĮÐ½Ð¾Ð³Ð¾": 3629,
      "ĠÐºÑĥÐ´Ð¸": 3630,
      "ĠGras": 3631,
      "ĠÐ·Ð²ÐµÑĢÑĤ": 3632,
      "stellen": 3633,
      "ĠÑģÐ¿Ð¾ÑģÐ¾Ð±Ñĸ": 3634,
      "ĠÐºÐ¾Ð½ÑģÑĤÑĢÑĥÐºÑĨÑĸÑı": 3635,
      "ĠÐ¼Ð¾Ð¶Ð»Ð¸Ð²ÑĸÑģÑĤÑĮ": 3636,
      "ĠberÃ¼hm": 3637,
      "ĠÑģÑĤÑĢÑĥÐºÑĤÑĥÑĢÐ°": 3638,
      "ĠÐŀÐ±": 3639,
      "bringen": 3640,
      "Vorgestern": 3641,
      "fahrung": 3642,
      "ĠWerkstatt": 3643,
      "ĠLieblings": 3644,
      "Ã¤ngstlich": 3645,
      "ĠÐ¿Ð¾ÑĤÑĸÐ¼": 3646,
      "odalverben": 3647,
      "ĠRadiergummi": 3648,
      "junktiv": 3649,
      "ĠSilvester": 3650,
      "AT": 3651,
      "Hund": 3652,
      "Kon": 3653,
      "RT": 3654,
      "bin": 3655,
      "dlich": 3656,
      "hig": 3657,
      "na": 3658,
      "uk": 3659,
      "ummer": 3660,
      "wÃ¶": 3661,
      "zung": 3662,
      "zlich": 3663,
      "zdem": 3664,
      "zember": 3665,
      "Ġ4": 3666,
      "Ġ6": 3667,
      "Ġ7": 3668,
      "Ġacht": 3669,
      "ĠÐĨ": 3670,
      "ĠÐł": 3671,
      "Ġdi": 3672,
      "Ġdun": 3673,
      "ÑĩÐ°": 3674,
      "Ð¸ÐºÑĥ": 3675,
      "assen": 3676,
      "ĠÐ·Ñĸ": 3677,
      "ĠÐ·Ð»": 3678,
      "Ð²ÑĸÐ´": 3679,
      "eide": 3680,
      "Ġgearbeitet": 3681,
      "ĠÐ¿ÑĢÐ¸Ð¹": 3682,
      "Ġwann": 3683,
      "aufs": 3684,
      "Ġhast": 3685,
      "ĠFreit": 3686,
      "Ġnominativ": 3687,
      "under": 3688,
      "ĠÐ·Ð°Ð±": 3689,
      "Ġkon": 3690,
      "ĠÐ½ÐµÐ¾Ð·Ð½Ð°Ñĩ": 3691,
      "elativ": 3692,
      "ĠWarum": 3693,
      "Ġ(-": 3694,
      "alsatz": 3695,
      "ÃŁt": 3696,
      "ĠGer": 3697,
      "Ġfunktioniert": 3698,
      "Ġfurcht": 3699,
      "ders": 3700,
      "ĠÐĴÐ¾Ð½Ð°": 3701,
      "ĠÐ±Ð°Ð³Ð°ÑĤ": 3702,
      "unglÃ¼cklich": 3703,
      "ĠSchla": 3704,
      "ĠschÃ¶ner": 3705,
      "Ð¿ÑĢÐ°Ð²": 3706,
      "Ð°Ð¶Ð»Ð¸Ð²": 3707,
      "Ġtan": 3708,
      "ompar": 3709,
      "otograf": 3710,
      "Ġstehen": 3711,
      "eller": 3712,
      "rink": 3713,
      "Ġunwichtig": 3714,
      "ĠÐ¿ÐµÑĢÑĪÑĸÐ¹": 3715,
      "ĠErfahrung": 3716,
      "ĠÐ·Ð¼ÑĸÐ½Ñĥ": 3717,
      "ĠÐ·Ð¼ÑĸÐ½ÑİÐ²Ð°ÑĤÐ¸": 3718,
      "ĠParkplatz": 3719,
      "ÐµÐ¼Ð¾": 3720,
      "ĠGesprÃ¤": 3721,
      "rotzdem": 3722,
      "los": 3723,
      "ormal": 3724,
      "Ġpasst": 3725,
      "Ġsprechen": 3726,
      "ĠÐºÐ¾Ð¼Ð°": 3727,
      "ĠÐ¿Ð¾ÑĤÑĢÐµÐ±ÑĥÑİÑĤÑĮ": 3728,
      "ĠÐ³ÐµÐ½itiv": 3729,
      "halb": 3730,
      "ĠHoffnung": 3731,
      "hÃ¶rt": 3732,
      "etzte": 3733,
      "ankstelle": 3734,
      "ĠMÃ¤rz": 3735,
      "ĠÐ°ÑĢÑĤÐ¸ÐºÐ»Ñĸ": 3736,
      "rieben": 3737,
      "ĠAdjekt": 3738,
      "Ġgetrunken": 3739,
      "ĠMenschen": 3740,
      "ĠÑģÐºÐ»Ð°Ð´": 3741,
      "ĠÐ²Ð¶Ð¸Ð²Ð°ÑĶÐ¼Ð¾": 3742,
      "Ġeuch": 3743,
      "ÑģÑĮÐºÐ¸Ð¹": 3744,
      "Ġerinnere": 3745,
      "groÃŁe": 3746,
      "ĠEntscheidung": 3747,
      "ĠÐ²Ð¸ÑģÑĤÐ°ÑĩÐ°ÑĶ": 3748,
      "gÃ¤nzen": 3749,
      "ĠFreitag": 3750,
      "ĠSchlaf": 3751,
      "23": 3752,
      "29": 3753,
      "Buch": 3754,
      "Fahr": 3755,
      "Warum": 3756,
      "ack": 3757,
      "bild": 3758,
      "cann": 3759,
      "fÃ¼r": 3760,
      "fragen": 3761,
      "ix": 3762,
      "lant": 3763,
      "mir": 3764,
      "muss": 3765,
      "ogen": 3766,
      "oten": 3767,
      "wÃ¤": 3768,
      "âĹ": 3769,
      "Ġ9": 3770,
      "ĠrÃ¼": 3771,
      "ĠÃ¤ngstlich": 3772,
      "ĨĴ": 3773,
      "ÑģÐ¸ÑĤ": 3774,
      "Ð°Ð»Ð°": 3775,
      "Ð¸Ð·": 3776,
      "ÑĶÐ¼": 3777,
      "ĠÐ²Ð¸Ð³": 3778,
      "ĠÐ¿Ð¾Ð»": 3779,
      "inn": 3780,
      "Ð¸ÐºÐ°": 3781,
      "steht": 3782,
      "ÐºÐ¾": 3783,
      "ÐºÐ¾Ð²Ð¸Ð¹": 3784,
      "ĠÐ½Ð¸Ð¼": 3785,
      "Ġmo": 3786,
      "ĠÐ¾ÑĢ": 3787,
      "Ã¼hl": 3788,
      "ĠBein": 3789,
      "Ã¶ll": 3790,
      "schn": 3791,
      "Ġnerv": 3792,
      "ĠMeter": 3793,
      "ĠMÃ¶glichkeit": 3794,
      "ĠHil": 3795,
      "ĠKasse": 3796,
      "Ġkom": 3797,
      "Ã¤glich": 3798,
      "onat": 3799,
      "ĠÐºÐ¾ÑĢ": 3800,
      "ĠÐºÑĸÐ»ÑĮ": 3801,
      "ĠWann": 3802,
      "seur": 3803,
      "Ġvoll": 3804,
      "zufrieden": 3805,
      "ĠÐĴÐ¸": 3806,
      "ĠÑıÐºÐ¾ÑģÑĤÑĸ": 3807,
      "ĠÐ¾Ð±ÑģÑĤÐ°Ð²Ð¸Ð½Ð°": 3808,
      "ĠÐ¿ÑĸÐ´Ð¼ÐµÑĤÑĥ": 3809,
      "ĠÐ³ÑĢÑĥ": 3810,
      "weis": 3811,
      "ĠtrÃ¤": 3812,
      "ĠÐ·Ð°Ð¿ÐµÑĢÐµÑĩÐ¸ÑĤÐ¸": 3813,
      "ĠÐ¾Ð´Ð½Ð¸Ð½Ð¾Ñİ": 3814,
      "ĠerklÃ¤": 3815,
      "âĢľ,": 3816,
      "Ġkomment": 3817,
      "Ð°ÐºÑĥ": 3818,
      "ĠArtik": 3819,
      "Ġbleibt": 3820,
      "liegen": 3821,
      "Ġwarum": 3822,
      "ĠAnna": 3823,
      "Ġreserv": 3824,
      "Ġmagst": 3825,
      "Ġliebe": 3826,
      "ĠBÃ¼cher": 3827,
      "merzen": 3828,
      "ĠDezember": 3829,
      "ÑĥÐ´ÐµÐ½ÑĤ": 3830,
      "ĠÐŁÑĢÐ°Ð²Ð¸Ð»ÑĮÐ½Ð°": 3831,
      "Ġbraun": 3832,
      "ĠÐĿÐµ": 3833,
      "eltsam": 3834,
      "ĠÐ´Ð°ÑĤÐ¸Ð²Ñĸ": 3835,
      "ĠUnterschied": 3836,
      "Ġzweimal": 3837,
      "ÑĥÑģÐº": 3838,
      "ĠPassiv": 3839,
      "ĠfrÃ¼h": 3840,
      "ĠHausaufgabe": 3841,
      "ĠĠĠĠĠĠĠĠ": 3842,
      "Ð°ÑĨÑĸÑĹ": 3843,
      "flexive": 3844,
      "ĠÐ¿ÐµÑĢÐµÑħÑĸÐ´Ð½Ð¸Ð¼": 3845,
      "Ġallein": 3846,
      "ĠÐ²ÑĩÐ¸ÑĤÐµÐ»Ñİ": 3847,
      "ĠÐ°Ð²ÑĤ": 3848,
      "Ġbunt": 3849,
      "Ġnebenan": 3850,
      "ĠÐ´ÑĥÐ¶Ðµ": 3851,
      "Ð¾Ð±ÑħÑĸÐ´Ð½Ð¾": 3852,
      "Ġniedrig": 3853,
      "Ð½ÑĸÐ²ÐµÑĢ": 3854,
      "ĠWeihn": 3855,
      "ĠlÃ¤uft": 3856,
      "Ġwindig": 3857,
      "âĹı": 3858,
      "Ã¶llig": 3859,
      "18": 3860,
      "19": 3861,
      "Auf": 3862,
      "Gehe": 3863,
      "aÃŁ": 3864,
      "ede": 3865,
      "fÃ¼ll": 3866,
      "gern": 3867,
      "iss": 3868,
      "rigen": 3869,
      "tro": 3870,
      "ub": 3871,
      "uar": 3872,
      "udie": 3873,
      "ww": 3874,
      "zi": 3875,
      "ĠunglÃ¼cklich": 3876,
      "ÑĢÐ¸": 3877,
      "ÑĥÑĪ": 3878,
      "innen": 3879,
      "Ð¸ÐºÐ¸": 3880,
      "Ġihre": 3881,
      "ĠÐ·Ð½Ð°Ñĩ": 3882,
      "auer": 3883,
      "gebe": 3884,
      "Ġseit": 3885,
      "ĠÐ¼ÑĥÐ·": 3886,
      "Ġwan": 3887,
      "Ġwechs": 3888,
      "Ġweg": 3889,
      "Ġwenig": 3890,
      "ĠBilden": 3891,
      "ĠFolgen": 3892,
      "ĠFri": 3893,
      "ĠÐ½Ð°ÑıÐ²": 3894,
      "Ã¶ÃŁe": 3895,
      "ĠÐ¿Ð¾Ñģ": 3896,
      "ĠÑĩÐ¾Ð¼Ñĥ": 3897,
      "ĠÑĩÐ¸Ð¼Ð¾ÑģÑĮ": 3898,
      "gendw": 3899,
      "Ġnass": 3900,
      "ĠMacht": 3901,
      "ĠKann": 3902,
      "ĠKomm": 3903,
      "art": 3904,
      "Ġkurz": 3905,
      "ĠTankstelle": 3906,
      "ĠAl": 3907,
      "Ð¸Ð»Ð°": 3908,
      "leicht": 3909,
      "ĠÐºÐ¾Ð³Ð¾ÑģÑĮ": 3910,
      "Ġba": 3911,
      "ĠGeht": 3912,
      "uten": 3913,
      "ĠÐ²ÐºÐ°Ð·Ð°Ð½Ð½Ñı": 3914,
      "ÑĪÑĤ": 3915,
      "Ġbekannt": 3916,
      "Ġhei": 3917,
      "Ġhelfen": 3918,
      "rÃ¼ne": 3919,
      "rÃ¼fen": 3920,
      "Ð°Ð¼Ð°": 3921,
      "ruar": 3922,
      "ĠÐ¾ÑģÐ¾Ð±Ñĥ": 3923,
      "Ð¾Ð·ÑĥÐ¼": 3924,
      "reiben": 3925,
      "Ġkomme": 3926,
      "ĠunhÃ¶flich": 3927,
      "Ġoffen": 3928,
      "sucht": 3929,
      "Ġschwierig": 3930,
      "Ġ10": 3931,
      "ĠÑĢÐ¾Ð·Ð´ÑĸÐ»ÑĮÐ½Ð¸Ñħ": 3932,
      "ĠÐŁÑĢÐ°Ð²Ð¸Ð»ÑĮÐ½Ðµ": 3933,
      "Ġfinden": 3934,
      "Ġkleine": 3935,
      "Ð°ÑİÑĤÑĮÑģÑı": 3936,
      "ĠÑĸÐ½ÑĪÐµ": 3937,
      "ĠÐĿÐ°": 3938,
      "ĠÐ¿Ð¸ÑĤÐ°Ð»ÑĮÐ½Ð¸Ñħ": 3939,
      "Ġbenutzen": 3940,
      "ĠfrÃ¼hstÃ¼ck": 3941,
      "ĠÐºÐ¾Ð½ÐºÑĢÐµÑĤÐ½Ð¸Ð¹": 3942,
      "Ġrichtig": 3943,
      "Ġverwenden": 3944,
      "flexiv": 3945,
      "ÑĥÐ»ÑĮÑĤ": 3946,
      "ĠÐ¿Ð¾Ð±ÑĥÐ´": 3947,
      "ziehen": 3948,
      "Ã¼hrt": 3949,
      "ĠSchulter": 3950,
      "ebruar": 3951,
      "ĠÑĤÐ¸Ð¿Ñĥ": 3952,
      "Ġschreibe": 3953,
      "Ã¼nstlich": 3954,
      "ĠÐ¿ÑĢÐ¸ÑģÑĥÐ´Ð¾Ðº": 3955,
      "Ġsalzig": 3956,
      "ĠÐ²ÑĸÐ´ÑģÑĥÑĤÐ½ÑĸÑģÑĤÑĮ": 3957,
      "ĠÐ·Ð°Ð¼ÑĸÐ½Ð¸ÑĤÐ¸": 3958,
      "Ġjoggen": 3959,
      "schlieÃŁend": 3960,
      "ĠÑģÑĤÐ¾ÑģÑĥÑĶÑĤÑĮÑģÑı": 3961,
      "ĠGesprÃ¤ch": 3962,
      "ĠÐ³ÐµÐ½itive": 3963,
      "ÑģÐ¸ÑĤÐµÑĤ": 3964,
      "ĠArtikel": 3965,
      "Ð½ÑĸÐ²ÐµÑĢÑģÐ¸ÑĤÐµÑĤ": 3966,
      "ĠFriseur": 3967,
      "gendwo": 3968,
      "25": 3969,
      "Ar": 3970,
      "Auto": 3971,
      "Br": 3972,
      "Macht": 3973,
      "fix": 3974,
      "mÃ¶glich": 3975,
      "nah": 3976,
      "sel": 3977,
      "trin": 3978,
      "zogen": 3979,
      "Ġ................................": 3980,
      "Ġendet": 3981,
      "ÑĸÑģ": 3982,
      "Ð°ÑĦ": 3983,
      "Ġde": 3984,
      "Ġdeine": 3985,
      "ĠÐ²Ñģ": 3986,
      "ĠÐ²ÑĸÑĢ": 3987,
      "ÑĩÐ¸Ð¹": 3988,
      "ĠÐ¿Ð°ÑĢ": 3989,
      "ĠÐ´Ð°ÑĶÑĤÑĮÑģÑı": 3990,
      "interess": 3991,
      "ÑģÑĤÐ¸": 3992,
      "ÑģÑĤÑĢ": 3993,
      "Ġir": 3994,
      "ĠÐ·Ð±": 3995,
      "geht": 3996,
      "gemacht": 3997,
      "Ġseltsam": 3998,
      "Ð²ÑĸÑĤ": 3999,
      "anuar": 4000,
      "ĠÐ¼Ð¾ÑĢ": 4001,
      "eid": 4002,
      "Ġgest": 4003,
      "ĠÐ¿ÑĢÐ¸ÑģÑĤ": 4004,
      "ĠÐ¿ÑĢÐ¾Ð´": 4005,
      "ĠÑģÑĤÑĥÐ´ÐµÐ½ÑĤ": 4006,
      "Ð¸Ð²Ð°ÑĤÐ¸": 4007,
      "Ã¼b": 4008,
      "ĠFebruar": 4009,
      "ĠÐ½Ð°ÑĨÑĸ": 4010,
      "esse": 4011,
      "ĠâĢĶ": 4012,
      "itzen": 4013,
      "Ġnimmt": 4014,
      "Ġdenn": 4015,
      "arn": 4016,
      "ĠTeller": 4017,
      "Ð±ÑĥÑĤ": 4018,
      "ĠÐºÐ°ÑĢ": 4019,
      "Ġ('": 4020,
      "Ġweit": 4021,
      "Ġfolgen": 4022,
      "ĠLand": 4023,
      "ĠLinks": 4024,
      "ĠRelativ": 4025,
      "tert": 4026,
      "ĠÐ¿Ð¾Ð²ÑĤÐ¾ÑĢ": 4027,
      "ĠName": 4028,
      "ĠNummer": 4029,
      "ĠÐ³Ð¾Ð´": 4030,
      "Ġbeschw": 4031,
      "ĠHundes": 4032,
      "ierte": 4033,
      "ĠÐ·Ð°Ð¹Ð²": 4034,
      "Ġhin": 4035,
      "Ã¼rfen": 4036,
      "hne": 4037,
      "ÐºÐ°ÑĢ": 4038,
      "ĠÐ¡ÑĥÐ±": 4039,
      "rub": 4040,
      "ĠJanuar": 4041,
      "usst": 4042,
      "ĠÐ¿ÑĢÐ¾ÑģÑĤ": 4043,
      "ĠÐ½ÑĸÐ¼ÐµÑĨÑĮÐºÐ¾ÑĹ": 4044,
      "Ġabs": 4045,
      "ĠÑĸÐ½Ð²ÐµÑĢÑģÑĸÑİ": 4046,
      "ĠÐ¿ÐµÑĢÑĪÐµ": 4047,
      "ĠÐ·Ð°ÑĢ": 4048,
      "ĠErgÃ¤nzen": 4049,
      "sehe": 4050,
      "erseits": 4051,
      "ĠÐ¹ÑĤÐ¸": 4052,
      "ĠÐ»ÑĸÐº": 4053,
      "Ġschwarz": 4054,
      "stens": 4055,
      "ĠÑħÐ°ÑĢ": 4056,
      "ÑĢÐ°Ñī": 4057,
      "Ð°Ð¹Ð±ÑĥÑĤ": 4058,
      "Ã¶ffnet": 4059,
      "ĠÐ²Ð¾Ð½Ð°": 4060,
      "ĠÐ¼Ð¸Ð½ÑĥÐ»Ð¸Ð¹": 4061,
      "ĠÑĤÐ°ÐºÐ¾Ð¶": 4062,
      "ĠSpaÃŁ": 4063,
      "Ġkosten": 4064,
      "ĠNeben": 4065,
      "ĠÐ¶ÑĸÐ½Ð¾ÑĩÐ¾Ð¼Ñĥ": 4066,
      "ĠDeutschland": 4067,
      "Ãľber": 4068,
      "ĠÐ½Ð°ÐºÐ°Ð·Ñĥ": 4069,
      "ĠÑģÐ²ÑĸÑĤ": 4070,
      "ĠGrÃ¶ÃŁe": 4071,
      "lassen": 4072,
      "Ð¾Ð½Ð°Ð»ÑĮ": 4073,
      "stellt": 4074,
      "Ġbringt": 4075,
      "ĠâĨĴ": 4076,
      "ĠÐºÐ½Ð¸Ð³Ð¸": 4077,
      "Ġeck": 4078,
      "schule": 4079,
      "Ġrund": 4080,
      "baren": 4081,
      "kommt": 4082,
      "erstÃ¶": 4083,
      "Ġausgezeichnet": 4084,
      "ĠÐ¿ÐµÑĢÐµÑħÑĸÐ´Ð½Ðµ": 4085,
      "zahlen": 4086,
      "Ġziehe": 4087,
      "ĠdÃ¼nn": 4088,
      "ĠKnie": 4089,
      "Ġtraurig": 4090,
      "ĠÑģÑĦÐ¾ÑĢÐ¼ÑĥÐ»ÑĮ": 4091,
      "ĠRespekt": 4092,
      "ĠÑĦÐ¾ÑĢÐ¼ÑĥÐ»ÑİÑĶÑĤÑĮÑģÑı": 4093,
      "Ġdunkel": 4094,
      "ormalerweise": 4095,
      "bildung": 4096,
      "ĠnervÃ¶s": 4097,
      "Ġreserviere": 4098,
      "ĠWeihnachten": 4099,
      "Ġ................................................................": 4100,
      "ĠÐ½Ð°ÑĨÑĸÐ¾Ð½Ð°Ð»ÑĮ": 4101,
      ",-": 4102,
      "24": 4103,
      "Ber": 4104,
      "Frage": 4105,
      "Gib": 4106,
      "NÃ¤ch": 4107,
      "PrÃ¤": 4108,
      "brau": 4109,
      "bitte": 4110,
      "eich": 4111,
      "fort": 4112,
      "gan": 4113,
      "hm": 4114,
      "hoch": 4115,
      "mÃ¤": 4116,
      "mlich": 4117,
      "pen": 4118,
      "pro": 4119,
      "ptem": 4120,
      "rim": 4121,
      "raten": 4122,
      "tre": 4123,
      "Ðľ": 4124,
      "ĠrÃ¤ume": 4125,
      "ÐµÐ½Ð¾": 4126,
      "Ð½Ð½Ñı": 4127,
      "reche": 4128,
      "Ġdan": 4129,
      "Ġdann": 4130,
      "Ġdort": 4131,
      "ĠÐ²ÐµÑĩ": 4132,
      "ĠÐ´Ð¸Ð²": 4133,
      "ĠÐ´ÑĸÐ¹": 4134,
      "ÐºÐ¸Ð¹": 4135,
      "Ð¾ÑĢÐ¾Ð¶": 4136,
      "gesp": 4137,
      "bess": 4138,
      "beim": 4139,
      "begin": 4140,
      "Ð²ÑĸÐ·": 4141,
      "Ð»ÑıÐ´": 4142,
      "ĠÐ¼Ð°Ð³": 4143,
      "ĠÐ¼Ð°Ð¹Ð±ÑĥÑĤ": 4144,
      "Ġgep": 4145,
      "Ġwollen": 4146,
      "Ġwunder": 4147,
      "aufstehen": 4148,
      "ĠFrei": 4149,
      "ÑĹÑħ": 4150,
      "ĠÑĥÐ½ÑĸÐ²ÐµÑĢÑģÐ¸ÑĤÐµÑĤ": 4151,
      "Ð¿Ð»": 4152,
      "ĠHaupt": 4153,
      "ÑĨÑĸÑĹ": 4154,
      "ĠTerm": 4155,
      "ache": 4156,
      "Ð½Ð¸ÑĤÐ¸": 4157,
      "ĠWort": 4158,
      "Ġschief": 4159,
      "denten": 4160,
      "ĠÑĤÐ¾Ð±": 4161,
      "Ġgrau": 4162,
      "Ð¾Ð±ÑĢ": 4163,
      "ĠÐ±Ð¾": 4164,
      "Ġzufrieden": 4165,
      "igt": 4166,
      "tens": 4167,
      "ĠÐ½Ð°Ð¼": 4168,
      "rennen": 4169,
      "rennt": 4170,
      "ĠÐ¿Ð¾Ð²ÐµÑĢ": 4171,
      "Ġantik": 4172,
      "ĠÐ·Ð°Ð¹Ð¼ÐµÐ½Ð½Ð¸ÐºÐ¸": 4173,
      "ĠÐ°ÐºÑĥÐ·Ð°ÑĤÐ¸Ð²Ð½Ð¾Ð¼Ñĥ": 4174,
      "Ġtrotzdem": 4175,
      "ĠÐ½ÐµÐ²Ð¸Ð·Ð½Ð°ÑĩÐµÐ½Ð¸Ð¼": 4176,
      "ÑĸÐ»ÑĮÐ¼": 4177,
      "ÐºÐ¾Ð¼ÐµÐ½Ð´": 4178,
      "Ġverab": 4179,
      "ĠUm": 4180,
      "ĠÐ½Ð°Ð¿ÑĢÐ¸ÐºÐ»Ð°Ð´": 4181,
      "Ġunfreundlich": 4182,
      "Ġunzufrieden": 4183,
      "ĠÐ½ÐµÐ¿ÑĢÐ°Ð²Ð¸Ð»ÑĮÐ½Ðµ": 4184,
      "ĠÐĴÐ¸ÐºÐ¾ÑĢÐ¸ÑģÑĤÐ°Ð½Ð½Ñı": 4185,
      "Ã¤ndern": 4186,
      "ĠGeschm": 4187,
      "ĠÐ¿ÑĢÐ°Ð²Ð¸Ð»ÑĮÐ½Ð¾ÑĹ": 4188,
      "ĠÐľÐ¸": 4189,
      "Ġzwischen": 4190,
      "ĠÐ´Ð¾Ð´Ð°ÑĤÐºÐ¾Ð²": 4191,
      "ĠÐ·Ð²Ð¾ÑĢÐ¾ÑĤÐ½Ñĸ": 4192,
      "Ġgefeiert": 4193,
      "ÑīÐµÐ½Ð½Ñı": 4194,
      "ÑīÐ¾Ð¼Ñĥ": 4195,
      "ingap": 4196,
      "ĠÑħÐ¾ÑĤ": 4197,
      "Ġabholen": 4198,
      "Ġ18": 4199,
      "ational": 4200,
      "ÑĥÐ´ÑĮ": 4201,
      "Ġgeschlafen": 4202,
      "ĠPrÃ¤fix": 4203,
      "Ð°Ð»Ð¸": 4204,
      "ĠwÃ¤re": 4205,
      "formiere": 4206,
      "Ġ20": 4207,
      "Ġgesund": 4208,
      "ĠÑģÐºÐ¾ÑĢÐ¾": 4209,
      "ĠÐĹÐ°Ð¿Ð¸ÑĤÐ°Ð½Ð½Ñı": 4210,
      "Ã¶rter": 4211,
      "Ġbenutzt": 4212,
      "Ġverwendet": 4213,
      "Ġleise": 4214,
      "dire": 4215,
      "ĠÐ²Ð²ÑĸÑĩÐ»Ð¸Ð²Ð¾Ð³Ð¾": 4216,
      "ĠÐ²Ð»Ð°ÑģÐ½ÑĸÑģÑĤÑĮ": 4217,
      "ĠÐ³Ð¾Ð²Ð¾ÑĢÑıÑīÐ¾Ð¼Ñĥ": 4218,
      "ĠÐ»ÑİÐ±Ð»Ñİ": 4219,
      "wohnheit": 4220,
      "ĠÐ¿ÑĢÐ¾Ð¿Ð¾Ð·Ð¸": 4221,
      "ĠbegrÃ¼": 4222,
      "Ġspazieren": 4223,
      "wegen": 4224,
      "Ġsonnig": 4225,
      "ĠSeptem": 4226,
      "ĠberÃ¼hmt": 4227,
      "wÃ¶l": 4228,
      "Ġfurchtbar": 4229,
      "ĠÐ·Ð¼ÑĸÐ½ÑİÐ²Ð°ÑĤÐ¸ÑģÑı": 4230,
      "ĠSchlafzimmer": 4231,
      "ĠÐ°Ð²ÑĤÐ¾Ð¼": 4232,
      "fÃ¼llen": 4233,
      "ĠÑĩÐ¾Ð¼ÑĥÑģÑĮ": 4234,
      "ĠÐ¿ÑĢÐ¸ÑģÑĤÐ°Ð²": 4235,
      "ĠGeschmack": 4236,
      "ĠSeptember": 4237,
      "60": 4238,
      "Aus": 4239,
      "Bei": 4240,
      "Dat": 4241,
      "FrÃ¼": 4242,
      "Geld": 4243,
      "Kann": 4244,
      "cc": 4245,
      "drÃ¼": 4246,
      "eiere": 4247,
      "fÃ¼h": 4248,
      "gner": 4249,
      "gleich": 4250,
      "hung": 4251,
      "lag": 4252,
      "pÃ¼nktlich": 4253,
      "qu": 4254,
      "ure": 4255,
      "vember": 4256,
      "xt": 4257,
      "Ġordentlich": 4258,
      "Ð½ÑĶ": 4259,
      "Ð½ÐµÑĢ": 4260,
      "Ð¾ÑĤÐ¸": 4261,
      "ÐµÑĤÐ¸": 4262,
      "ÑģÑĥ": 4263,
      "Ð°ÑĤÑĮ": 4264,
      "org": 4265,
      "ĠÐ²Ð¸Ð±": 4266,
      "ÑģÐ»ÑĸÐ´": 4267,
      "ĠInfinitiv": 4268,
      "ĠÐ·Ð´": 4269,
      "ÑĸÑĶÑĹ": 4270,
      "ÑĸÑĶÑİ": 4271,
      "Ġsamm": 4272,
      "Ġscann": 4273,
      "Ġmei": 4274,
      "Ġmut": 4275,
      "ÑĸÐ´Ð¾Ð¼": 4276,
      "best": 4277,
      "Ð²Ð¸": 4278,
      "Ð²Ð°Ð¶": 4279,
      "ander": 4280,
      "eiten": 4281,
      "Ġgekommen": 4282,
      "ĠÐ°Ð´": 4283,
      "ĠÐ¿ÑĢÐ¾Ð²": 4284,
      "ĠÐ¿ÑĢÐ¸Ð±": 4285,
      "ÐµÑĢÐµ": 4286,
      "ĠSte": 4287,
      "Ġwahrscheinlich": 4288,
      "ĠÐ²Ð¸ÐºÐ¾ÑĢÐ¸ÑģÑĤÐ¾Ð²ÑĥÑİÑĤÑĮÑģÑı": 4289,
      "schul": 4290,
      "ichten": 4291,
      "Ð¿Ð¸": 4292,
      "ĠHeute": 4293,
      "Ġklet": 4294,
      "ĠkÃ¼nstlich": 4295,
      "Ã¤umt": 4296,
      "Ð¸Ð»ÑĮ": 4297,
      "onnen": 4298,
      "Ġ->": 4299,
      "learn": 4300,
      "ĠÐºÐ»": 4301,
      "ĠÑīÐµ": 4302,
      "alsch": 4303,
      "Ġbreit": 4304,
      "Ġaufre": 4305,
      "Ð¾Ð»ÑĮ": 4306,
      "Ġmeines": 4307,
      "Ġfern": 4308,
      "Ġflei": 4309,
      "ĠÑĤÐ¾": 4310,
      "ĠvÃ¶llig": 4311,
      "Ġgleich": 4312,
      "ĠÑıÐºÑĥ": 4313,
      "ĠÐ²ÐºÐ°Ð·ÑĥÑİÑĤÑĮ": 4314,
      "Ã¶chentlich": 4315,
      "ĠÑıÐºÑĸÐ¹": 4316,
      "annt": 4317,
      "ĠÐ²Ð¶Ð¸Ð²Ð°ÑİÑĤÑĮÑģÑı": 4318,
      "ĠEn": 4319,
      "ĠÑĸÐ¼ÐµÐ½Ð½Ð¸ÐºÑĥ": 4320,
      "ĠÐ¿Ð¾Ð²ÐµÑĢÑĤ": 4321,
      "ĠÐ³Ð¾ÑĤ": 4322,
      "ĠÐ³Ð°ÑĢ": 4323,
      "ĠbewÃ¶l": 4324,
      "Ġlaufen": 4325,
      "olut": 4326,
      "Ġtragen": 4327,
      "ĠÐ¾Ð´Ð½": 4328,
      "meinen": 4329,
      "ĠÐ²Ð¸Ð½ÑıÑĤ": 4330,
      "ĠÐ¡Ðµ": 4331,
      "imme": 4332,
      "Ġstehe": 4333,
      "Ġsteige": 4334,
      "Ġversp": 4335,
      "neu": 4336,
      "ĠÃ¼bermorgen": 4337,
      "kaufe": 4338,
      "ĠÐ¿Ð¾ÑĩÐ¸Ð½": 4339,
      "ĠÐ¿ÑĢÑıÐ¼Ð¸Ð¹": 4340,
      "geln": 4341,
      "arbeiten": 4342,
      "ĠÐ¹Ð´": 4343,
      "ĠÑĢÐ¾Ð·Ð´ÑĸÐ»Ðµ": 4344,
      "Ġgewaschen": 4345,
      "Ð»Ð°ÑģÑı": 4346,
      "Ġvorbe": 4347,
      "ĠStudenten": 4348,
      "ĠÐ¾Ð¿Ð¸ÑģÐ°ÑĤÐ¸": 4349,
      "Ã¤lte": 4350,
      "spielst": 4351,
      "Ġgelaufen": 4352,
      "geblich": 4353,
      "ĠÐŁÐ¾ÑĤÑĢÑĸÐ±Ð½Ð°": 4354,
      "ĠÐĴÐ¶Ð¸Ð²Ð°Ð½Ð½Ñı": 4355,
      "Ġgeschrieben": 4356,
      "ĠÑĩÐ¸ÑģÐ»Ñĥ": 4357,
      "ĠÐ³ÐµÐ½Ð¸ÑĤÐ¸Ð²Ñĸ": 4358,
      "ĠPrÃ¤position": 4359,
      "endungen": 4360,
      "Ġarbeitet": 4361,
      "Ð°ÑİÑĩÐ¸": 4362,
      "setzt": 4363,
      "ĠÐ¿Ð¸ÑĤÐ°Ð»ÑĮÐ½Ð¸Ð¼": 4364,
      "warten": 4365,
      "ĠÐ²ÑĸÐ´Ð±Ñĥ": 4366,
      "Ġbringen": 4367,
      "ĠÑĸÐ½ÑĦÐ¾ÑĢÐ¼": 4368,
      "ĠÑĢÐ¾Ð±Ð¾Ñĩ": 4369,
      "ĠNovember": 4370,
      "Ġfliegen": 4371,
      "Ġwieder": 4372,
      "zeichne": 4373,
      "useum": 4374,
      "ĠÐ¿Ð¾Ð³Ð¾Ð´": 4375,
      "Ð°Ð±ÐµÐ»ÑĮ": 4376,
      "Ã¼llt": 4377,
      "Ġgeradeaus": 4378,
      "Ġtrainieren": 4379,
      "ĠÑĤÐµÐ»ÐµÐ²ÑĸÐ·": 4380,
      "ĠÐ¿ÑĢÐ¸ÑĩÐ°ÑģÑĤ": 4381,
      "Manchmal": 4382,
      "Ð´ÑĸÐ»ÑĮÐ½Ñĸ": 4383,
      "Ġselten": 4384,
      "Ð¾Ð»Ð¾Ð³ÑĸÑĹ": 4385,
      "Ġtreffen": 4386,
      "ĠÐ³Ð¾Ð»Ð¾Ð²Ð½Ð¾Ð³Ð¾": 4387,
      "ĠÐ¯ÐºÑīÐ¾": 4388,
      "ĠÐ½Ð°Ð²Ñĩ": 4389,
      "ĠÑģÐ¿Ð¾Ð»ÑĥÑĩÐ½Ð¸ÐºÐ°": 4390,
      "Ġherunter": 4391,
      "ĠÐºÐ¾Ð»ÑĮÐ¾ÑĢÑĥ": 4392,
      "Ã¤llt": 4393,
      "ĠÑĩÐµÑĢÐµÐ·": 4394,
      "ĠÐ·Ð²ÐµÑĢÑĤÐ°Ð½Ð½Ñı": 4395,
      "ĠÐŀÐ±ÑģÑĤÐ°Ð²Ð¸": 4396,
      "ĠrÃ¼hren": 4397,
      "ĠHilfe": 4398,
      "flexivpronomen": 4399,
      "Arbeit": 4400,
      "Ġirgendwo": 4401,
      "ĠÐ¼Ð°Ð³Ð°Ð·": 4402,
      "ĠÑĤÐ¾Ð±ÑĤÐ¾": 4403,
      "ĠÑģÐºÐ¾ÑĢÐ¾ÑĩÐµÐ½Ð½Ñı": 4404,
      "schuld": 4405,
      "ĠfleiÃŁ": 4406,
      "').": 4407,
      "26": 4408,
      "27": 4409,
      "28": 4410,
      "CH": 4411,
      "Gr": 4412,
      "Ges": 4413,
      "Pl": 4414,
      "Sp": 4415,
      "TE": 4416,
      "aren": 4417,
      "bauen": 4418,
      "dir": 4419,
      "fro": 4420,
      "go": 4421,
      "gation": 4422,
      "hand": 4423,
      "pass": 4424,
      "tragen": 4425,
      "teil": 4426,
      "ugen": 4427,
      "vest": 4428,
      "ym": 4429,
      "Ġ.": 4430,
      "ĠÐĵ": 4431,
      "ÐµÑģÐ»": 4432,
      "ÑĸÑħ": 4433,
      "ÑıÐºÑĥ": 4434,
      "ÑĥÐ½": 4435,
      "regnet": 4436,
      "orn": 4437,
      "Ð»Ñĸ": 4438,
      "Ð¾Ð²Ð¾ÑĢ": 4439,
      "ĠÐ²Ð¿": 4440,
      "ĠÐ²ÐµÐ»": 4441,
      "ĠÐ²Ð°Ð¶Ð»Ð¸Ð²": 4442,
      "ÑĩÐ¾Ð¼Ñĥ": 4443,
      "ĠÐ¿Ð°ÑĢÑĤ": 4444,
      "ĠÐ´Ð¸ÑĢ": 4445,
      "ÑģÐ½Ð¸Ð¹": 4446,
      "ÑģÑĤÐ²Ð¾": 4447,
      "stei": 4448,
      "Ð¼Ð°": 4449,
      "ĠÑĢÑĸÐ·": 4450,
      "Ð¾ÑĢÐ°": 4451,
      "geord": 4452,
      "ĠÐ£ÐºÑĢÐ°ÑĹÐ½": 4453,
      "Ð²Ð¾Ñĩ": 4454,
      "Ġdies": 4455,
      "eiern": 4456,
      "Ð½Ð¾Ñģ": 4457,
      "Ġgeben": 4458,
      "ĠgehÃ¶rt": 4459,
      "ĠgeÃ¶ffnet": 4460,
      "ĠÐ¿ÑĢÐ¸Ð²": 4461,
      "ĠÐ¿ÑĢÐ¾Ð±": 4462,
      "Ð¾Ð²ÑĥÐ²Ð°ÑĤÐ¸": 4463,
      "Ð¾Ð´Ð°": 4464,
      "Ð¾Ð´Ð¸ÑĤÐ¸": 4465,
      "ĠwÃ¶chentlich": 4466,
      "ĠFin": 4467,
      "Ð¾Ð³Ð¾Ð´": 4468,
      "Ã¶hn": 4469,
      "ĠÑĥÐºÑĢÐ°ÑĹÐ½": 4470,
      "ĠÐ·Ð°Ð³": 4471,
      "ĠMeine": 4472,
      "ĠModalverben": 4473,
      "ĠMuseum": 4474,
      "ÐµÑĤÐµ": 4475,
      "ÐµÑĤÐ¸Ð²": 4476,
      "Ð¾ÑĹÐ¼": 4477,
      "arten": 4478,
      "ĠkÃ¼hl": 4479,
      "ĠÐ¿Ð¾ÑĤÑĢÑĸÐ±Ð½Ð°": 4480,
      "elch": 4481,
      "elma": 4482,
      "atzen": 4483,
      "leben": 4484,
      "ĠWelche": 4485,
      "ĠÑīÐ¾Ð´": 4486,
      "Ð¾Ð»Ñĸ": 4487,
      "ĠÑĦÑĸÐ»ÑĮÐ¼": 4488,
      "Ġfl": 4489,
      "Ġfotograf": 4490,
      "Ġfalsch": 4491,
      "ĠÐ¿ÐµÑĢÐµÐ¼": 4492,
      "ĠÑĸÐ¼ÐµÐ½Ñĸ": 4493,
      "ĠÑģÐ¿ÑĢ": 4494,
      "ĠÐ¿ÑĸÐ´ÐºÑĢ": 4495,
      "irma": 4496,
      "ischt": 4497,
      "ĠLicht": 4498,
      "ildet": 4499,
      "Ġbeson": 4500,
      "este": 4501,
      "ktiv": 4502,
      "olgt": 4503,
      "Ġhinter": 4504,
      "ĠheiÃŁt": 4505,
      "ĠtrÃ¤ume": 4506,
      "ĠÐ²Ð¸Ð½Ð½": 4507,
      "ĠÐ·Ð°Ð¿ÐµÑĢÐµÑĩÐµÐ½Ð½Ñĸ": 4508,
      "Ð²ÐµÑĢÐ´Ð¶": 4509,
      "ĠÑĸÐ½ÑĤÐµÑĢ": 4510,
      "otal": 4511,
      "ĠÐ¾ÑģÐ¾Ð±Ð¸ÑģÑĤ": 4512,
      "ĠÐ¾ÑģÐ¾Ð±Ð¾Ñİ": 4513,
      "Ġstau": 4514,
      "Ġstell": 4515,
      "Ġstudie": 4516,
      "Ð¾Ð·Ð¸ÑĤ": 4517,
      "ĠÐ±ÑĥÐ´Ð¸": 4518,
      "ringt": 4519,
      "Ð°ÐºÑĤÐµÑĢ": 4520,
      "Ġwirklich": 4521,
      "ĠâĢ¦:": 4522,
      "ĠÑĢÐ¾Ð·Ð¼": 4523,
      "ĠÐ·Ð°Ñģ": 4524,
      "ĠÑĩÐ°ÑģÑĤÐ¸Ð½": 4525,
      "neten": 4526,
      "ĠÐ¿ÑĢÐ°Ð²Ð¸Ð»ÑĮÐ½Ð¾Ñİ": 4527,
      "ĠReflexivpronomen": 4528,
      "ĠÐ´Ð¾Ð´Ð°ÑĤÐºÐ°": 4529,
      "Ġplan": 4530,
      "Ġgefallen": 4531,
      "ĠÐ¾Ð·Ð½Ð°ÑĩÐµÐ½Ð½Ñı": 4532,
      "Ġregner": 4533,
      "ĠschwÃ¼l": 4534,
      "Ġliest": 4535,
      "Ġtrinkt": 4536,
      "ĠHandlung": 4537,
      "ĠGewohnheit": 4538,
      "finden": 4539,
      "ĠÐĴÐ¶Ð¸Ð²Ð°ÑĶÐ¼Ð¾": 4540,
      "ĠĠĠ": 4541,
      "ĠÐ¾ÑģÐ½Ð¾Ð²Ð½Ðµ": 4542,
      "ĠÐ³Ð¾Ð²Ð¾ÑĢÐ¸ÑĤÐ¸": 4543,
      "etztes": 4544,
      "ĠÑĤÐ°ÐºÐ¸Ð¼Ð¸": 4545,
      "ĠSprach": 4546,
      "Wasser": 4547,
      "erein": 4548,
      "ehlen": 4549,
      "ĠAusweis": 4550,
      "ĠÐºÑĥÑĢ": 4551,
      "Ġklug": 4552,
      "ĠÑĸÐ½ÑĪÐ¸Ð¹": 4553,
      "ĠWeg": 4554,
      "Ã¼tzlich": 4555,
      "ĠÐ¿Ð¾Ð´Ð¾ÑĢÐ¾Ð¶": 4556,
      "Ġlernt": 4557,
      "ĠÑĪÐº": 4558,
      "ĠÐ·ÑĢÐ¾Ð·ÑĥÐ¼": 4559,
      "ĠÐºÐ¾Ð¼Ð°Ð½Ð´Ñĸ": 4560,
      "Ġgesagt": 4561,
      "gefÃ¼llt": 4562,
      "Ġsofort": 4563,
      "ĠÑĹÐ¶": 4564,
      "ĠVorgestern": 4565,
      "ĠÐºÐ¾Ð½ÑģÑĤÑĢÑĥÐºÑĨÑĸÑİ": 4566,
      "ĠÐºÐ¾Ð½ÐºÑĢÐµÑĤÐ½Ð¾Ð³Ð¾": 4567,
      "ĠÐ¿Ð¾Ð³Ð¾Ð´Ð¶": 4568,
      "Ġgutes": 4569,
      "ĠÐ´ÑĥÐ¼ÐºÑĥ": 4570,
      "Ġangekommen": 4571,
      "ĠÑĤÐµÐ»ÐµÑĦ": 4572,
      "ĠwÃ¼rde": 4573,
      "Ġlustig": 4574,
      "Ġselbst": 4575,
      "ÑĶÐ´Ð½Ñĥ": 4576,
      "Ġmieten": 4577,
      "Ġputze": 4578,
      "ĠÑģÐºÐ»Ð°Ð´Ð°ÑĶÑĤÑĮÑģÑı": 4579,
      "wÃ¤scht": 4580,
      "ĠtrÃ¤gt": 4581,
      "rubben": 4582,
      "Ġabsolut": 4583,
      "ĠÑħÐ°ÑĢÐ°ÐºÑĤÐµÑĢ": 4584,
      "ĠNebensatz": 4585,
      "Ġ................................................................................": 4586,
      "mÃ¤ÃŁ": 4587,
      "ĠTermin": 4588,
      "ingapps": 4589,
      "learningapps": 4590,
      "ĠÐ¾Ð´Ð½ÑĸÑĶÑĹ": 4591,
      "ĠÐ¿ÑĢÐ¸ÑĩÐ°ÑģÑĤÑıÐ¼": 4592,
      "ĠÐŀÐ±ÑģÑĤÐ°Ð²Ð¸Ð½Ð°": 4593,
      "ĠÐ¼Ð°Ð³Ð°Ð·Ð¸Ð½": 4594,
      "vestor": 4595,
      "geordneten": 4596,
      "ĠÐ¿ÑĸÐ´ÐºÑĢÐµÑģÐ»": 4597,
      "Ġbesonders": 4598,
      "20": 4599,
      "21": 4600,
      "47": 4601,
      "88": 4602,
      "Bes": 4603,
      "Hand": 4604,
      "IL": 4605,
      "Komm": 4606,
      "Letzte": 4607,
      "Mit": 4608,
      "Mach": 4609,
      "Meine": 4610,
      "NG": 4611,
      "Pf": 4612,
      "RA": 4613,
      "Spiel": 4614,
      "SCH": 4615,
      "Um": 4616,
      "UNG": 4617,
      "ahl": 4618,
      "acken": 4619,
      "fr": 4620,
      "fangen": 4621,
      "hÃ¤lt": 4622,
      "ic": 4623,
      "ibst": 4624,
      "jug": 4625,
      "kst": 4626,
      "lativ": 4627,
      "men": 4628,
      "man": 4629,
      "mpf": 4630,
      "nst": 4631,
      "sicht": 4632,
      "sÃ¤tze": 4633,
      "wollen": 4634,
      "©Ð¾": 4635,
      "Ġricht": 4636,
      "Ġek": 4637,
      "Ð½Ð¾Ð¼": 4638,
      "Ð½ÐµÑĤ": 4639,
      "ÐµÐ½Ð°": 4640,
      "ÑıÐ³": 4641,
      "Ð°Ð½Ð°": 4642,
      "Ð°Ð½Ð¸Ð¹": 4643,
      "Ð¾Ð¹": 4644,
      "ÑĢÐ¾": 4645,
      "ÑĢÐ°Ð´": 4646,
      "ÑĥÑĤÐ¸": 4647,
      "ret": 4648,
      "orale": 4649,
      "Ġdicht": 4650,
      "Ð¾Ð²ÑĸÐº": 4651,
      "ĠÐ²Ð±": 4652,
      "ĠÐ²Ð°ÑĢÑĸ": 4653,
      "ĠÐ¿Ð¾Ð¿": 4654,
      "ĠÐ´Ð¾Ð¼": 4655,
      "ingen": 4656,
      "infinitiv": 4657,
      "iegen": 4658,
      "ieÃŁen": 4659,
      "stes": 4660,
      "Ð¼Ð°ÑĤÐ¸": 4661,
      "ÐºÑĸÐ²": 4662,
      "ÐºÑĸÑģÑĤÑĮ": 4663,
      "ĠInvestor": 4664,
      "ĠÐ½Ñĸ": 4665,
      "ĠÐ·Ð³": 4666,
      "auber": 4667,
      "get": 4668,
      "gehe": 4669,
      "Ġsage": 4670,
      "Ġsuche": 4671,
      "ĠmÃ¶glich": 4672,
      "beg": 4673,
      "bereit": 4674,
      "ÑĤÐ¸ÑģÑı": 4675,
      "unser": 4676,
      "ĠÐ¼Ð¾Ð²Ð¸": 4677,
      "ĠÐ¼ÐµÐ½Ðµ": 4678,
      "eiden": 4679,
      "Ð°Ð²Ð°": 4680,
      "Ð°Ð²Ð»ÐµÐ½Ð½Ñı": 4681,
      "Ġgewor": 4682,
      "ÐµÑĢÑĸ": 4683,
      "ÑĨÑĤ": 4684,
      "Ġwicht": 4685,
      "Ġweich": 4686,
      "ĠÐ¾Ñĩ": 4687,
      "ĠÐ¾Ðº": 4688,
      "ĠÐ¾Ñħ": 4689,
      "ĠÐ¾Ð²Ð¾Ñĩ": 4690,
      "ĠFirma": 4691,
      "ĠÑĩÐ¸ÑģÑĤ": 4692,
      "ĠDa": 4693,
      "schmerzen": 4694,
      "ĠnÃ¼tzlich": 4695,
      "ĠMit": 4696,
      "ĠMund": 4697,
      "ĠHut": 4698,
      "ĠHoch": 4699,
      "ĠKÃ¤lte": 4700,
      "arken": 4701,
      "Ð°ÑĤÐ°": 4702,
      "Ð°ÑĤÑĥ": 4703,
      "Ã¤d": 4704,
      "ĠÐ²ÑĸÐ´Ð¼ÑĸÐ½Ñİ": 4705,
      "ĠÐ²ÑĸÐ´Ð¼ÑĸÐ½Ð¸ÑĤÐ¸": 4706,
      "Ð±Ð¸": 4707,
      "ĠÑĨÑĸÐº": 4708,
      "aters": 4709,
      "ĠÐºÐ¾Ð³Ð¾": 4710,
      "ĠÐºÑĢÐ°Ñī": 4711,
      "ĠWahr": 4712,
      "Ġschl": 4713,
      "ĠGib": 4714,
      "see": 4715,
      "Ġfit": 4716,
      "Ġfeiere": 4717,
      "Ð³Ð°": 4718,
      "zug": 4719,
      "ĠgrÃ¼ne": 4720,
      "roffen": 4721,
      "deute": 4722,
      "deuten": 4723,
      "Ð¸ÑĤÑĤÑı": 4724,
      "ĠÐ±Ð°Ð½": 4725,
      "ĠÐ±Ð°Ñĩ": 4726,
      "ĠÐ±ÑĢÐ°ÑĤÐ¸": 4727,
      "ĠLeben": 4728,
      "ĠÐ´ÑĢÑĥÐ³Ð¾Ð³Ð¾": 4729,
      "ĠÐ´ÑĢÑĥÐ³ÑĸÐ¹": 4730,
      "ĠÐ·Ð°ÐºÑĸÐ½Ñĩ": 4731,
      "ĠNominativ": 4732,
      "ĠNamen": 4733,
      "Ġbestelle": 4734,
      "Ġlo": 4735,
      "ĠÐ¿ÑĢÐ¸Ð¹Ð¼ÐµÐ½Ð½Ð¸ÐºÐ¾Ð²Ð°": 4736,
      "weiz": 4737,
      "ĠhÃ¤ngt": 4738,
      "ÑĦÐµÑģ": 4739,
      "rauch": 4740,
      "lauben": 4741,
      "ĠÐ¿Ð¸ÑĤÐ°Ð½ÑĮ": 4742,
      "ÑĸÐ»ÑĮÑĪ": 4743,
      "Ġstatt": 4744,
      "ĠÐ±ÑĥÐ»Ð°": 4745,
      "Ġverb": 4746,
      "Ġacc": 4747,
      "ĠAutos": 4748,
      "reite": 4749,
      "Ð°Ð½Ð´": 4750,
      "ĠÐ·Ð½Ð°ÑħÑĸÐ´Ð½Ð¸Ð¹": 4751,
      "ĠÃ¼berall": 4752,
      "Ġkannst": 4753,
      "ĠÑĢÐ¾Ð·Ð¿": 4754,
      "ĠunmÃ¶glich": 4755,
      "ĠunpÃ¼nktlich": 4756,
      "ĠÐ½ÐµÐ¿ÑĢÐ°Ð²Ð¸Ð»ÑĮÐ½Ð°": 4757,
      "geld": 4758,
      "ĠÐ·Ð°Ñħ": 4759,
      "lage": 4760,
      "ĠÐ¿Ð¾ÐºÐ°Ð·ÑĥÑİÑĩÐ¸": 4761,
      "ĠÐ¿ÑĢÐ¸ÑģÐ²ÑĸÐ¹Ð½Ð¸Ð¼": 4762,
      "Ġsieben": 4763,
      "Ġschneide": 4764,
      "ĠÑģÐ¿ÑĸÐ²": 4765,
      "lieben": 4766,
      "liegt": 4767,
      "Ġperfekt": 4768,
      "Ġfreuen": 4769,
      "Ġgeflo": 4770,
      "Ð¼Ð¾ÑĶ": 4771,
      "ertig": 4772,
      "ĠÐ»Ð¸ÑģÑĤ": 4773,
      "ĠÐ¾Ð¿ÑĥÑģÐº": 4774,
      "ĠFlasche": 4775,
      "Ã¼len": 4776,
      "ĠÐ·Ð°Ð¿Ð¸ÑĤÐ°Ð½Ð½ÑıÐ¼": 4777,
      "Ð´ÐµÐ¹": 4778,
      "Ã¤hrst": 4779,
      "ÑĥÑĤÐ±": 4780,
      "ÑĥÑĤÑĤÑı": 4781,
      "ĠÑħÐ»": 4782,
      "ĠÑħÑĤÐ¾": 4783,
      "ĠÐĴÐ¶Ð¸Ð²Ð°ÑİÑĩÐ¸": 4784,
      "halt": 4785,
      "ĠÑĩÐ¸ÑģÐ»Ð°": 4786,
      "chts": 4787,
      "bstamm": 4788,
      "ĠÐ³ÐµÐ½Ð¸ÑĤÐ¸Ð²Ð½Ð¸Ð¹": 4789,
      "ĠÑĤÐ°ÐºÐ¸Ñħ": 4790,
      "ĠÐ²Ð¸ÐºÐ¾ÑĢÐ¸ÑģÑĤÐ°Ð½Ð½ÑıÐ¼": 4791,
      "endlich": 4792,
      "ĠÐ²Ð²Ð°Ð¶": 4793,
      "ĠÐĴÑĸÐ´Ð¾ÐºÑĢÐµÐ¼": 4794,
      "Schu": 4795,
      "Ġsitzen": 4796,
      "Ġkluge": 4797,
      "recher": 4798,
      "ĠÑĸÐ½ÑĪÐ¸Ð¼": 4799,
      "ĠÐĿÐ¾Ð¼ÑĸÐ½Ð°ÑĤÐ¸Ð²": 4800,
      "Ġentschuld": 4801,
      "Ð°ÑģÐºÐ°": 4802,
      "ĠÐ´Ð°ÑĤÐ¸Ð²Ñĥ": 4803,
      "hole": 4804,
      "ĠÐ´Ð°ÑĤÑĸÐ²Ð¾Ð¼": 4805,
      "stellung": 4806,
      "Ġgetroffen": 4807,
      "ĠÐ»ÑİÐ´ÐµÐ¹": 4808,
      "ÐµÑģÑĸ": 4809,
      "Ġsozi": 4810,
      "Ð¸ÑĢÐ°ÑĤÐ¸": 4811,
      "ĠÐºÐ¾Ð½ÑģÑĤÑĢÑĥÐºÑĨÑĸÑĹ": 4812,
      "ĠÐµÐº": 4813,
      "ĠÐµÐºÑģ": 4814,
      "Ġbenutze": 4815,
      "ĠÐļÐ¾Ð»Ð¸": 4816,
      "Ġbereits": 4817,
      "Ġsollte": 4818,
      "gewesen": 4819,
      "Einerseits": 4820,
      "ĠÑģÑĤÑĢÑĥÐºÑĤÑĥÑĢÑĥ": 4821,
      "Ġwohne": 4822,
      "Ġrenne": 4823,
      "Ġrennen": 4824,
      "Ġkennen": 4825,
      "ĠÐĽÐµÑģÑĸ": 4826,
      "ĠÐ³Ð¾Ð²Ð¾ÑĢÑıÑĩÐ¾Ð¼Ñĥ": 4827,
      "bieten": 4828,
      "dienen": 4829,
      "Ġtreffe": 4830,
      "ĠÐ²Ð¸ÑĢÐ°Ð·Ñĥ": 4831,
      "Ġsingen": 4832,
      "ĠÐ²ÑĸÐ´Ð¾ÐºÑĢÐµÐ¼Ð»ÑİÐ²Ð°Ð»ÑĮÐ½Ð¸Ð¼": 4833,
      "ĠÐ²ÑĸÐ´Ð¾ÐºÑĢÐµÐ¼Ð»ÑİÐ²Ð°Ð»ÑĮÐ½Ð¸Ñħ": 4834,
      "ĠÑĥÑĤÐ¾ÑĩÐ½ÐµÐ½Ð½Ñı": 4835,
      "ĠÑĥÑĤÐ¾ÑĩÐ½Ð¸ÑĤÐ¸": 4836,
      "ĠerzÃ¤hlt": 4837,
      "Ġletzte": 4838,
      "ulture": 4839,
      "Ġentscheiden": 4840,
      "ĠÑĦÑĸÐ»Ð¾Ð»Ð¾Ð³ÑĸÑĹ": 4841,
      "Ġfrostig": 4842,
      "Ġinteressanten": 4843,
      "ĠÐ½ÐµÐ¾Ð·Ð½Ð°ÑĩÐµÐ½Ð¸Ð¹": 4844,
      "ĠÐ±Ð°Ð³Ð°ÑĤÐ¾": 4845,
      "ĠAdjektiv": 4846,
      "Ġkomisch": 4847,
      "ĠÐ³ÑĢÑĥÐ¿Ð¸": 4848,
      "ĠÐ²ÑģÐµ": 4849,
      "Ġdennoch": 4850,
      "ĠÐ·Ð°Ð¹Ð²Ðµ": 4851,
      "Ġkostenlos": 4852,
      "Ġwunderbar": 4853,
      "ĠFreizeit": 4854,
      "Ġverabschie": 4855,
      "Ġaufregend": 4856,
      "ĠÐ¿Ð¾Ð²ÐµÑĢÑĤÐ°ÑĶÑĤÑĮÑģÑı": 4857,
      "ĠÐ²Ð¸Ð½ÑıÑĤÐºÐ¾Ð²Ð¸Ð¹": 4858,
      "ĠÑĤÐµÐ»ÐµÐ²ÑĸÐ·Ð¾ÑĢ": 4859,
      "TEIL": 4860,
      "ĠÐ£ÐºÑĢÐ°ÑĹÐ½ÐºÐ¸": 4861,
      "Ġregnerisch": 4862,
      "Ġekl": 4863,
      "deutet": 4864,
      "Ġaccusativ": 4865,
      "36": 4866,
      "40": 4867,
      "50": 4868,
      "96": 4869,
      "EF": 4870,
      "EM": 4871,
      "ERT": 4872,
      "FuÃŁ": 4873,
      "FÃ¤hrt": 4874,
      "Ge": 4875,
      "HEM": 4876,
      "IK": 4877,
      "Iss": 4878,
      "IEF": 4879,
      "Jede": 4880,
      "MM": 4881,
      "ORT": 4882,
      "Pro": 4883,
      "STEIL": 4884,
      "Tisch": 4885,
      "THEM": 4886,
      "Wenn": 4887,
      "Zu": 4888,
      "brechen": 4889,
      "dur": 4890,
      "dru": 4891,
      "eren": 4892,
      "eckt": 4893,
      "feste": 4894,
      "hÃ¤n": 4895,
      "ient": 4896,
      "junktion": 4897,
      "kut": 4898,
      "klin": 4899,
      "mie": 4900,
      "nehmt": 4901,
      "oss": 4902,
      "ochen": 4903,
      "osten": 4904,
      "rÃ¶": 4905,
      "so": 4906,
      "seln": 4907,
      "tlich": 4908,
      "welt": 4909,
      "wissen": 4910,
      "ĠÃ¼": 4911,
      "Ġeigen": 4912,
      "Ġendlich": 4913,
      "ÐµÑĨÑĸ": 4914,
      "ÑĤÐ°": 4915,
      "ÑĥÐ»Ñı": 4916,
      "Ð»ÐµÐ½Ñĸ": 4917,
      "Ġdru": 4918,
      "erlativ": 4919,
      "Ð¾Ð²Ð¸Ð¼": 4920,
      "Ð¾Ð²Ð°Ð½Ð¾": 4921,
      "ĠÐ²ÑģÑĤ": 4922,
      "ĠÐ²Ð·": 4923,
      "ĠÐ²ÑĸÐº": 4924,
      "ĠÐ¿Ð¾ÑıÑģÐ½ÐµÐ½Ð½Ñı": 4925,
      "ĠÐ¿Ð¾ÑĢ": 4926,
      "ĠÐ¿Ð¸Ñģ": 4927,
      "ĠÐ´Ð°ÑĤÐ¸": 4928,
      "inge": 4929,
      "inden": 4930,
      "iehen": 4931,
      "iehlt": 4932,
      "stÃ¼r": 4933,
      "stehe": 4934,
      "ĠÑĢÐ¾Ðº": 4935,
      "ĠÑĢÐ¾Ð»ÑĮ": 4936,
      "Ð¾ÑĢÐ¾ÑĪ": 4937,
      "gearbeitet": 4938,
      "Ġspeich": 4939,
      "Ġmal": 4940,
      "Ġmild": 4941,
      "ÑĸÐ½ÑĮ": 4942,
      "ĠÑĢÐµÑĩÐµÐ½ÑĮ": 4943,
      "ichtet": 4944,
      "unehmen": 4945,
      "ĠÐ¼ÑĸÐ½": 4946,
      "ĠÐ¼Ð°ÑĤ": 4947,
      "eite": 4948,
      "eile": 4949,
      "Ð°Ð²Ñĥ": 4950,
      "Ð°Ð²ÑģÑı": 4951,
      "Ġgesp": 4952,
      "ÐµÑĢÐ°": 4953,
      "ĠSing": 4954,
      "ĠSub": 4955,
      "Ġwissen": 4956,
      "Ã¼hlen": 4957,
      "ĠBÃ¼r": 4958,
      "ĠFall": 4959,
      "ĠFutter": 4960,
      "ĠÐ½Ð°ÑĢ": 4961,
      "ĠÐ½Ð°ÑĪ": 4962,
      "eshalb": 4963,
      "itter": 4964,
      "schr": 4965,
      "schlagen": 4966,
      "schlag": 4967,
      "Ġnehmen": 4968,
      "Ġnormalerweise": 4969,
      "ĠÑĥÐ²": 4970,
      "Ð¿Ð°ÑĢ": 4971,
      "ĠMar": 4972,
      "ĠMach": 4973,
      "ĠHa": 4974,
      "ÐµÑĤÐ°": 4975,
      "arke": 4976,
      "ĠTeil": 4977,
      "ĠTrink": 4978,
      "Ã¤u": 4979,
      "Ã¤hlt": 4980,
      "ĠAb": 4981,
      "ÑİÑĩÐ¸": 4982,
      "ĠÐ½ÐµÐ·": 4983,
      "ĠÐ½ÐµÐ¾Ð±ÑħÑĸÐ´Ð½Ð¾": 4984,
      "Ð¸Ð»Ð¸": 4985,
      "elcher": 4986,
      "one": 4987,
      "lefon": 4988,
      "ĠÐºÐ²": 4989,
      "ĠÐºÐ°Ð¼": 4990,
      "ĠÐºÐ¸Ð¼Ð¾ÑģÑĮ": 4991,
      "ĠÐºÐ°ÑĦ": 4992,
      "ĠWÃ¶rter": 4993,
      "ĠWendungen": 4994,
      "ĠWORT": 4995,
      "ĠPat": 4996,
      "Ġbald": 4997,
      "Ġschi": 4998,
      "Ð·Ð°": 4999,
      "Ð¾Ð»Ð¸Ð½": 5000,
      "ĠGlÃ¼ck": 5001,
      "ĠGRA": 5002,
      "ÑħÐ°Ð½Ð½Ñı": 5003,
      "Ġfrage": 5004,
      "Ġindire": 5005,
      "Ġgoo": 5006,
      "benut": 5007,
      "rock": 5008,
      "ÑĢÑĥÑĩ": 5009,
      "ĠÐĴÑĸÐ´Ð¼ÑĸÐ½": 5010,
      "ĠÑģÐ¾Ð½": 5011,
      "ĠÐ²ÐºÐ°Ð·ÑĥÐ²Ð°ÑĤÐ¸": 5012,
      "ĠÑıÐºÐ¾Ð¼Ñĥ": 5013,
      "ĠLeute": 5014,
      "ĠSchreiben": 5015,
      "ĠÐ´ÑĢÑĥÐ·": 5016,
      "ĠÐ¿ÑĸÐ´ÑĢÑıÐ´Ð½Ð¸Ñħ": 5017,
      "ĠÑĩÐ¾Ð»Ð¾Ð²ÑĸÐº": 5018,
      "ĠÐ·Ð°Ð¿ÑĢ": 5019,
      "piere": 5020,
      "licherweise": 5021,
      "Ð¿ÑĢÐ¾": 5022,
      "ĠÐ¿Ð¾Ð²ÑĸÐ´Ð¾Ð¼": 5023,
      "ĠNatur": 5024,
      "ĠlÃ¶": 5025,
      "ĠÐ¾ÑģÐ²ÑĸÑĤ": 5026,
      "Ġangeblich": 5027,
      "weitens": 5028,
      "ĠheiÃŁ": 5029,
      "ĠÐ°ÐºÑĥÐ·Ð°ÑĤÐ¸Ð²Ð½Ð¾Ð³Ð¾": 5030,
      "hnen": 5031,
      "Ġtrenn": 5032,
      "ĠÐ²ÑĸÐ´Ð´ÑĸÐ»ÑĮ": 5033,
      "raucht": 5034,
      "laubt": 5035,
      "ĠVERT": 5036,
      "ĠÐ²Ð¸ÑģÐ»Ð¾Ð²": 5037,
      "ĠÐ²Ð¸ÑĤÑĢ": 5038,
      "Ġerholt": 5039,
      "Ð¾Ð·Ð²": 5040,
      "ĠOb": 5041,
      "ĠÐ¿ÑĢÐ¾ÑĦÐµÑģ": 5042,
      "ĠÐ¿ÑĢÐ¾ÑħÐ°Ð½Ð½Ñı": 5043,
      "rinnen": 5044,
      "Ġverbess": 5045,
      "ĠÃ¼bergeordneten": 5046,
      "Ð¾Ð½Ð¾Ð¼": 5047,
      "ÑıÐ¼Ð¸": 5048,
      "ĠÐ´Ð¾ÑħÑĸÐ´": 5049,
      "ĠâĢ¦.": 5050,
      "Ġunser": 5051,
      "Ð¾ÑĤÐ¾": 5052,
      "ĠÑĦÐ¾ÑĢÐ¼ÑĥÐ²Ð°Ð½Ð½Ñı": 5053,
      "gelt": 5054,
      "ĠÑĩÐ°ÑģÑĤÐºÐ¸": 5055,
      "ĠÑĩÐ°ÑģÑĤÐ¸Ð½Ñĥ": 5056,
      "rÃ¤umt": 5057,
      "iskut": 5058,
      "ĠÐ´Ð¾Ð´Ð°ÑĤÐºÑĥ": 5059,
      "ĠÐ¿Ð¾ÐºÐ°Ð·Ñĥ": 5060,
      "Ġinteressiert": 5061,
      "Ġjede": 5062,
      "Ġsieht": 5063,
      "ĠÐ²ÑĸÐ´Ð¿ÑĥÑģÑĤ": 5064,
      "log": 5065,
      "ĠzerstÃ¶": 5066,
      "ĠÐ²ÑĸÐ´Ð¿Ð¾Ð²ÑĸÐ´Ñĸ": 5067,
      "ĠausgefÃ¼llt": 5068,
      "ĠÑģÐ¿Ð¾ÑĢÑĤ": 5069,
      "lieÃŁ": 5070,
      "lieren": 5071,
      "ĠÐ½Ð°Ð¿ÑĢÑıÐ¼ÐºÐ¾Ð¼": 5072,
      "Ð»Ð°ÑĪÑĤ": 5073,
      "ĠBerge": 5074,
      "Ġwarte": 5075,
      "Ġwarten": 5076,
      "ĠgefÃ¤llt": 5077,
      "ĠÐ¾Ð·Ð½Ð°ÑĩÐµÐ½Ð¸Ð¹": 5078,
      "ĠspÃ¤t": 5079,
      "Ġschwach": 5080,
      "Ġlieb": 5081,
      "Ã¼nsche": 5082,
      "Ð»Ð¸Ð²Ð¾": 5083,
      "ÑĢÐ°ÑĪ": 5084,
      "ĠGegen": 5085,
      "ĠÐ³ÐµÐ½ÐµÑĤÐ¸Ð²": 5086,
      "Ġteu": 5087,
      "Ġ12": 5088,
      "ĠÐ³Ð¾Ð²Ð¾ÑĢÐ¸ÑĤÑĮ": 5089,
      "ationen": 5090,
      "ĠÐ²Ð¾Ð½Ð¸": 5091,
      "lÃ¤uft": 5092,
      "ĠÑĤÐµÐ¿ÐµÑĢÑĸÑĪÐ½ÑĮÐ¾Ð³Ð¾": 5093,
      "ĠÐ¿ÐµÑĢÐµÐº": 5094,
      "ickt": 5095,
      "Ġkoche": 5096,
      "schwimmen": 5097,
      "ĠÐ¢ÑĢ": 5098,
      "ĠÐĴÑĸÐ´Ð¾ÐºÑĢÐµÐ¼Ð»ÑİÐ²Ð°Ð½Ðµ": 5099,
      "ĠÐĴÑĸÐ´Ð´ÑĸÐ»ÑĮÐ½Ñĸ": 5100,
      "ĠhÃ¶ren": 5101,
      "ĠwÃ¤hle": 5102,
      "Ð°ÐºÐºÑĥÐ·Ð°ÑĤÐ¸Ð²Ñĸ": 5103,
      "ĠFernsehen": 5104,
      "Ġsauer": 5105,
      "rechnet": 5106,
      "ĠKollegen": 5107,
      "ĠÑģÐ²ÑıÑĤ": 5108,
      "ĠÐĿÑĸ": 5109,
      "ĠÐ§Ð°Ñģ": 5110,
      "ĠÐ¿Ð¸ÑĤÐ°Ð»ÑĮÐ½Ð¾Ð³Ð¾": 5111,
      "ĠÐ´Ð°ÑĤÐ¸Ð²Ð½Ð¾Ð³Ð¾": 5112,
      "Ġschmeckt": 5113,
      "ĠBeantworten": 5114,
      "schÃ¶nen": 5115,
      "Ð°Ð²Ð»ÑıÑĤÐ¸": 5116,
      "ÑĥÑģÑĸÐ´": 5117,
      "ĠÑĢÐ¾Ð±Ð¸ÑĤÐ¸": 5118,
      "ĠÑĢÐ¾Ð±Ð¾ÑĤ": 5119,
      "gefunden": 5120,
      "ĠÑĹÑħ": 5121,
      "ÑģÑĮÐºÐ¾Ð³Ð¾": 5122,
      "Ġalle": 5123,
      "ĠÑģÑĤÐ°Ð²Ð»ÑıÑĤÑĮ": 5124,
      "ĠGeschichte": 5125,
      "ĠÐµÐ¼Ð¾": 5126,
      "Ġreparieren": 5127,
      "Ð°ÑĨÑĸÑİ": 5128,
      "Ġsollten": 5129,
      "ĠÐ¿ÑĢÐ°Ð²Ð¸Ð»ÑĮÐ½ÑĸÑĪÐµ": 5130,
      "komme": 5131,
      "ĠÐºÑĥÐ¿Ð¸ÑĤÐ¸": 5132,
      "Ġorgan": 5133,
      "Ġwerde": 5134,
      "bringt": 5135,
      "Ġleider": 5136,
      "dient": 5137,
      "ĠÃ¶ffne": 5138,
      "Ġtrainiere": 5139,
      "ÑĥÑģÑĤÑĢ": 5140,
      "Ġbestimmt": 5141,
      "Ġziemlich": 5142,
      "Ġangezogen": 5143,
      "kochen": 5144,
      "richtet": 5145,
      "ÑĨÐµÐ¿": 5146,
      "folg": 5147,
      "ĠText": 5148,
      "ĠÐ·Ð°Ð»ÐµÐ¶Ð½Ð¾": 5149,
      "ĠÐ¿ÑĢÐ¸ÑĤÑıÐ¶Ð°Ð»ÑĮÐ½Ð¸Ð¹": 5150,
      "Ġinteressantes": 5151,
      "ATZ": 5152,
      "ATIK": 5153,
      "ĠGerÃ¤t": 5154,
      "omparativ": 5155,
      "omparation": 5156,
      "Ġmodern": 5157,
      "ĠerklÃ¤rt": 5158,
      "troll": 5159,
      "ĠÐ·Ð½Ð°ÑĩÐµÐ½Ð½Ñĸ": 5160,
      "Ġwandern": 5161,
      "Ġwechsle": 5162,
      "ĠÐ½Ð°ÑıÐ²Ð½Ð¾ÑģÑĤÑĸ": 5163,
      "ĠÐ»ÑĸÐºÐ°ÑĢ": 5164,
      "Ãľbermorgen": 5165,
      "ĠÑģÑĦÐ¾ÑĢÐ¼ÑĥÐ»ÑĮÐ¾Ð²Ð°Ð½Ðµ": 5166,
      "ĠHauptsatz": 5167,
      "drÃ¼cken": 5168,
      "fÃ¼hren": 5169,
      "quem": 5170,
      "ĠbewÃ¶lkt": 5171,
      "ĠÐ¡ÐµÐ¿Ð°ÑĢ": 5172,
      "ĠÑĢÐ¾Ð·Ð´ÑĸÐ»ÐµÐ½Ðµ": 5173,
      "Ð½Ð¾ÑģÐ¸ÑĤÐ¸": 5174,
      "ĠÐ¿ÑĢÐ¾Ð±Ð»ÐµÐ¼": 5175,
      "Ð¾Ð³Ð¾Ð´Ð½Ñĸ": 5176,
      "ĠÑĥÐºÑĢÐ°ÑĹÐ½ÑģÑĮÐº": 5177,
      "ĠÑīÐ¾Ð´Ð¾": 5178,
      "Ġstaubsau": 5179,
      "SCHATZ": 5180,
      "UNGSTEIL": 5181,
      "ĠÐ²Ð°ÑĢÑĸÐ°Ð½ÑĤ": 5182,
      "Ġgeworden": 5183,
      "ĠWahrheit": 5184,
      "Ġgeflogen": 5185,
      "ĠÐĴÑĸÐ´Ð¾ÐºÑĢÐµÐ¼Ð»ÐµÐ½Ñĸ": 5186,
      "ĠÐĿÐ¾Ð¼ÑĸÐ½Ð°ÑĤÐ¸Ð²Ñĸ": 5187,
      "Ġaccusative": 5188,
      "IEFUNGSTEIL": 5189,
      "MMATIK": 5190,
      "THEMA": 5191,
      "ĠWORTSCHATZ": 5192,
      "ĠGRAMMATIK": 5193,
      "ĠVERTIEFUNGSTEIL": 5194,
      "ĠÐ¡ÐµÐ¿Ð°ÑĢÐ°Ð±ÐµÐ»ÑĮ": 5195,
      "37": 5196,
      "79": 5197,
      "Ab": 5198,
      "Apfel": 5199,
      "Bl": 5200,
      "Bald": 5201,
      "Co": 5202,
      "De": 5203,
      "Geb": 5204,
      "Jetzt": 5205,
      "Kauf": 5206,
      "Me": 5207,
      "Sal": 5208,
      "Zeit": 5209,
      "ahlen": 5210,
      "do": 5211,
      "dauer": 5212,
      "fallen": 5213,
      "gab": 5214,
      "gang": 5215,
      "grÃ¼n": 5216,
      "ia": 5217,
      "ire": 5218,
      "iÃŁ": 5219,
      "ja": 5220,
      "kra": 5221,
      "ler": 5222,
      "lle": 5223,
      "laufen": 5224,
      "mag": 5225,
      "per": 5226,
      "rst": 5227,
      "rige": 5228,
      "wommen": 5229,
      "wend": 5230,
      "ztes": 5231,
      "ÐĲ": 5232,
      "ÐĶ": 5233,
      "Ðŀ": 5234,
      "ÐŁ": 5235,
      "Ġzeichne": 5236,
      "ĠÐĩ": 5237,
      "ĠÐ©Ð¾": 5238,
      "Ð½ÑĤ": 5239,
      "Ð¾Ð½Ð¸": 5240,
      "Ð¾Ñħ": 5241,
      "Ð¸Ð½Ð¾Ñİ": 5242,
      "ÐµÑĤÑĢ": 5243,
      "ÐµÑĦ": 5244,
      "ÐµÐºÑĨÑĸ": 5245,
      "ÑĸÐ»Ð°": 5246,
      "ÑĸÑīÐµÐ½Ð½Ñı": 5247,
      "ÑıÐº": 5248,
      "Ð°ÑĢÑĥ": 5249,
      "ÑĢÐµÑģ": 5250,
      "ÑĥÐ¶": 5251,
      "ÑĥÐ³": 5252,
      "reg": 5253,
      "rem": 5254,
      "repar": 5255,
      "reflexive": 5256,
      "Ġdeinen": 5257,
      "Ġdrei": 5258,
      "ĠdÃ¼rfen": 5259,
      "ÑĮÐ¾Ð³Ð¾Ð´Ð½Ñĸ": 5260,
      "Ð¾Ð²Ð¾Ð³Ð¾": 5261,
      "ĠÐ²ÑĸÑĤ": 5262,
      "ĠÐ²Ð¸Ð´": 5263,
      "ĠÐ¿Ð¾Ð·Ð¸ÑĤ": 5264,
      "ĠÐ´Ð²Ð¾": 5265,
      "ĠÐ´ÐµÐ½ÑĮ": 5266,
      "inen": 5267,
      "ĠIhr": 5268,
      "ÑģÑĤÐ¾ÑĢ": 5269,
      "ÑģÑĤÐ°Ð½Ð½": 5270,
      "stit": 5271,
      "stand": 5272,
      "stimmen": 5273,
      "Ð¼Ñĸ": 5274,
      "asen": 5275,
      "ĠÑĢÐµÐ·": 5276,
      "ĠÑĢÐ°Ñħ": 5277,
      "Ð¾ÑĢÐ¾Ñĩ": 5278,
      "ĠÐ½Ð¾Ð²": 5279,
      "gegangen": 5280,
      "ÐµÑĩÐµÐ½Ð½Ñı": 5281,
      "Ġseinen": 5282,
      "Ġmische": 5283,
      "Ð²Ð¸Ð¹": 5284,
      "anach": 5285,
      "ĠÐ¼Ð¾Ð³": 5286,
      "ĠÐ¼Ð°Ñģ": 5287,
      "Ð´Ð¾": 5288,
      "Ð´ÐµÑĢ": 5289,
      "Ġgelegen": 5290,
      "ĠÐ¿ÑĢÐ¾Ð³": 5291,
      "ĠStel": 5292,
      "ĠSatzen": 5293,
      "âĢĺ": 5294,
      "Ð¾Ð´Ð¸Ñĩ": 5295,
      "ÑĨÐµÐ½ÑĤ": 5296,
      "ÑĨÐµÑĢÑĤ": 5297,
      "Ġwach": 5298,
      "ĠÐ¾ÑģÑĤÐ°Ð½Ð½": 5299,
      "Ã¼ro": 5300,
      "ĠBest": 5301,
      "ĠFÃ¤": 5302,
      "ĠÐ½Ð°ÑĥÐº": 5303,
      "itzt": 5304,
      "Ġeinsteigen": 5305,
      "ĠDann": 5306,
      "ÐºÑĥÑģ": 5307,
      "ÐºÑĥÐ»": 5308,
      "schlafen": 5309,
      "Ġnir": 5310,
      "ĠÐ·Ð°Ð´": 5311,
      "ÑĨÑĸÑİ": 5312,
      "Ġkal": 5313,
      "Ġkocht": 5314,
      "Ġkaum": 5315,
      "ĠTiere": 5316,
      "Ð±Ð»": 5317,
      "Ð±ÑĥÐ´ÑĮ": 5318,
      "ĠAuss": 5319,
      "ĠAktiv": 5320,
      "eldet": 5321,
      "ĠÑĨÑĸÐ½": 5322,
      "ĠÑĨÐ¸Ð¼": 5323,
      "legt": 5324,
      "ĠÐºÐ»Ñİ": 5325,
      "ĠPosition": 5326,
      "ĠPaul": 5327,
      "Ġbuche": 5328,
      "Ð½ÐµÑĨÑĮ": 5329,
      "ĠÑĦÑĸÑĢ": 5330,
      "ĠÑĦÑĥÑĤÐ±": 5331,
      "Ġfertig": 5332,
      "ĠÑĤÐ¸Ð¶": 5333,
      "ĠÑĤÐ¾Ð¹": 5334,
      "Ð³Ð¾Ð²Ð¾ÑĢ": 5335,
      "ÑĥÑĶÐ¼Ð¾": 5336,
      "Ġgl": 5337,
      "ernt": 5338,
      "Ð°Ð»ÑĮÐ½Ð°": 5339,
      "dere": 5340,
      "ĠÑģÐ°Ð´": 5341,
      "ĠÑģÑĥÑģÑĸÐ´": 5342,
      "ĠÐ²ÐºÐ°Ð·Ð°Ð½Ð¾": 5343,
      "irge": 5344,
      "ĠÑģÑĤÐ¾ÑıÐ»Ð¾": 5345,
      "ĠLe": 5346,
      "ĠLetzte": 5347,
      "ĠSchweiz": 5348,
      "ĠEl": 5349,
      "igung": 5350,
      "igkeit": 5351,
      "liche": 5352,
      "Ð¿ÑĢÐ¸": 5353,
      "ĠmÃ¶chtest": 5354,
      "ĠÐ³Ð¾ÑĢ": 5355,
      "Ġbesch": 5356,
      "Ġbedeutet": 5357,
      "Ġbekomme": 5358,
      "Ġbequem": 5359,
      "Ġlange": 5360,
      "zeugen": 5361,
      "isten": 5362,
      "kto": 5363,
      "ktion": 5364,
      "ĠÐ¿ÐµÑĢÐµÐ´Ð°ÑĶÑĤÑĮÑģÑı": 5365,
      "weiÃŁ": 5366,
      "Ð½ÑĥÑĤÐ¸": 5367,
      "ĠtÃ¤glich": 5368,
      "Ġtotal": 5369,
      "ĠÐ²ÑĸÐ´Ñĩ": 5370,
      "ĠÐ²ÑĸÐ´Ð½Ð¾": 5371,
      "ĠÐ²ÑĸÐ´ÐºÑĢ": 5372,
      "ĠÐ¾Ð´Ð¸Ð½": 5373,
      "ĠÐ¾Ð´ÑıÐ³": 5374,
      "ĠVaters": 5375,
      "meines": 5376,
      "ĠÐ´Ð¾Ð¿Ð¾Ð¼Ð¾Ð³": 5377,
      "ĠÐ´Ð¾Ð¿Ð¾Ð¼Ð°Ð³": 5378,
      "immst": 5379,
      "Ġersten": 5380,
      "ÑĸÐ»ÑĮÑĪÐµ": 5381,
      "ĠÐ¾ÑģÐ¾Ð±Ð°Ð¼Ð¸": 5382,
      "Ġstreiten": 5383,
      "ĠWohin": 5384,
      "ĠÑĢÐ¾Ð´Ð¾Ð²Ð¾Ð³Ð¾": 5385,
      "Ġleer": 5386,
      "ÑģÑĮÐºÐ°": 5387,
      "sens": 5388,
      "reibt": 5389,
      "adt": 5390,
      "Ð°Ð½Ñģ": 5391,
      "ĠÐ¿ÑĢÐ¸ÐºÐ¼ÐµÑĤÐ½Ð¸ÐºÐ¸": 5392,
      "Ð¾Ð½ÑĤ": 5393,
      "ĠÐ´Ð¾ÑĨÐµÐ½ÑĤ": 5394,
      "ĠâĢ¦,": 5395,
      "ĠÐĴÐ¸ÐºÐ¾ÑĢÐ¸ÑģÑĤÐ°Ð½Ð¾": 5396,
      "kennen": 5397,
      "gelmÃ¤ÃŁ": 5398,
      "ĠÐ·Ð°Ð¿Ð¸ÑĤÐ°ÑĤÐ¸": 5399,
      "ĠÑĩÐ°ÑģÑĤÐ¾": 5400,
      "rÃ¤ch": 5401,
      "ĠÐ¿Ð¾ÐºÑĥÐ¿": 5402,
      "ĠArztes": 5403,
      "ĠÐ¿ÐµÑĢÑĦÐµÐºÑĤÐ½Ð¾Ð³Ð¾": 5404,
      "Â»,": 5405,
      "Ġob": 5406,
      "abschieden": 5407,
      "ĠÑĥÐ·Ð³Ð¾Ð´Ð¶ÐµÐ½Ð½Ñı": 5408,
      "ĠÐľÐµÐ½Ñĸ": 5409,
      "ĠgroÃŁes": 5410,
      "Ġzahlen": 5411,
      "ĠÐ¾ÑĤÑĢÐ¸Ð¼ÑĥÐ²Ð°ÑĤÐ¸": 5412,
      "Ġgewar": 5413,
      "Ġausreich": 5414,
      "ĠausfÃ¼llen": 5415,
      "ĠÐ´Ð¾Ð´Ð°ÑĤÐ¾Ðº": 5416,
      "ĠÑģÐ¿ÐµÑĨÑĸ": 5417,
      "ĠÐ·Ð²Ð¾ÑĢÐ¾ÑĤÐ½Ð¸Ð¹": 5418,
      "ĠprÃ¼fen": 5419,
      "Ġprim": 5420,
      "Ð¾ÑĩÐ¸Ð½": 5421,
      "ĠÐºÐ¾Ð»ÑĸÑĢ": 5422,
      "suche": 5423,
      "Ġspricht": 5424,
      "Ġrech": 5425,
      "Ġrechts": 5426,
      "ĠÑģÑĤÐ°Ð²Ð¸ÑĤÑĮ": 5427,
      "ĠÐ±ÐµÐ·Ð¿": 5428,
      "sprach": 5429,
      "Ġliebt": 5430,
      "ĠÐ¾ÑģÐ½Ð¾Ð²Ñĥ": 5431,
      "Ġgelbe": 5432,
      "ĠÐĴÐ¶Ð¸ÑĤÐ¾": 5433,
      "Ġruhig": 5434,
      "ÑĢÐ°Ñħ": 5435,
      "Ð°Ð¹ÑĤÐµ": 5436,
      "ĠÐ²ÐºÐ°Ð·ÑĸÐ²ÑĨÑĸ": 5437,
      "ĠÐ·Ð°Ð¼Ð¾Ð²": 5438,
      "Ġgeschn": 5439,
      "Ġgeschwommen": 5440,
      "ĠKonjunktiv": 5441,
      "ĠÑģÐ°Ð¼Ð¸Ð¼": 5442,
      "ĠÑĤÐ°ÐºÑĸ": 5443,
      "ĠÐ¿ÐµÑĢÐµÐ±": 5444,
      "ĠÑĢÐµÐºÐ¾Ð¼ÐµÐ½Ð´": 5445,
      "ĠÐ³ÐµÐ½ÑĸÑĤÐ¸Ð²Ð½Ð¸Ð¹": 5446,
      "Schn": 5447,
      "Schw": 5448,
      "Ġgehackt": 5449,
      "Ð°ÑĩÐ°": 5450,
      "ĠKindes": 5451,
      "ĠAusstellung": 5452,
      "ÑıÐ·ÐºÐ¾Ð¼": 5453,
      "Ġarbeite": 5454,
      "ĠÑģÐ²Ð°ÑĢ": 5455,
      "Ġentschieden": 5456,
      "lÃ¼cklicherweise": 5457,
      "ostet": 5458,
      "Ġgetragen": 5459,
      "anziehen": 5460,
      "ĠGebÃ¤u": 5461,
      "Ġrote": 5462,
      "geschlossen": 5463,
      "geschlagen": 5464,
      "ĠÑĹÑĹ": 5465,
      "Ġmanchmal": 5466,
      "ĠHerrn": 5467,
      "Ġhole": 5468,
      "ĠÑĸÐ½ÑĦÑĸÐ½ÑĸÑĤÐ¸Ð²Ð¾Ð¼": 5469,
      "Einen": 5470,
      "bare": 5471,
      "Ð²Ð°Ð»Ð°": 5472,
      "Ġdurchgelesen": 5473,
      "AnschlieÃŁend": 5474,
      "ĠÐ´ÑĥÐ¼ÐºÐ¸": 5475,
      "ĠÑĢÐ°Ð´Ð¾ÑģÑĤÑĸ": 5476,
      "ĠfÃ¼hren": 5477,
      "Ġwohnen": 5478,
      "Ġwohnst": 5479,
      "ĠKochs": 5480,
      "ĠÑģÐ»ÑĸÐ´ÑĥÑĶ": 5481,
      "werden": 5482,
      "ĠÃ¶ffentlich": 5483,
      "fahrt": 5484,
      "Ġrauchen": 5485,
      "ĠWerkzeug": 5486,
      "ĠÑħÐ¾ÑĩÐµÑĤÐµ": 5487,
      "ĠÐ²Ð»Ð°ÑģÐ½Ð¾ÑģÑĤÑĸ": 5488,
      "Unten": 5489,
      "Unter": 5490,
      "Ġdavon": 5491,
      "Ã¤rm": 5492,
      "ĠÐ¼ÑĸÑģÑĤÐ¸ÑĤÑĮ": 5493,
      "gends": 5494,
      "Ġteilgenommen": 5495,
      "kleine": 5496,
      "folge": 5497,
      "Ġmiete": 5498,
      "Ġletzten": 5499,
      "Ġbasteln": 5500,
      "Ġanderen": 5501,
      "ĠÐłÐµÑĩÐµÐ½Ð½Ñı": 5502,
      "Ġdicke": 5503,
      "ĠÐ·Ð°Ð±Ð¾ÑĢÐ¾": 5504,
      "Ġkonjug": 5505,
      "ĠAdjektive": 5506,
      "ÑĶÐ¼Ñĥ": 5507,
      "Ġmoder": 5508,
      "ĠÐºÑĸÐ»ÑĮÐºÑĸÑģÑĤÑĮ": 5509,
      "Ð°ÐºÑĥÐ·Ð°ÑĤÐ¸Ð²": 5510,
      "ĠÐĿÐµÐ¾Ð±ÑħÑĸÐ´Ð½Ð¾": 5511,
      "www": 5512,
      "ĠÐ·Ð°ÑĢÐ¿Ð»": 5513,
      "Ġeckig": 5514,
      "ĠÐ½Ð°ÑĨÑĸÐ¾Ð½Ð°Ð»ÑĮÐ½Ð¾Ð³Ð¾": 5515,
      "hochschule": 5516,
      "gesprÃ¤ch": 5517,
      "ĠÐ¼Ð°Ð¹Ð±ÑĥÑĤÐ½": 5518,
      "ĠÑĥÐ½ÑĸÐ²ÐµÑĢÑģÐ¸ÑĤÐµÑĤÑĥ": 5519,
      "ĠÐ¿Ð¾Ð²ÐµÑĢÑħ": 5520,
      "ĠÐ´Ð¾Ð´Ð°ÑĤÐºÐ¾Ð²Ð¾Ð³Ð¾": 5521,
      "FrÃ¼her": 5522,
      "Ġmeistens": 5523,
      "Ġmutig": 5524,
      "ĠÐ°Ð´ÑĢÐµÑģ": 5525,
      "Ġwiederholen": 5526,
      "ĠÐ¿Ð¾Ð³Ð¾Ð´Ð¸": 5527,
      "ĠfleiÃŁig": 5528,
      "ĠÐ¿Ð°ÑĢÑĤÐ½ÐµÑĢ": 5529,
      "Ġdiesem": 5530,
      "ĠFinalsatz": 5531,
      "Ġflach": 5532,
      "ĠÐ±ÑĥÐ´Ð¸Ð½Ð¾Ðº": 5533,
      "Ġplanen": 5534,
      "ĠÐ·ÑĢÐ¾Ð·ÑĥÐ¼ÑĸÐ»": 5535,
      "hÃ¤ltnis": 5536,
      "ico": 5537,
      "ĠÐ²Ð±Ð¸Ð²": 5538,
      "ĠÐ²ÑĸÐ´Ð¼ÑĸÐ½ÑİÐ²Ð°Ð½Ð½Ñı": 5539,
      "ĠÐºÑĢÐ°ÑīÐµ": 5540,
      "Ġschlimm": 5541,
      "ĠÐ±Ð°ÑĩÑĥ": 5542,
      "Ð¼Ð¾ÑĶÑĹ": 5543,
      "ĠÐ¾Ð¿ÑĥÑģÐºÐ°ÑĶÑĤÑĮÑģÑı": 5544,
      "Schule": 5545,
      "Ġsozial": 5546,
      "Ġschicke": 5547,
      "Ġliebsten": 5548,
      "ĠÑĥÐºÑĢÐ°ÑĹÐ½ÑģÑĮÐºÑĸÐ¹": 5549,
      "dauerlicherweise": 5550,
      "ĠÐ´Ð²Ð¾Ñħ": 5551,
      "ĠSatzende": 5552,
      "ĠÑĦÑĥÑĤÐ±Ð¾Ð»": 5553,
      "Ġprima": 5554,
      "!!": 5555,
      "07": 5556,
      "34": 5557,
      "48": 5558,
      "Ad": 5559,
      "Ba": 5560,
      "Beispiel": 5561,
      "Bringt": 5562,
      "En": 5563,
      "Fach": 5564,
      "Flug": 5565,
      "Gie": 5566,
      "HÃ¶r": 5567,
      "Katze": 5568,
      "Letztes": 5569,
      "Nur": 5570,
      "Park": 5571,
      "Part": 5572,
      "Rad": 5573,
      "SB": 5574,
      "So": 5575,
      "Sup": 5576,
      "Zum": 5577,
      "__": 5578,
      "are": 5579,
      "bau": 5580,
      "bist": 5581,
      "dan": 5582,
      "dit": 5583,
      "dig": 5584,
      "dÃ¼rfen": 5585,
      "ften": 5586,
      "fall": 5587,
      "film": 5588,
      "feiern": 5589,
      "gers": 5590,
      "garten": 5591,
      "hem": 5592,
      "ii": 5593,
      "ium": 5594,
      "jahr": 5595,
      "keiten": 5596,
      "komparation": 5597,
      "licht": 5598,
      "met": 5599,
      "modalverben": 5600,
      "monat": 5601,
      "nie": 5602,
      "nein": 5603,
      "ohne": 5604,
      "pÃ¤": 5605,
      "piert": 5606,
      "perfekt": 5607,
      "punkt": 5608,
      "porale": 5609,
      "richte": 5610,
      "sei": 5611,
      "sal": 5612,
      "smittel": 5613,
      "twor": 5614,
      "trenn": 5615,
      "wÃ¼r": 5616,
      "weg": 5617,
      "zten": 5618,
      "¥ÑĤÐ¾": 5619,
      "Ðļ": 5620,
      "ÐĿ": 5621,
      "Ġ:": 5622,
      "Ġ=": 5623,
      "Ġc": 5624,
      "Ġen": 5625,
      "Ð½Ñİ": 5626,
      "Ð¸Ð½Ð½": 5627,
      "Ð¸ÑĪ": 5628,
      "Ð¸Ð½Ñĸ": 5629,
      "Ð°Ð½Ñĸ": 5630,
      "ÑĢÐµ": 5631,
      "ÑĢÐ½Ð¸Ð¹": 5632,
      "ÑĢÑĸÐ²": 5633,
      "ÑĢÐ¾Ð¿": 5634,
      "ÑĢÐ¾Ð·": 5635,
      "ÑĥÐ½Ð¾Ðº": 5636,
      "rein": 5637,
      "ress": 5638,
      "recht": 5639,
      "Ġdek": 5640,
      "Ġdrinnen": 5641,
      "erung": 5642,
      "ÑĶÐ¼Ð¾": 5643,
      "Ð¾Ð²ÑĤ": 5644,
      "Ð¾Ð²ÐºÐ°": 5645,
      "ĠÐ²Ð¼": 5646,
      "ĠÐ²Ðº": 5647,
      "ĠÐ²Ð¸Ð²": 5648,
      "ĠÐ²ÑĸÐ»ÑĮ": 5649,
      "ĠÐ²Ð°ÑĢÑĤ": 5650,
      "ĠÐ¿Ð»Ð°": 5651,
      "ĠÐ¿ÑĸÑĪ": 5652,
      "ĠÐ´ÐµÑĢ": 5653,
      "inder": 5654,
      "ingt": 5655,
      "ĠIhre": 5656,
      "ieder": 5657,
      "stru": 5658,
      "stalt": 5659,
      "Ð¼Ð¸": 5660,
      "Ð¼Ðµ": 5661,
      "Ð¼ÑĸÐ½": 5662,
      "Ð¼ÑĸÐ¹": 5663,
      "ÐºÐ¾Ð²Ñĸ": 5664,
      "ÐºÐ¾Ð²Ð¾": 5665,
      "ÐºÐ¾Ð²Ð°": 5666,
      "ÑģÐ»ÑĥÐ³": 5667,
      "ĠÑĢÐ¸Ð½": 5668,
      "Ġihm": 5669,
      "Ð¾ÑĢÑĥ": 5670,
      "ĠInsel": 5671,
      "ĠÐ·ÑĥÑģÑĤÑĢ": 5672,
      "gehst": 5673,
      "gesehen": 5674,
      "besuchen": 5675,
      "besuche": 5676,
      "ĠÑĢÐµÑĩÑĸ": 5677,
      "icher": 5678,
      "Ð²ÑĸÐ½": 5679,
      "Ð²Ð°Ð»ÑĮ": 5680,
      "unft": 5681,
      "angebot": 5682,
      "ĠÐ¼ÑĢ": 5683,
      "ĠÐ¼Ð°Ñİ": 5684,
      "ĠÐ¼Ð°ÑĪ": 5685,
      "hast": 5686,
      "haft": 5687,
      "Ð´ÑĢÑĥ": 5688,
      "Ð´Ð°ÑĢ": 5689,
      "Ð´ÑĸÐ»": 5690,
      "eiger": 5691,
      "Ġgebuch": 5692,
      "Ġgeput": 5693,
      "Ġgestellt": 5694,
      "teuer": 5695,
      "ĠÐ°ÑĢ": 5696,
      "ĠÐ°Ð¿": 5697,
      "ĠSelma": 5698,
      "ĠÑģÑĤÑĢÐ°Ñħ": 5699,
      "Ð¾Ð´Ñĸ": 5700,
      "ÑĨÑĸÐ¹": 5701,
      "Ġweine": 5702,
      "ĠwÃ¼nsche": 5703,
      "Ð¸Ð²ÑģÑı": 5704,
      "Ð¸Ð²Ð°ÑĶ": 5705,
      "ĠÐ¾Ð³": 5706,
      "ĠÐ¾ÑĦ": 5707,
      "Ã¼le": 5708,
      "Ġhal": 5709,
      "Ð»ÑĮÐ¹": 5710,
      "ĠBil": 5711,
      "Ã¶gel": 5712,
      "ĠÐ¿Ð¾ÑĹÑħ": 5713,
      "itik": 5714,
      "ĠÑĩÐ¸ÑĤ": 5715,
      "ĠÑĩÐµÐº": 5716,
      "ÐºÑĥÐ²Ð°ÑĤÐ¸": 5717,
      "schutz": 5718,
      "Ġnah": 5719,
      "ĠÑĥÑģÐ¿": 5720,
      "ĠÑĥÑĩÐ°": 5721,
      "Ð½Ð°Ð»": 5722,
      "ĠMaschine": 5723,
      "ĠHier": 5724,
      "ĠHast": 5725,
      "ĠKunden": 5726,
      "arage": 5727,
      "Ġkulture": 5728,
      "ĠTier": 5729,
      "ĠTage": 5730,
      "ĠTemp": 5731,
      "Ã¤he": 5732,
      "Ð±Ð°": 5733,
      "Ð±ÑĥÑĤÐ¸": 5734,
      "ÑİÐ³": 5735,
      "ÑİÑİÑĤÑĮ": 5736,
      "Ð½Ð¸ÑĨÑĤ": 5737,
      "ĠÐ½ÐµÐ³": 5738,
      "ĠÐ½ÐµÐ¾Ð±ÑħÑĸÐ´": 5739,
      "elte": 5740,
      "onst": 5741,
      "atÃ¼r": 5742,
      "atik": 5743,
      "lecker": 5744,
      "lebt": 5745,
      "ĠÐºÐµÑĢ": 5746,
      "Ġ(=": 5747,
      "Ġbl": 5748,
      "Ġbrennt": 5749,
      "Ġaufgeben": 5750,
      "Ð·Ð´": 5751,
      "Ð¾Ð»Ð°": 5752,
      "Ġweiter": 5753,
      "ÃŁer": 5754,
      "ĠGo": 5755,
      "Ġmeins": 5756,
      "ĠfÃ¼t": 5757,
      "Ġfolgt": 5758,
      "Ġintern": 5759,
      "ĠÑĤÐ¾Ð³Ð¾": 5760,
      "ĠÑĤÐ¾Ñĩ": 5761,
      "ĠÑĤÑĥÑĢ": 5762,
      "zurÃ¼ck": 5763,
      "Ġgar": 5764,
      "erneinen": 5765,
      "ĠÐ¾Ð±Ð¾Ð²": 5766,
      "Ð°Ð»ÑĮÐ½Ðµ": 5767,
      "decken": 5768,
      "sser": 5769,
      "ĠÐĴÐ°Ñģ": 5770,
      "ÐµÐ½ÐµÑĢ": 5771,
      "ÐµÐ½ÑĨÑĸÑı": 5772,
      "ĠÑģÑĥÐ¼": 5773,
      "Ð¸ÑĤÑĥ": 5774,
      "ĠÑĸÑģÐ½": 5775,
      "ĠÐ±Ð¸": 5776,
      "ĠÐ±Ð°Ñģ": 5777,
      "ĠÐ¿ÑĸÐ´Ð²Ð¸": 5778,
      "ÐµÐ´ÐµÐ½Ð½Ñı": 5779,
      "ÐµÐ´ÑĢÐ¸": 5780,
      "ĠzuhÃ¶ren": 5781,
      "ĠÑıÐºÐ¾Ñİ": 5782,
      "ĠÑıÐºÑĸÑģÑĤÑĮ": 5783,
      "etzen": 5784,
      "ĠLaut": 5785,
      "ĠSchere": 5786,
      "berichten": 5787,
      "ilien": 5788,
      "ĠÐ·Ð°ÐºÑĢ": 5789,
      "auso": 5790,
      "ĠBuches": 5791,
      "ĠÐ³ÑĸÑĤ": 5792,
      "ĠÐ³Ð¾ÑģÑĤÑĸ": 5793,
      "Ġbell": 5794,
      "Ġbeantworten": 5795,
      "Ġbereitet": 5796,
      "Ġbesser": 5797,
      "Ġlinks": 5798,
      "ĠHunde": 5799,
      "ierung": 5800,
      "ĠanschlieÃŁend": 5801,
      "Ġantwor": 5802,
      "ĠÐ·Ð°Ð¹Ð¼": 5803,
      "olz": 5804,
      "ĠÐ¼ÑĸÑģÑĨÑıÐ¼Ð¸": 5805,
      "Ġtief": 5806,
      "ĠÐ¾Ð´Ð½Ðµ": 5807,
      "rÃ¼ft": 5808,
      "ĠVÃ¶gel": 5809,
      "ĠÐ¶Ð¸ÑĤÐ¸": 5810,
      "ĠÐ¶Ð¸ÑĤÑĤÑı": 5811,
      "ĠÐ¶Ð¾Ð²ÑĤ": 5812,
      "meinsam": 5813,
      "pflan": 5814,
      "Ð°Ð¼Ð¿": 5815,
      "ruhen": 5816,
      "Ġstarken": 5817,
      "ĠJede": 5818,
      "Ġdeshalb": 5819,
      "ĠÐ±ÑĥÐ´": 5820,
      "ĠOst": 5821,
      "ĠOkto": 5822,
      "rinner": 5823,
      "Ġverkaufen": 5824,
      "Ġnachfragen": 5825,
      "ĠUSB": 5826,
      "ĠSieh": 5827,
      "hlst": 5828,
      "Ð¾Ð¶Ð½Ð°": 5829,
      "Ġkaufst": 5830,
      "ÐµÐºÑĤÐ¸Ð²": 5831,
      "Ð°ÐºÐ°": 5832,
      "ĠÑĢÐ¾Ð·ÑĥÐ¼": 5833,
      "Ġunse": 5834,
      "Ð¾ÑĤÐµÑĢÐµ": 5835,
      "ĠÑĦÐ¾ÑĢÐ¼ÑĥÑİÑĤÑĮ": 5836,
      "ĠÐ·Ð°Ð»Ð¸": 5837,
      "ĠÑĩÐ°ÑģÑĤÐ¸Ð½Ð¾Ñİ": 5838,
      "ĠVerbstamm": 5839,
      "versp": 5840,
      "ÑĸÑĤÐ½Ð¸Ð¹": 5841,
      "ahle": 5842,
      "Ã¤nder": 5843,
      "Ð»ÑİÐ²Ð°ÑĤÐ¸": 5844,
      "Ġsiehst": 5845,
      "Ġohne": 5846,
      "Ġschneit": 5847,
      "Ġguten": 5848,
      "Ġzeigt": 5849,
      "Ġzeige": 5850,
      "Ġzunehmen": 5851,
      "ĠÐ²Ð¸Ð¿ÑĢ": 5852,
      "Ġgewin": 5853,
      "ĠgewÃ¶hn": 5854,
      "ĠÐºÐ¾Ð½ÑĨÐµÑĢÑĤ": 5855,
      "ĠÑģÐ¿ÑĸÐ»": 5856,
      "ĠÑģÐµÑĢÐµÐ´Ð½ÑĸÐ¼": 5857,
      "liebt": 5858,
      "ĠÐ¿Ð¾Ð¼Ð¸Ð»ÐºÑĥ": 5859,
      "Ã¤tte": 5860,
      "Ð¾ÑĩÐµ": 5861,
      "Ġwartet": 5862,
      "ĠÐºÐ¾Ð»ÐµÐ³": 5863,
      "ĠÐ»ÑĸÑĤ": 5864,
      "ĠÐ»Ð°ÑģÐºÐ°": 5865,
      "ĠÐ»Ð¾ÑĤÐµÑĢÐµ": 5866,
      "Ġspreche": 5867,
      "ĠspÃ¼len": 5868,
      "ĠÐºÐ¾Ð¼Ð¿": 5869,
      "izza": 5870,
      "ÑīÐ°": 5871,
      "ĠStudi": 5872,
      "Ð¾Ð²Ð°Ð½Ð°": 5873,
      "Ð¾Ð²Ð°Ð½Ð¸Ð¹": 5874,
      "bsicht": 5875,
      "Ġtrinkst": 5876,
      "ĠÑħÐ²Ð¾ÑĢ": 5877,
      "ĠÑħÐ¾ÑĢÐ¾ÑĪ": 5878,
      "ollte": 5879,
      "ĠÐĹÐ°": 5880,
      "lettert": 5881,
      "Ð¾ÑģÐ¸ÑĤÐ¸": 5882,
      "Ġtesten": 5883,
      "afÃ¼r": 5884,
      "Ġ11": 5885,
      "Ġ13": 5886,
      "Ġ15": 5887,
      "ĠPartner": 5888,
      "ĠÐ³Ð¾Ð²Ð¾ÑĢÐ¸ÑĤÐµ": 5889,
      "ĠÐ¼Ð¾Ð¶Ñĥ": 5890,
      "ĠKonjunktion": 5891,
      "Ġja": 5892,
      "Ġjung": 5893,
      "Ġjungen": 5894,
      "ositiv": 5895,
      "ĠÐ¿ÐµÑĢÐµÐ²Ñĸ": 5896,
      "ĠÑĥÑĤÐ²Ð¾ÑĢÑİÑĶ": 5897,
      "Ġkopiere": 5898,
      "Ġkopiert": 5899,
      "ĠArbeits": 5900,
      "ĠÑĢÐµÑĨÐµÐ¿": 5901,
      "ĠFotogra": 5902,
      "ĠMeiner": 5903,
      "ĠhÃ¶flich": 5904,
      "ĠDeutschen": 5905,
      "schafts": 5906,
      "Ġsaube": 5907,
      "Ġbraunen": 5908,
      "ĠAusbildung": 5909,
      "ÑıÐ·ÐºÑĥ": 5910,
      "ĠÑģÐ²Ð¾": 5911,
      "ĠÐ§Ð¸": 5912,
      "ĠÐ¿Ð¾Ð´Ð°ÑĢÑĥ": 5913,
      "ĠOrt": 5914,
      "ĠÐ´Ð°ÑĤÐ¸Ð²Ð¾Ð¼": 5915,
      "ĠÑĪÐµÑĦ": 5916,
      "Ġgetan": 5917,
      "ĠÐºÐ¾Ð¼Ð°Ð½Ð´Ð°": 5918,
      "Erholt": 5919,
      "konjunktiv": 5920,
      "ĠÐ»ÑİÐ´Ð¸": 5921,
      "hinter": 5922,
      "ĠÑĢÐ¾Ð±Ð¸ÑĤÑĮ": 5923,
      "ĠÑģÐºÐ¾ÑĢÐ¾Ñĩ": 5924,
      "ĠÐ¿Ð¾ÑĩÐ¸Ð½Ð°ÑİÑĤÑĮÑģÑı": 5925,
      "ĠsÃ¼ÃŁen": 5926,
      "Ġrotes": 5927,
      "geschÃ¤ft": 5928,
      "ĠNoten": 5929,
      "ĠÐ¼Ð¾Ð´Ð°Ð»ÑĮÐ½Ð¸Ð¼Ð¸": 5930,
      "ĠÑģÐ»ÑĥÐ¶": 5931,
      "erklÃ¤": 5932,
      "ĠKarte": 5933,
      "Ġdurstig": 5934,
      "ĠVorschlag": 5935,
      "ĠÐŁÑĢÐ¸ÑģÐ²ÑĸÐ¹Ð½Ñĸ": 5936,
      "Ġschmutzigen": 5937,
      "ĠQR": 5938,
      "antwortet": 5939,
      "ĠÐ¿ÑĢÐ¸ÐºÐ»Ð°Ð´Ð¾Ð¼": 5940,
      "ĠVerbrecher": 5941,
      "Ġempfangen": 5942,
      "Ġberichte": 5943,
      "zentr": 5944,
      "Ġdeinem": 5945,
      "Ġsalze": 5946,
      "Ġwohnt": 5947,
      "Ġrennt": 5948,
      "ĠMesse": 5949,
      "ĠPflanzen": 5950,
      "ĠÐ¿Ð¾Ð±ÑĸÑĩ": 5951,
      "Ġtrainiert": 5952,
      "ĠÐ²ÑĩÐ¸ÑĤÐµÐ»ÑĮ": 5953,
      "Ġdazu": 5954,
      "Ġunordentlichen": 5955,
      "ĠÐ»ÑİÐ±Ð¸ÑĤÑĮ": 5956,
      "meckt": 5957,
      "Ġschreiben": 5958,
      "ĠÑģÐ¼Ð°Ñĩ": 5959,
      "Ġlustigen": 5960,
      "Ġlustige": 5961,
      "dienst": 5962,
      "Ġleckere": 5963,
      "Ġleckeres": 5964,
      "ĠÐ²Ð¸ÑĢÐ°Ð·Ð¸ÑĤÐ¸": 5965,
      "Ġsinge": 5966,
      "Ġgemalt": 5967,
      "Freundin": 5968,
      "ĠerzÃ¤hle": 5969,
      "ĠÐ·Ð°Ð»ÐµÐ¶Ð½Ð¾ÑģÑĤÑĸ": 5970,
      "Ġandere": 5971,
      "ultur": 5972,
      "Ġputzen": 5973,
      "Gehst": 5974,
      "ĠgegenÃ¼ber": 5975,
      "Ġdicken": 5976,
      "Ġtanzt": 5977,
      "onatlich": 5978,
      "ĠĠĠĠĠĠĠĠĠĠĠĠĠĠĠĠ": 5979,
      "ĠÐ·Ð½Ð°ÑĩÐµÐ½Ð½Ñı": 5980,
      "Ġwechseln": 5981,
      "ĠÐ½Ð°ÑıÐ²Ð½ÑĸÑģÑĤÑĮ": 5982,
      "ĠKannst": 5983,
      "ĠAls": 5984,
      "Ġheizen": 5985,
      "ĠfrÃ¼hstÃ¼cken": 5986,
      "ÑĥÐ»ÑĮÑĤÐ°ÑĤ": 5987,
      "Brille": 5988,
      "nahm": 5989,
      "trinken": 5990,
      "ĠÑģÑĤÑĥÐ´ÐµÐ½ÑĤÑĸÐ²": 5991,
      "Ã¼bern": 5992,
      "Ġfolgenden": 5993,
      "ĠRelativpronomen": 5994,
      "ĠÐ¿Ð¾Ð²ÑĤÐ¾ÑĢÐ¸ÑĤÐ¸": 5995,
      "Ġbeschwere": 5996,
      "NÃ¤chstes": 5997,
      "PrÃ¤teritum": 5998,
      "Ġdanke": 5999,
      "ĠÐ²ÐµÑĩÑĸÑĢ": 6000,
      "ĠÐ´Ð¸Ð²Ð¸ÑĤÐ¸ÑģÑı": 6001,
      "ĠÐ´ÑĸÐ¹ÑģÐ½": 6002,
      "beginnt": 6003,
      "ĠgeprÃ¼ft": 6004,
      "Ð¾Ð±ÑĢÐ°Ð¶": 6005,
      "ĠÐ¿ÑĢÐ¾Ð¿Ð¾Ð·Ð¸ÑĨÑĸÑı": 6006,
      "ĠÐ°Ð²ÑĤÐ¾Ð¼Ð¾Ð±Ñĸ": 6007,
      "ĠÐ¿ÑĢÐ¸ÑģÑĤÐ°Ð²ÐºÐ¸": 6008,
      "Kannst": 6009,
      "ĠEnde": 6010,
      "ĠÐ¿Ð¾ÑĩÐ¸Ð½Ð°ÑĤÐ¸ÑģÑı": 6011,
      "ĠÐ¹Ð´ÐµÐ¼Ð¾": 6012,
      "ĠÐ²ÑĸÐ´Ð±ÑĥÐ»Ð°ÑģÑı": 6013,
      "ĠÑĢÐ¾Ð±Ð¾ÑĩÐ¸Ð¹": 6014,
      "passiv": 6015,
      "ĠÐ²ÐµÐ»Ð¸Ðº": 6016,
      "steig": 6017,
      "elches": 6018,
      "Ġstudieren": 6019,
      "ĠÑĹÐ¶Ñĸ": 6020,
      "ĠÑĤÐµÐ»ÐµÑĦÐ¾Ð½Ñĥ": 6021,
      "ĠÑħÐ°ÑĢÐ°ÐºÑĤÐµÑĢÐ¸ÑģÑĤ": 6022,
      "Ð½ÐµÑĤÑĸ": 6023,
      "ÑĢÐ°Ð´ÑĸÑĤÐ¸": 6024,
      "ĠÐ¾ÑĩÑĸÐº": 6025,
      "ĠÐ¾ÐºÑĢÐµÐ¼": 6026,
      "ĠÐ¾ÑħÐ¾ÑĩÐµ": 6027,
      "Ġentschuldige": 6028,
      "ĠÐµÐºÐ¾Ð½Ð¾Ð¼": 6029,
      "FuÃŁball": 6030,
      "Zucker": 6031,
      "ĠÐ¼ÑĸÐ½ÑıÑĤÐ¸": 6032,
      "ĠSingular": 6033,
      "ĠSubjekt": 6034,
      "schrift": 6035,
      "ĠMaria": 6036,
      "ĠTrinkgeld": 6037,
      "ĠÐºÐ°ÑĦÐµÐ´ÑĢÐ¸": 6038,
      "Ð¾Ð»Ð¸Ð½ÑģÑĮÐºÐ¾Ð³Ð¾": 6039,
      "ĠÐĴÑĸÐ´Ð¼ÑĸÐ½Ð¾Ðº": 6040,
      "Ġorganisch": 6041,
      "Codes": 6042,
      "ĠÐ¿Ð¾Ð·Ð¸ÑĤÐ¸Ð²": 6043,
      "stitut": 6044,
      "ĠÐ¼Ð°ÑģÐºÑĥÐ»": 6045,
      "Ġnirgends": 6046,
      "Ġausreichend": 6047,
      "Ġkonjugierte": 6048,
      "Partizip": 6049,
      "ĠÐ²Ð¸Ð²Ñĩ": 6050,
      "iederlan": 6051,
      "Ġgebucht": 6052,
      "Ġgeputzt": 6053,
      "atÃ¼rlich": 6054,
      "ĠÐ±Ð°ÑģÐµÐ¹": 6055,
      "ĠOktober": 6056,
      "ĠÐ·Ð°Ð»Ð¸ÑĪ": 6057,
      "ĠStudium": 6058,
      "ĠFotografen": 6059,
      "ĠÐ¼Ð°ÑģÐºÑĥÐ»ÑĸÐ½Ð½": 6060,
      ");": 6061,
      "33": 6062,
      "35": 6063,
      "45": 6064,
      "49": 6065,
      "57": 6066,
      "67": 6067,
      "Ant": 6068,
      "Best": 6069,
      "Bier": 6070,
      "Den": 6071,
      "Ent": 6072,
      "Empf": 6073,
      "Fleisch": 6074,
      "Gibt": 6075,
      "GlÃ¼cklicherweise": 6076,
      "Hier": 6077,
      "Koch": 6078,
      "Kommen": 6079,
      "Lest": 6080,
      "Liter": 6081,
      "MÃ¼": 6082,
      "Perfekt": 6083,
      "PrÃ¼fung": 6084,
      "Quittung": 6085,
      "Rei": 6086,
      "Rabatt": 6087,
      "Trink": 6088,
      "Wissen": 6089,
      "Welche": 6090,
      "Zweitens": 6091,
      "aar": 6092,
      "com": 6093,
      "del": 6094,
      "erer": 6095,
      "fern": 6096,
      "fft": 6097,
      "frÃ¼": 6098,
      "frisch": 6099,
      "fÃ¼hr": 6100,
      "fÃ¤ll": 6101,
      "fliegen": 6102,
      "gut": 6103,
      "gisst": 6104,
      "giss": 6105,
      "hein": 6106,
      "han": 6107,
      "heiÃŁ": 6108,
      "helfen": 6109,
      "itel": 6110,
      "kurs": 6111,
      "kocht": 6112,
      "kostet": 6113,
      "lÃ¶": 6114,
      "lur": 6115,
      "markt": 6116,
      "nern": 6117,
      "nehme": 6118,
      "namen": 6119,
      "op": 6120,
      "oder": 6121,
      "ouch": 6122,
      "oben": 6123,
      "prÃ¼fen": 6124,
      "rte": 6125,
      "ril": 6126,
      "riv": 6127,
      "racht": 6128,
      "sf": 6129,
      "sum": 6130,
      "sichtig": 6131,
      "seid": 6132,
      "sitzt": 6133,
      "ta": 6134,
      "ton": 6135,
      "trau": 6136,
      "train": 6137,
      "trocken": 6138,
      "uster": 6139,
      "viel": 6140,
      "voll": 6141,
      "verein": 6142,
      "was": 6143,
      "zin": 6144,
      "zte": 6145,
      "zog": 6146,
      "zip": 6147,
      "zeigt": 6148,
      "zone": 6149,
      "Ð¢": 6150,
      "Ð£": 6151,
      "Ðĳ": 6152,
      "Ðł": 6153,
      "Ġrei": 6154,
      "Ð½ÑĸÐº": 6155,
      "ÑıÑĩ": 6156,
      "ÑıÑģÐ½": 6157,
      "ÑıÑĤÑĮ": 6158,
      "ÑģÐ¿ÑĢÐ°Ð²": 6159,
      "ÑĤÐ²ÐµÑĢÐ´Ð¶": 6160,
      "ÑĢÐ¸ÑģÑĤ": 6161,
      "ÑĢÐ¾Ð±": 6162,
      "ÑĢÐ°Ð²Ð°ÑĤÐ¸": 6163,
      "ÑĢÐ°Ð¼Ð°": 6164,
      "ÑĥÐ´Ð¸": 6165,
      "regelmÃ¤ÃŁ": 6166,
      "ennen": 6167,
      "Ð»ÐµÐ½": 6168,
      "Ð»ÑĸÑĩ": 6169,
      "Ġdar": 6170,
      "Ġdiskut": 6171,
      "ĠdafÃ¼r": 6172,
      "erinn": 6173,
      "ÑĶÑĤÐµ": 6174,
      "Ð¾Ð²Ðµ": 6175,
      "Ð¾Ð²Ð½Ð¸Ð¹": 6176,
      "ĠÐ²ÐµÐ´": 6177,
      "ĠÐ²Ð¸Ñģ": 6178,
      "ĠÐ²ÐµÑģ": 6179,
      "ĠÐ¿Ñĸ": 6180,
      "ĠÐ¿Ð¾Ð²Ñĸ": 6181,
      "ĠÐ´Ð¾Ð²": 6182,
      "ĠÐ´ÐµÑĤ": 6183,
      "ĠÐ´Ð¾Ðº": 6184,
      "ĠÐ´Ð¾Ð±ÑĢ": 6185,
      "ĠÐ´Ð¾Ð·Ð²": 6186,
      "inate": 6187,
      "ÑĸÐ¿": 6188,
      "ÑģÐ½Ñĸ": 6189,
      "ĠCouch": 6190,
      "ĠIss": 6191,
      "ÑģÑĤÐ¸Ð²": 6192,
      "ietet": 6193,
      "stich": 6194,
      "stÃ¼t": 6195,
      "stadt": 6196,
      "Ð¾Ð¼Ð°": 6197,
      "Ð¼Ð¾ÑĹÐ¼": 6198,
      "ÐºÐ¾Ð³Ð¾ÑģÑĮ": 6199,
      "ĠÑĢÐµÐ¼": 6200,
      "Ġihren": 6201,
      "Ð¾ÑĢÐ¾Ð²": 6202,
      "Ð¾ÑĢÐ¾Ð³": 6203,
      "einladen": 6204,
      "einander": 6205,
      "ĠInse": 6206,
      "ĠÐ½Ð¾Ð¼": 6207,
      "ĠÐ½ÑĮÐ¾Ð¼Ñĥ": 6208,
      "ĠÐ½Ð¾Ð²Ð¸Ð¹": 6209,
      "aue": 6210,
      "auss": 6211,
      "gele": 6212,
      "geregt": 6213,
      "gekocht": 6214,
      "ÑĸÑĶÐ½ÑĤ": 6215,
      "Ġsetzt": 6216,
      "Ġsub": 6217,
      "Ġmessen": 6218,
      "Ġmilden": 6219,
      "Ġmusst": 6220,
      "Ð²ÑĸÑĢ": 6221,
      "Ġdiese": 6222,
      "anzen": 6223,
      "Ð´Ñĸ": 6224,
      "Ð´Ð°ÑĤÐ¸": 6225,
      "Ð´Ñİ": 6226,
      "Ð´Ð°Ð½Ð½Ñı": 6227,
      "eier": 6228,
      "eist": 6229,
      "Ġgegeben": 6230,
      "Ġgestanden": 6231,
      "Ġgesetzt": 6232,
      "tete": 6233,
      "telefon": 6234,
      "ĠÐ¿ÑĢÐ¸Ð³": 6235,
      "ĠÐ¿ÑĢÐ¸ÑĢ": 6236,
      "ÐµÑĢÐµÐ·": 6237,
      "ĠSa": 6238,
      "ĠSeite": 6239,
      "ĠSetzen": 6240,
      "ĠÑģÑĤÐ¾Ð»": 6241,
      "ĠÑģÑĤÐ²ÐµÑĢÐ´Ð¶": 6242,
      "âĢĵ": 6243,
      "âĢŀ": 6244,
      "Ð¾Ð´ÐµÐ½": 6245,
      "Ð¾Ð´ÑĸÐ¹": 6246,
      "ÑĨÑĸÐ²": 6247,
      "ÑĨÐ¸Ð¿": 6248,
      "Ġweht": 6249,
      "Ġwischen": 6250,
      "Ġwelche": 6251,
      "Ġwachsen": 6252,
      "Ġwelcher": 6253,
      "ĠÐ²Ð¸ÐºÐ¾ÑĢÐ¸ÑģÑĤÐ¾Ð²ÑĥÐ¹ÑĤÐµ": 6254,
      "Ð¸Ð²Ð°Ð½Ð½Ñı": 6255,
      "aufgeben": 6256,
      "ĠÐ¾Ð»": 6257,
      "ĠÐ¾Ð¿ÐµÑĢ": 6258,
      "Ã¼hlt": 6259,
      "ehle": 6260,
      "ehnt": 6261,
      "Ġhart": 6262,
      "ĠBist": 6263,
      "ĠFar": 6264,
      "esung": 6265,
      "Ã¶bel": 6266,
      "ĠÐ¿Ð¾ÑĶÐ´": 6267,
      "itzung": 6268,
      "Ġeinge": 6269,
      "Ġeines": 6270,
      "ĠÑĩÐ°Ð¹": 6271,
      "ĠÑĩÑĥÐ´": 6272,
      "ĠDen": 6273,
      "ĠDem": 6274,
      "ĠDok": 6275,
      "ÐºÑĥÐ¿": 6276,
      "schal": 6277,
      "schlÃ¤": 6278,
      "Ġnet": 6279,
      "ĠÑĥÐºÑĥÑģ": 6280,
      "ĠMÃ¼n": 6281,
      "ĠMÃ¼cken": 6282,
      "Ð¶ÐµÐ½Ð½Ñı": 6283,
      "ĠKan": 6284,
      "ĠKultur": 6285,
      "Ð°ÑĤÐ¾ÑĢ": 6286,
      "Ð°ÑĤÐ¾Ðº": 6287,
      "Ð°ÑĤÐ¸ÐºÐ¸": 6288,
      "ĠkÃ¤": 6289,
      "Ġklin": 6290,
      "ĠTour": 6291,
      "ĠTÃ¤ter": 6292,
      "ĠTurm": 6293,
      "Ã¤hlen": 6294,
      "ĠAut": 6295,
      "ĠAbsicht": 6296,
      "ĠÐ½ÐµÐ¹": 6297,
      "elden": 6298,
      "ond": 6299,
      "onders": 6300,
      "leuch": 6301,
      "ĠÐºÑĸÐ¼": 6302,
      "ĠÐºÐ¾Ð¶": 6303,
      "ĠÐºÐ»Ð°Ð´": 6304,
      "ĠÐºÐ°Ð½Ð´": 6305,
      "ĠWenn": 6306,
      "ĠWelt": 6307,
      "ĠWirt": 6308,
      "ĠWissen": 6309,
      "ĠWelches": 6310,
      "ĠPizza": 6311,
      "als": 6312,
      "ĠaufhÃ¶ren": 6313,
      "ĠÐ¼ÑĸÑģÑı": 6314,
      "Ġschlie": 6315,
      "Ð·Ð²": 6316,
      "Ð½ÐµÐ½Ð°": 6317,
      "Ð½ÐµÐ´ÑĸÐ»": 6318,
      "ĠÑĦÐ¾ÑĤÐ¾": 6319,
      "Ð°ÑĤÐ¸Ð²Ð½Ð¾Ð¼Ñĥ": 6320,
      "Ġfrei": 6321,
      "Ġinform": 6322,
      "Ġinformiere": 6323,
      "ĠÑĤÐ°Ð¼": 6324,
      "Ð³ÑĢ": 6325,
      "Ð³ÐµÐ½": 6326,
      "zuhÃ¶ren": 6327,
      "Ġgie": 6328,
      "ĠgÃ¼n": 6329,
      "bend": 6330,
      "ĠÑıÐ±Ð»": 6331,
      "Ð°Ð»ÑĮÐ½Ð¾Ð¼Ñĥ": 6332,
      "Ð°Ð»ÑĮÐ½Ð¾Ð³Ð¾": 6333,
      "deut": 6334,
      "ĠÐĴÐ°ÑĪ": 6335,
      "ĠÐĴÐ¾Ð½Ð¸": 6336,
      "ÐµÐ½ÑĤÐ¸": 6337,
      "ÐµÐ½ÑĤÑĢ": 6338,
      "ÐµÐ½ÑģÑĥ": 6339,
      "ĠÑģÐ²ÑĸÐ¹": 6340,
      "ĠÑģÑĮÐ¾Ð³Ð¾Ð´Ð½Ñĸ": 6341,
      "ĠÑģÐµÐ½ÑģÑĥ": 6342,
      "Ð¸ÑĤÐ¸Ð¹": 6343,
      "ĠÐ±ÐµÑĢ": 6344,
      "ĠÐ±Ð¾Ð»": 6345,
      "ĠÐ±Ð°Ð»": 6346,
      "ĠÐ±ÑĸÐ»Ñı": 6347,
      "irr": 6348,
      "ÑĸÐ¹Ð½Ð°": 6349,
      "ĠÑģÑĤÐ¾ÑıÐ²": 6350,
      "ĠÑıÐºÐ¾Ð³Ð¾": 6351,
      "ĠLÃ¤ndern": 6352,
      "ÑĸÐ²Ð½Ð¸ÑĨÑĤ": 6353,
      "ĠRaum": 6354,
      "Ð¿ÑĢÐ°Ð²Ð¸": 6355,
      "ĠÐ¾Ð±ÑģÑĤÐ°Ð²Ð¸Ð½Ð¾Ñİ": 6356,
      "urde": 6357,
      "urfen": 6358,
      "ĠNein": 6359,
      "ĠNehmt": 6360,
      "ĠNomen": 6361,
      "ĠNÃ¤he": 6362,
      "Ġbezahlen": 6363,
      "Ġlau": 6364,
      "ktur": 6365,
      "Ġangef": 6366,
      "olks": 6367,
      "ĠÐ¼ÑĸÑģÑĨÐµÐ¼": 6368,
      "Ġtun": 6369,
      "ĠÐ²ÑĸÐ´Ð¾ÐºÑĢÐµÐ¼": 6370,
      "ĠÐ²ÑĸÐ´Ð¾ÐºÑĢÐµÐ¼Ð»Ñİ": 6371,
      "ĠÐ²ÑĸÐ´Ð²ÑĸÐ´": 6372,
      "ĠÐ²ÑĸÐ´Ð¾Ð±ÑĢÐ°Ð¶": 6373,
      "ĠZus": 6374,
      "rauchen": 6375,
      "Ġhatte": 6376,
      "ĠVoll": 6377,
      "immten": 6378,
      "ĠerhÃ¶": 6379,
      "Ġerholen": 6380,
      "ĠÐ¾ÑģÐ¾Ð±Ð°": 6381,
      "Ġsteigen": 6382,
      "Ġsteigt": 6383,
      "Ġstorn": 6384,
      "Ð°Ð´Ñĥ": 6385,
      "Ð°Ð´Ð°ÑĤÐ¸": 6386,
      "ĠÐ¶ÑĸÐ½ÐºÐ°": 6387,
      "ellen": 6388,
      "ĠÐ±ÑĥÐ²": 6389,
      "ĠÐ±ÑĥÐ´Ðµ": 6390,
      "ĠÐ±ÑĥÐ»Ð¸": 6391,
      "ĠÐ¿ÑĢÐ¾ÑĤ": 6392,
      "Ġverbie": 6393,
      "Ġnachgeschlagen": 6394,
      "andt": 6395,
      "reitest": 6396,
      "negation": 6397,
      "Ð¾Ð¶Ð»Ð¸Ð²Ð¾": 6398,
      "ÐµÐºÑĤÐ¾ÑĢ": 6399,
      "kaufs": 6400,
      "verl": 6401,
      "verletzt": 6402,
      "verstanden": 6403,
      "arbeiter": 6404,
      "ĠÐ·Ð°Ð²Ð´Ð°Ð½Ð½Ñı": 6405,
      "aher": 6406,
      "mittag": 6407,
      "Ġinteressiere": 6408,
      "ulieren": 6409,
      "Ð»ÑİÐ±": 6410,
      "Ġbleiben": 6411,
      "ĠÑĸÐ¼ÐµÐ½Ð½Ð¸ÐºÐ°Ñħ": 6412,
      "ĠÐľÐ¾Ð¶Ð»Ð¸Ð²Ð¾": 6413,
      "nert": 6414,
      "low": 6415,
      "ĠÑĢÐ¾Ð·Ð´ÑĸÐ»": 6416,
      "Ġgeweht": 6417,
      "Ġgewachsen": 6418,
      "Ġgewusst": 6419,
      "Ġgewonnen": 6420,
      "ĠÐºÐ¾Ð½ÑĤÐ°Ðº": 6421,
      "ĠÐ²ÑĸÐ´Ð¿Ð¾Ð²ÑĸÐ´Ð´Ñİ": 6422,
      "Ġausgeben": 6423,
      "Ġaussteigen": 6424,
      "ĠausdrÃ¼cken": 6425,
      "Ġausruhen": 6426,
      "ĠÑģÐµÑĢÐµÐ´Ð½ÑĸÐ¹": 6427,
      "Ġpass": 6428,
      "Ġpassen": 6429,
      "ĠBergen": 6430,
      "Ã¤tter": 6431,
      "ĠÐºÐ¾Ð¼Ð°Ñħ": 6432,
      "Ġschwachen": 6433,
      "Ġschwimme": 6434,
      "Ġvorbei": 6435,
      "Ġvorgestern": 6436,
      "Ġvorstellen": 6437,
      "ielleicht": 6438,
      "ÑĥÐ²Ð°": 6439,
      "lange": 6440,
      "Ġliegen": 6441,
      "ÑĸÑĪÐ°ÑĤÐ¸": 6442,
      "ĠÑģÑĤÐ°Ð»Ð°ÑģÑı": 6443,
      "ĠÑħÐ²": 6444,
      "ĠÑħÐ¾Ð»Ð¾Ð´": 6445,
      "ĠÐ¾ÑģÐ½Ð¾Ð²Ð°": 6446,
      "lettern": 6447,
      "Ð°Ð¹Ð¾Ð¼": 6448,
      "Ġabgenommen": 6449,
      "ienten": 6450,
      "ĠGew": 6451,
      "ĠGeben": 6452,
      "Ġteste": 6453,
      "richten": 6454,
      "ĠReihen": 6455,
      "ĠReisen": 6456,
      "Ã¶ffnen": 6457,
      "Ġgeschickt": 6458,
      "Ð¸ÑĩÐ½Ð°": 6459,
      "ĠKonto": 6460,
      "uerst": 6461,
      "ĠÑĩÐ¸ÑģÐ»Ð¾": 6462,
      "ÑĸÐ»Ð¸": 6463,
      "ÑĸÐ»Ð»Ñı": 6464,
      "ĠÐ¿ÑĢÐµÐ´Ð¼ÐµÑĤÐ¾Ð¼": 6465,
      "ĠÐ¿ÑĢÐµÐ´Ð¼ÐµÑĤÑĸÐ²": 6466,
      "ĠÑĤÐ°ÐºÐ¸Ð¹": 6467,
      "ĠSpieler": 6468,
      "ĠSpielzeug": 6469,
      "ĠStadtrand": 6470,
      "Ġgenannt": 6471,
      "ankommen": 6472,
      "ĠNeffen": 6473,
      "ĠNegation": 6474,
      "ĠManchmal": 6475,
      "Schul": 6476,
      "Meiner": 6477,
      "ĠÐ·Ð²ÑĥÑĩ": 6478,
      "ĠApril": 6479,
      "ÑĸÑĩÑĸ": 6480,
      "ÑĸÑĩÐ½Ð¸Ð¹": 6481,
      "ĠÐ½Ð°Ð´Ð°ÑĶÑĤÑĮÑģÑı": 6482,
      "Ġ22": 6483,
      "ĠÐ§Ð¾Ð¼Ñĥ": 6484,
      "schreibt": 6485,
      "ĠÐ´Ð°ÑĤÐµÐ»ÑĮ": 6486,
      "ĠÑģÑĤÐ°Ð½ÑĸÐ²": 6487,
      "ĠÐ´Ð°ÑĤÐ¸Ð²Ð½Ð¸Ð¹": 6488,
      "ĠÐ¿ÑĸÐ´ÑĢÑıÐ´Ð½Ð¸Ð¼Ð¸": 6489,
      "ĠgerÃ¼hrt": 6490,
      "Ġuntersucht": 6491,
      "Ġunterrichtet": 6492,
      "ĠÐ´ÑĸÑĶÑģÐ»ÑĸÐ²Ð½Ð¸Ð¼": 6493,
      "ĠÐ´Ð°ÑĤÑĸÐ²Ñĸ": 6494,
      "ĠÐ´Ð°ÑĤÑĸÐ²Ð½Ð¾Ð¼Ñĥ": 6495,
      "ĠAntwor": 6496,
      "ĠVerkehr": 6497,
      "ĠÑģÐ¿Ð¾ÑģÑĸÐ±": 6498,
      "000": 6499,
      "Erd": 6500,
      "Ġgesungen": 6501,
      "scheiden": 6502,
      "ĠÐ»ÑİÐ´": 6503,
      "ĠÐºÐ½Ð¸Ð³Ñĥ": 6504,
      "ÐµÑģÑĥ": 6505,
      "Ġgebrochen": 6506,
      "Ġgebraten": 6507,
      "Ġgebacken": 6508,
      "ĠÑĢÐ¾Ð±Ð¾ÑĤÐ¸": 6509,
      "gefÃ¤hr": 6510,
      "ĠGebirge": 6511,
      "heits": 6512,
      "Ġroten": 6513,
      "Ġalte": 6514,
      "ĠGeschirr": 6515,
      "Ġbeginnen": 6516,
      "Ð¸Ð´Ð°ÑĤ": 6517,
      "Ð¸Ð´ÑĸÑĤÐ¸": 6518,
      "Ġrepariere": 6519,
      "antworte": 6520,
      "ĠÐºÐ¾Ð½ÐºÑĢÐµÑĤÐ½Ðµ": 6521,
      "ĠÐ¼Ð½Ð¾Ð¶Ð¸Ð½Ñĥ": 6522,
      "waltung": 6523,
      "ÐµÐ±Ð°": 6524,
      "vorbe": 6525,
      "zÃ¤hl": 6526,
      "Ġempfehlen": 6527,
      "gewinnen": 6528,
      "Ġberichtet": 6529,
      "ĠÐ²Ð»Ð°ÑģÑĤÐ¸Ð²": 6530,
      "Angst": 6531,
      "ĠÑĢÐ°Ð´ÑĸÑģÑĤÑĮ": 6532,
      "ĠÑĢÐ°Ð´ÑĸÑĤÐ¸": 6533,
      "ordinate": 6534,
      "ĠInformationen": 6535,
      "âĢĿ.": 6536,
      "ĠArchitekten": 6537,
      "Seid": 6538,
      "blings": 6539,
      "ĠÃ¶ffnen": 6540,
      "Ã¼geln": 6541,
      "scheint": 6542,
      "zahl": 6543,
      "Ġerinnert": 6544,
      "ĠÑħÐ¾ÑĩÐµ": 6545,
      "ĠÑħÐ¾ÑĩÑĥ": 6546,
      "Ġdabei": 6547,
      "ĠÐ°Ð²ÑĤÐ¾": 6548,
      "ĠÐ¼ÑĸÑģÑĤÐ°": 6549,
      "meer": 6550,
      "ÑıÐ²ÐºÑĥ": 6551,
      "ĠÐ·Ð½Ð°Ðº": 6552,
      "ĠÐ·Ð½Ð¸Ð¶": 6553,
      "ĠÐ¿ÑĢÐ¸ÑĩÐ¸Ð½Ð¸": 6554,
      "ĠÑĤÐ¸Ð¿Ð¾Ð²Ð¸Ð¼": 6555,
      "Ð°Ð³Ð°ÑĤÐ¾": 6556,
      "ĠÐ³ÑĢÐ¾ÑĪÐµÐ¹": 6557,
      "ppich": 6558,
      "ĠwÃ¼rzen": 6559,
      "Ġfaulen": 6560,
      "ĠLieblingstag": 6561,
      "richst": 6562,
      "ÑģÐ¿Ð¾ÑĢÑĤ": 6563,
      "Ġbegonnen": 6564,
      "Ġleckeren": 6565,
      "verbrauch": 6566,
      "Ġspare": 6567,
      "langsam": 6568,
      "heim": 6569,
      "temporale": 6570,
      "ĠTeppich": 6571,
      "Ð»ÑıÑĤÐ¸ÑģÑı": 6572,
      "ĠÐ¿ÑĢÐ¸ÑģÐ»ÑĸÐ²Ð½Ð¸Ðº": 6573,
      "peichert": 6574,
      "Ġentscheide": 6575,
      "ĠÐ¿ÑĢÐ¸ÑĤÑıÐ¶Ð½Ð¸Ð¹": 6576,
      "Lies": 6577,
      "Lieblings": 6578,
      "Ð½ÑıÑĤÑĤÑı": 6579,
      "ĠÐĨÐ½": 6580,
      "ĠÐĨÐ¼ÐµÐ½Ð½Ð¸Ðº": 6581,
      "ĠÐ·Ð»Ð¾Ñĩ": 6582,
      "Ġkontroll": 6583,
      "Ġtanze": 6584,
      "Ġtanzen": 6585,
      "Fahrrad": 6586,
      "ĠÐ²Ð¸Ð³ÑĢÐ°ÑĪ": 6587,
      "schneiden": 6588,
      "Ġkommentieren": 6589,
      "ĠÐ¿ÐµÑĢÐµÑħÑĸÐ´Ð½Ð¸Ð¼Ð¸": 6590,
      "ĠKommt": 6591,
      "ĠAlpen": 6592,
      "Ð¸Ð»Ð°ÑģÑı": 6593,
      "Ġbacke": 6594,
      "Ġbackt": 6595,
      "ĠfrÃ¼hstÃ¼cke": 6596,
      "trinke": 6597,
      "Ġdeutsch": 6598,
      "ĠÐ²ÑĸÑĢÐ½Ð¾": 6599,
      "Ġseltsame": 6600,
      "ĠÐ¼Ð¾ÑĢÑĸ": 6601,
      "ĠÐºÐ°ÑĢÑĤÐ¸": 6602,
      "ĠLandschaft": 6603,
      "ĠRelativsatz": 6604,
      "Ġbeschweren": 6605,
      "Ġhinten": 6606,
      "ÐºÐ°ÑĢÐ¶": 6607,
      "Ġeckigen": 6608,
      "ĠÑģÑĦÐ¾ÑĢÐ¼ÑĥÐ»ÑĮÐ¾Ð²Ð°Ð½Ð¾": 6609,
      "ĠÐ½Ð°ÑĨÑĸÐ¾Ð½Ð°Ð»ÑĮÐ½Ð¸Ð¹": 6610,
      "brauche": 6611,
      "problem": 6612,
      "treffen": 6613,
      "Ġdanach": 6614,
      "ĠÐ²ÐµÑĩÐµÑĢ": 6615,
      "ĠÐ½Ð°Ð¼ÑĸÑĢ": 6616,
      "ĠÑħÐ¾ÑĤÑĸÐ»Ð°": 6617,
      "ĠPrÃ¤fixe": 6618,
      "ĠÐ°Ð²ÑĤÐ¾Ð¼Ð¾Ð±": 6619,
      "Ausbildung": 6620,
      "Beispiele": 6621,
      "Ġscanne": 6622,
      "Ġscannen": 6623,
      "Ġklettern": 6624,
      "Ġverspreche": 6625,
      "ĠÐ¿Ð¾ÑĩÐ¸Ð½Ð°ÑĤÐ¸": 6626,
      "ĠÑĸÐ½ÑĦÐ¾ÑĢÐ¼Ð°ÑĨÑĸÑİ": 6627,
      "ĠÑģÐºÐ¾ÑĢÐ¾ÑĩÐµÐ½Ð½ÑıÐ¼": 6628,
      "Grund": 6629,
      "SpÃ¤ter": 6630,
      "handeln": 6631,
      "teilnehmen": 6632,
      "ymn": 6633,
      "ĠÐ´Ð¸ÑĢÐ¸Ð³": 6634,
      "Ġfotografiere": 6635,
      "ĠÐ¿ÐµÑĢÐµÐ¼ÑĸÑīÐµÐ½Ð½Ñı": 6636,
      "ĠÐ²Ð¸Ð½Ð½Ð¸Ð¹": 6637,
      "ĠÐ¾ÑģÐ¾Ð±Ð¸ÑģÑĤÐ¾Ð³Ð¾": 6638,
      "ĠÑĢÐ¾Ð·Ð¼ÑĸÑĢ": 6639,
      "ĠÐ·Ð°ÑģÑĸÐ±": 6640,
      "ĠÑĩÐ°ÑģÑĤÐ¸Ð½Ð°Ð¼Ð¸": 6641,
      "ĠSprache": 6642,
      "ĠÑĪÐºÐ¾Ð»Ð°": 6643,
      "ĠÐ¿Ð¾Ð³Ð¾Ð´Ð¶ÑĥÐ²Ð°ÑĤÐ¸ÑģÑı": 6644,
      "Ġrichtige": 6645,
      "ĠÐ´Ð¾Ð¼Ð¾Ð²": 6646,
      "Ġwichtiges": 6647,
      "ĠÐ¾Ð²Ð¾ÑĩÑĸ": 6648,
      "ĠHochzeit": 6649,
      "ĠÐ±Ð°Ð½ÐºÑĥ": 6650,
      "Ġlocker": 6651,
      "Ġverboten": 6652,
      "ĠÑħÐ»Ð¾Ð¿": 6653,
      "ĠÐ²Ð²Ð°Ð¶Ð°Ñİ": 6654,
      "Ġkennenlernen": 6655,
      "Ġverabschiede": 6656,
      "Ġeklig": 6657,
      "durch": 6658,
      "ĠÃ¼be": 6659,
      "ĠBÃ¼rger": 6660,
      "ĠÑĥÐ²Ð°Ð³": 6661,
      "ĠObjekt": 6662,
      "ĠÐ²ÑĸÐ´Ð¿ÑĥÑģÑĤÐºÑĥ": 6663,
      "ĠzerstÃ¶ren": 6664,
      "ĠGegensatz": 6665,
      "ĠÐ¢ÑĢÐµÐ±Ð°": 6666,
      "ĠÐ¿ÑĢÐ¾Ð±Ð»ÐµÐ¼Ð°": 6667,
      "ĠÐ¡ÐµÐ¿Ð°ÑĢÐ°Ð±ÐµÐ»ÑĮÐ½Ðµ": 6668,
      "Deutsch": 6669,
      "dopp": 6670,
      "irekte": 6671,
      "ÑģÑĤÐ¾ÑĢÐ°Ð½": 6672,
      "ĠÑĢÐ°ÑħÑĥÐ½Ð¾Ðº": 6673,
      "ĠÐ¼Ð¾Ð³Ð»Ð¸": 6674,
      "ĠStelle": 6675,
      "ĠÐ¾ÑģÑĤÐ°Ð½Ð½ÑĮÐ¾Ð¼Ñĥ": 6676,
      "Ð³Ð¾Ð²Ð¾ÑĢÐµÐ½Ð½Ñı": 6677,
      "Ġglatt": 6678,
      "ĠEltern": 6679,
      "ĠÐ±ÐµÐ·Ð¿Ðµ": 6680,
      "Ġgeschnitten": 6681,
      "ĠÑģÐ²Ð°ÑĢÐ¸ÑĤÐ¸ÑģÑı": 6682,
      "Ġmoderne": 6683,
      "struktur": 6684,
      "ĠÐ¼ÑĢÑĸÑĹ": 6685,
      "ĠBilder": 6686,
      "ĠÑĥÑĩÐ°ÑģÑĤÑĮ": 6687,
      "ÑİÐ³ÑĥÑĶÑĤÑĮÑģÑı": 6688,
      "ĠÐ³ÑĸÑĤÐ°ÑĢÑĸ": 6689,
      "ĠÐ±ÑĥÐ´ÑĮ": 6690,
      "ĠgewÃ¶hnlich": 6691,
      "ĠÐ¿Ð¾Ð±ÑĸÑĩÐ½Ð¾Ð¼Ñĥ": 6692,
      "ĠÐ±Ð°ÑģÐµÐ¹Ð½": 6693,
      "erinnern": 6694,
      "ĠÐ´ÐµÑĤÐµÐºÑĤÐ¸Ð²": 6695,
      "ĠÑĢÐµÐ¼Ð¾Ð½ÑĤ": 6696,
      "Ġsubordinate": 6697,
      "ĠFarben": 6698,
      "ĠMÃ¼nchen": 6699,
      "ĠgÃ¼nstig": 6700,
      "ĠÐ²ÑĸÐ´Ð¾ÐºÑĢÐµÐ¼Ð»ÑİÑĶÑĤÑĮÑģÑı": 6701,
      "!'.": 6702,
      "\",": 6703,
      ".,": 6704,
      "39": 6705,
      "97": 6706,
      "Bau": 6707,
      "Bund": 6708,
      "Banane": 6709,
      "BÃ¼ro": 6710,
      "Fin": 6711,
      "Ger": 6712,
      "Ho": 6713,
      "Hin": 6714,
      "Hoch": 6715,
      "Int": 6716,
      "Jahr": 6717,
      "Kl": 6718,
      "Kind": 6719,
      "Kranken": 6720,
      "Kopf": 6721,
      "Komparativ": 6722,
      "Luft": 6723,
      "Men": 6724,
      "MÃ¶chte": 6725,
      "Nach": 6726,
      "Normalerweise": 6727,
      "Oben": 6728,
      "Pol": 6729,
      "Positiv": 6730,
      "Rech": 6731,
      "RÃ¤umt": 6732,
      "Seht": 6733,
      "Satz": 6734,
      "Spar": 6735,
      "Selma": 6736,
      "Test": 6737,
      "TÃ¼r": 6738,
      "Temp": 6739,
      "TÃ¤glich": 6740,
      "Urlaub": 6741,
      "Vers": 6742,
      "War": 6743,
      "Wunsch": 6744,
      "Wechs": 6745,
      "Wahrscheinlich": 6746,
      "Zuerst": 6747,
      "bo": 6748,
      "br": 6749,
      "boden": 6750,
      "brochen": 6751,
      "brach": 6752,
      "eden": 6753,
      "eug": 6754,
      "fs": 6755,
      "fst": 6756,
      "fel": 6757,
      "freund": 6758,
      "frei": 6759,
      "frage": 6760,
      "funktioniert": 6761,
      "fÃ¼hlen": 6762,
      "gn": 6763,
      "gte": 6764,
      "gru": 6765,
      "glaube": 6766,
      "glie": 6767,
      "grÃ¼ne": 6768,
      "hilft": 6769,
      "heiÃŁt": 6770,
      "horn": 6771,
      "iÃ¤t": 6772,
      "jog": 6773,
      "ki": 6774,
      "kÃ¤": 6775,
      "kom": 6776,
      "kalt": 6777,
      "kunft": 6778,
      "lesung": 6779,
      "mas": 6780,
      "messen": 6781,
      "nes": 6782,
      "nest": 6783,
      "national": 6784,
      "ote": 6785,
      "ossen": 6786,
      "oot": 6787,
      "oste": 6788,
      "pern": 6789,
      "pra": 6790,
      "ris": 6791,
      "ragt": 6792,
      "ritten": 6793,
      "san": 6794,
      "sah": 6795,
      "sreich": 6796,
      "seits": 6797,
      "sitzen": 6798,
      "sauber": 6799,
      "sgesprÃ¤ch": 6800,
      "trÃ¤": 6801,
      "uhe": 6802,
      "ufen": 6803,
      "ufe": 6804,
      "vÃ¶llig": 6805,
      "wicht": 6806,
      "wick": 6807,
      "wald": 6808,
      "wechs": 6809,
      "wachsen": 6810,
      "yl": 6811,
      "ys": 6812,
      "zig": 6813,
      "zwei": 6814,
      "zwischen": 6815,
      "zahle": 6816,
      "Ð¡": 6817,
      "Ðķ": 6818,
      "Ġ!": 6819,
      "ĠÑģÐ½": 6820,
      "Ġus": 6821,
      "ĠÃ¤ndern": 6822,
      "ĠÐ®": 6823,
      "Ð½Ð°Ð²": 6824,
      "Ð½ÐºÑĥ": 6825,
      "Ð½Ð°Ð·": 6826,
      "Ð½ÑĸÐ¼": 6827,
      "Ð½ÐºÐ°": 6828,
      "Ð½Ð°Ðº": 6829,
      "Ð½ÑĮÐ¾Ð³Ð¾": 6830,
      "Ð¾Ð½Ð½": 6831,
      "Ð¾ÑģÐ½": 6832,
      "Ð¾Ñī": 6833,
      "Ð¸ÑĪÐµ": 6834,
      "ÐµÑı": 6835,
      "ÐµÐºÑģ": 6836,
      "ÑĸÐ°Ð»": 6837,
      "ÑģÐº": 6838,
      "Ð°ÑĢÑı": 6839,
      "ÑĤÑĥ": 6840,
      "ÑĤÐ½Ð¸Ð¹": 6841,
      "ÑĢÑģ": 6842,
      "ÑĢÐ°Ð²": 6843,
      "ÑĢÐ°ÑĤ": 6844,
      "ÑĢÐ°Ð·": 6845,
      "ÑĢÐ°Ð±": 6846,
      "chst": 6847,
      "chten": 6848,
      "rehen": 6849,
      "orden": 6850,
      "oriert": 6851,
      "ente": 6852,
      "ender": 6853,
      "enke": 6854,
      "ennt": 6855,
      "Ð»Ð¾Ð²": 6856,
      "Ð»Ð¸ÐºÑĥ": 6857,
      "Ð»Ð¸Ð·": 6858,
      "Ð¾Ð²Ð¾Ð»": 6859,
      "Ð¾Ð²Ð°ÑĢ": 6860,
      "ĠÐŁÐ¾Ð´": 6861,
      "ĠÐ²Ð°Ð¶": 6862,
      "ĠÐ²ÐµÑĢÑĪ": 6863,
      "ÑĩÐ½Ð¸Ð¹": 6864,
      "ÑĩÐ¸ÑĤ": 6865,
      "ÑĩÐºÐ°": 6866,
      "ÑĩÐµÑĢÐµÐ·": 6867,
      "ĠÐ¿Ð°Ð¼": 6868,
      "ĠÐ¿Ð¾Ð¶": 6869,
      "ĠÐ¿ÑĸÑĤÐ¸": 6870,
      "ĠÐ¿Ð¾Ð·Ð¸": 6871,
      "ĠÐ´ÑĸÐ²": 6872,
      "ĠÐ´Ð°ÑİÑĤÑĮ": 6873,
      "ĠÐ´Ð½Ñı": 6874,
      "ĠÐ´Ð²Ñĸ": 6875,
      "ina": 6876,
      "inform": 6877,
      "ĠIran": 6878,
      "ÑģÑĤÑĥÐ´": 6879,
      "ieg": 6880,
      "iete": 6881,
      "iesen": 6882,
      "steh": 6883,
      "Ð¾Ð¼Ð°ÑĤ": 6884,
      "asus": 6885,
      "asium": 6886,
      "ÐºÑĤÐ¸": 6887,
      "ÐºÐ°Ð¼Ð¸": 6888,
      "ÑģÐ»ÑĥÑħ": 6889,
      "Ð¾ÑĢÐ¸": 6890,
      "einem": 6891,
      "ĠÐ½ÑĸÐ¶": 6892,
      "ĠÐ½ÑĸÐº": 6893,
      "ĠÐ·ÐµÐ¼": 6894,
      "ĠÐ·ÑĢÑĥÑĩ": 6895,
      "auk": 6896,
      "aust": 6897,
      "ges": 6898,
      "geha": 6899,
      "gegessen": 6900,
      "geset": 6901,
      "ÑģÐ»Ð¾Ð²Ð¾Ð¼": 6902,
      "Ġse": 6903,
      "Ġsatt": 6904,
      "Ġserv": 6905,
      "Ġmisst": 6906,
      "ĠmiÃŁ": 6907,
      "Ġmonatlich": 6908,
      "ÑĸÐ´Ð½Ð¾": 6909,
      "bed": 6910,
      "bew": 6911,
      "bewer": 6912,
      "beantworten": 6913,
      "ÑĤÐ¸ÑĨÐ¸Ð¿": 6914,
      "Ð²Ñĥ": 6915,
      "Ð²Ð°ÑĢ": 6916,
      "Ð²Ð¸Ð´": 6917,
      "Ð²ÑĢÐ¾Ð¿": 6918,
      "Ġdieser": 6919,
      "uns": 6920,
      "unhÃ¶flich": 6921,
      "ans": 6922,
      "anstalt": 6923,
      "ĠÐ²Ð¸ÐºÐ¾ÑĢÐ¸ÑģÑĤÐ°Ð½Ð¸Ð¹": 6924,
      "ĠÐ¼Ð°Ð²": 6925,
      "ĠÐ¼Ð¾Ð²Ñĥ": 6926,
      "ĠÐ¼Ð¾ÑĹ": 6927,
      "ĠÐ¼ÑĸÐ¹": 6928,
      "ĠÐ¼ÑĸÐ¶": 6929,
      "ĠÐ¼ÑĥÑģ": 6930,
      "haften": 6931,
      "Ð´Ð½Ð¸Ð¹": 6932,
      "Ð´Ð½Ñı": 6933,
      "eim": 6934,
      "eider": 6935,
      "Ð°Ð²ÐµÑĨÑĮ": 6936,
      "Ð°Ð²Ð¸Ð¼Ð¾": 6937,
      "Ġged": 6938,
      "Ġgerechnet": 6939,
      "Ġgemeinsam": 6940,
      "Ġgezeigt": 6941,
      "ĠÐ°ÑĤ": 6942,
      "ĠÐ¿ÑĢÐ¸Ð·Ð½Ð°Ñĩ": 6943,
      "ÐµÑĢÐ¸": 6944,
      "ÐµÑĢÑħ": 6945,
      "ÐµÑĢÐµÐ¶": 6946,
      "ĠSeit": 6947,
      "ĠSort": 6948,
      "ĠSpeich": 6949,
      "ĠÑģÑĤÐ°ÑĢ": 6950,
      "ĠÑģÑĤÑĸÐ»": 6951,
      "ĠÑģÑĤÐ¾Ð»Ñĸ": 6952,
      "ĠÑģÑĤÐ¾Ð¼Ð°ÑĤ": 6953,
      "Ð¾Ð´Ñĥ": 6954,
      "Ð¾Ð´ÑĸÐ²": 6955,
      "ÑĨÑĸÐ½": 6956,
      "Ġwem": 6957,
      "Ġweinen": 6958,
      "Ġwehen": 6959,
      "Ġwelch": 6960,
      "aufschreiben": 6961,
      "Ã¼ÃŁ": 6962,
      "ehnen": 6963,
      "Ġhackt": 6964,
      "ĠBa": 6965,
      "ĠBas": 6966,
      "ĠBei": 6967,
      "ĠBar": 6968,
      "ĠBet": 6969,
      "ĠBenut": 6970,
      "ĠBord": 6971,
      "ĠBlog": 6972,
      "ĠBoot": 6973,
      "ĠFit": 6974,
      "ĠFest": 6975,
      "ĠFÃ¤hrt": 6976,
      "ĠÐ½Ð°ÑģÑĤÑĢ": 6977,
      "Ð¾Ð³ÑĢÐ°": 6978,
      "Ã¶pf": 6979,
      "ĠÐ¿Ð¾ÑĶÐ´Ð½Ñĥ": 6980,
      "ĠÐ¿Ð¾Ð½ÐµÐ´ÑĸÐ»": 6981,
      "itz": 6982,
      "Ġeinkaufen": 6983,
      "Ġeingekauft": 6984,
      "ĠDanach": 6985,
      "ÐºÑĥÑĢÑģ": 6986,
      "schst": 6987,
      "scheinen": 6988,
      "schlo": 6989,
      "schmeckt": 6990,
      "genehm": 6991,
      "ĠnatÃ¼rlich": 6992,
      "ĠÑĥÐ¼": 6993,
      "ĠÑĥÑģÑĸ": 6994,
      "Ð½Ð°ÑĤ": 6995,
      "Ð¿Ð¾": 6996,
      "Ð¿Ñĸ": 6997,
      "Ð¿ÑĸÐ´": 6998,
      "Ð¿ÐµÑĤ": 6999,
      "ĠMat": 7000,
      "ĠMal": 7001,
      "ĠMos": 7002,
      "Ð¶ÑĸÐ½": 7003,
      "Ð¶Ð½Ñı": 7004,
      "ĠHu": 7005,
      "ĠHÃ¶": 7006,
      "ĠHasen": 7007,
      "ĠKre": 7008,
      "ĠKom": 7009,
      "ĠKreu": 7010,
      "ĠKap": 7011,
      "ĠKrim": 7012,
      "Ð°ÑĶÐ¼": 7013,
      "arzt": 7014,
      "Ð°ÑĤÐ¸Ðº": 7015,
      "Ð°ÑĤÑĤÑı": 7016,
      "Ġkam": 7017,
      "Ġkranken": 7018,
      "ĠTÃ¤t": 7019,
      "ĠTaschen": 7020,
      "Ã¤uÃŁ": 7021,
      "ĠÐ²ÑĸÐ´Ð¼ÑĸÐ½ÑıÑĤÐ¸": 7022,
      "ĠÐ¿Ð¾ÑĤÑĢÑĸÐ±Ð½Ðµ": 7023,
      "ĠAu": 7024,
      "ĠAber": 7025,
      "ÑİÑĤÐµÑĢ": 7026,
      "ĠÐ½ÐµÐ¼Ð°": 7027,
      "ĠÑĨÐµÐ½ÑĤÑĢ": 7028,
      "ĠÐºÐ¸Ð¼": 7029,
      "ĠÐºÐ°Ð¶": 7030,
      "ĠÐºÐ»Ð°": 7031,
      "ĠÐºÐ°Ð¿": 7032,
      "ĠÐºÑĢÐ°ÑĹ": 7033,
      "ĠÐºÐ°ÑĢÑĤ": 7034,
      "ĠÐºÐ°Ð²Ñĥ": 7035,
      "ĠWert": 7036,
      "ĠPo": 7037,
      "ĠPrin": 7038,
      "alsÃ¤tze": 7039,
      "Ġbilden": 7040,
      "Ġbraten": 7041,
      "Ġbildet": 7042,
      "Ġbitter": 7043,
      "Ġaufger": 7044,
      "Ġaufmache": 7045,
      "Ġschrubben": 7046,
      "Ġschenke": 7047,
      "Ð·Ð°Ð±": 7048,
      "Ð·Ð²Ð¸ÑĩÐ°Ð¹": 7049,
      "Ð¾Ð»Ð¾Ð²Ñĸ": 7050,
      "denken": 7051,
      "ÑĢÑıÑĤÐ¸": 7052,
      "ĠGen": 7053,
      "ĠGrÃ¼n": 7054,
      "utzt": 7055,
      "utto": 7056,
      "ÑħÐ°": 7057,
      "Ġfragen": 7058,
      "Ġfeiert": 7059,
      "Ġfeiern": 7060,
      "ĠÑĤÐ¾ÑĢÑĤ": 7061,
      "ĠÑĤÐ¾Ð±Ñĸ": 7062,
      "ĠÑĤÐ¾Ð²Ð°ÑĢ": 7063,
      "ĠÑĤÐ²Ð°ÑĢ": 7064,
      "Ġvier": 7065,
      "Ġgibst": 7066,
      "ĠgieÃŁen": 7067,
      "Ġganzen": 7068,
      "ckst": 7069,
      "ernet": 7070,
      "rop": 7071,
      "roren": 7072,
      "Ð°Ð»ÑĮÐ½Ð¸Ðº": 7073,
      "ĠÐĴÐ¸Ð±": 7074,
      "Ð½Ð¸ÐºÐ¸": 7075,
      "Ð½Ð¸ÐºÐ°": 7076,
      "Ð½Ð¸ÐºÐ°ÑĤÐ¸": 7077,
      "Ð½Ð¸ÐºÐ½ÑĥÑĤÐ¸": 7078,
      "Ð¼ÐµÑĤÐ¾Ð´Ð¸Ñĩ": 7079,
      "Ð¾Ð±Ð°ÑĶÑĤÑĮÑģÑı": 7080,
      "ÐµÐ½Ñİ": 7081,
      "ĠÑģÑĥ": 7082,
      "ĠÑģÐ¸Ð»ÑĮ": 7083,
      "ĠÑģÐ¸ÑĤÑĥ": 7084,
      "ĠÑģÐ¸Ð´ÑĸÑĤÐ¸": 7085,
      "ĠÐ²ÐºÐ°Ð·Ð°Ð½Ð°": 7086,
      "ĠÐ±Ñĸ": 7087,
      "ĠÐ±Ñİ": 7088,
      "ĠÐ±Ð°Ð·": 7089,
      "ĠÐ±ÑĸÐ»": 7090,
      "ĠÐ±ÑĸÐ»ÑĮÑĪ": 7091,
      "ĠÐ±ÑĸÐ»ÑĮÑĪÐµ": 7092,
      "ÑĸÐ¹Ð½Ð¸Ð¹": 7093,
      "hrt": 7094,
      "hrlich": 7095,
      "ĠÑģÑĤÐ¾ÑıÐ»Ð°": 7096,
      "ĠÑıÐºÐ±Ð¸": 7097,
      "Ã¶nn": 7098,
      "ĠLest": 7099,
      "ĠLetztes": 7100,
      "ĠLÃ¤rm": 7101,
      "ĠSchn": 7102,
      "ĠSchmerzen": 7103,
      "Ð°Ð²Ð¸ÑĤÐ¸ÑģÑı": 7104,
      "ĠÐ´ÑĢÑĥÐ³Ðµ": 7105,
      "ĠÐ´ÑĢÑĥÐ³Ð°": 7106,
      "ÑĪÐµÐ½Ð½Ñı": 7107,
      "berg": 7108,
      "Ġmitnehmen": 7109,
      "Ġmitbringen": 7110,
      "ĠStÃ¤d": 7111,
      "ÑĸÐ²ÑĨÐµ": 7112,
      "ilzt": 7113,
      "iven": 7114,
      "ĠErinner": 7115,
      "ĠÐ·Ð°ÐºÐ¾Ñħ": 7116,
      "ĠRhein": 7117,
      "ĠRiesen": 7118,
      "agst": 7119,
      "Ð¿ÑĢÐ¾Ð²": 7120,
      "ausgeben": 7121,
      "ĠÐ½Ð°Ð³": 7122,
      "ĠÐ¾Ð±ÑģÑĤÐ°Ð²Ð¸Ð½": 7123,
      "ĠNational": 7124,
      "ĠNico": 7125,
      "ĠÐ³Ð°Ð·": 7126,
      "ĠÐ³ÑĥÐ±": 7127,
      "Ġbemer": 7128,
      "Ġbeenden": 7129,
      "Ġbeschreiben": 7130,
      "Ġbeliebt": 7131,
      "Ġleh": 7132,
      "Ġlachen": 7133,
      "Ġlache": 7134,
      "ĠÐ¾ÑģÑĸÐ±": 7135,
      "iste": 7136,
      "Ġanrufen": 7137,
      "Ġanhalten": 7138,
      "Ġanfangen": 7139,
      "Ġangenehm": 7140,
      "olog": 7141,
      "weisen": 7142,
      "weihung": 7143,
      "Ġhand": 7144,
      "ĠhÃ¤tte": 7145,
      "Ġgebeten": 7146,
      "Ġtoll": 7147,
      "Ġteile": 7148,
      "ument": 7149,
      "ĠweiÃŁt": 7150,
      "raut": 7151,
      "laut": 7152,
      "ĠVort": 7153,
      "ĠÐ¶ÑĥÑĢ": 7154,
      "ĠÐ·Ð°Ð¿ÐµÑĢÐµÑĩÑĥÑĶÑĤÑĮÑģÑı": 7155,
      "Ð²ÐµÑĢÑĤ": 7156,
      "ÑĨÑĮÐºÐ°": 7157,
      "ĠÑĸÐ½Ð¾Ð·": 7158,
      "ĠÐ¾Ð´Ð½Ð¸Ð½Ñĥ": 7159,
      "immung": 7160,
      "Ġersch": 7161,
      "Ġerhole": 7162,
      "Ġerlaubt": 7163,
      "Ġerlebt": 7164,
      "otter": 7165,
      "otto": 7166,
      "ĠÐ¾ÑģÐ¾Ð±Ð¾Ð²Ð¾Ð³Ð¾": 7167,
      "Ġstud": 7168,
      "ĠJahre": 7169,
      "Ġdeswegen": 7170,
      "ranke": 7171,
      "ĠÑĸÐ¼Ð¿ÐµÑĢÐ°ÑĤÐ¸Ð²Ð½Ñĥ": 7172,
      "indirekte": 7173,
      "ÑĢÑıÐ¼Ð¾Ð²Ð°Ð½Ð°": 7174,
      "ĠÐ·Ð°Ð¿ÐµÑĢÐµÑĩÐµÐ½Ð½ÑıÐ¼": 7175,
      "ĠÐ¡Ð»ÑĸÐ²ÑĨÐµ": 7176,
      "ÐºÐ¾Ð¼Ð¿ÐµÑĤ": 7177,
      "ĠÐ²Ð¸ÑĢÑĸÑĪ": 7178,
      "Ġverstehen": 7179,
      "Ġverschieden": 7180,
      "Ġverstanden": 7181,
      "Ġverstehe": 7182,
      "Ġverlieren": 7183,
      "Ġverdient": 7184,
      "ĠÐ½ÑĸÐ¼ÐµÑĨÑĮÐºÐ¾Ð¼Ñĥ": 7185,
      "Ġnachschlagen": 7186,
      "reise": 7187,
      "duzieren": 7188,
      "Ġ\"-": 7189,
      "Ð°Ð½Ð¾Ð²": 7190,
      "Ð°Ð½ÑĤÐ¸": 7191,
      "Ð°Ð½ÑģÐ¿Ð¾ÑĢÑĤ": 7192,
      "ĠÐ·Ð½Ð°ÑħÑĸÐ´Ð½Ð¸Ð¼": 7193,
      "Ð¾Ð¶Ñĥ": 7194,
      "ĠÐ´Ð¾ÑĤÑĢÐ¸Ð¼": 7195,
      "ĠÐ¿Ð¾ÑĩÐ°ÑĤÐ¸": 7196,
      "Ġunn": 7197,
      "Ġunbest": 7198,
      "Ð¾ÑĤÐ°": 7199,
      "gelaufen": 7200,
      "ĠÐ·Ð°Ð»": 7201,
      "ĠÐ·Ð°ÑħÑĸÐ´": 7202,
      "ĠÐ·Ð°ÑıÐ²ÐºÑĥ": 7203,
      "ĠÐ·Ð°Ð¿Ð¸ÑĤÑĥ": 7204,
      "ĠErfolg": 7205,
      "ĠVerwaltung": 7206,
      "vergessen": 7207,
      "vergleich": 7208,
      "ĠÐ´Ð¾Ð´Ð°Ð²Ð°ÑĤÐ¸": 7209,
      "ĠÐ·Ð¼ÑĸÐ½ÐµÐ½Ð¾": 7210,
      "tell": 7211,
      "Ã¤nge": 7212,
      "Ġinteressieren": 7213,
      "ĠGesund": 7214,
      "ĠProdu": 7215,
      "Ð°ÑĢÑĤÐ¸": 7216,
      "mÃ¶chtest": 7217,
      "abl": 7218,
      "abrÃ¤umen": 7219,
      "ĠÐ½Ð°Ð»ÐµÐ¶Ð°ÑĤÑĮ": 7220,
      "Ð¾ÑİÐ·": 7221,
      "ĠÐ²ÑĸÐ´Ð¿Ð¾Ñĩ": 7222,
      "Ġschneiden": 7223,
      "ĠmÃ¼sst": 7224,
      "nergie": 7225,
      "gangenheit": 7226,
      "Ġzer": 7227,
      "ĠÑģÐ¿ÑĸÐ»ÑĮ": 7228,
      "ĠÑģÐ¿ÑĢÑıÐ¼Ð¾Ð²Ð°Ð½Ð°": 7229,
      "liere": 7230,
      "liehen": 7231,
      "Ġplant": 7232,
      "Ġparke": 7233,
      "Ġpaar": 7234,
      "Ġpriv": 7235,
      "ĠÐ½Ð¾Ð¼ÑĸÐ½Ð°ÑĤÐ¸Ð²Ñĥ": 7236,
      "ĠÐ²Ð¸Ð¿Ð°Ð´Ð¾Ðº": 7237,
      "ÑĤÐµÐ¹": 7238,
      "Ð»Ð°Ð»Ð°": 7239,
      "Ġschnelles": 7240,
      "Ã¤tzen": 7241,
      "Ã¤tigen": 7242,
      "Ã¤tigt": 7243,
      "Ġwarne": 7244,
      "Ġgefreut": 7245,
      "Ġgefroren": 7246,
      "ĠÐ¾Ð·Ð½Ð°ÑĩÐµÐ½Ð¾Ð³Ð¾": 7247,
      "astelt": 7248,
      "ĠÐ»ÐµÐ³": 7249,
      "ĠÐ»ÐµÐ¶": 7250,
      "ĠÐ»Ð¸ÑĪÐµ": 7251,
      "ĠÐ»ÐµÐºÑģ": 7252,
      "ĠspÃ¼le": 7253,
      "ĠÐºÐ¾Ð¼Ð°ÑĢ": 7254,
      "ĠÐ¾Ð¿Ð¸ÑĤ": 7255,
      "Ġschwar": 7256,
      "Ġschwimmt": 7257,
      "Ġvorne": 7258,
      "ĠSchwarz": 7259,
      "spro": 7260,
      "spann": 7261,
      "spitze": 7262,
      "endest": 7263,
      "ĠBraten": 7264,
      "Ð¾Ð²Ð°Ð½Ñĸ": 7265,
      "lanze": 7266,
      "ĠÑĢÑĥÑħÐ¾Ð¼": 7267,
      "ĠSozi": 7268,
      "Ã¼nscht": 7269,
      "ĠÐ¿Ð¸ÑĤÐ°Ð½Ð½ÑıÑħ": 7270,
      "Ġvielleicht": 7271,
      "Ġgelben": 7272,
      "Ð»Ð¸Ð²Ð¸Ð¹": 7273,
      "gebaut": 7274,
      "ĠBauern": 7275,
      "ĠHauses": 7276,
      "letzten": 7277,
      "ĠÐ¿Ð¾ÑĤÑĢÐµÐ±Ð¸": 7278,
      "Ġabge": 7279,
      "Ġabgeschlossen": 7280,
      "ienen": 7281,
      "ĠÑĩÐ¾Ð»Ð¾Ð²ÑĸÑĩÐ¸Ð¼Ð¸": 7282,
      "igent": 7283,
      "Ġblaues": 7284,
      "Ġ14": 7285,
      "Ġ16": 7286,
      "Ġ17": 7287,
      "Ġ19": 7288,
      "ĠÐ¼Ð¾Ð¶ÑĥÑĤÑĮ": 7289,
      "ĠDeklin": 7290,
      "ĠHof": 7291,
      "ÑħÐ¾Ð´Ð¸ÑĤÐ¸": 7292,
      "Ð¸ÑĩÐ°ÑĤÐ¸": 7293,
      "ĠÐ²Ð¸ÐºÐ¾Ð½Ð°": 7294,
      "ĠÑģÐ°Ð¼Ð¾Ð³Ð¾": 7295,
      "german": 7296,
      "ĠÑĥÑĤÐ²Ð¾ÑĢÐ¸ÑĤÐ¸": 7297,
      "sicherung": 7298,
      "Ġfindet": 7299,
      "ĠSpinnen": 7300,
      "Ġgenauso": 7301,
      "Ġwohl": 7302,
      "ĠÑĢÐµÑģÑĤÐ¾ÑĢÐ°Ð½": 7303,
      "ĠÐ¢Ð°Ðº": 7304,
      "Ð°Ð»Ð¾": 7305,
      "Ð°Ð»Ð¸ÑĤÐ¸": 7306,
      "endung": 7307,
      "Stick": 7308,
      "Ġseiner": 7309,
      "ĠhÃ¶rt": 7310,
      "ĠwÃ¤chst": 7311,
      "ĠÐ³ÑĢÐ°Ð¼Ð°ÑĤÐ¸ÐºÐ¸": 7312,
      "Schreibt": 7313,
      "ĠFrÃ¼her": 7314,
      "ammen": 7315,
      "ammelt": 7316,
      "Ð°ÑĩÐ°ÑĤÐ¸": 7317,
      "ehlt": 7318,
      "Meinung": 7319,
      "ÐµÐ²Ð»Ð°ÑĪÑĤ": 7320,
      "ÑıÐ·ÐºÐ¸": 7321,
      "Ġkleinen": 7322,
      "ĠÐ½Ð°Ð´Ð·Ð²Ð¸ÑĩÐ°Ð¹": 7323,
      "hstÃ¼ckt": 7324,
      "Ġ21": 7325,
      "Ġ25": 7326,
      "rechnen": 7327,
      "ĠBaumes": 7328,
      "ĠÑģÐ²Ð¾ÑĹ": 7329,
      "Ġhierher": 7330,
      "ĠÑĸÐ½ÑĪÐ°": 7331,
      "ĠÑĸÐ½ÑĪÑĥ": 7332,
      "ĠÑĸÐ½ÑĪÐ¾Ð¼Ñĥ": 7333,
      "ĠÑĸÐ½ÑĪÐ¾Ð³Ð¾": 7334,
      "ĠÐ·Ð°Ð²ÐµÑĢÑĪÐµÐ½Ð½Ñı": 7335,
      "ĠÐ·Ð°Ð²ÐµÑĢÑĪÐµÐ½Ð°": 7336,
      "ustand": 7337,
      "ĠWech": 7338,
      "ĠÐºÐ¾Ð½ÑĤÐµÐºÑģÑĤ": 7339,
      "bungsgesprÃ¤ch": 7340,
      "ĠÑĤÑĢÐ°Ð¿": 7341,
      "ĠÑĤÑĢÐ°Ð½ÑģÐ¿Ð¾ÑĢÑĤ": 7342,
      "Ġentlang": 7343,
      "schreibe": 7344,
      "ĠÐ¿Ð¾Ð´ÑıÐºÑĥ": 7345,
      "ĠÐ¿Ð¾Ð´Ð¾Ð±Ð°ÑĶÑĤÑĮÑģÑı": 7346,
      "Ð°ÑģÐ¸Ðº": 7347,
      "Ġschmilzt": 7348,
      "ĠÑģÐ¾Ð±Ð°ÐºÐ°": 7349,
      "Informiere": 7350,
      "Inseln": 7351,
      "Institut": 7352,
      "ĠÑĪÑĥÐº": 7353,
      "ĠBewer": 7354,
      "ĠBezug": 7355,
      "ĠBedeut": 7356,
      "Ð¾ÑĪÑĤ": 7357,
      "empfiehlt": 7358,
      "ĠÐºÐ½Ð¸Ð¶": 7359,
      "Ġzweiten": 7360,
      "Ġgerannt": 7361,
      "Ġunterhalten": 7362,
      "Ġuntersuchen": 7363,
      "Ġunterrichte": 7364,
      "Ð¾Ð½ÑĥÐ²Ð°ÑĤÐ¸": 7365,
      "ĠAmt": 7366,
      "ĠPersonen": 7367,
      "Ġgesessen": 7368,
      "Ġgespeichert": 7369,
      "scheidet": 7370,
      "ĠEuropa": 7371,
      "ĠEuropÃ¤": 7372,
      "ĠKindergarten": 7373,
      "ĠÑĢÐµÑĦÐ»ÐµÐºÑģÐ¸Ð²Ð½Ð¸Ð¹": 7374,
      "Ġgebildet": 7375,
      "Ġgeblieben": 7376,
      "Ġgebraucht": 7377,
      "Ġgebastelt": 7378,
      "ĠMetzgers": 7379,
      "Vergiss": 7380,
      "geschoss": 7381,
      "ĠBruders": 7382,
      "ĠBesuch": 7383,
      "ĠPiloten": 7384,
      "Ġfreundliche": 7385,
      "Ġfrische": 7386,
      "Ġfrisches": 7387,
      "ĠNachrichten": 7388,
      "ÐºÑĢÐµÑĤÐ°ÑĢ": 7389,
      "Ġschmutzige": 7390,
      "Mails": 7391,
      "ssere": 7392,
      "udio": 7393,
      "Ġaufgemacht": 7394,
      "Ġbeginne": 7395,
      "Ġhohen": 7396,
      "ÑĤÐµÑĢÐ½ÐµÑĤÑĸ": 7397,
      "ĠfrÃ¼her": 7398,
      "ĠÐ·ÑĢÐ¾Ð±Ð¸Ð²": 7399,
      "ĠÑĸÐ½ÑĦÑĸÐ½ÑĸÑĤÐ¸Ð²Ð°": 7400,
      "ĠÃľbermorgen": 7401,
      "Ð°ÑĨÑĸÑı": 7402,
      "Ġhungrigen": 7403,
      "ĠErdgeschoss": 7404,
      "ĠempfÃ¤ngst": 7405,
      "Ġempfiehlt": 7406,
      "Ġempfehle": 7407,
      "gewann": 7408,
      "backen": 7409,
      "ĠEinkommen": 7410,
      "ĠEinkaufs": 7411,
      "echselt": 7412,
      "Angebot": 7413,
      "kommst": 7414,
      "mÃ¼de": 7415,
      "ĠÐ´ÑĥÐ¼Ð°Ñİ": 7416,
      "ĠÐ§Ð°ÑģÑĤÐ¸Ð½Ð°": 7417,
      "ĠKartoffeln": 7418,
      "ĠÐĳÑĥÐ´ÑĮ": 7419,
      "Ġausgezeichne": 7420,
      "reichen": 7421,
      "ĠÐ·Ð°Ð¿ÐµÑĢÐµÑĩÑĥÑĶÐ¼Ð¾": 7422,
      "prache": 7423,
      "ĠÃ¶ffnet": 7424,
      "testet": 7425,
      "ĠÐ²Ð²ÑĸÑĩÐ»Ð¸Ð²Ð¾ÑģÑĤÑĸ": 7426,
      "ĠHex": 7427,
      "Ġerinnern": 7428,
      "ĠÑħÐ¾ÑĩÐµÐ¼Ð¾": 7429,
      "Ġbunte": 7430,
      "lernt": 7431,
      "rifft": 7432,
      "ĠÐ¿ÑĢÐ¸ÑĩÐ¸Ð½Ñĥ": 7433,
      "ĠhÃ¤ssliche": 7434,
      "Ġteilen": 7435,
      "ĠArchitektin": 7436,
      "kosten": 7437,
      "ppen": 7438,
      "ĠÑģÑĤÑĢÐ°Ð¶": 7439,
      "ĠÑģÑĤÑĢÐµÑģÑĥ": 7440,
      "ĠÑģÐ¼Ð°Ðº": 7441,
      "ĠHalsschmerzen": 7442,
      "Bedeuten": 7443,
      "Rektion": 7444,
      "ĠÐ´ÑĥÐ¼Ð°ÑĶ": 7445,
      "Ġleckerer": 7446,
      "klein": 7447,
      "ÐĴÐ¸": 7448,
      "ĠdÃ¼nnen": 7449,
      "Ġsingt": 7450,
      "Ġgemietet": 7451,
      "ĠKnochen": 7452,
      "ĠÐºÑĢÐ°Ð¿": 7453,
      "Ġhellen": 7454,
      "Ġtraurigen": 7455,
      "ĠÐ¯ÐºÐ±Ð¸": 7456,
      "Ġniedrigen": 7457,
      "ĠgefÃ¤hrliche": 7458,
      "heimlich": 7459,
      "Ġfesten": 7460,
      "ÑĸÐ»ÐµÑĨÑĮ": 7461,
      "Ġsonnigen": 7462,
      "Ġbastle": 7463,
      "Ġbastelt": 7464,
      "Ġdummen": 7465,
      "Ġentscheidet": 7466,
      "ĠÐ¿ÑĢÐ¸ÑĤÑıÐ¶Ð½Ð¾Ð³Ð¾": 7467,
      "ĠÐ¿Ð»Ð°Ð½": 7468,
      "ĠÐ¿ÑĢÐ°ÑĨÑİ": 7469,
      "ĠÐ¿ÑĢÐ°ÑĨÑİÑĶ": 7470,
      "ĠÐ¿ÑĢÐ°ÑĨÑİÐ²Ð°ÑĤÐ¸": 7471,
      "ĠÐ¿ÑĢÐ°ÑĨÐµÐ²Ð»Ð°ÑĪÑĤ": 7472,
      "Ġfroh": 7473,
      "ĠÑģÐµÑĢÐ²Ñĸ": 7474,
      "ĠLieblingsessen": 7475,
      "ĠLieblingsmonat": 7476,
      "Konzert": 7477,
      "Konjunktiv": 7478,
      "higkeit": 7479,
      "ĠÐłÐ¾Ð·": 7480,
      "Ġnominative": 7481,
      "ĠÐ½ÐµÐ¾Ð·Ð½Ð°ÑĩÐµÐ½Ð¾Ð³Ð¾": 7482,
      "wÃ¤hlen": 7483,
      "ĠrÃ¼hrt": 7484,
      "ĠÐ²Ð¸Ð³Ð»ÑıÐ´": 7485,
      "ĠÐ¿Ð¾Ð»ÑĸÑĤ": 7486,
      "ĠÐ¾ÑĢÐµÐ½Ð´": 7487,
      "ĠHilfs": 7488,
      "ĠÐºÐ¾ÑĢÐµÐºÑĨÑĸ": 7489,
      "ĠÐ³ÑĢÑĥÐ´Ð½Ñı": 7490,
      "Ġkommentiert": 7491,
      "Ġkommentiere": 7492,
      "ĠÐĿÐµÐ¿ÑĢÐ°Ð²Ð¸Ð»ÑĮ": 7493,
      "udieren": 7494,
      "ĠÐ¼ÑĥÐ·Ð¸ÐºÑĥ": 7495,
      "ĠÐ¼ÑĥÐ·Ð¸ÐºÐ°": 7496,
      "Ġwandere": 7497,
      "ĠÐ¿Ð¾ÑģÐ¸Ð»": 7498,
      "Ġbacken": 7499,
      "ĠheiÃŁen": 7500,
      "ĠÐ¿Ð¾Ð±ÑĥÐ´Ð¾Ð²Ð¸": 7501,
      "ĠÐ¿Ð¾Ð±ÑĥÐ´Ð¾Ð²Ð°Ð½Ðµ": 7502,
      "258": 7503,
      "nahme": 7504,
      "ĠÐ¿Ð°ÑĢÑĤÐ¸ÑĨÐ¸Ð¿": 7505,
      "interessieren": 7506,
      "ĠÐ¼Ð¾ÑĢÐµ": 7507,
      "Ġgestiegen": 7508,
      "ĠÐ¿Ð¾Ð²ÑĤÐ¾ÑĢÑİÐ²Ð°ÑĤÐ¸": 7509,
      "ĠÐ¿ÑĢÐ¾ÑģÑĤÐ¾": 7510,
      "ĠÐ·Ð°ÑĢÐ¾Ð±": 7511,
      "Berichte": 7512,
      "NÃ¤chsten": 7513,
      "beginnen": 7514,
      "ĠÐ¼Ð°Ð¹Ð±ÑĥÑĤÐ½ÑĶ": 7515,
      "Ġgeplant": 7516,
      "ĠÑĥÐ½ÑĸÐ²ÐµÑĢÑģÐ¸ÑĤÐµÑĤÑĸ": 7517,
      "ĠÐ¿Ð¾Ð²ÐµÑĢÑģÑĸ": 7518,
      "Ġunfreundliche": 7519,
      "Ġunfreundlichen": 7520,
      "ĠÑħÐ¾ÑĤÑĸÐ»Ð¸": 7521,
      "ĠbegrÃ¼ÃŁen": 7522,
      "ĠbegrÃ¼ÃŁe": 7523,
      "ĠbegrÃ¼ÃŁt": 7524,
      "ĠÐ²Ð¸Ð±Ð°Ñĩ": 7525,
      "Ġsammle": 7526,
      "Ġsammeln": 7527,
      "andert": 7528,
      "ĠÐ¿ÑĢÐ¾Ð²ÐµÐ´ÐµÐ½Ð½Ñı": 7529,
      "ĠSteht": 7530,
      "Ð¸Ð»ÑĮÐ½Ð¸Ðº": 7531,
      "ĠÐºÐ»Ð°Ð²": 7532,
      "Ġvorbereiten": 7533,
      "ĠÑĸÐ½ÑĦÐ¾ÑĢÐ¼Ð°ÑĨÑĸÑĹ": 7534,
      "frostig": 7535,
      "ÑĥÐ½ÐºÐ¸": 7536,
      "ĠÐ´Ð¸ÑĢÐµÐºÑĤÐ¾ÑĢ": 7537,
      "ĠÐ¿ÑĢÐ¸Ð²Ð°ÑĤ": 7538,
      "Ġfotografieren": 7539,
      "Ġstellt": 7540,
      "Ġstellen": 7541,
      "Ġstudiere": 7542,
      "ĠÐ·Ð°ÑģÑĸÐ´": 7543,
      "ĠÐºÑĥÑĢÑģÑĥ": 7544,
      "ĠÑĹÐ¶Ð°": 7545,
      "ĠÐ¿Ð¾Ð³Ð¾Ð´Ð¶ÑĥÑĶÑĤÑĮÑģÑı": 7546,
      "ĠÑħÐ°ÑĢÐ°ÐºÑĤÐµÑĢÐ½Ð¸Ð¼": 7547,
      "Besonders": 7548,
      "Handlung": 7549,
      "Pflaster": 7550,
      "Pflanze": 7551,
      "Umwelt": 7552,
      "Ġrichtigen": 7553,
      "ĠÐ´Ð¾Ð¼Ð°ÑĪ": 7554,
      "ĠÐ½ÑĸÑĩÐ¾Ð³Ð¾": 7555,
      "ĠÐ·Ð³ÑĸÐ´Ð½Ð¾": 7556,
      "getrunken": 7557,
      "begann": 7558,
      "Ġwichtige": 7559,
      "ĠÑĢÐ¾Ð·Ð¿Ð¾ÑĩÐ¸Ð½": 7560,
      "ĠÐ·Ð°ÑħÐ¸ÑģÑĤ": 7561,
      "ĠÑħÐ»ÑĸÐ±": 7562,
      "ĠÐµÐºÑģÐºÑĥÑĢÑģ": 7563,
      "ĠAdjektivs": 7564,
      "Ġverabschiedet": 7565,
      "hÃ¤ngen": 7566,
      "ientieren": 7567,
      "Ġeigentlich": 7568,
      "ĠÐ¿Ð¸ÑģÑĮ": 7569,
      "ĠÐ¼Ð°ÑĤÐµÑĢÑĸ": 7570,
      "Ġgesprochen": 7571,
      "ĠÐ½Ð°ÑĢÐ¾Ð´": 7572,
      "ĠÐ½Ð°ÑĢÐ¾Ð´Ð¶ÐµÐ½Ð½Ñı": 7573,
      "ĠÐºÐ²Ð¸ÑĤ": 7574,
      "ĠÐºÐ°Ð¼ÑĸÐ½ÑĮ": 7575,
      "ĠPatient": 7576,
      "ĠPatienten": 7577,
      "Ġgoogeln": 7578,
      "ĠÐ´ÑĢÑĥÐ·ÑĸÐ²": 7579,
      "ĠÐ¾ÑģÐ²ÑĸÑĤÐ°": 7580,
      "Ġtrennbaren": 7581,
      "ĠÐ²ÑĸÐ´Ð´ÑĸÐ»ÑĮÐ½Ð¸Ð¼": 7582,
      "ĠÐ²Ð¸ÑģÐ»Ð¾Ð²Ð¸ÑĤÐ¸": 7583,
      "ĠÐ²Ð¸ÑĤÑĢÐ°ÑĤÐ¸": 7584,
      "lieÃŁlich": 7585,
      "Ġteures": 7586,
      "ĠÐ¿ÐµÑĢÐµÐºÐ»Ð°Ð´": 7587,
      "ĠÐ¿ÐµÑĢÐµÐºÐ¾Ð½Ð°": 7588,
      "ĠÑĢÐ¾Ð±Ð¾ÑĤÑĥ": 7589,
      "ĠÐµÐ¼Ð¾ÑĨÑĸÑĹ": 7590,
      "Ġstaubsaugen": 7591,
      "Meer": 7592,
      "ĠÐĩÐ¼": 7593,
      "ÑıÐºÑĸ": 7594,
      "remd": 7595,
      "repariert": 7596,
      "ĠÑĢÐµÐ·ÑĥÐ»ÑĮÑĤÐ°ÑĤ": 7597,
      "ĠÐ¿ÑĢÐ¾Ð³ÑĢÐ°Ð¼Ð°": 7598,
      "ĠBestell": 7599,
      "ĠÐ·Ð°Ð´Ð¾Ð²Ð¾Ð»": 7600,
      "ĠAussicht": 7601,
      "ĠÑĨÑĸÐ½Ñĥ": 7602,
      "ĠÐºÐ»ÑİÑĩÐ°": 7603,
      "ĠPauli": 7604,
      "ĠÑĦÑĸÑĢÐ¼Ñĸ": 7605,
      "ĠÑĤÐ¸Ð¶Ð½Ñı": 7606,
      "ĠbeschÃ¤ft": 7607,
      "ĠÐ²ÑĸÐ´ÑĩÑĥÑĤÑĤÑı": 7608,
      "ĠÐ¿Ð¾ÐºÑĥÐ¿ÐºÐ¸": 7609,
      "Ġgewarnt": 7610,
      "sprache": 7611,
      "ĠÑĢÐµÐºÐ¾Ð¼ÐµÐ½Ð´Ð°ÑĨÑĸÑĹ": 7612,
      "ĠGebÃ¤ude": 7613,
      "Unterricht": 7614,
      "ĠÐ·Ð°Ð±Ð¾ÑĢÐ¾Ð½Ð¸": 7615,
      "ĠÐ·Ð°ÑĢÐ¿Ð»Ð°ÑĤÐ°": 7616,
      "GieÃŁ": 7617,
      "Superlativ": 7618,
      "reinigt": 7619,
      "Ġdekoriert": 7620,
      "ĠÐ²ÐºÑĸÐ½ÑĨÑĸ": 7621,
      "ĠÐ¿Ð»Ð°Ð½Ñĥ": 7622,
      "ĠÑĢÐ¸Ð½Ð¾Ðº": 7623,
      "ĠÑģÑĤÑĢÐ°ÑħÐ¾Ð²ÐºÐ°": 7624,
      "ĠÐ¾Ð³Ð»ÑıÐ´": 7625,
      "ĠÐ¾ÑĦÑĸÑģ": 7626,
      "Ð»ÑĮÐ¹Ð¾Ð½": 7627,
      "ĠÐ¿Ð¾ÑĹÑħÐ°ÑĤÐ¸": 7628,
      "ĠÑĩÐµÐºÐ°ÑĤÐ¸": 7629,
      "ĠTages": 7630,
      "ĠÐ½ÐµÐ³Ð°ÑĤÐ¸Ð²Ð½Ð¾Ð¼Ñĥ": 7631,
      "ĠÐºÐµÑĢÑĸÐ²Ð½Ð¸ÑĨÑĤ": 7632,
      "ĠÑĤÑĥÑĢÐ¸ÑģÑĤ": 7633,
      "ĠÑĸÑģÐ½ÑĥÐ²Ð°Ð½Ð½Ñı": 7634,
      "ĠÐ¿ÑĸÐ´Ð²Ð¸ÑīÐµÐ½Ð½Ñı": 7635,
      "Ġbellt": 7636,
      "ĠÐ·Ð°Ð¹Ð¼Ð°ÑĶÑĤÑĮÑģÑı": 7637,
      "ĠÐºÐ¾Ð»ÐµÐ³Ð°Ð¼Ð¸": 7638,
      "ĠÐ»ÑİÐ´Ð¸Ð½Ð¸": 7639,
      "ĠÑģÐ»ÑĥÐ¶Ð±Ð°": 7640,
      "zentrum": 7641,
      "ĠÑħÐ°ÑĢÐ°ÐºÑĤÐµÑĢÐ¸ÑģÑĤÐ¸ÐºÑĥ": 7642,
      "ĠÐ¾ÐºÑĢÐµÐ¼Ð¾": 7643,
      "ĠÐ¼ÑĸÐ½ÑıÑĤÐ¸ÑģÑı": 7644,
      "ĠÐ¿Ð¾Ð·Ð¸ÑĤÐ¸Ð²Ð½Ñĸ": 7645,
      "iederlande": 7646,
      "ĠÐ·Ð°Ð»Ð¸ÑĪÐ°ÑĤÐ¸": 7647,
      "fÃ¼hrung": 7648,
      "fÃ¤llig": 7649,
      "takt": 7650,
      "trainieren": 7651,
      "Ġreisen": 7652,
      "ĠÐ´Ð¾Ð±ÑĢÐµ": 7653,
      "ĠÐ½Ð¾Ð¼ÐµÑĢ": 7654,
      "telefonieren": 7655,
      "ĠÐ¿ÑĢÐ¸Ð³Ð°Ð´": 7656,
      "ĠÑĩÑĥÐ´Ð¾Ð²Ð¸Ð¹": 7657,
      "Ġnette": 7658,
      "ĠÐ½ÐµÐ¹ÑĤÑĢ": 7659,
      "ĠWirtschafts": 7660,
      "Ð³ÐµÐ½ÑĸÑĤÐ¸Ð²": 7661,
      "ĠÑıÐ±Ð»ÑĥÐº": 7662,
      "Ġangefangen": 7663,
      "olkshochschule": 7664,
      "ĠZusammen": 7665,
      "Ġstornieren": 7666,
      "ÑĥÐ²Ð°Ð½Ð¸Ñħ": 7667,
      "ĠÑħÐ¾Ð»Ð¾Ð´Ð¸Ð»ÑĮÐ½Ð¸Ðº": 7668,
      "ĠReihenfolge": 7669,
      "ĠAntworten": 7670,
      "ĠVerkehrsmittel": 7671,
      "Ġentscheidest": 7672,
      "ĠÐĨÐ½ÑĤÐµÑĢÐ½ÐµÑĤÑĸ": 7673,
      "Ġkontrolliert": 7674,
      "ĠÐ°Ð²ÑĤÐ¾Ð¼Ð¾Ð±ÑĸÐ»ÑĮ": 7675,
      "ymnasium": 7676,
      "Gerade": 7677,
      "Hinten": 7678,
      "Internet": 7679,
      "MÃ¶chtest": 7680,
      "glied": 7681,
      "Ġusw": 7682,
      "ĠÐ´ÑĸÐ²Ñĩ": 7683,
      "ĠSortieren": 7684,
      "ĠÑģÑĤÐ¾Ð¼Ð°ÑĤÐ¾Ð»Ð¾Ð³": 7685,
      "Ð¾Ð³ÑĢÐ°ÑĦ": 7686,
      "ĠPrinzip": 7687,
      "ĠaufgerÃ¤umt": 7688,
      "Ð¾Ð»Ð¾Ð²ÑĸÑĩÐ¸Ð¹": 7689,
      "ĠÐ¶ÑĥÑĢÐ½Ð°Ð»": 7690,
      "ĠÑĸÐ½Ð¾Ð·ÐµÐ¼": 7691,
      "ÐºÐ¾Ð¼Ð¿ÐµÑĤÐµÐ½": 7692,
      "ĠDeklination": 7693,
      "ĠÐ¿Ð¾Ð´ÑıÐºÑĥÐ²Ð°Ð»Ð°": 7694,
      "ĠBewerbungsgesprÃ¤ch": 7695,
      "')": 7696,
      ".âĢľ": 7697,
      "/-": 7698,
      "/?": 7699,
      "01": 7700,
      "05": 7701,
      "09": 7702,
      "32": 7703,
      "38": 7704,
      "316": 7705,
      "41": 7706,
      "56": 7707,
      "62": 7708,
      "78": 7709,
      "Al": 7710,
      "Ap": 7711,
      "App": 7712,
      "Bi": 7713,
      "Bist": 7714,
      "Brot": 7715,
      "Balkon": 7716,
      "Dru": 7717,
      "DrauÃŁen": 7718,
      "Dinge": 7719,
      "Deshalb": 7720,
      "Danach": 7721,
      "EN": 7722,
      "ER": 7723,
      "Essen": 7724,
      "Erin": 7725,
      "Eis": 7726,
      "Esst": 7727,
      "Ehrlich": 7728,
      "Fisch": 7729,
      "Fabrik": 7730,
      "Fotograf": 7731,
      "Fliegen": 7732,
      "FÃ¤hrst": 7733,
      "Gitarre": 7734,
      "Glauben": 7735,
      "Garage": 7736,
      "Gymnasium": 7737,
      "He": 7738,
      "Her": 7739,
      "Haus": 7740,
      "Halt": 7741,
      "Hob": 7742,
      "HeiÃŁ": 7743,
      "Haupt": 7744,
      "Hacken": 7745,
      "Hals": 7746,
      "Isst": 7747,
      "Ihre": 7748,
      "Kar": 7749,
      "Kil": 7750,
      "Kell": 7751,
      "Keinen": 7752,
      "Kalender": 7753,
      "Keks": 7754,
      "Kennen": 7755,
      "Lauf": 7756,
      "Lis": 7757,
      "Lust": 7758,
      "Laptop": 7759,
      "Mann": 7760,
      "Muss": 7761,
      "Musik": 7762,
      "Mikrowelle": 7763,
      "Monat": 7764,
      "Muster": 7765,
      "Not": 7766,
      "Netz": 7767,
      "Natur": 7768,
      "Nico": 7769,
      "Note": 7770,
      "Niederlande": 7771,
      "Or": 7772,
      "Ph": 7773,
      "Pap": 7774,
      "Pers": 7775,
      "Platz": 7776,
      "Post": 7777,
      "RÃ¼cken": 7778,
      "Relativ": 7779,
      "Ste": 7780,
      "Setz": 7781,
      "Sehen": 7782,
      "Spa": 7783,
      "Tour": 7784,
      "Trage": 7785,
      "Tennis": 7786,
      "Tablette": 7787,
      "Trock": 7788,
      "WÃ¼r": 7789,
      "aat": 7790,
      "adie": 7791,
      "ace": 7792,
      "azieren": 7793,
      "bur": 7794,
      "blau": 7795,
      "blei": 7796,
      "bot": 7797,
      "buchen": 7798,
      "bitten": 7799,
      "braten": 7800,
      "bÃ¼ro": 7801,
      "cen": 7802,
      "dun": 7803,
      "dativ": 7804,
      "ding": 7805,
      "dÃ¼n": 7806,
      "dick": 7807,
      "drig": 7808,
      "ecke": 7809,
      "fer": 7810,
      "fÃ¼": 7811,
      "fing": 7812,
      "fang": 7813,
      "fÃ¼t": 7814,
      "folgen": 7815,
      "fahre": 7816,
      "fotograf": 7817,
      "fliegt": 7818,
      "gr": 7819,
      "gleicht": 7820,
      "gibst": 7821,
      "gress": 7822,
      "garage": 7823,
      "hte": 7824,
      "hiel": 7825,
      "hÃ¤sslich": 7826,
      "haupt": 7827,
      "hitzung": 7828,
      "ian": 7829,
      "ider": 7830,
      "ihn": 7831,
      "iser": 7832,
      "ice": 7833,
      "ihm": 7834,
      "kat": 7835,
      "kul": 7836,
      "kleid": 7837,
      "kale": 7838,
      "kaum": 7839,
      "kÃ¼nstlich": 7840,
      "kolog": 7841,
      "lers": 7842,
      "luss": 7843,
      "lungen": 7844,
      "lese": 7845,
      "mei": 7846,
      "mon": 7847,
      "mann": 7848,
      "mand": 7849,
      "mensch": 7850,
      "miss": 7851,
      "miÃŁ": 7852,
      "melden": 7853,
      "nier": 7854,
      "nimm": 7855,
      "nÃ¤hr": 7856,
      "ness": 7857,
      "nimmt": 7858,
      "ole": 7859,
      "oren": 7860,
      "offen": 7861,
      "ohlen": 7862,
      "ph": 7863,
      "pl": 7864,
      "pers": 7865,
      "paten": 7866,
      "passen": 7867,
      "plant": 7868,
      "rit": 7869,
      "ritt": 7870,
      "riere": 7871,
      "ration": 7872,
      "sw": 7873,
      "ses": 7874,
      "seit": 7875,
      "swort": 7876,
      "szeit": 7877,
      "sonn": 7878,
      "sland": 7879,
      "sollen": 7880,
      "singen": 7881,
      "singe": 7882,
      "tung": 7883,
      "tten": 7884,
      "tief": 7885,
      "trage": 7886,
      "tage": 7887,
      "trÃ¤ume": 7888,
      "vent": 7889,
      "wann": 7890,
      "wind": 7891,
      "will": 7892,
      "wahrscheinlich": 7893,
      "wenig": 7894,
      "ware": 7895,
      "yern": 7896,
      "zw": 7897,
      "zer": 7898,
      "ziel": 7899,
      "Â©": 7900,
      "ÃĦ": 7901,
      "Ð¯": 7902,
      "ÐĹ": 7903,
      "Ð¥ÑĤÐ¾": 7904,
      "Ġ>": 7905,
      "ĠÃ¶": 7906,
      "Ġat": 7907,
      "Ġeu": 7908,
      "Ġrauen": 7909,
      "Ġenden": 7910,
      "Ġehr": 7911,
      "ĠÑĸÐ³": 7912,
      "ĠrÃ¤umt": 7913,
      "Ġpflan": 7914,
      "ĠÃ¤uÃŁ": 7915,
      "ĦÐ²ÑĢÐ¾Ð¿": 7916,
      "ĠÐ¨": 7917,
      "ĠÐ¥ÑĤÐ¾": 7918,
      "Ð½ÑĥÑĶ": 7919,
      "Ð¾ÑĨÑĸ": 7920,
      "Ð¸ÑĨÑı": 7921,
      "Ð¸Ð½ÐµÑĨÑĮ": 7922,
      "ÐµÑģÑĤ": 7923,
      "ÐµÐ½Ð¾ÑģÑĤÑĸ": 7924,
      "ÐµÐºÐ¾Ð¼ÐµÐ½Ð´": 7925,
      "ÐµÑĨÑĤ": 7926,
      "ÑĸÑĤÑĮ": 7927,
      "ÑıÐ½": 7928,
      "ÑģÐ¼": 7929,
      "ÑģÐ¸Ð»": 7930,
      "ÑģÑĸÐ¼": 7931,
      "ÑģÑĦ": 7932,
      "ÑģÐµÑĢÐµÐ´": 7933,
      "Ð°ÑģÐ»": 7934,
      "Ð°ÐµÑĢ": 7935,
      "Ð°ÑĤÑĢ": 7936,
      "Ð°Ð½Ð¸": 7937,
      "ÑĤÑĶ": 7938,
      "ÑĢÑĸ": 7939,
      "ÑĢÑĸÐ±": 7940,
      "ÑĢÐ°Ð½": 7941,
      "ÑĢÐ¾ÑĪ": 7942,
      "ÑĢÐ¾Ð·ÑĥÐ¼": 7943,
      "ÑĢÐ¸Ð²Ð°ÑĤÐ¸": 7944,
      "chte": 7945,
      "ÑĥÐ»": 7946,
      "ÑĥÐºÑĤ": 7947,
      "ÑĥÐºÐ°": 7948,
      "ÑĥÑī": 7949,
      "ÑĥÐºÑĨÑĸ": 7950,
      "ÑĥÐ»Ð¸": 7951,
      "ree": 7952,
      "reie": 7953,
      "reig": 7954,
      "reten": 7955,
      "rekt": 7956,
      "reik": 7957,
      "orsch": 7958,
      "orange": 7959,
      "oralsatz": 7960,
      "enige": 7961,
      "enzin": 7962,
      "Ð»Ð¸Ðº": 7963,
      "Ð»ÐµÑĢ": 7964,
      "Ð»Ð¸Ð¹": 7965,
      "Ð»Ð¾Ð³": 7966,
      "Ð»Ð°Ð¼": 7967,
      "Ð»ÑĸÐº": 7968,
      "reck": 7969,
      "Ġdau": 7970,
      "Ġdam": 7971,
      "ĠdÃ¼r": 7972,
      "ĠdrÃ¼": 7973,
      "Ġdoch": 7974,
      "Ġdonn": 7975,
      "Ġdrehen": 7976,
      "erw": 7977,
      "erhÃ¶": 7978,
      "erinnen": 7979,
      "erfolg": 7980,
      "ÑĮÐ¾ÑĹ": 7981,
      "ÑĮÐºÐ¸Ð¹": 7982,
      "Ð¾Ð²Ð½": 7983,
      "Ð¾Ð²Ð½Ð¾": 7984,
      "Ð¾Ð²Ð½Ð°": 7985,
      "Ð¾Ð²Ð½Ñĸ": 7986,
      "Ð¾Ð²Ð¸ÑĤÐ¸": 7987,
      "Ð¾Ð²ÐµÑĨÑĮ": 7988,
      "Ð¾Ð²Ð°Ð¼Ð¸": 7989,
      "Ð¾Ð²ÑģÑĸÐ¼": 7990,
      "ĠÐŁÐ¸ÑĤ": 7991,
      "ĠÐ²Ð´": 7992,
      "ĠÐ²Ð¾Ð´": 7993,
      "ĠÐ²ÑĸÐ´Ð¼": 7994,
      "ĠÐ²ÑħÑĸÐ´": 7995,
      "ĠÐ²ÑģÑĸ": 7996,
      "ĠÐ²Ð¿ÑĢÐ°Ð²Ð¸": 7997,
      "ĠÐ²ÑĸÑĪÐ°ÑĤÐ¸": 7998,
      "ÑĩÐ¸Ðº": 7999
    },
    "merges": [
      [
        "Ġ",
        "Ð"
      ],
      [
        "Ð",
        "½"
      ],
      [
        "Ð",
        "¾"
      ],
      [
        "Ð",
        "¸"
      ],
      [
        "Ð",
        "µ"
      ],
      [
        "Ñ",
        "ĸ"
      ],
      [
        "Ñ",
        "ı"
      ],
      [
        "Ñ",
        "ģ"
      ],
      [
        "Ð",
        "°"
      ],
      [
        "Ñ",
        "Ĥ"
      ],
      [
        "Ð¾",
        "Ð"
      ],
      [
        "Ñ",
        "Ģ"
      ],
      [
        "c",
        "h"
      ],
      [
        "Ð¸",
        "Ð"
      ],
      [
        "Ñ",
        "ĥ"
      ],
      [
        "Ð½",
        "Ð½"
      ],
      [
        "r",
        "e"
      ],
      [
        "Ðµ",
        "Ð½Ð½"
      ],
      [
        "o",
        "r"
      ],
      [
        "e",
        "n"
      ],
      [
        "Ð",
        "»"
      ],
      [
        "re",
        "c"
      ],
      [
        "or",
        "rec"
      ],
      [
        "orrec",
        "t"
      ],
      [
        "Ġ",
        "d"
      ],
      [
        "e",
        "r"
      ],
      [
        "Ñ",
        "Ķ"
      ],
      [
        "ÐµÐ½Ð½",
        "Ñı"
      ],
      [
        "Ñ",
        "Į"
      ],
      [
        "Ð¾Ð",
        "²"
      ],
      [
        "ĠÐ",
        "Ł"
      ],
      [
        "ĠÐ",
        "²"
      ],
      [
        "Ñ",
        "ĩ"
      ],
      [
        "ĠÐ",
        "¿"
      ],
      [
        "Ġ",
        "'"
      ],
      [
        "ĠÐ",
        "´"
      ],
      [
        "i",
        "n"
      ],
      [
        "Ð¾",
        "Ñı"
      ],
      [
        "Ñĸ",
        "Ð"
      ],
      [
        "Ð¸Ð",
        "º"
      ],
      [
        "Ð°",
        "Ð"
      ],
      [
        "Ñģ",
        "Ð½"
      ],
      [
        "Ġ",
        "C"
      ],
      [
        "Ð¾Ñı",
        "ÑģÐ½"
      ],
      [
        "Ð¾ÑıÑģÐ½",
        "ÐµÐ½Ð½Ñı"
      ],
      [
        "â",
        "ľ"
      ],
      [
        "ð",
        "Ł"
      ],
      [
        "ĵ",
        "Ŀ"
      ],
      [
        "ĠÐŁ",
        "Ð¾ÑıÑģÐ½ÐµÐ½Ð½Ñı"
      ],
      [
        "ĠC",
        "orrect"
      ],
      [
        "âľ",
        "ħ"
      ],
      [
        "ðŁ",
        "ĵĿ"
      ],
      [
        "Ġ",
        "I"
      ],
      [
        "Ñģ",
        "ÑĤ"
      ],
      [
        "i",
        "e"
      ],
      [
        "s",
        "t"
      ],
      [
        "Ð¾Ð",
        "¼"
      ],
      [
        "Ð",
        "¼"
      ],
      [
        "a",
        "s"
      ],
      [
        "Ð",
        "º"
      ],
      [
        "Ñģ",
        "Ð»"
      ],
      [
        "Ġ",
        "ÑĢ"
      ],
      [
        "Ġ",
        "i"
      ],
      [
        "Ð¾",
        "ÑĢ"
      ],
      [
        "e",
        "in"
      ],
      [
        "ĠI",
        "n"
      ],
      [
        "c",
        "orrect"
      ],
      [
        "â",
        "Ŀ"
      ],
      [
        "ĠIn",
        "correct"
      ],
      [
        "âĿ",
        "Į"
      ],
      [
        "ĠÐ",
        "½"
      ],
      [
        "ĠÐ",
        "·"
      ],
      [
        "a",
        "u"
      ],
      [
        "g",
        "e"
      ],
      [
        "ÑĤ",
        "ÑĮ"
      ],
      [
        "ÑģÐ»",
        "Ð¾Ð²"
      ],
      [
        "Ñĸ",
        "ÑĶ"
      ],
      [
        "Ðµ",
        "Ñĩ"
      ],
      [
        "ÑĸÑĶ",
        "ÑģÐ»Ð¾Ð²"
      ],
      [
        "Ġ",
        "s"
      ],
      [
        "Ġ",
        "m"
      ],
      [
        "Ñĸ",
        "Ð½"
      ],
      [
        "Ð¾Ð¼",
        "Ñĥ"
      ],
      [
        "ÑĸÐ",
        "´"
      ],
      [
        "I",
        "ch"
      ],
      [
        "b",
        "e"
      ],
      [
        "Ġ",
        "Ñ"
      ],
      [
        "ÑĤ",
        "Ð¸"
      ],
      [
        "ĠÑĢ",
        "ÐµÑĩ"
      ],
      [
        "ĠÐ",
        "£"
      ],
      [
        "ĠÐ´",
        "ÑĸÑĶÑģÐ»Ð¾Ð²"
      ],
      [
        "i",
        "ch"
      ],
      [
        "Ð",
        "²"
      ],
      [
        "Ð¸",
        "ÑģÑĤ"
      ],
      [
        "Ð¾ÑĢ",
        "Ð¸ÑģÑĤ"
      ],
      [
        "Ð¸Ðº",
        "Ð¾ÑĢÐ¸ÑģÑĤ"
      ],
      [
        "Ð»",
        "Ñı"
      ],
      [
        "Ġd",
        "ie"
      ],
      [
        "Ġi",
        "st"
      ],
      [
        "Ġd",
        "as"
      ],
      [
        "u",
        "n"
      ],
      [
        "a",
        "n"
      ],
      [
        "ĠÐ²",
        "Ð¸ÐºÐ¾ÑĢÐ¸ÑģÑĤ"
      ],
      [
        "ĠÐ",
        "¼"
      ],
      [
        "ÐµÐ½Ð½",
        "Ñĸ"
      ],
      [
        "ĠÑĢÐµÑĩ",
        "ÐµÐ½Ð½Ñĸ"
      ],
      [
        "h",
        "a"
      ],
      [
        "Ð",
        "´"
      ],
      [
        "Ñģ",
        "Ñı"
      ],
      [
        "e",
        "i"
      ],
      [
        "Ð°Ð",
        "²"
      ],
      [
        "Ð½",
        "Ð¾"
      ],
      [
        "Ġ",
        "ge"
      ],
      [
        "t",
        "e"
      ],
      [
        "ĠI",
        "ch"
      ],
      [
        "ĠÐ",
        "°"
      ],
      [
        "ĠÐ¿",
        "ÑĢ"
      ],
      [
        "Ðµ",
        "ÑĢ"
      ],
      [
        "Ð¾Ð²",
        "Ñĥ"
      ],
      [
        "ÑĤÑĮ",
        "ÑģÑı"
      ],
      [
        "Ġ",
        "S"
      ],
      [
        "ĠÐ´ÑĸÑĶÑģÐ»Ð¾Ð²",
        "Ð¾"
      ],
      [
        "Ġ",
        "ÑģÑĤ"
      ],
      [
        "â",
        "Ģ"
      ],
      [
        "Ð¾Ð",
        "´"
      ],
      [
        "Ñ",
        "Ĩ"
      ],
      [
        "Ð¸Ð",
        "¹"
      ],
      [
        "Ġ",
        "w"
      ],
      [
        "ĠÐ²Ð¸ÐºÐ¾ÑĢÐ¸ÑģÑĤ",
        "Ð¾Ð²Ñĥ"
      ],
      [
        "Ð¸Ð",
        "²"
      ],
      [
        "ÑĶ",
        "ÑĤÑĮÑģÑı"
      ],
      [
        "au",
        "f"
      ],
      [
        "ĠÐ",
        "¾"
      ],
      [
        "Ã",
        "¼"
      ],
      [
        "ĠÐ´",
        "Ð»Ñı"
      ],
      [
        "e",
        "h"
      ],
      [
        "Ġ",
        "ha"
      ],
      [
        "Ð»",
        "ÑĮ"
      ],
      [
        "Ġd",
        "er"
      ],
      [
        "Ġ",
        "B"
      ],
      [
        "Ġ",
        "F"
      ],
      [
        "Ð°",
        "ÑĤÐ¸"
      ],
      [
        "ÑĸÐ´",
        "Ð¼"
      ],
      [
        "ĠÐ½",
        "Ð°"
      ],
      [
        "Ð¾Ð",
        "³"
      ],
      [
        "e",
        "s"
      ],
      [
        "Ñ",
        "Ĺ"
      ],
      [
        "Ġ",
        "âĢ"
      ],
      [
        "ÑĤ",
        "ÑĢ"
      ],
      [
        "'",
        "."
      ],
      [
        "Ð¾Ð³",
        "Ð¾"
      ],
      [
        "Ã",
        "¶"
      ],
      [
        "ĠÐ¿",
        "Ð¾"
      ],
      [
        "i",
        "t"
      ],
      [
        "Ġ",
        "ein"
      ],
      [
        "Ġ",
        "Ñĩ"
      ],
      [
        "Ġ",
        "D"
      ],
      [
        "Ðº",
        "Ñĥ"
      ],
      [
        "s",
        "ch"
      ],
      [
        "g",
        "en"
      ],
      [
        "Ġ",
        "n"
      ],
      [
        "ich",
        "t"
      ],
      [
        "Ġ",
        "Ñĥ"
      ],
      [
        "un",
        "d"
      ],
      [
        "Ð½",
        "Ð°"
      ],
      [
        "Ð",
        "¿"
      ],
      [
        "Ġha",
        "be"
      ],
      [
        "ĠÐ·",
        "Ð°Ð"
      ],
      [
        "Ġ",
        "M"
      ],
      [
        "Ð",
        "¶"
      ],
      [
        "Ġ",
        "H"
      ],
      [
        "Ð¸Ð",
        "¼"
      ],
      [
        "ÐµÐ½Ð½",
        "Ð¸Ðº"
      ],
      [
        "ÑĸÐ",
        "±"
      ],
      [
        "ĠâĢ",
        "ĵ"
      ],
      [
        "Ġ",
        "K"
      ],
      [
        "Ġd",
        "en"
      ],
      [
        "ÑĤÑĢ",
        "ÑĸÐ±"
      ],
      [
        "ÑĨ",
        "Ñĸ"
      ],
      [
        "e",
        "m"
      ],
      [
        "Ðµ",
        "ÑĤ"
      ],
      [
        "Ġi",
        "ch"
      ],
      [
        "Ð°",
        "ÑĶ"
      ],
      [
        "Ð¾",
        "ÑĹ"
      ],
      [
        "a",
        "r"
      ],
      [
        "Ð°",
        "ÑĤ"
      ],
      [
        "Ġ",
        "k"
      ],
      [
        "Ġ",
        "T"
      ],
      [
        "Ã",
        "¤"
      ],
      [
        "ÑĸÐ´Ð¼",
        "ÑĸÐ½"
      ],
      [
        "ĠÐ²",
        "ÑĸÐ´Ð¼ÑĸÐ½"
      ],
      [
        "ÑĢ",
        "ÑĤ"
      ],
      [
        "ĠÐ¿Ð¾",
        "ÑĤÑĢÑĸÐ±"
      ],
      [
        "Ð",
        "±"
      ],
      [
        "a",
        "ch"
      ],
      [
        "ÑĢÑĤ",
        "Ð¸Ðº"
      ],
      [
        "Ġ",
        "A"
      ],
      [
        "Ñ",
        "İ"
      ],
      [
        "Ð½",
        "Ð¸"
      ],
      [
        "Ð²",
        "Ð°ÑĤÐ¸"
      ],
      [
        "ĠÐ½",
        "Ðµ"
      ],
      [
        "Ð¸Ð",
        "»"
      ],
      [
        "ĠÑĢ",
        "Ð¾Ð´"
      ],
      [
        "e",
        "l"
      ],
      [
        "ĠÐ°",
        "ÑĢÑĤÐ¸Ðº"
      ],
      [
        "ĠÐ¿Ð¾ÑĤÑĢÑĸÐ±",
        "Ð½Ð¾"
      ],
      [
        "o",
        "n"
      ],
      [
        "Ġ",
        "-"
      ],
      [
        "ĠÑ",
        "Ĩ"
      ],
      [
        "a",
        "t"
      ],
      [
        "Ð¾ÑĹ",
        "ÑĤÑĮ"
      ],
      [
        "ĠÑģÑĤ",
        "Ð¾ÑĹÑĤÑĮ"
      ],
      [
        "l",
        "e"
      ],
      [
        "Ð°Ð",
        "·"
      ],
      [
        "ĠÐ",
        "º"
      ],
      [
        "Ġ",
        "W"
      ],
      [
        "ÑĮ",
        "Ð¾Ð¼Ñĥ"
      ],
      [
        "ĠÑ",
        "ī"
      ],
      [
        "Ġs",
        "eh"
      ],
      [
        "Ð½",
        "Ð¸Ð¹"
      ],
      [
        "Ð°Ð²",
        "Ð¸Ð»"
      ],
      [
        "Ġ",
        "P"
      ],
      [
        "Ġ",
        "("
      ],
      [
        "Ð½",
        "Ð¾Ð¼Ñĥ"
      ],
      [
        "a",
        "l"
      ],
      [
        "Ġ",
        "b"
      ],
      [
        "Ġ",
        "auf"
      ],
      [
        "ÑĸÐ",
        "¼"
      ],
      [
        "ĠÐ¼",
        "Ñĸ"
      ],
      [
        "ĠÐ²Ð¸ÐºÐ¾ÑĢÐ¸ÑģÑĤÐ¾Ð²Ñĥ",
        "ÑĶÑĤÑĮÑģÑı"
      ],
      [
        "ĠÑĨ",
        "ÑĮÐ¾Ð¼Ñĥ"
      ],
      [
        "Ġs",
        "ch"
      ],
      [
        "Ñĸ",
        "ÑģÐ»"
      ],
      [
        "ÑĸÑģÐ»",
        "Ñı"
      ],
      [
        "Ð",
        "·"
      ],
      [
        "ĠÐ¼Ñĸ",
        "Ñģ"
      ],
      [
        "ĠÐ²Ð¸ÐºÐ¾ÑĢÐ¸ÑģÑĤÐ¾Ð²Ñĥ",
        "Ð²Ð°ÑĤÐ¸"
      ],
      [
        "Ð¾Ð",
        "»"
      ],
      [
        ".",
        "."
      ],
      [
        "Ġn",
        "icht"
      ],
      [
        "D",
        "as"
      ],
      [
        "'",
        ","
      ],
      [
        "Ð½",
        "Ðµ"
      ],
      [
        "Ġw",
        "ei"
      ],
      [
        "Ð¼",
        "ÐµÐ½Ð½Ð¸Ðº"
      ],
      [
        "Ã",
        "Ł"
      ],
      [
        "d",
        "en"
      ],
      [
        "ĠÐ",
        "Ķ"
      ],
      [
        "ĠÑ",
        "Ħ"
      ],
      [
        "ĠÑī",
        "Ð¾"
      ],
      [
        "ÑĢ",
        "Ñı"
      ],
      [
        "Ġ",
        "G"
      ],
      [
        "Ð¾Ð",
        "º"
      ],
      [
        "m",
        "m"
      ],
      [
        "Ð°Ð²Ð¸Ð»",
        "ÑĮ"
      ],
      [
        "u",
        "t"
      ],
      [
        "s",
        "e"
      ],
      [
        "Ñ",
        "ħ"
      ],
      [
        "Ð¾ÑĢ",
        "Ð¼"
      ],
      [
        "Ġm",
        "ein"
      ],
      [
        "Ð°ÑĤ",
        "Ð¸Ð²"
      ],
      [
        "Ġseh",
        "e"
      ],
      [
        "Ġ",
        "f"
      ],
      [
        "Ġ",
        "in"
      ],
      [
        "Ð¾Ð²",
        "Ñĸ"
      ],
      [
        "d",
        "er"
      ],
      [
        "Ð°",
        "Ð½Ð½"
      ],
      [
        "Ġ",
        "ÑĤ"
      ],
      [
        "ĠÑĩ",
        "Ð°"
      ],
      [
        "Ð",
        "³"
      ],
      [
        "ĠÑĦ",
        "Ð¾ÑĢÐ¼"
      ],
      [
        "Ġ",
        "v"
      ],
      [
        "Ñĥ",
        "ÑĶ"
      ],
      [
        "ĠÑĢÐ¾Ð´",
        "Ñĥ"
      ],
      [
        "ĠÐ¿",
        "ÐµÑĢ"
      ],
      [
        "u",
        "ch"
      ],
      [
        "z",
        "u"
      ],
      [
        "Ġ",
        "g"
      ],
      [
        "Ġ",
        "ÑĶ"
      ],
      [
        "D",
        "er"
      ],
      [
        "b",
        "en"
      ],
      [
        "c",
        "k"
      ],
      [
        "er",
        "n"
      ],
      [
        "Ġ",
        "ÑĸÐ¼"
      ],
      [
        "ĠÐ°ÑĢÑĤÐ¸Ðº",
        "Ð»ÑĮ"
      ],
      [
        "ĠÐ¾",
        "Ð±"
      ],
      [
        "r",
        "o"
      ],
      [
        "ĠÐŁ",
        "ÑĢ"
      ],
      [
        "Ġ",
        "Ñı"
      ],
      [
        "Ð°",
        "Ð»ÑĮ"
      ],
      [
        "h",
        "e"
      ],
      [
        "d",
        "e"
      ],
      [
        "Ð½Ð°",
        "Ñĩ"
      ],
      [
        "ÑĢ",
        "Ñĥ"
      ],
      [
        "s",
        "s"
      ],
      [
        "ĠÐ",
        "Ĵ"
      ],
      [
        "or",
        "gen"
      ],
      [
        "Ð½",
        "Ð¸Ðº"
      ],
      [
        "Ð¼",
        "ÐµÑĤ"
      ],
      [
        "Ðº",
        "Ð°Ð·"
      ],
      [
[...]
