{
  "version": "1.0",
  "truncation": null,
  "padding": null,
  "added_tokens": [
    {
      "id": 0,
      "content": "<PAD>",
      "single_word": false,
      "lstrip": false,
      "rstrip": false,
      "normalized": false,
      "special": true
    },
    {
      "id": 1,
      "content": "<BOS>",
      "single_word": false,
      "lstrip": false,
      "rstrip": false,
      "normalized": false,
      "special": true
    },
    {
      "id": 2,
      "content": "<EOS>",
      "single_word": false,
      "lstrip": false,
      "rstrip": false,
      "normalized": false,
      "special": true
    },
    {
      "id": 3,
      "content": "<UNK>",
      "single_word": false,
      "lstrip": false,
      "rstrip": false,
      "normalized": false,
      "special": true
    }
  ],
  "normalizer": null,
  "pre_tokenizer": {
    "type": "ByteLevel",
    "add_prefix_space": false,
    "trim_offsets": true,
    "use_regex": true
  },
  "post_processor": {
    "type": "TemplateProcessing",
    "single": [
      {
        "SpecialToken": {
          "id": "<BOS>",
          "type_id": 0
        }
      },
      {
        "Sequence": {
          "id": "A",
          "type_id": 0
        }
      },
      {
        "SpecialToken": {
          "id": "<EOS>",
          "type_id": 0
        }
      }
    ],
    "pair": [
      {
        "SpecialToken": {
          "id": "<BOS>",
          "type_id": 0
        }
      },
      {
        "Sequence": {
          "id": "A",
          "type_id": 0
        }
      },
      {
        "SpecialToken": {
          "id": "<EOS>",
          "type_id": 0
        }
      },
      {
        "SpecialToken": {
          "id": "<BOS>",
          "type_id": 1
        }
      },
      {
        "Sequence": {
          "id": "B",
          "type_id": 1
        }
      },
      {
        "SpecialToken": {
          "id": "<EOS>",
          "type_id": 1
        }
      }
    ],
    "special_tokens": {
      "<BOS>": {
        "id": "<BOS>",
        "ids": [
          1
        ],
        "tokens": [
          "<BOS>"
        ]
      },
      "<EOS>": {
        "id": "<EOS>",
        "ids": [
          2
        ],
        "tokens": [
          "<EOS>"
        ]
      }
    }
  },
  "decoder": {
    "type": "ByteLevel",
    "add_prefix_space": true,
    "trim_offsets": true,
    "use_regex": true
  },
  "model": {
    "type": "BPE",
    "dropout": null,
    "unk_token": "<UNK>",
    "continuing_subword_prefix": null,
    "end_of_word_suffix": null,
    "fuse_unk": false,
    "byte_fallback": false,
    "ignore_merges": false,
    "vocab": {
      "<PAD>": 0,
      "<BOS>": 1,
      "<EOS>": 2,
      "<UNK>": 3,
      "!": 4,
      "%": 5,
      "'": 6,
      "(": 7,
      ")": 8,
      "*": 9,
      "+": 10,
      ",": 11,
      "-": 12,
      ".": 13,
      "/": 14,
      "0": 15,
      "1": 16,
      "2": 17,
      "3": 18,
      "4": 19,
      "5": 20,
      "6": 21,
      "7": 22,
      "8": 23,
      "9": 24,
      ":": 25,
      ";": 26,
      "=": 27,
      ">": 28,
      "?": 29,
      "A": 30,
      "B": 31,
      "C": 32,
      "D": 33,
      "E": 34,
      "F": 35,
      "G": 36,
      "H": 37,
      "I": 38,
      "J": 39,
      "K": 40,
      "L": 41,
      "M": 42,
      "N": 43,
      "O": 44,
      "P": 45,
      "Q": 46,
      "R": 47,
      "S": 48,
      "T": 49,
      "U": 50,
      "V": 51,
      "W": 52,
      "X": 53,
      "Y": 54,
      "Z": 55,
      "[": 56,
      "]": 57,
      "_": 58,
      "`": 59,
      "a": 60,
      "b": 61,
      "c": 62,
      "d": 63,
      "e": 64,
      "f": 65,
      "g": 66,
      "h": 67,
      "i": 68,
      "j": 69,
      "k": 70,
      "l": 71,
      "m": 72,
      "n": 73,
      "o": 74,
      "p": 75,
      "q": 76,
      "r": 77,
      "s": 78,
      "t": 79,
      "u": 80,
      "v": 81,
      "w": 82,
      "x": 83,
      "y": 84,
      "z": 85,
      "¡": 86,
      "¢": 87,
      "£": 88,
      "¤": 89,
      "¥": 90,
      "¦": 91,
      "§": 92,
      "¨": 93,
      "©": 94,
      "«": 95,
      "®": 96,
      "¯": 97,
      "°": 98,
      "±": 99,
      "²": 100,
      "³": 101,
      "´": 102,
      "µ": 103,
      "¶": 104,
      "·": 105,
      "¸": 106,
      "¹": 107,
      "º": 108,
      "»": 109,
      "¼": 110,
      "½": 111,
      "¾": 112,
      "¿": 113,
      "Â": 114,
      "Ã": 115,
      "Ð": 116,
      "Ñ": 117,
      "Ò": 118,
      "â": 119,
      "ï": 120,
      "ð": 121,
      "Ċ": 122,
      "Ġ": 123,
      "Ģ": 124,
      "ģ": 125,
      "Ĥ": 126,
      "ĥ": 127,
      "Ħ": 128,
      "ħ": 129,
      "Ĩ": 130,
      "ĩ": 131,
      "Ī": 132,
      "ī": 133,
      "Į": 134,
      "İ": 135,
      "ı": 136,
      "Ĳ": 137,
      "ĳ": 138,
      "Ĵ": 139,
      "ĵ": 140,
      "Ķ": 141,
      "ķ": 142,
      "ĸ": 143,
      "Ĺ": 144,
      "ĺ": 145,
      "Ļ": 146,
      "ļ": 147,
      "Ľ": 148,
      "ľ": 149,
      "Ŀ": 150,
      "ŀ": 151,
      "Ł": 152,
      "ł": 153,
      "ĠÐ": 154,
      "Ð½": 155,
      "Ð¾": 156,
      "Ðµ": 157,
      "Ñı": 158,
      "Ñĸ": 159,
      "Ñģ": 160,
      "re": 161,
      "Ð¾Ð": 162,
      "Ð°": 163,
      "or": 164,
      "rec": 165,
      "orrec": 166,
      "orrect": 167,
      "Ð¸": 168,
      "ch": 169,
      "en": 170,
      "Ġ'": 171,
      "ÑĤ": 172,
      "ÑĢ": 173,
      "ÐµÐ½": 174,
      "Ð»": 175,
      "ĠC": 176,
      "Ñĥ": 177,
      "âľ": 178,
      "ĠCorrect": 179,
      "âľħ": 180,
      "ÐµÐ½Ð½": 181,
      "ÑĶ": 182,
      "er": 183,
      "Ð¼": 184,
      "in": 185,
      "ÐµÐ½Ð½Ñı": 186,
      "st": 187,
      "ĠI": 188,
      "Ðº": 189,
      "Ð¾Ñı": 190,
      "ie": 191,
      "Ġd": 192,
      "Ñĩ": 193,
      "ĠÐŁ": 194,
      "Ð¾Ð²": 195,
      "ÑģÐ½": 196,
      "ĠÐ¿": 197,
      "Ð¾Ð¼": 198,
      "ĠIn": 199,
      "Ð¾ÑıÑģÐ½": 200,
      "Ð¾ÑıÑģÐ½ÐµÐ½Ð½Ñı": 201,
      "correct": 202,
      "âĿ": 203,
      "ðŁ": 204,
      "ĵĿ": 205,
      "ĠÐŁÐ¾ÑıÑģÐ½ÐµÐ½Ð½Ñı": 206,
      "ĠIncorrect": 207,
      "âĿĮ": 208,
      "ðŁĵĿ": 209,
      "ĠÐ´": 210,
      "Ð¸Ðº": 211,
      "as": 212,
      "Ð´": 213,
      "au": 214,
      "ha": 215,
      "ÑģÐ»": 216,
      "ĠÐ¼": 217,
      "ÑĮ": 218,
      "Ð°ÑĶ": 219,
      "ĠÐ°": 220,
      "ĠÐ·": 221,
      "Ġi": 222,
      "ge": 223,
      "Ð°Ð": 224,
      "ÑģÐ»Ð¾Ð²": 225,
      "ĠÐ½": 226,
      "'.": 227,
      "ĠÑģ": 228,
      "ÑĸÑĶ": 229,
      "ÑĸÑĶÑģÐ»Ð¾Ð²": 230,
      "Ð¾Ð¼Ñĥ": 231,
      "ĠÐ²": 232,
      "ÑĸÑĶÑģÐ»Ð¾Ð²Ð¾": 233,
      "ÑĸÐ½": 234,
      "ein": 235,
      "Ð»Ñı": 236,
      "ÑĢÐµ": 237,
      "Ġha": 238,
      "ĠD": 239,
      "an": 240,
      "Ġw": 241,
      "ei": 242,
      "Ġ(": 243,
      "Ġs": 244,
      "Sie": 245,
      "ÑĤÐ¸": 246,
      "Ġk": 247,
      "Ġge": 248,
      "Ich": 249,
      "ĠÐ½Ðµ": 250,
      "hr": 251,
      "Ġist": 252,
      "ti": 253,
      "ĠÐ¼Ð°ÑĶ": 254,
      "ut": 255,
      "',": 256,
      "ĠÐ£": 257,
      "Ġm": 258,
      "auf": 259,
      "ÑĸÐ´": 260,
      "Ð²": 261,
      "ĠA": 262,
      "ĠÐĶ": 263,
      "tiv": 264,
      "Ð¾ÑĢ": 265,
      "ÑĩÐµÐ½Ð½Ñı": 266,
      "Ð¾Ð³": 267,
      "Ð¾Ð³Ð¾": 268,
      "Ð¼Ðµ": 269,
      "Ð»ÑĮ": 270,
      "ÑĨ": 271,
      "ĠÐ´ÑĸÑĶÑģÐ»Ð¾Ð²Ð¾": 272,
      "Ġb": 273,
      "Ã¼": 274,
      "ativ": 275,
      "Ð¼ÐµÑĤ": 276,
      "ir": 277,
      "Ġhab": 278,
      "ĠÐ´Ð»Ñı": 279,
      "ĠÐ¿ÑĸÐ´": 280,
      "Ð¹": 281,
      "ĠS": 282,
      "Ð¸Ð¼": 283,
      "ÐµÐ½Ð½Ð¸Ðº": 284,
      "Ð¼ÐµÐ½Ð½Ð¸Ðº": 285,
      "ĠB": 286,
      "ÑĦ": 287,
      "Ð¿": 288,
      "es": 289,
      "ich": 290,
      "âĢ": 291,
      "Ð¾Ð´": 292,
      "ĠÑĢÐµ": 293,
      "om": 294,
      "ĠÑģÑĤ": 295,
      "ach": 296,
      "Ġn": 297,
      "Er": 298,
      "ĠâĢ": 299,
      "eit": 300,
      "hen": 301,
      "ĠÑĥ": 302,
      "ÑĤÐ¸Ðº": 303,
      "ĠIch": 304,
      "Das": 305,
      "sch": 306,
      "ĠÐ°ÑĢ": 307,
      "ĠÐ°ÑĢÑĤÐ¸Ðº": 308,
      "ĠÐ¿ÑĸÐ´Ð¼ÐµÑĤ": 309,
      "ĠÐĶÑĸÑĶÑģÐ»Ð¾Ð²Ð¾": 310,
      "de": 311,
      "ÑĨÑĸ": 312,
      "Ã¤": 313,
      "ĠÐ¿ÑĢ": 314,
      "ĠÐ·Ð°Ð": 315,
      "he": 316,
      "Ð¾ÑıÑĤÐ¸": 317,
      "ĠÑģÑĤÐ¾ÑıÑĤÐ¸": 318,
      "ern": 319,
      "ĠÑĩ": 320,
      "ar": 321,
      "ĠÑĤ": 322,
      "Ġein": 323,
      "Wir": 324,
      "un": 325,
      "Ġbin": 326,
      "ĠÑĢÐµÑĩÐµÐ½Ð½Ñı": 327,
      "ĠH": 328,
      "se": 329,
      "ĠK": 330,
      "ÑĢÐ¾Ð´": 331,
      "ĠF": 332,
      "ÑĢÐ¾Ð´Ñĥ": 333,
      "ĠÐº": 334,
      "ÑģÑĸ": 335,
      "gen": 336,
      "Ġl": 337,
      "Ñİ": 338,
      "ĠÐ¾": 339,
      "Ð°Ð³": 340,
      "Ð¸Ð½": 341,
      "')": 342,
      "ll": 343,
      "ĠÐ²Ð¸Ð¼": 344,
      "Ð°Ð³Ð°ÑĶ": 345,
      "ĠÐ²Ð¸Ð¼Ð°Ð³Ð°ÑĶ": 346,
      "ĠÐ·Ð°": 347,
      "Ð¾Ð»": 348,
      "Ġdas": 349,
      "ben": 350,
      "ĠmÃ¼": 351,
      "Ġder": 352,
      "ĠÐ°ÑĢÑĤÐ¸ÐºÐ»ÑĮ": 353,
      "Ġden": 354,
      "fe": 355,
      "Ġ('": 356,
      "ru": 357,
      "Ð¸Ð¹": 358,
      "ÑģÑı": 359,
      "Ġdie": 360,
      "ĠÑĦ": 361,
      "Ð»ÑĮÐ½": 362,
      "Du": 363,
      "ĠÑĩÐ°": 364,
      "sen": 365,
      "ÐµÑĢÐµ": 366,
      "Ihr": 367,
      "ĠÑĩÐ°ÑģÑĸ": 368,
      "Ð¾ÑĢÐ¼": 369,
      "em": 370,
      "ĠÑĦÐ¾ÑĢÐ¼": 371,
      "omm": 372,
      "ĠSie": 373,
      "eut": 374,
      "ĠmÃ¼de": 375,
      "ĠM": 376,
      "Ð¸Ñģ": 377,
      "us": 378,
      "ĠG": 379,
      "ĠÐ¿Ð¾": 380,
      "ind": 381,
      "Ð±": 382,
      "Ġg": 383,
      "ÑĤÑĮ": 384,
      "ĠÑĢÐ¾Ð´Ñĥ": 385,
      "ĠÐĶÐ»Ñı": 386,
      "Ð°Ð²": 387,
      "Ġnach": 388,
      "ĠT": 389,
      "ro": 390,
      "ter": 391,
      "ÑĤÑĮÑģÑı": 392,
      "ÑĥÑĶ": 393,
      "eutsch": 394,
      "ĠDeutsch": 395,
      "ĠÐ¿ÑĸÐ´Ð¼ÐµÑĤÐ°": 396,
      "ĠÐ·Ð°Ðº": 397,
      "Ð°Ð¼": 398,
      "ĠÐ·Ð°ÐºÑĸÐ½": 399,
      "ĠÐ·Ð°ÐºÑĸÐ½ÑĩÐµÐ½Ð½Ñı": 400,
      "Ġ'-": 401,
      "ĠÐºÑĸÐ½": 402,
      "Ð½ÑĮ": 403,
      "ĠÐºÑĸÐ½ÑĨÑĸ": 404,
      "ĠSu": 405,
      "ann": 406,
      "Ġhat": 407,
      "ĠâĢĶ": 408,
      "ĠSup": 409,
      "Ġhabe": 410,
      "beit": 411,
      "Ġauf": 412,
      "chen": 413,
      "ÑĢÑĸ": 414,
      "ĠÑģÐ°Ð¼": 415,
      "ĠÑģÐ°Ð¼Ð¾Ð¼Ñĥ": 416,
      "kt": 417,
      "eil": 418,
      "ĠAr": 419,
      "Ġlern": 420,
      "ĠÐ½Ð°": 421,
      "der": 422,
      "ÐµÑĢÐµÐ´": 423,
      "Ð¶": 424,
      "ĠZ": 425,
      "ĠP": 426,
      "Ġdem": 427,
      "Ð¸ÑģÑĤ": 428,
      "icht": 429,
      "ĠDas": 430,
      "iel": 431,
      "Ð²Ñĸ": 432,
      "ank": 433,
      "kauf": 434,
      "ĠArbeit": 435,
      "Ð³": 436,
      "ÑĢÑĥ": 437,
      "Ð½Ð¸Ðº": 438,
      "Ð½Ð°": 439,
      "Ġhaben": 440,
      "Ġkauf": 441,
      "ĠZeit": 442,
      "Ð½Ñı": 443,
      "tz": 444,
      "ĠÐ±": 445,
      "pe": 446,
      "Ġin": 447,
      "ÑĪ": 448,
      "Ġgehe": 449,
      "um": 450,
      "ren": 451,
      "ÑĩÐ¾Ð³Ð¾": 452,
      "Ġt": 453,
      "rau": 454,
      "kk": 455,
      "ĠAkk": 456,
      "est": 457,
      "ĠâĢĵ": 458,
      "Ð¾Ð²Ñĸ": 459,
      "eu": 460,
      "ĠDu": 461,
      "be": 462,
      "Ġer": 463,
      "Ð·": 464,
      "usativ": 465,
      "ĠHau": 466,
      "ĠAkkusativ": 467,
      "eine": 468,
      "Ð°Ð½": 469,
      "Ġf": 470,
      "Ġdu": 471,
      "ĠÑģÐ¿": 472,
      "Ñħ": 473,
      "Ġweil": 474,
      "ĠÐ·Ð°Ð¹": 475,
      "Ð¸Ð¹Ð¼ÐµÐ½Ð½Ð¸Ðº": 476,
      "ĠÐ·Ð°Ð¹Ð¼ÐµÐ½Ð½Ð¸Ðº": 477,
      "Ð½Ð°Ñĩ": 478,
      "ÐµÐ½Ð½Ñĸ": 479,
      "ĠDativ": 480,
      "piel": 481,
      "ĠÑĤÐµ": 482,
      "Ġkomm": 483,
      "Ã¶": 484,
      "ĠSch": 485,
      "ĠÐ¿ÑĸÐ´Ð¼ÐµÑĤÐ¾Ð¼": 486,
      "Ð¿Ðµ": 487,
      "che": 488,
      "ÑĢÑĸÑĪ": 489,
      "Ð½ÑĮÐ¾Ð¼Ñĥ": 490,
      "ĠÑĤÐµÐ¿Ðµ": 491,
      "ĠHause": 492,
      "ÑĢÑĸÑĪÐ½ÑĮÐ¾Ð¼Ñĥ": 493,
      "ĠÑĤÐµÐ¿ÐµÑĢÑĸÑĪÐ½ÑĮÐ¾Ð¼Ñĥ": 494,
      "ÑĸÑģ": 495,
      "cht": 496,
      "ĠSuppe": 497,
      "Ð½Ðµ": 498,
      "Ġgut": 499,
      "ht": 500,
      "Ġsch": 501,
      "haben": 502,
      "hn": 503,
      "ĠÑĦÐ¾ÑĢÐ¼Ñĥ": 504,
      "ste": 505,
      "ĠÐ¼ÑĸÑģ": 506,
      "ist": 507,
      "Nom": 508,
      "inativ": 509,
      "Nominativ": 510,
      "ĠÐ´ÑĢÑĥ": 511,
      "Ð¸Ð»ÑĮÐ½": 512,
      "ĠÑĤÐ¾Ð¼Ñĥ": 513,
      "ĠÐ´ÑĢÑĥÐ³": 514,
      "Ġan": 515,
      "ĠÐŁÑĢ": 516,
      "ĠÐ¼ÑĸÑģÑĨÑĸ": 517,
      "ĠÐ´ÑĢÑĥÐ³Ð¾Ð¼Ñĥ": 518,
      "ehr": 519,
      "Ġko": 520,
      "den": 521,
      "Ġlernen": 522,
      "ĠÐ±Ñĥ": 523,
      "Ð°ÑĤÐ¸": 524,
      "ĠEr": 525,
      "Ġwir": 526,
      "ĠÐ±ÑĥÑĤÐ¸": 527,
      "ĠÐ¿ÐµÑĢÐµÐ´": 528,
      "ĠÐ¿Ð¾ÑĤ": 529,
      "Ð´Ð¸": 530,
      "Ġhe": 531,
      "ĠÑĸ": 532,
      "ung": 533,
      "ft": 534,
      "ĠÑĸÐ½": 535,
      "Ð°Ð»ÑĮÐ½": 536,
      "Ġich": 537,
      "ÑĸÑĤÐ¸": 538,
      "das": 539,
      "Ð´Ð½": 540,
      "Ð°Ð²Ð¸Ð»ÑĮÐ½": 541,
      "rÃ¤": 542,
      "ĠÑĸÐ½ÑĦ": 543,
      "ÑĸÐ½ÑĸÑĤÐ¸": 544,
      "ĠÑĸÐ½ÑĦÑĸÐ½ÑĸÑĤÐ¸": 545,
      "ĠÑĸÐ½ÑĦÑĸÐ½ÑĸÑĤÐ¸Ð²Ñĸ": 546,
      "ssen": 547,
      "itiv": 548,
      "Ð¾Ð¿": 549,
      "ĠPar": 550,
      "ĠÑĦÐ¾ÑĢÐ¼Ñĸ": 551,
      "Ġhast": 552,
      "ĠGen": 553,
      "hren": 554,
      "ÃŁ": 555,
      "ĠGenitiv": 556,
      "ÑĨÑĮ": 557,
      "Ð¸Ð½Ñĥ": 558,
      "ĠÐ¼Ð¸Ð½Ñĥ": 559,
      "Ð»Ð¾Ð¼Ñĥ": 560,
      "ĠÐ¼Ð¸Ð½ÑĥÐ»Ð¾Ð¼Ñĥ": 561,
      "ÑģÐ½Ð¾Ð²": 562,
      "ĠÐ¾ÑģÐ½Ð¾Ð²": 563,
      "Ð°Ð²Ð¸Ð»ÑĮÐ½Ð¾": 564,
      "..": 565,
      "ĠÐ²Ð¸Ðº": 566,
      "ĠÐ¾ÑģÐ½Ð¾Ð²Ð½Ðµ": 567,
      "Ð¾ÑĢÐ¸ÑģÑĤ": 568,
      "die": 569,
      "Ð¾Ð¿Ð¾Ð¼": 570,
      "ĠÐ²Ð¸ÐºÐ¾ÑĢÐ¸ÑģÑĤ": 571,
      "ÑĸÐ²": 572,
      "Ð¸ÑĤ": 573,
      "Ð¾Ð²ÑĥÑĶ": 574,
      "ĠÐ¿Ð¾Ñĩ": 575,
      "ĠÐ²Ð¸ÐºÐ¾ÑĢÐ¸ÑģÑĤÐ¾Ð²ÑĥÑĶ": 576,
      "enn": 577,
      "PrÃ¤": 578,
      "egen": 579,
      "ĠÑĸÐ¼ÐµÐ½Ð½Ð¸Ðº": 580,
      "ĠW": 581,
      "ohn": 582,
      "Ġspiel": 583,
      "ÑĸÑģÐ»": 584,
      "ÑĸÑģÐ»Ñı": 585,
      "te": 586,
      "ĠÐ·Ð°Ð¿": 587,
      "ĠÐ²ÑĸÐ´": 588,
      "ÑĢÑı": 589,
      "ĠKa": 590,
      "ĠÑģÐ»Ð¾Ð²": 591,
      "ÑĥÑĩ": 592,
      "Ã¶n": 593,
      "on": 594,
      "ĠÐ·Ñĸ": 595,
      "Ġdes": 596,
      "ĠÑĢÐµÑĩ": 597,
      "ĠÐ¶": 598,
      "Ð½Ð¸ÐºÐ¾Ð¼": 599,
      "ĠÐ¿ÑĸÐ´ÑĢÑı": 600,
      "Ð¾Ð»ÑĥÑĩ": 601,
      "ĠÑģÐ¿Ð¾Ð»ÑĥÑĩ": 602,
      "Ð´Ð½Ð¾Ð¼Ñĥ": 603,
      "ĠÑĢÐµÑĩÐµÐ½Ð½Ñĸ": 604,
      "ĠÐ¿ÑĸÐ´ÑĢÑıÐ´Ð½Ð¾Ð¼Ñĥ": 605,
      "ĠÑģÐ¿Ð¾Ð»ÑĥÑĩÐ½Ð¸ÐºÐ¾Ð¼": 606,
      "Ð²Ð¾ÑĢ": 607,
      "rin": 608,
      "rank": 609,
      "ester": 610,
      "').": 611,
      "wester": 612,
      "utter": 613,
      "und": 614,
      "ĠÐ°ÑĢÑĤÐ¸ÐºÐ»Ñı": 615,
      "it": 616,
      "ĠNominativ": 617,
      "Ġz": 618,
      "ĠÐ·Ð°Ð²": 619,
      "ĠÐ¶ÑĸÐ½": 620,
      "ruder": 621,
      "ĠÐ¶ÑĸÐ½Ð¾": 622,
      "ĠMutter": 623,
      "fel": 624,
      "ĠÐ¶ÑĸÐ½Ð¾ÑĩÐ¾Ð³Ð¾": 625,
      "fen": 626,
      "Ð¶Ð´Ð¸": 627,
      "ĠÐ·Ð°Ð²Ð¶Ð´Ð¸": 628,
      "bl": 629,
      "ĠWir": 630,
      "Ġsie": 631,
      "Ġsind": 632,
      "al": 633,
      "Ġ-": 634,
      "kauft": 635,
      "aus": 636,
      "Ġgehen": 637,
      "Ð½Ð¸Ð¹": 638,
      "ĠÐŁÑĢÐ¸Ð¹Ð¼ÐµÐ½Ð½Ð¸Ðº": 639,
      "dem": 640,
      "Ġhabt": 641,
      "all": 642,
      "ĠIhr": 643,
      "ĠÐ¿ÑĢÐ°Ð²Ð¸Ð»ÑĮÐ½Ð¾": 644,
      "ĠÐ´Ð¾Ð¿Ð¾Ð¼": 645,
      "sehen": 646,
      "Ġse": 647,
      "ien": 648,
      "Ġim": 649,
      "isch": 650,
      "uch": 651,
      "Ġes": 652,
      "ÐºÐ°": 653,
      "Ð½Ð¾Ð³Ð¾": 654,
      "rotz": 655,
      "rot": 656,
      "ill": 657,
      "sein": 658,
      "ĠAp": 659,
      "Ġnicht": 660,
      "Ġmeine": 661,
      "Ð¾Ðº": 662,
      "ĠBrot": 663,
      "ĠU": 664,
      "Ġkrank": 665,
      "ĠTisch": 666,
      "erm": 667,
      "'),": 668,
      "ÑİÐ²": 669,
      "ĠFrau": 670,
      "Ġwenn": 671,
      "komm": 672,
      "arkt": 673,
      "angen": 674,
      "hat": 675,
      "ĠKind": 676,
      "ĠSuperm": 677,
      "ĠSupermarkt": 678,
      "uÃŁ": 679,
      "du": 680,
      "ihr": 681,
      "Ġste": 682,
      "ĠFuÃŁ": 683,
      "ĠSchwester": 684,
      "acht": 685,
      "ĠBruder": 686,
      "ball": 687,
      "gangen": 688,
      "Ð¾Ð±": 689,
      "ĠFuÃŁball": 690,
      "zi": 691,
      "Ġum": 692,
      "Ð°ÑĶÑĤÑĮÑģÑı": 693,
      "Ð¼ÑĸÐ½": 694,
      "gessen": 695,
      "ĠÐ·Ð¼ÑĸÐ½": 696,
      "ĠBuch": 697,
      "ĠÐļ": 698,
      "ĠL": 699,
      "ĠApfel": 700,
      "ĠII": 701,
      "Ġkochen": 702,
      "Ð¾Ð»Ð¸": 703,
      "ke": 704,
      "wor": 705,
      "ko": 706,
      "erfe": 707,
      "Ġaus": 708,
      "erfekt": 709,
      "sich": 710,
      "zip": 711,
      "tizip": 712,
      "Ġ7": 713,
      "ĠPartizip": 714,
      "ĠUhr": 715,
      "ĠÐ·Ð°Ð¹Ð¼ÐµÐ½Ð½Ð¸ÐºÐ°": 716,
      "ĠÑĶ": 717,
      "Ġdass": 718,
      "Ġsich": 719,
      "ĠÐļÐ¾Ð»Ð¸": 720,
      "ĠÐ¿Ð¾ÑĩÐ¸Ð½": 721,
      "ÑİÑĤÑĮÑģÑı": 722,
      "Perfekt": 723,
      "Ð»ÑİÐ²": 724,
      "ĠÐ¿Ð¾ÑĩÐ¸Ð½Ð°ÑĶÑĤÑĮÑģÑı": 725,
      "Ð¸ÑģÑĤÐ°Ð²": 726,
      "Ã¤hren": 727,
      "ÑĢÐµÐ¼": 728,
      "kaufen": 729,
      "Ð°Ð½Ð¸Ð¼": 730,
      "Ã¤hrend": 731,
      "Ġv": 732,
      "ĠÐ¿ÑĢÐ¸ÑģÑĤÐ°Ð²": 733,
      "ĠÐ¿ÑĢÐ¸ÑģÑĤÐ°Ð²ÐºÐ°": 734,
      "ffe": 735,
      "ĠÐ¿ÑĢÐ¸Ðº": 736,
      "ĠÐ²ÑĸÐ´Ð¾Ðº": 737,
      "Ð»ÑİÐ²Ð°Ð½Ð¸Ð¼": 738,
      "ÑĢÐµÐ¼Ð»ÑİÐ²Ð°Ð½Ð¸Ð¼": 739,
      "ĠÐ²ÑĸÐ´Ð¾ÐºÑĢÐµÐ¼Ð»ÑİÐ²Ð°Ð½Ð¸Ð¼": 740,
      "Ð¼ÐµÑĤÐ½Ð¸Ðº": 741,
      "ĠÐ¿ÑĢÐ¸ÐºÐ¼ÐµÑĤÐ½Ð¸Ðº": 742,
      "ĠKaffe": 743,
      "ĠKaffee": 744,
      "uto": 745,
      "ĠÑĩÐ¾Ð»": 746,
      "ĠÑĩÐ¾Ð»Ð¾Ð²Ñĸ": 747,
      "Ð½ÑĮÐ¾Ð³Ð¾": 748,
      "ĠÑģÐµÑĢÐµÐ´": 749,
      "ĠÑĩÐ¾Ð»Ð¾Ð²ÑĸÑĩÐ¾Ð³Ð¾": 750,
      "ĠÑģÐµÑĢÐµÐ´Ð½ÑĮÐ¾Ð³Ð¾": 751,
      "Ġtrin": 752,
      "Ġausru": 753,
      "ĠAuto": 754,
      "ute": 755,
      "kommen": 756,
      "sens": 757,
      "Ġfre": 758,
      "Ġheute": 759,
      "Ġgl": 760,
      "PrÃ¤sens": 761,
      "Ð¾Ð´Ð°Ð»ÑĮÐ½": 762,
      "ier": 763,
      "Am": 764,
      "asche": 765,
      "Ġwar": 766,
      "Ġkaufen": 767,
      "twor": 768,
      "Ð¾Ñģ": 769,
      "eid": 770,
      "ag": 771,
      "ĠÐºÐ¾ÑĢ": 772,
      "Ð½Ð°ÑĩÐµÐ½": 773,
      "ten": 774,
      "Ð½Ð°ÑĩÐµÐ½Ð¾Ð³Ð¾": 775,
      "Ġbrau": 776,
      "ÑĢÐµÐ±": 777,
      "ĠÐºÐ¾ÑĢÐµÐ½": 778,
      "Ġtrotz": 779,
      "Ġmehr": 780,
      "uss": 781,
      "ĠÐ¿Ð¾ÑĤÑĢÐµÐ±": 782,
      "ĠÐ¿Ð¾ÑĤÑĢÐµÐ±ÑĥÑĶ": 783,
      "ĠÐ¾Ð·": 784,
      "Wo": 785,
      "Ð¾Ð±Ñĸ": 786,
      "ÑĸÐ¹": 787,
      "Ġlie": 788,
      "lern": 789,
      "Ġneu": 790,
      "ĠÐ¿Ð¾Ð²": 791,
      "ÑĢÑĸÐ±": 792,
      "aube": 793,
      "ĠÐ¿Ð¾ÑĤÑĢÑĸÐ±": 794,
      "ĠHung": 795,
      "Ġkauft": 796,
      "ĠHunger": 797,
      "il": 798,
      "Ġglaube": 799,
      "orgen": 800,
      "ser": 801,
      "Wann": 802,
      "Ð°Ð·": 803,
      "ken": 804,
      "Ġspielt": 805,
      "rst": 806,
      "ÑĸÐ¶": 807,
      "Ġwill": 808,
      "ĠDurst": 809,
      "erl": 810,
      "Ġihr": 811,
      ").": 812,
      "bend": 813,
      "ĠÐ²Ð¸ÐºÐ¾ÑĢÐ¸ÑģÑĤÐ¾Ð²ÑĥÑĶÑĤÑĮÑģÑı": 814,
      "et": 815,
      "Ġgegangen": 816,
      "ĠÐ¿ÑĢÐ¸Ð¹Ð¼ÐµÐ½Ð½Ð¸Ðº": 817,
      "Ð¾ÑĤ": 818,
      "ĠAbend": 819,
      "Ã¼r": 820,
      "Ġwohn": 821,
      "Ġwegen": 822,
      "Ġgegessen": 823,
      "ĠTasche": 824,
      "des": 825,
      "Ġkein": 826,
      "ĠÑĨÑĮ": 827,
      "Ð°Ð½Ð½Ñı": 828,
      "ĠÑĸÐ¼ÐµÐ½Ð½Ð¸ÐºÐ°": 829,
      "ĠÐ¿Ð¾ÑĤÑĢÑĸÐ±ÐµÐ½": 830,
      "ĠÑĨÑĮÐ¾Ð³Ð¾": 831,
      "am": 832,
      "ĠBerl": 833,
      "ĠBerlin": 834,
      "Ġschl": 835,
      "ĠÐ¼Ð°ÑĤÐ¸": 836,
      "ĠwÃ¤hrend": 837,
      "Ð²ÑĸÐ¹": 838,
      "ÑĥÐ¿": 839,
      "Ġgekauft": 840,
      "Ġhel": 841,
      "ĠÐ¿Ð¾Ð²Ð¸Ð½": 842,
      "Ð¸ÑģÐ²ÑĸÐ¹": 843,
      "ĠÐ¿Ð¾Ð²Ð¸Ð½ÐµÐ½": 844,
      "Ð¸ÑģÐ²ÑĸÐ¹Ð½Ð¸Ð¹": 845,
      "ÐµÐ·": 846,
      "ÐµÐ½Ñĸ": 847,
      "ÑĸÐº": 848,
      "Ð¼Ð¾": 849,
      "ĠÐ½Ñĸ": 850,
      "Ð°Ð±": 851,
      "Ġwas": 852,
      "ÑĨÑĮÐº": 853,
      "nicht": 854,
      "....": 855,
      "Ð¼ÐµÑĨÑĮÐº": 856,
      "ĠÐ½ÑĸÐ¼ÐµÑĨÑĮÐº": 857,
      "ĠÑģÑĥ": 858,
      "Ġeine": 859,
      "Es": 860,
      "ÐºÐ°Ð·": 861,
      "),": 862,
      "erien": 863,
      "weil": 864,
      "ĠÐ¿Ð¾ÑĢ": 865,
      "ĠÐ¿ÑĸÑģÐ»Ñı": 866,
      "ÑĨÐµ": 867,
      "ĠFerien": 868,
      "Der": 869,
      "ĠÐ¿Ð¸ÑĤ": 870,
      "Ð½Ð½Ñı": 871,
      "Ð¸ÑĤÐ°Ð½Ð½Ñı": 872,
      "Ġzu": 873,
      "Ð°Ð»ÑĮÐ½Ð¾Ð³Ð¾": 874,
      "ĠÐ·Ð°Ð¿Ð¸ÑĤÐ°Ð½Ð½Ñı": 875,
      "ĠÑģÐ»Ð¾Ð²Ð°": 876,
      "alt": 877,
      "ĠÐ¿Ð¸ÑĤÐ°Ð»ÑĮÐ½Ð¾Ð³Ð¾": 878,
      "ĠÐ·Ð°Ð¿Ð¸ÑĤÐ°Ð½Ð½ÑıÑħ": 879,
      "ÑĤÐ²Ð¾ÑĢ": 880,
      "Ð¾Ð³Ð¾Ñİ": 881,
      "ÑģÑĸÐ²": 882,
      "Ġkomme": 883,
      "ĠÐ´Ð¾Ð¿Ð¾Ð¼Ð¾Ð³Ð¾Ñİ": 884,
      "mehr": 885,
      "ÑĦÑĸÐº": 886,
      "ĠÑģÑĤÑĥÐ¿": 887,
      "ÐµÑĢÐµÑĩÐµÐ½Ð½Ñı": 888,
      "ĠÐ·Ð°Ð¿ÐµÑĢÐµÑĩÐµÐ½Ð½Ñı": 889,
      "ĠÐ¼Ð¾Ð²Ñĸ": 890,
      "ĠÑĥÑĤÐ²Ð¾ÑĢ": 891,
      "ÑİÑİÑĤÑĮÑģÑı": 892,
      "Ð½ÑıÐ½Ð½Ñı": 893,
      "ÑĸÐ²Ð½ÑıÐ½Ð½Ñı": 894,
      "ĠÑģÐ»Ð¾Ð²Ð¾Ð¼": 895,
      "ĠÐ·Ð¼ÑĸÐ½Ð¸": 896,
      "ĠÐºÐ¾ÑĢÐµÐ½Ñı": 897,
      "Ð°Ð±Ð¾": 898,
      "ĠÐ½ÑĸÐ¼ÐµÑĨÑĮÐºÑĸÐ¹": 899,
      "ĠÑģÑĥÑĦÑĸÐº": 900,
      "ĠÐ¿Ð¾ÑĢÑĸÐ²Ð½ÑıÐ½Ð½Ñı": 901,
      "ĠÑģÑĤÑĥÐ¿ÐµÐ½Ñĸ": 902,
      "ĠÑĥÑĤÐ²Ð¾ÑĢÑİÑİÑĤÑĮÑģÑı": 903,
      "ĠÑģÑĥÑĦÑĸÐºÑģÑĸÐ²": 904,
      "ÑĤÑĢ": 905,
      "Ð¿ÑĸÐ´": 906,
      "Ð¿ÑĸÐ´Ð¼ÐµÑĤ": 907,
      "Ð°ÑĤ": 908,
      "ĠÐ²Ð¸ÐºÐ¾ÑĢÐ¸ÑģÑĤÐ¾Ð²ÑĥÑĶÐ¼Ð¾": 909,
      "Ġfreu": 910,
      "mp": 911,
      "ĠÐ¢": 912,
      "Ġun": 913,
      "ĠÑĨÐµ": 914,
      "Ġru": 915,
      "Imp": 916,
      "ĠÑģÐ¿Ð¾Ñģ": 917,
      "erativ": 918,
      "Ð¾Ð²Ð¾Ð¼Ñĥ": 919,
      "ĠÐ½Ð°ÐºÐ°Ð·": 920,
      "Imperativ": 921,
      "ĠÑģÐ¿Ð¾ÑģÐ¾Ð±Ñĸ": 922,
      "ĠÐ½Ð°ÐºÐ°Ð·Ð¾Ð²Ð¾Ð¼Ñĥ": 923,
      "Die": 924,
      "ĠÐ·Ð²Ð¾ÑĢ": 925,
      "Ð¾ÑĤÐ½Ð¾Ð³Ð¾": 926,
      "ĠÐ·Ð²Ð¾ÑĢÐ¾ÑĤÐ½Ð¾Ð³Ð¾": 927,
      "ÑĤÑĢÐ¸Ð¼": 928,
      "ĠÐ·Ð½Ð°Ñĩ": 929,
      "Ġantwor": 930,
      "ĠÐ·Ð½Ð°ÑĩÐµÐ½Ð½Ñĸ": 931,
      "ĠÐŁÑĸÑģÐ»Ñı": 932,
      "ĠÐ¾ÑĤÑĢÐ¸Ð¼": 933,
      "ĠÐ¾ÑĤÑĢÐ¸Ð¼ÑĥÑĶ": 934,
      "Ã¶nn": 935,
      "ĠGes": 936,
      "oll": 937,
      "Ð¾Ð·": 938,
      "rechen": 939,
      "prechen": 940,
      "Ġkann": 941,
      "ieben": 942,
      "Ã¼che": 943,
      "ĠMann": 944,
      "Ġmuss": 945,
      "Ġgebl": 946,
      "ĠÐ¢Ð¾Ð¼Ñĥ": 947,
      "Ġgeblieben": 948,
      "Ġgekommen": 949,
      "ĠGesicht": 950,
      "Ġseid": 951,
      "ĠKÃ¼che": 952,
      "and": 953,
      "ĠHund": 954,
      "Ġkalt": 955,
      "sind": 956,
      "Ġbist": 957,
      "ĠschÃ¶n": 958,
      "ĠV": 959,
      "kein": 960,
      "Ġeu": 961,
      "terit": 962,
      "teritum": 963,
      "habe": 964,
      "Ġsehen": 965,
      "ĠFre": 966,
      "ĠR": 967,
      "gt": 968,
      "ĠPark": 969,
      "Ġgesehen": 970,
      "fa": 971,
      "uchen": 972,
      "ĠÐ°Ð±": 973,
      "ĠÐ°Ð±Ð¾": 974,
      "Ġh": 975,
      "Ġzum": 976,
      "gehen": 977,
      "ĠÑĤÐ°": 978,
      "ÑģÑĤ": 979,
      "hast": 980,
      "Ġlerne": 981,
      "is": 982,
      "PrÃ¤teritum": 983,
      "ĠWas": 984,
      "?'": 985,
      "spiel": 986,
      "ur": 987,
      "ne": 988,
      "Ġkommen": 989,
      "ino": 990,
      "ĠKino": 991,
      "Ġsprechen": 992,
      "ÑĥÐ²": 993,
      "ĠÐ½ÐµÐ¾Ð·": 994,
      "ĠÐ½ÐµÐ¾Ð·Ð½Ð°ÑĩÐµÐ½Ð¾Ð³Ð¾": 995,
      "ĠFreund": 996,
      "ĠÐ´ÑĸÑĶÑģÐ»Ð¾Ð²": 997,
      "ĠÐ¼Ð¾Ð´Ð°Ð»ÑĮÐ½": 998,
      "Ã¤ft": 999,
      "ĠÑĢÐµÑĩÐµÐ½Ð½ÑıÑħ": 1000,
      "ĠÐ´Ð¾Ð¿Ð¾Ð¼ÑĸÐ¶": 1001,
      "ĠÐ´ÑĸÑĶÑģÐ»Ð¾Ð²Ð¾Ð¼": 1002,
      "ĠÐ¼Ð¾Ð´Ð°Ð»ÑĮÐ½Ð¸Ð¼": 1003,
      "ĠÐ´Ð¾Ð¿Ð¾Ð¼ÑĸÐ¶Ð½Ð¾Ð³Ð¾": 1004,
      "ĠÑĢÑĥ": 1005,
      "aren": 1006,
      "Ã¶nnen": 1007,
      "kocht": 1008,
      "Ð°ÑĤÐº": 1009,
      "ĠÐ¾Ð·Ð½Ð°Ñĩ": 1010,
      "ĠÑĢÑĥÑħ": 1011,
      "lernen": 1012,
      "ĠÐ¾Ð·Ð½Ð°ÑĩÐ°ÑĶ": 1013,
      "Ð»Ð°": 1014,
      "Ð°ÑĤÐºÐ¾Ð²Ñĸ": 1015,
      "Ġmorgen": 1016,
      "ĠBank": 1017,
      "ĠSt": 1018,
      "ĠÐ¿ÑĢÐ¸ÑģÐ²ÑĸÐ¹Ð½Ð¸Ð¹": 1019,
      "ĠÐ¿Ð¾ÑĩÐ°ÑĤÐºÐ¾Ð²Ñĸ": 1020,
      "ĠÐ¿Ð¾ÑĩÐ°ÑĤÐºÐ¾Ð²ÑĸÐ¹": 1021,
      "ĠPro": 1022,
      "tze": 1023,
      "Ġliest": 1024,
      "arbeit": 1025,
      "blem": 1026,
      "at": 1027,
      "mer": 1028,
      "Ġviel": 1029,
      "Ġmit": 1030,
      "ĠProblem": 1031,
      "chst": 1032,
      "ĠProblems": 1033,
      "Ġarbeit": 1034,
      "ĠÐľ": 1035,
      "Ġschne": 1036,
      "Ġschnell": 1037,
      "Ġfreuen": 1038,
      "ÑĥÐ²Ð°ÑĤÐ¸": 1039,
      "stehen": 1040,
      "tet": 1041,
      "Ġkommst": 1042,
      "ĠÐĨ": 1043,
      "Was": 1044,
      "Ġmacht": 1045,
      "Ġausruhen": 1046,
      "fahren": 1047,
      "age": 1048,
      "Ġhier": 1049,
      "ienst": 1050,
      "hre": 1051,
      "Ġkocht": 1052,
      "ĠÐĨÐ¼ÐµÐ½Ð½Ð¸Ðº": 1053,
      "macht": 1054,
      "Ð»Ðµ": 1055,
      "im": 1056,
      "ĠDienst": 1057,
      "Ġgeht": 1058,
      "Ġtrinke": 1059,
      "ollen": 1060,
      "ĠDienstag": 1061,
      "ĠE": 1062,
      "ĠschlÃ¤ft": 1063,
      "rufen": 1064,
      "etz": 1065,
      "hst": 1066,
      "essen": 1067,
      "Nach": 1068,
      "Ġessen": 1069,
      "Ġwohnst": 1070,
      "Ġlernt": 1071,
      "lei": 1072,
      "zt": 1073,
      "ĠGe": 1074,
      "Ð¾Ð´Ð°Ð»ÑĮÐ½Ðµ": 1075,
      "ĠÐľÐ¾Ð´Ð°Ð»ÑĮÐ½Ðµ": 1076,
      "Ġeinen": 1077,
      "Ġesse": 1078,
      "ra": 1079,
      "Ġdenke": 1080,
      "ahr": 1081,
      "ages": 1082,
      "ĠRegen": 1083,
      "ĠRegens": 1084,
      "Ã¼s": 1085,
      "ĠArzt": 1086,
      "sel": 1087,
      "bt": 1088,
      "fst": 1089,
      "ĠMil": 1090,
      "ĠKatze": 1091,
      "ont": 1092,
      "etzt": 1093,
      "ĠMilch": 1094,
      "ster": 1095,
      "anken": 1096,
      "ĠÐ³": 1097,
      "estern": 1098,
      "ĠTages": 1099,
      "Jetzt": 1100,
      "Ð°Ð¿": 1101,
      "ĠStu": 1102,
      "Ð»Ñĸ": 1103,
      "hl": 1104,
      "Ġblei": 1105,
      "ÑĩÐ½Ð¸Ð¹": 1106,
      "ĠÐ¾Ð±": 1107,
      "Ġwohnt": 1108,
      "ÐºÐ¸": 1109,
      "euer": 1110,
      "Ġwaren": 1111,
      "eute": 1112,
      "ĠÐ±ÐµÐ·": 1113,
      "Ġbei": 1114,
      "ĠÐĹ": 1115,
      "bin": 1116,
      "ho": 1117,
      "enster": 1118,
      "Ð»Ð°Ð´": 1119,
      "andy": 1120,
      "Ġbleibe": 1121,
      "ĠTe": 1122,
      "le": 1123,
      "Ðļ": 1124,
      "ÑĥÐ´Ð¸": 1125,
      "ĠBier": 1126,
      "ĠAbends": 1127,
      "ĠMont": 1128,
      "ĠMontag": 1129,
      "Ġbraucht": 1130,
      "kochen": 1131,
      "ĠÐ°Ð»Ðµ": 1132,
      "Ġseht": 1133,
      "ÑģÑĤÐ°Ð²": 1134,
      "Ġgest": 1135,
      "Ã¼n": 1136,
      "Ġliegt": 1137,
      "ĠWasser": 1138,
      "ÐļÑĥÐ´Ð¸": 1139,
      "ÑĢÐ¸Ðº": 1140,
      "trin": 1141,
      "ĠSchl": 1142,
      "Ð±ÐµÐ·": 1143,
      "wenn": 1144,
      "ĠÑĸÐ¼ÐµÐ½Ð½Ð¸ÐºÑĸÐ²": 1145,
      "ĠÐ¾Ð·Ð½Ð°ÑĩÐµÐ½Ð¾Ð³Ð¾": 1146,
      "Ð°Ð¿ÑĢÐ¸Ðº": 1147,
      "Ð°Ð¿ÑĢÐ¸ÐºÐ»Ð°Ð´": 1148,
      "Ð½Ð°Ð¿ÑĢÐ¸ÐºÐ»Ð°Ð´": 1149,
      "Ð»ÑĸÑĩÐ½Ð¸Ð¹": 1150,
      "ĠÐĹÐ»ÑĸÑĩÐ½Ð¸Ð¹": 1151,
      "ahn": 1152,
      "Ã¼ssel": 1153,
      "Ð´Ð°": 1154,
      "ohne": 1155,
      "ĠTee": 1156,
      "Ġspielen": 1157,
      "ĠÐ¾Ð±ÑģÑĤÐ°Ð²": 1158,
      "ĠÐ¾Ð±ÑģÑĤÐ°Ð²Ð¸Ð½": 1159,
      "sst": 1160,
      "einkaufen": 1161,
      "ĠfÃ¼r": 1162,
      "ĠÐ¿ÑĢÐ¸ÐºÐ¼ÐµÑĤÐ½Ð¸ÐºÑĸÐ²": 1163,
      "........": 1164,
      "Ġgestern": 1165,
      "ĠHandy": 1166,
      "ĠSchlÃ¼ssel": 1167,
      "pÃ¤": 1168,
      "anach": 1169,
      "ĠFenster": 1170,
      "Sch": 1171,
      "schl": 1172,
      "Ġstell": 1173,
      "Ġmich": 1174,
      "aufstehen": 1175,
      "hof": 1176,
      "dass": 1177,
      "habt": 1178,
      "Ġhelft": 1179,
      "pÃ¤ter": 1180,
      "sie": 1181,
      "ĠBahn": 1182,
      "Ġhatte": 1183,
      "Ġarbeitet": 1184,
      "ater": 1185,
      "Ã¤l": 1186,
      "ĠBahnhof": 1187,
      "anrufen": 1188,
      "Ġgegen": 1189,
      "Ġle": 1190,
      "ild": 1191,
      "ampe": 1192,
      "ÑĥÐ²Ð°ÑĤÐ¸ÑģÑı": 1193,
      "Ġkaufst": 1194,
      "ĠAm": 1195,
      "Ġwaschen": 1196,
      "tr": 1197,
      "Ġsu": 1198,
      "ĠâĢ¦": 1199,
      "ĠVater": 1200,
      "ankt": 1201,
      "Ġkommt": 1202,
      "Ġsteht": 1203,
      "ĠÑĢ": 1204,
      "Ġdankt": 1205,
      "Ġausruht": 1206,
      "Des": 1207,
      "ĠÐ²ÑĸÐ´ÐºÐ¸": 1208,
      "Ð´Ð°ÑİÑĤÑĮÑģÑı": 1209,
      "ĠÐ²ÑĸÐ´ÐºÐ¸Ð´Ð°ÑİÑĤÑĮÑģÑı": 1210,
      "will": 1211,
      "Ġdich": 1212,
      "ĠEis": 1213,
      "Ġwascht": 1214,
      "ÐĶ": 1215,
      "Ġgefahren": 1216,
      "Ð¾Ð´Ð¶": 1217,
      "ĠÐŁÑĢÐ°Ð²Ð¸Ð»ÑĮÐ½Ð¾": 1218,
      "Gestern": 1219,
      "Ã¤lter": 1220,
      "iz": 1221,
      "Ġgekocht": 1222,
      "Den": 1223,
      "Ġtrinken": 1224,
      "ĠWann": 1225,
      "alat": 1226,
      "Ð¾Ð´Ð¶ÑĥÐ²Ð°ÑĤÐ¸ÑģÑı": 1227,
      "trotz": 1228,
      "za": 1229,
      "Ġkaufe": 1230,
      "ĠZeitung": 1231,
      "immer": 1232,
      "Schwester": 1233,
      "ĠÐĶÐ¾Ð¿Ð¾Ð¼": 1234,
      "ĠÑĥÐ·": 1235,
      "Ð³Ð¾Ð´Ð¶ÑĥÐ²Ð°ÑĤÐ¸ÑģÑı": 1236,
      "Ġvon": 1237,
      "ÑĸÐ¶Ð½Ðµ": 1238,
      "Ġuns": 1239,
      "ĠÐĶÐ¾Ð¿Ð¾Ð¼ÑĸÐ¶Ð½Ðµ": 1240,
      "ĠÑĥÐ·Ð³Ð¾Ð´Ð¶ÑĥÐ²Ð°ÑĤÐ¸ÑģÑı": 1241,
      "wir": 1242,
      "ĠDie": 1243,
      "Ġgemacht": 1244,
      "ĠSalat": 1245,
      "Ġneue": 1246,
      "Ġantwortet": 1247,
      "ÐĶÐµ": 1248,
      "Ġgetr": 1249,
      "unken": 1250,
      "ĠWo": 1251,
      "Ġbrauchen": 1252,
      "bel": 1253,
      "ĠLampe": 1254,
      "Ġgetrunken": 1255,
      "achen": 1256,
      "gesehen": 1257,
      "Ġeuch": 1258,
      "wohn": 1259,
      "omp": 1260,
      "Heute": 1261,
      "bist": 1262,
      "seid": 1263,
      "Kind": 1264,
      "ĠkÃ¶nnen": 1265,
      "ĠPiz": 1266,
      "ĠPizza": 1267,
      "Ġj": 1268,
      "ĠStuhl": 1269,
      "las": 1270,
      "Ġschla": 1271,
      "ĠschÃ¶ne": 1272,
      "Ġihre": 1273,
      "Ã¶f": 1274,
      "abel": 1275,
      "Ġfreut": 1276,
      "gekauft": 1277,
      "ĠBild": 1278,
      "ĠKuchen": 1279,
      "Ġruft": 1280,
      "lfen": 1281,
      "Ġkeine": 1282,
      "ĠmÃ¼ssen": 1283,
      "Bruder": 1284,
      "neu": 1285,
      "Ã¤hr": 1286,
      "helfen": 1287,
      "Danach": 1288,
      "ĠEs": 1289,
      "Ġohne": 1290,
      "ĠTÃ¼r": 1291,
      "Ġteuer": 1292,
      "ule": 1293,
      "ett": 1294,
      "Ã¶ffel": 1295,
      "Morgen": 1296,
      "wegen": 1297,
      "ĠDer": 1298,
      "antwor": 1299,
      "Ġkl": 1300,
      "ĠZimmer": 1301,
      "war": 1302,
      "Ġ2": 1303,
      "mÃ¼": 1304,
      "ĠÐŁÑĢÐ¸ÑģÐ²ÑĸÐ¹Ð½Ð¸Ð¹": 1305,
      "antworten": 1306,
      "rad": 1307,
      "Ġklein": 1308,
      "uter": 1309,
      "mÃ¼ssen": 1310,
      "wÃ¤hrend": 1311,
      "ĠLÃ¶ffel": 1312,
      "omputer": 1313,
      "SpÃ¤ter": 1314,
      "bur": 1315,
      "gegangen": 1316,
      "ĠÐ¾Ð´Ð½": 1317,
      "gut": 1318,
      "ig": 1319,
      "ld": 1320,
      "tion": 1321,
      "Ð²Ð°": 1322,
      "muss": 1323,
      "ĠComputer": 1324,
      "ahrrad": 1325,
      "burg": 1326,
      "kÃ¶nnen": 1327,
      "gegessen": 1328,
      "test": 1329,
      "amburg": 1330,
      "Dann": 1331,
      "ĠHamburg": 1332,
      "ĠSchrank": 1333,
      "ĠSchule": 1334,
      "Ġwillst": 1335,
      "ĠGabel": 1336,
      "Ġstehen": 1337,
      "kann": 1338,
      "Ġisst": 1339,
      "wollen": 1340,
      "ĠGlas": 1341,
      "danken": 1342,
      "ÑĹ": 1343,
      "ĠBett": 1344,
      "Ġaufste": 1345,
      "Ġsucht": 1346,
      "Ġins": 1347,
      "Ġdank": 1348,
      "Ġsein": 1349,
      "Ġanru": 1350,
      "Ġhelfen": 1351,
      "Dem": 1352,
      "lich": 1353,
      "Ġgute": 1354,
      "Ġ3": 1355,
      "spielt": 1356,
      "ĠGeld": 1357,
      "ber": 1358,
      "Ñī": 1359,
      "ĠFahrrad": 1360,
      "ÐµÑĢ": 1361,
      "ĠHaus": 1362,
      "lernt": 1363,
      "bei": 1364,
      "Ð¸ÑĤÐ¸": 1365,
      "roÃŁ": 1366,
      "Ġkeinen": 1367,
      "ger": 1368,
      "ĠÐ¾Ñģ": 1369,
      "ĠgroÃŁ": 1370,
      "schla": 1371,
      "Ġwollen": 1372,
      "Ġbes": 1373,
      "Ge": 1374,
      "Ġsehr": 1375,
      "Ã¤r": 1376,
      "Ġtrinkt": 1377,
      "Ġrufen": 1378,
      "Ð¸Ð½Ð¸": 1379,
      "ĠÐ³Ð¾Ð»": 1380,
      "Ġhatten": 1381,
      "blei": 1382,
      "Ð¸Ð³": 1383,
      "bleiben": 1384,
      "ÑĶÑĤÑĮÑģÑı": 1385,
      "Ã¤hrt": 1386,
      "ĠÑģÐ¸Ð»ÑĮÐ½": 1387,
      "Ð¾ÑģÐ½": 1388,
      "ÑİÑĶÑĤÑĮÑģÑı": 1389,
      "ĠMÃ¼n": 1390,
      "Ġstellt": 1391,
      "ĠMÃ¼nchen": 1392,
      "ÐµÐ²Ð°": 1393,
      "ĠÐ·Ð¼ÑĸÐ½ÑİÑĶÑĤÑĮÑģÑı": 1394,
      "ĠÐºÐ¾ÑĢÐµÐ½ÐµÐ²Ð°": 1395,
      "ĠÐ¾Ð´Ð½Ð¸Ð½Ð¸": 1396,
      "ĠÐ¾ÑģÐ¾Ð±Ñĸ": 1397,
      "ĠÐ³Ð¾Ð»Ð¾ÑģÐ½": 1398,
      "ĠÑģÐ¸Ð»ÑĮÐ½Ðµ": 1399,
      "ĠÐ³Ð¾Ð»Ð¾ÑģÐ½Ð°": 1400,
      "Ġmein": 1401,
      "spielen": 1402,
      "ck": 1403,
      "Ġunser": 1404,
      "ĠVer": 1405,
      "Ġlege": 1406,
      "ĠÑģÑĤÐ°Ð½": 1407,
      "Ġantworten": 1408,
      "Ġseine": 1409,
      "Ġsuchen": 1410,
      "Ġdanken": 1411,
      "esen": 1412,
      "ies": 1413,
      "Ġbesser": 1414,
      "ĠÐ·Ð¼ÑĸÐ½Ñĥ": 1415,
      "Ġwart": 1416,
      "ĠÑģÑĤÐ°Ð½Ñĥ": 1417,
      "ĠkÃ¤lter": 1418,
      "Komm": 1419,
      "ere": 1420,
      "von": 1421,
      "Ð¸Ð²": 1422,
      "Ġkleiner": 1423,
      "ps": 1424,
      "Ã¼nger": 1425,
      "Ġwarst": 1426,
      "................": 1427,
      "ĠjÃ¼nger": 1428,
      "Ġdein": 1429,
      "tig": 1430,
      "ĠKomm": 1431,
      "Ġspielst": 1432,
      "Ġeuer": 1433,
      "trinken": 1434,
      "rÃ¶": 1435,
      "Ġkochst": 1436,
      "Ġneuer": 1437,
      "ver": 1438,
      "isst": 1439,
      "schÃ¶n": 1440,
      "Ġguter": 1441,
      "ĠO": 1442,
      "Ġstelle": 1443,
      "el": 1444,
      "Ġund": 1445,
      "usst": 1446,
      "ÃŁer": 1447,
      "ort": 1448,
      "Ġgutes": 1449,
      "wohnst": 1450,
      "atz": 1451,
      "si": 1452,
      "sere": 1453,
      "ĠÐ¯": 1454,
      "Ð¼Ð°": 1455,
      "ĠwÃ¤r": 1456,
      "Ġsehe": 1457,
      "ĠwÃ¤rmer": 1458,
      "//": 1459,
      "://": 1460,
      "tps": 1461,
      "Ġeinkauft": 1462,
      "ĠgrÃ¶": 1463,
      "https": 1464,
      "Ġunsere": 1465,
      "Ġschneller": 1466,
      "Ð¸Ð³Ñĥ": 1467,
      "res": 1468,
      "ollt": 1469,
      "Ġarbeiten": 1470,
      "Ġschlaft": 1471,
      "ĠgrÃ¶ÃŁer": 1472,
      "Ġaufsteht": 1473,
      "brau": 1474,
      "Ġdeine": 1475,
      "Ġfahr": 1476,
      "Ġeuere": 1477,
      "Ġlegt": 1478,
      "Ð½Ð¾": 1479,
      "keine": 1480,
      "Ġneues": 1481,
      "ĠÃ¤lter": 1482,
      "Ġfa": 1483,
      "kommst": 1484,
      "Ð°ÑĢ": 1485,
      "Ġbrauchst": 1486,
      "mit": 1487,
      "rig": 1488,
      "ĠĠ": 1489,
      "ĠN": 1490,
      "ĠÐĴ": 1491,
      "our": 1492,
      "ĠÐ»": 1493,
      "Ã¶nnt": 1494,
      "Ġanruft": 1495,
      "Ð¾Ð½": 1496,
      "Ð¾Ð¶": 1497,
      "Ġlernst": 1498,
      "Ġspiele": 1499,
      "Ġsehst": 1500,
      "net": 1501,
      "Ġmachen": 1502,
      "ĠfÃ¤hrt": 1503,
      "Ġfreue": 1504,
      "Ġdankst": 1505,
      "ce": 1506,
      "ĠÑī": 1507,
      "ÑĤÐ¾": 1508,
      "ÑĢÐ°": 1509,
      "mein": 1510,
      "Ãľ": 1511,
      "trinkt": 1512,
      "brauchen": 1513,
      "Ã¼ck": 1514,
      "Ġhabst": 1515,
      "Ġtrau": 1516,
      "wohnt": 1517,
      "Ġfahrt": 1518,
      "ĠNach": 1519,
      "ertig": 1520,
      "gegen": 1521,
      "Ġfertig": 1522,
      "Ġkoche": 1523,
      "Ġtraurig": 1524,
      "dw": 1525,
      "ÑģÑĮ": 1526,
      "ĠLe": 1527,
      "Ġ+": 1528,
      "Ã¼ber": 1529,
      "Ġver": 1530,
      "suchen": 1531,
      "waren": 1532,
      "Ġ1": 1533,
      "Ġeinkaufen": 1534,
      "wordw": 1535,
      "resour": 1536,
      "wordwall": 1537,
      "resource": 1538,
      "Ð¾Ñĩ": 1539,
      "unser": 1540,
      "Ġhattet": 1541,
      "Ġaufstehen": 1542,
      ")'": 1543,
      "uft": 1544,
      "ĠmÃ¼sst": 1545,
      "Ġrufst": 1546,
      "fÃ¼r": 1547,
      "ĠÑĢÐ¾Ð±": 1548,
      "Ġsuch": 1549,
      "hatte": 1550,
      "Ġausruhe": 1551,
      "keinen": 1552,
      "Ġsuchst": 1553,
      "ol": 1554,
      "Ġwollt": 1555,
      "ĠLuft": 1556,
      "Ġanrufen": 1557,
      "dent": 1558,
      "Ġwaschst": 1559,
      "Ġmusst": 1560,
      "âĢ¦": 1561,
      "kel": 1562,
      "Ġhelfe": 1563,
      "Ġrufe": 1564,
      "ĠGeht": 1565,
      "ation": 1566,
      "ĠÐ°Ð²": 1567,
      "ĠPrÃ¤": 1568,
      "Ġstehst": 1569,
      "dich": 1570,
      "Ð¿ÑĸÑģÐ»Ñı": 1571,
      "ĠÐ¿ÑĢÐ°Ð²Ð¸Ð»ÑĮÐ½": 1572,
      "Ġbrauche": 1573,
      "Ġantworte": 1574,
      "ĠStudent": 1575,
      "schlafen": 1576,
      "Ð¼Ð°Ñİ": 1577,
      "Ã¼cklich": 1578,
      "ĠÐ¿ÑĢÐ°Ð²Ð¸Ð»ÑĮÐ½ÑĸÐ¹": 1579,
      "tit": 1580,
      "petit": 1581,
      "ĠWand": 1582,
      "hrer": 1583,
      "ĠÑı": 1584,
      "Ġdort": 1585,
      "ĠHeute": 1586,
      "Ġhattest": 1587,
      "ĠAppetit": 1588,
      "Ġhelfst": 1589,
      "Ġdanke": 1590,
      "osi": 1591,
      "sprechen": 1592,
      "ĠJetzt": 1593,
      "ÑĸÐ½Ð½Ñı": 1594,
      "Ġbe": 1595,
      "âĢľ": 1596,
      "ĠKon": 1597,
      "Ð¾Ð»Ð¾Ð´": 1598,
      "ĠGestern": 1599,
      "kaufe": 1600,
      "Ġausruhst": 1601,
      "ĠglÃ¼cklich": 1602,
      "Ð¾ÑģÑĤ": 1603,
      "osition": 1604,
      "ĠÑħ": 1605,
      "ieren": 1606,
      "ĠschÃ¶nes": 1607,
      "ĠLehrer": 1608,
      "Ð½Ð¸Ð³Ñĥ": 1609,
      "ÑİÐ²Ð°ÑĤÐ¸": 1610,
      "Ġfreust": 1611,
      "Ġkannst": 1612,
      "uns": 1613,
      "Ġlesen": 1614,
      "ĠLies": 1615,
      "Ġantwortest": 1616,
      "fahr": 1617,
      "ĠÐ°Ð²ÑĤÐ¾": 1618,
      "dein": 1619,
      "sp": 1620,
      "ÐºÐ½Ð¸Ð³Ñĥ": 1621,
      "ĠÐ²Ð¾Ð»Ð¾Ð´": 1622,
      "ĠkÃ¶nnt": 1623,
      "ĠLest": 1624,
      "Ġsuche": 1625,
      "ĠÐ²Ð¾Ð»Ð¾Ð´ÑĸÐ½Ð½Ñı": 1626,
      "mich": 1627,
      "ĠMorgen": 1628,
      "euch": 1629,
      "ÑĤÐ¾ÑĢ": 1630,
      "ante": 1631,
      "ĠMacht": 1632,
      "kaufst": 1633,
      "ab": 1634,
      "kst": 1635,
      "Â«": 1636,
      "Ġo": 1637,
      "Ð»Ð¸": 1638,
      "ÐºÑĥ": 1639,
      "ĠSpÃ¤ter": 1640,
      "Ġstehe": 1641,
      "Â»": 1642,
      "ĠÂ«": 1643,
      "ert": 1644,
      "ĠTante": 1645,
      "Ġfahren": 1646,
      "position": 1647,
      "ĠÃ¼ber": 1648,
      "Ġwasche": 1649,
      "Ð¾ÑģÑĮ": 1650,
      "willst": 1651,
      "men": 1652,
      "nach": 1653,
      "vom": 1654,
      "Ð°Ð´": 1655,
      "ÑĥÑĤ": 1656,
      "ĠÐ²Ð¸": 1657,
      "ĠDanach": 1658,
      "Ġmach": 1659,
      "ĠÐ¿ÑĢÐ¾": 1660,
      "Ð¾ÑĤÑĸ": 1661,
      "bung": 1662,
      "Ð½Ñĸ": 1663,
      "ent": 1664,
      "ĠDann": 1665,
      "Ã¤n": 1666,
      "kochst": 1667,
      "Ġjung": 1668,
      "ĠKommt": 1669,
      "machen": 1670,
      "ot": 1671,
      "rei": 1672,
      "lerne": 1673,
      "ĠÐ´Ð¾": 1674,
      "Ã¤fst": 1675,
      "ĠMach": 1676,
      "Ġwarm": 1677,
      "spielst": 1678,
      "Ġmachst": 1679,
      "Ġvor": 1680,
      "ĠVerben": 1681,
      "ĠOn": 1682,
      "St": 1683,
      "ĠOnkel": 1684,
      "rÃ¼": 1685,
      "satz": 1686,
      "schlÃ¤ft": 1687,
      "Ð¾Ð½Ð°": 1688,
      "ĠÐ¼Ð¾Ð¶": 1689,
      "Ð°Ð¶": 1690,
      "tzen": 1691,
      "Ġesst": 1692,
      "Ã¤hrst": 1693,
      "schlaft": 1694,
      "ĠÑĢÐ¾Ð±Ð¾ÑĤÑĸ": 1695,
      "Lest": 1696,
      "Machen": 1697,
      "ktiv": 1698,
      "Ġalt": 1699,
      "ÑĤÐ°": 1700,
      "einen": 1701,
      "ĠÑĢÐ°Ð·": 1702,
      "nen": 1703,
      "lernst": 1704,
      "ĠschÃ¶ner": 1705,
      "................................": 1706,
      "Ãľbung": 1707,
      "fahrt": 1708,
      "Lies": 1709,
      "wei": 1710,
      "gel": 1711,
      "ĠÐĶÐ¾ÑģÑĤ": 1712,
      "Ð¿ÑĢ": 1713,
      "ĠGeh": 1714,
      "Ġoder": 1715,
      "ÑĤÐ¸ÐºÐ°": 1716,
      "Ð½ÑĮÐ¾": 1717,
      "spiele": 1718,
      "ĠÐ¾Ð´Ð½Ð¾Ð³Ð¾": 1719,
      "positionen": 1720,
      "Mach": 1721,
      "ug": 1722,
      "ul": 1723,
      "Ð°Ð¹": 1724,
      "Ġgehst": 1725,
      "ungen": 1726,
      "ĠÐ¿Ð¾Ð²ÑĤÐ¾ÑĢ": 1727,
      "ĠÐ¿Ð¾ÑĤÑĢÑĸÐ±Ð½Ð¾": 1728,
      "Ð°ÑĤÐ½ÑĮÐ¾": 1729,
      "ĠÑĢÐ°Ð·Ñĥ": 1730,
      "ĠÐĶÐ¾ÑģÑĤÐ°ÑĤÐ½ÑĮÐ¾": 1731,
      "ĠÐ¿Ð¾Ð²ÑĤÐ¾ÑĢÑİÐ²Ð°ÑĤÐ¸": 1732,
      "00": 1733,
      "ad": 1734,
      "zert": 1735,
      "ÑģÑĤÐ°": 1736,
      "Gehen": 1737,
      "Lesen": 1738,
      "fÃ¤hrt": 1739,
      "je": 1740,
      "Ġ/": 1741,
      "Ġâ": 1742,
      "ĠÑĪ": 1743,
      "orm": 1744,
      "det": 1745,
      "her": 1746,
      "Ġp": 1747,
      "ÐµÑĤ": 1748,
      "ÑĸÐ»": 1749,
      "ragen": 1750,
      "Ġanrufst": 1751,
      "ĠKonzert": 1752,
      "Macht": 1753,
      "Wie": 1754,
      "zen": 1755,
      "Ð½Ð¸": 1756,
      "ÐµÐ½ÑĤ": 1757,
      "Ġ-âĢľ": 1758,
      "Ġschlafe": 1759,
      "Geh": 1760,
      "ĠVerb": 1761,
      "ÑģÑĤÐ°ÑĤÐ¸ÐºÐ°": 1762,
      "Ġ*": 1763,
      "ĠÐ¿Ð¾Ð´": 1764,
      "âĢĻ": 1765,
      "koche": 1766,
      "ĠÐ²Ð¶": 1767,
      "scha": 1768,
      "ĠÑĢÐ¾Ð·": 1769,
      "cken": 1770,
      "Ð¾ÑĪ": 1771,
      "Ð¾ÑĹ": 1772,
      "ÑĸÐ»ÑĮ": 1773,
      "sten": 1774,
      "ĠÐ¿ÐµÑĢÐµ": 1775,
      "Ð´Ð²": 1776,
      "ĠBus": 1777,
      "Ġwird": 1778,
      "ÑĸÑĢ": 1779,
      "ĠBe": 1780,
      "esse": 1781,
      "ĠschlÃ¤fst": 1782,
      "ĠÐ³ÑĢ": 1783,
      "Kommen": 1784,
      "hin": 1785,
      "zu": 1786,
      "ÐµÐº": 1787,
      "ÑĥÐ´": 1788,
      "Ã¶r": 1789,
      "Ð°ÑĤÐ¸ÑģÑı": 1790,
      "Ð¸Ð³ÑĥÐ½": 1791,
      "Ð´Ð²Ð¸Ð³ÑĥÐ½": 1792,
      "eg": 1793,
      "Ð°Ð»": 1794,
      "ĠÐ´Ñĥ": 1795,
      "Ã¤tze": 1796,
      "ĠÑīÐ¾": 1797,
      "ĠÐ¼Ð¾Ð¶Ð½Ð°": 1798,
      "pr": 1799,
      "Ġst": 1800,
      "ĠÐĿ": 1801,
      "Ð°Ñģ": 1802,
      "ĠÐ·Ð½Ð°": 1803,
      "ĠAn": 1804,
      "Ġaufstehe": 1805,
      "Ð¸ÑĤÐ¸ÑģÑı": 1806,
      "Kommt": 1807,
      "fin": 1808,
      "pro": 1809,
      "ÑĥÐº": 1810,
      "Ġmir": 1811,
      "ÑĸÑģÑĤÑĮ": 1812,
      "Ġtrinkst": 1813,
      "Ġschlafen": 1814,
      "Geht": 1815,
      "ĠÑīÐ¾ÑģÑĮ": 1816,
      "ma": 1817,
      "Ġdir": 1818,
      "esst": 1819,
      "Ġeinkaufe": 1820,
      "emp": 1821,
      "ĠfÃ¤hrst": 1822,
      "wart": 1823,
      "Ġfahre": 1824,
      "ĠĠĠĠ": 1825,
      "Ãľber": 1826,
      "schaft": 1827,
      "10": 1828,
      "iv": 1829,
      "lie": 1830,
      "musst": 1831,
      "Ġab": 1832,
      "Ð¸Ñĩ": 1833,
      "Ð¾Ð²Ð¸Ð¹": 1834,
      "hal": 1835,
      "ĠÑģÐºÐ°Ð·": 1836,
      "ĠSatz": 1837,
      "ĠÐ¿ÑĢÐ¸": 1838,
      "hatten": 1839,
      "trinke": 1840,
      "):": 1841,
      "fÃ¼": 1842,
      "ga": 1843,
      "os": 1844,
      "¸ļ": 1845,
      "ÐºÐ¸Ð¹": 1846,
      "ĠÐ²Ðµ": 1847,
      "ĠDat": 1848,
      "eiÃŁ": 1849,
      "eitung": 1850,
      "Ġeinkaufst": 1851,
      "ÑİÐ±": 1852,
      "warst": 1853,
      "ĠÑģÐºÐ°Ð·Ð°ÑĤÐ¸": 1854,
      "ik": 1855,
      "mÃ¼s": 1856,
      "og": 1857,
      "tern": 1858,
      "wen": 1859,
      "Ð¾Ð²Ð°": 1860,
      "ĠÑĤÑĥÑĤ": 1861,
      "Ġeinem": 1862,
      "setzen": 1863,
      "stell": 1864,
      "Ġâ¸ļ": 1865,
      "mÃ¼sst": 1866,
      "-,": 1867,
      "11": 1868,
      "fle": 1869,
      "keit": 1870,
      "och": 1871,
      "ĠÃľber": 1872,
      "ÑĤÑı": 1873,
      "ÑĢÐ°ÑĤÐ¸": 1874,
      "ÑĥÑģ": 1875,
      "Ã¤t": 1876,
      "ĠUn": 1877,
      "iert": 1878,
      "Ġunter": 1879,
      "siv": 1880,
      "lan": 1881,
      "nt": 1882,
      "ner": 1883,
      "zur": 1884,
      "ÐµÐ¹": 1885,
      "ins": 1886,
      "Ð»ÑıÑĤÐ¸": 1887,
      "Ġman": 1888,
      "ĠÐºÐ¾Ð¼": 1889,
      "tel": 1890,
      "ĠRe": 1891,
      "verben": 1892,
      "ĠÑıÐº": 1893,
      "TÃ¼r": 1894,
      "Zimmer": 1895,
      "eben": 1896,
      "wollt": 1897,
      "xiv": 1898,
      "Ġhttps": 1899,
      "ĠÐ¹": 1900,
      "ÑĸÑĤ": 1901,
      "Ð°Ñİ": 1902,
      "geb": 1903,
      "Ð¾Ð³Ð¾ÑģÑĮ": 1904,
      "ĠMan": 1905,
      "als": 1906,
      "flexiv": 1907,
      "';": 1908,
      "Zeitung": 1909,
      "ell": 1910,
      "kÃ¶nnt": 1911,
      "nom": 1912,
      "uf": 1913,
      "ĠÑĨ": 1914,
      "Ġam": 1915,
      "ĠÑĹ": 1916,
      "Ð¾Ñİ": 1917,
      "Ð°Ñħ": 1918,
      "Ð´Ðµ": 1919,
      "ĠSÃ¤tze": 1920,
      "Ð°Ð¼Ð¸": 1921,
      "ĠVor": 1922,
      "hlen": 1923,
      "Ð¸Ð²Ð°ÑĶÑĤÑĮÑģÑı": 1924,
      "olgen": 1925,
      "ĠPrÃ¤positionen": 1926,
      "Ġpas": 1927,
      "ĠÐ²Ð¶Ð¸Ð²Ð°ÑĶÑĤÑĮÑģÑı": 1928,
      "nomen": 1929,
      "Bild": 1930,
      "Fenster": 1931,
      "Lampe": 1932,
      "Mutter": 1933,
      "hm": 1934,
      "hmen": 1935,
      "jun": 1936,
      "lung": 1937,
      "ri": 1938,
      "ïĥ": 1939,
      "ĠJ": 1940,
      "ĠÐĳ": 1941,
      "ÑĢÐ¸": 1942,
      "Ġsoll": 1943,
      "ÑĨÑĸÑı": 1944,
      "trinkst": 1945,
      "kannst": 1946,
      "Ġanrufe": 1947,
      "ïĥĺ": 1948,
      ".:": 1949,
      "Brot": 1950,
      "Gabel": 1951,
      "Ka": 1952,
      "kl": 1953,
      "lau": 1954,
      "rch": 1955,
      "was": 1956,
      "zeit": 1957,
      "ĠÐ¡": 1958,
      "ĠÐµ": 1959,
      "ĠÐĽ": 1960,
      "ork": 1961,
      "ers": 1962,
      "assiv": 1963,
      "geben": 1964,
      "ĠÑģÐ²": 1965,
      "ĠSp": 1966,
      "deut": 1967,
      "ĠDeutsche": 1968,
      "ischen": 1969,
      "hattet": 1970,
      "ĠRei": 1971,
      "ĠEin": 1972,
      "Ġaufstehst": 1973,
      "Station": 1974,
      "pronomen": 1975,
      "ĠÃľbersetzen": 1976,
      "Tasche": 1977,
      "ks": 1978,
      "vor": 1979,
      "wer": 1980,
      "ĠÑĤÐ¸": 1981,
      "ÑĸÑı": 1982,
      "ÑĸÐ·": 1983,
      "ord": 1984,
      "Ð¸Ñħ": 1985,
      "ÑĥÑĢ": 1986,
      "ĠÐ¼Ð¸": 1987,
      "Ġwork": 1988,
      "Ð¾ÑĢÑĤ": 1989,
      "ĠFragen": 1990,
      "Ð¸Ð½Ð°": 1991,
      "amm": 1992,
      "ĠheiÃŁ": 1993,
      "ĠÐ»ÑİÐ±": 1994,
      "ĠÐ·Ð½Ð°ÑĩÐµÐ½Ð½Ñı": 1995,
      "finitiv": 1996,
      "Katze": 1997,
      "15": 1998,
      "In": 1999,
      "haus": 2000,
      "ire": 2001,
      "land": 2002,
      "pt": 2003,
      "zum": 2004,
      "Ð»Ñİ": 2005,
      "Ð¾Ð²Ð¾ÑĢ": 2006,
      "ÑģÐ»ÑĸÐ´": 2007,
      "gesch": 2008,
      "anz": 2009,
      "Ġwie": 2010,
      "Ð²Ð¸": 2011,
      "ĠÐ¿ÑĢÐ°": 2012,
      "unter": 2013,
      "Ð¶Ðµ": 2014,
      "ĠÑĤÐµÐ»Ðµ": 2015,
      "ÃŁen": 2016,
      "hattest": 2017,
      "ÑĥÐ²Ð°Ð½Ð½Ñı": 2018,
      "imm": 2019,
      "Handy": 2020,
      "heit": 2021,
      "op": 2022,
      "Ġau": 2023,
      "Ġals": 2024,
      "ÑģÐ¿": 2025,
      "ÑĤÐµ": 2026,
      "ÑĤÐµÑĢ": 2027,
      "ÑĢÐ°Ð²": 2028,
      "einung": 2029,
      "Ð²Ð°Ð¶": 2030,
      "ĠâĢŀ": 2031,
      "schen": 2032,
      "Ġeiner": 2033,
      "unden": 2034,
      "ÑħÑĸÐ´": 2035,
      "ĠWel": 2036,
      "ĠÐ²ÑĸÐ´Ð¿": 2037,
      "Wohin": 2038,
      "ĠOr": 2039,
      "ÑĢÐ°ÑĹ": 2040,
      "jekt": 2041,
      "ĠheiÃŁt": 2042,
      "13": 2043,
      "16": 2044,
      "22": 2045,
      "Auto": 2046,
      "Buch": 2047,
      "Fahrrad": 2048,
      "Haus": 2049,
      "Ver": 2050,
      "bo": 2051,
      "gÃ¤n": 2052,
      "ktion": 2053,
      "na": 2054,
      "od": 2055,
      "richt": 2056,
      "ÐĴ": 2057,
      "Ġ,": 2058,
      "Ġ8": 2059,
      "Ġre": 2060,
      "Ð°Ñĩ": 2061,
      "Ð»Ð¸Ð²": 2062,
      "ÑĥÐ¼": 2063,
      "ÐºÐ¾Ð¼": 2064,
      "han": 2065,
      "Ð²Ð¾": 2066,
      "ĠAus": 2067,
      "Ð¸Ð¼Ð¾ÑģÑĮ": 2068,
      "ĠÐºÑĥÐ¿": 2069,
      "Ð¾Ð»Ð¾Ð³": 2070,
      "ÑĪÐµ": 2071,
      "...": 2072,
      "Woher": 2073,
      "jektiv": 2074,
      "ĠÐ³ÑĢÐ¾ÑĪ": 2075,
      "irekt": 2076,
      "12": 2077,
      "14": 2078,
      "bst": 2079,
      "ech": 2080,
      "hÃ¶": 2081,
      "igen": 2082,
      "uro": 2083,
      "Ġet": 2084,
      "Ġent": 2085,
      "ÐµÐ´": 2086,
      "Ð°Ð»Ð°": 2087,
      "Ġwer": 2088,
      "ĠâĢľ": 2089,
      "schie": 2090,
      "ĠÑĤÑĢ": 2091,
      "ĠForm": 2092,
      "Ġgi": 2093,
      "Ð²ÑĸÑĤ": 2094,
      "chte": 2095,
      "ale": 2096,
      "ÐºÐ°ÑĢ": 2097,
      "atur": 2098,
      "ĠPrÃ¤teritum": 2099,
      "reiben": 2100,
      "17": 2101,
      "30": 2102,
      "Frau": 2103,
      "bjekt": 2104,
      "gin": 2105,
      "Ġ5": 2106,
      "Ġall": 2107,
      "reich": 2108,
      "Ð¸ÑĤÑĮ": 2109,
      "ÑĥÐ·": 2110,
      "ĠÐ½Ð°Ð²": 2111,
      "ang": 2112,
      "tik": 2113,
      "Ð°Ð³Ð°ÑĤ": 2114,
      "renn": 2115,
      "Ġdurch": 2116,
      "ĠWie": 2117,
      "ilden": 2118,
      "ĠÑħÐ¾Ñĩ": 2119,
      "Ð¿ÑĢÐ°Ð²": 2120,
      "ĠÐĿÐ°": 2121,
      "ĠÐµÐº": 2122,
      "odal": 2123,
      "Ġgibt": 2124,
      ".)": 2125,
      "djektiv": 2126,
      "fl": 2127,
      "form": 2128,
      "ige": 2129,
      "me": 2130,
      "ok": 2131,
      "uk": 2132,
      "zeu": 2133,
      "ĠÐ§": 2134,
      "ÐµÑĨÑĮ": 2135,
      "ÑĸÑĹ": 2136,
      "ing": 2137,
      "ÐºÑĢÐ°ÑĹ": 2138,
      "ĠÐ¿Ð¾Ð³": 2139,
      "ĠÐ´Ðµ": 2140,
      "Ã¼b": 2141,
      "âĢĿ": 2142,
      "del": 2143,
      "unde": 2144,
      "ĠFl": 2145,
      "ĠFr": 2146,
      "ĠÐºÐ¾Ð»": 2147,
      "Ð±Ð¸": 2148,
      "ĠPers": 2149,
      "Ġande": 2150,
      "ilm": 2151,
      "ĠÐ¢Ð¸": 2152,
      "ĠStad": 2153,
      "schlÃ¤fst": 2154,
      "Ġschlafst": 2155,
      "schlafst": 2156,
      "ĠÐ¯Ðº": 2157,
      "ĠÐĴÑĸÐ½": 2158,
      "junktiv": 2159,
      "deutsch": 2160,
      "Ġauch": 2161,
      "rennb": 2162,
      "odalverben": 2163,
      "AT": 2164,
      "RT": 2165,
      "fre": 2166,
      "fÃ¤hrst": 2167,
      "issen": 2168,
      "kon": 2169,
      "nis": 2170,
      "rie": 2171,
      "to": 2172,
      "ze": 2173,
      "zie": 2174,
      "Ġ4": 2175,
      "Ġ6": 2176,
      "ÑĸÑĪ": 2177,
      "end": 2178,
      "ÑĥÐ½": 2179,
      "ÑĥÑģÑĤ": 2180,
      "Ġda": 2181,
      "ĠÐ¿Ð°ÑĢ": 2182,
      "ÑģÐ»Ñĥ": 2183,
      "ĠÐ·Ð»": 2184,
      "Ġ(-": 2185,
      "ĠmÃ¶": 2186,
      "aufs": 2187,
      "ĠAdjektiv": 2188,
      "ÑĨÑı": 2189,
      "Ġbest": 2190,
      "ĠBer": 2191,
      "arten": 2192,
      "ĠÑĦÑĸÐ»": 2193,
      "ĠÑĩÐ°Ñģ": 2194,
      "ÑĢÑĸÐ²": 2195,
      "Ð°Ð½Ð¸Ð¹": 2196,
      "Ġzw": 2197,
      "alsatz": 2198,
      "Ġimmer": 2199,
      "nehmen": 2200,
      "ĠEuro": 2201,
      "ompar": 2202,
      "ÑīÐ¾": 2203,
      "elativ": 2204,
      "Ġfahrst": 2205,
      "ĠÐĴÐ¾Ð½Ð°": 2206,
      "ÑģÑĮÐº": 2207,
      "Ġverwen": 2208,
      "fahrst": 2209,
      "ternet": 2210,
      "ĠUnter": 2211,
      "Ġpasst": 2212,
      "gÃ¤nzen": 2213,
      "Ġwerden": 2214,
      "29": 2215,
      "Bei": 2216,
      "Bett": 2217,
      "aden": 2218,
      "bau": 2219,
      "cke": 2220,
      "ffen": 2221,
      "ler": 2222,
      "pen": 2223,
      "âĹ": 2224,
      "ĨĴ": 2225,
      "Ð½ÑĸÑģÑĤÑĮ": 2226,
      "ÐµÑģÑĸ": 2227,
      "ÑıÐº": 2228,
      "reit": 2229,
      "ÐµÐ½Ð¸Ð¹": 2230,
      "ine": 2231,
      "inks": 2232,
      "Ð´Ð¶": 2233,
      "ĠÐ²ÑĸÐ½": 2234,
      "ĠÐ²Ð¸Ð³": 2235,
      "ĠwÃ¼r": 2236,
      "Ġges": 2237,
      "ĠSo": 2238,
      "sche": 2239,
      "ĠHand": 2240,
      "ĠÐºÐ°": 2241,
      "lle": 2242,
      "Ð¸ÑģÑĤÐ¸": 2243,
      "inden": 2244,
      "Ġgern": 2245,
      "ĠPassiv": 2246,
      "ungs": 2247,
      "ringen": 2248,
      "Ð¾Ð·Ð¸": 2249,
      "ĠÑĤÐ°Ðº": 2250,
      "ĠStra": 2251,
      "Ð²Ð°ÑĢ": 2252,
      "ÑģÑĮÐºÐ¸Ð¹": 2253,
      "ÑĥÐ´ÐµÐ½ÑĤ": 2254,
      "ĠÐ´ÑĥÐ¶Ðµ": 2255,
      "empor": 2256,
      "ĠĠĠĠĠĠĠĠ": 2257,
      "ĠÐ³ÑĢÐ¾ÑĪÑĸ": 2258,
      "âĹı": 2259,
      "18": 2260,
      "19": 2261,
      "23": 2262,
      "bild": 2263,
      "ckt": 2264,
      "di": 2265,
      "glich": 2266,
      "mal": 2267,
      "sicht": 2268,
      "ww": 2269,
      "ĠÐ¦": 2270,
      "Ð½Ñĥ": 2271,
      "ÐµÐ¼": 2272,
      "ÑıÑĤÐ¸": 2273,
      "ÑģÐ¸": 2274,
      "cher": 2275,
      "Ð»ÐµÐ½Ð½Ñı": 2276,
      "ÑĥÑİ": 2277,
      "ingen": 2278,
      "inter": 2279,
      "ĠÐ¿Ð»": 2280,
      "ĠInternet": 2281,
      "ĠÐ·Ð²": 2282,
      "gew": 2283,
      "ĠwÃ¤": 2284,
      "Ġwel": 2285,
      "Ð²ÑĸÐ´": 2286,
      "ĠBilden": 2287,
      "ache": 2288,
      "ĠÐ¿ÑĢÐ¾Ð¿": 2289,
      "arn": 2290,
      "ĠKl": 2291,
      "ĠFolgen": 2292,
      "Ð»ÑĮÐ½Ð¸Ð¹": 2293,
      "Ð°Ð¼Ð°": 2294,
      "ĠÐ½Ð°Ð´": 2295,
      "ÑħÐ°ÑĤÐ¸": 2296,
      "ĠÑĸÐ¼": 2297,
      "ÑĸÐ²ÐµÑĢ": 2298,
      "onnen": 2299,
      "ĠKinder": 2300,
      "ĠGeb": 2301,
      "Ġbeim": 2302,
      "ĠÐĴÐ¸": 2303,
      "Ð¾Ð½Ð¸": 2304,
      "spr": 2305,
      "Stu": 2306,
      "halten": 2307,
      "laub": 2308,
      "ÐºÑĢÐ°ÑĹÐ½": 2309,
      "ĠPerson": 2310,
      "25": 2311,
      "Glas": 2312,
      "KÃ¼che": 2313,
      "Re": 2314,
      "Teil": 2315,
      "Tisch": 2316,
      "ast": 2317,
      "dern": 2318,
      "dien": 2319,
      "dig": 2320,
      "ff": 2321,
      "fi": 2322,
      "fr": 2323,
      "fall": 2324,
      "fangen": 2325,
      "mÃ¤": 2326,
      "pa": 2327,
      "par": 2328,
      "rich": 2329,
      "zÃ¤": 2330,
      "Ġ9": 2331,
      "ĠÑĨÑĸ": 2332,
      "Ġ................................": 2333,
      "ĠÐŀ": 2334,
      "Ð¾ÑĤÐ¸": 2335,
      "ÐµÐ³": 2336,
      "ÑĸÐ³": 2337,
      "ÑģÐ¸ÑĤ": 2338,
      "Ð°ÑĪ": 2339,
      "org": 2340,
      "Ð¸ÑĢ": 2341,
      "ÑĤÑĸ": 2342,
      "ÑĢÐ¾Ð±": 2343,
      "ÐµÐ½ÑĮ": 2344,
      "stei": 2345,
      "Ð¾Ð²Ð¸": 2346,
      "Ð¾Ð²ÑĸÐ´": 2347,
      "ĠÐ¼ÑĥÐ·": 2348,
      "ĠÑģÐµ": 2349,
      "Ġgew": 2350,
      "ĠAb": 2351,
      "ĠAl": 2352,
      "ĠSte": 2353,
      "ĠÑģÑĤÑĥÐ´ÐµÐ½ÑĤ": 2354,
      "Ġnoch": 2355,
      "schw": 2356,
      "schule": 2357,
      "ÑĨÑĸÐ¾Ð½Ð°": 2358,
      "see": 2359,
      "setz": 2360,
      "ĠFin": 2361,
      "ĠÐºÐ¾Ð³Ð¾ÑģÑĮ": 2362,
      "ommen": 2363,
      "ĠMeinung": 2364,
      "ĠÐ½Ð°ÑĨÑĸÐ¾Ð½Ð°": 2365,
      "Ð·Ð°": 2366,
      "ĠErgÃ¤nzen": 2367,
      "teres": 2368,
      "itt": 2369,
      "ĠLand": 2370,
      "ĠLinks": 2371,
      "amen": 2372,
      "ĠRelativ": 2373,
      "ĠÐ³Ð¾Ð²Ð¾ÑĢ": 2374,
      "ĠÑĢÐ°Ð´": 2375,
      "Ġje": 2376,
      "cker": 2377,
      "verb": 2378,
      "ĠNeben": 2379,
      "ĠÐ»Ñĸ": 2380,
      "rÃ¼f": 2381,
      "ĠâĨĴ": 2382,
      "ĠÑĪÐº": 2383,
      "Ð½Ð¸Ñħ": 2384,
      "ĠÐ²Ð¶Ðµ": 2385,
      "gaben": 2386,
      "oss": 2387,
      "ĠReflexiv": 2388,
      "ĠReise": 2389,
      "Ð°Ð³Ð°ÑĤÐ¾": 2390,
      "bildung": 2391,
      "ÑĸÐ²ÐµÑĢÑģÐ¸ÑĤ": 2392,
      "fix": 2393,
      "Ġ................................................................": 2394,
      "ÑĸÐ²ÐµÑĢÑģÐ¸ÑĤÐµÑĤ": 2395,
      ",-": 2396,
      "24": 2397,
      "Ap": 2398,
      "Hund": 2399,
      "bie": 2400,
      "bes": 2401,
      "drÃ¼": 2402,
      "fon": 2403,
      "fol": 2404,
      "hei": 2405,
      "ic": 2406,
      "rlaub": 2407,
      "Ðľ": 2408,
      "Ġe": 2409,
      "ÑĸÑİ": 2410,
      "ÑģÑĤÐ¸": 2411,
      "inga": 2412,
      "ĠIm": 2413,
      "ĠÐ¼ÐµÐ½": 2414,
      "ĠÐ¼Ð°Ð³": 2415,
      "ĠÑģÐº": 2416,
      "Ð¾Ð¼ÑĥÑģÑĮ": 2417,
      "ĠDa": 2418,
      "tikel": 2419,
      "Ð¿Ð°Ð´": 2420,
      "Ð¾Ð´Ð¸ÑĤÐ¸": 2421,
      "ĠÑĥÐ½": 2422,
      "ĠÐ¿ÑĢÐ¸Ð¹": 2423,
      "ĠFern": 2424,
      "ĠÐºÐ°ÑĢ": 2425,
      "ĠÐºÐ¾Ð½": 2426,
      "ĠÐ¾ÑĢ": 2427,
      "Ð¾Ð»Ñĸ": 2428,
      "Ð°Ð²Ð°ÑĤÐ¸": 2429,
      "ĠPerfekt": 2430,
      "Ð²ÑĸÐ·": 2431,
      "ĠHaupt": 2432,
      "Ġange": 2433,
      "ĠWohn": 2434,
      "ĠWort": 2435,
      "ĠUm": 2436,
      "ierte": 2437,
      "Ð¾ÑģÐ¸ÑĤÐ¸": 2438,
      "Ġzur": 2439,
      "hlt": 2440,
      "liche": 2441,
      "ÐµÑĢÑĪ": 2442,
      "beim": 2443,
      "Ð¸Ð²Ð°ÑĤÐ¸": 2444,
      "Ð¾ÑĩÐ¸Ð½": 2445,
      "ĠPrÃ¤fix": 2446,
      "ĠÐ»ÑİÐ±Ð»Ñİ": 2447,
      "ĠÐ¿ÑĢÐ°ÑĨ": 2448,
      "ĠwÃ¤re": 2449,
      "ingap": 2450,
      "60": 2451,
      "Ar": 2452,
      "Kon": 2453,
      "Man": 2454,
      "Pl": 2455,
      "Un": 2456,
      "Vater": 2457,
      "are": 2458,
      "agen": 2459,
      "fÃ¤": 2460,
      "hÃ¤n": 2461,
      "ow": 2462,
      "ram": 2463,
      "ĠÑģÐ»ÑĸÐ´": 2464,
      "Ġrich": 2465,
      "ÑĸÐ»ÑĮÐ½": 2466,
      "Ð°Ðº": 2467,
      "ÐµÐ½Ð´Ð°": 2468,
      "Ð»Ð¸Ðº": 2469,
      "era": 2470,
      "Ð¼Ð¾Ð²": 2471,
      "ÐºÑĤ": 2472,
      "ÑĩÐ¸Ð¹": 2473,
      "ĠInfinitiv": 2474,
      "assen": 2475,
      "Ð´Ð¸Ð½": 2476,
      "aut": 2477,
      "haft": 2478,
      "ĠÐ¼ÐµÐ½Ñĸ": 2479,
      "ĠÑģÐµÑĢ": 2480,
      "Ð»ÑıÐ´": 2481,
      "Ġwich": 2482,
      "eiden": 2483,
      "Ġgel": 2484,
      "utz": 2485,
      "Ð²ÐµÑĢ": 2486,
      "Ð¾ÑĢÐ¾Ð¶": 2487,
      "Ġbis": 2488,
      "Ã¼ler": 2489,
      "ĠSe": 2490,
      "Ð¸Ð¼Ð¸": 2491,
      "ĠÐ¿ÑĢÐ¾Ð´": 2492,
      "ĠÐ·Ð°Ð±": 2493,
      "Ġdiese": 2494,
      "ĠÐ±Ñĸ": 2495,
      "ÑĪÑĤ": 2496,
      "ĠSchÃ¼ler": 2497,
      "Ð½ÐµÑĢ": 2498,
      "Ġschon": 2499,
      "hnen": 2500,
      "ĠÐ¼ÑĸÑģÑĨÐµ": 2501,
      "ĠÑĸÐ·": 2502,
      "ald": 2503,
      "Ð°ÑĤÐ°": 2504,
      "immen": 2505,
      "seln": 2506,
      "ĠÐ³Ð°ÑĢ": 2507,
      "learn": 2508,
      "lefon": 2509,
      "sieren": 2510,
      "Ã¤lt": 2511,
      "ĠÑĢÐ¾Ð±Ð¾Ñĩ": 2512,
      "ĠPrÃ¤position": 2513,
      "Ð¾ÑģÑĤÑĸ": 2514,
      "geln": 2515,
      "ÑĸÐ»ÑĮÐ¼": 2516,
      "ĠÐ´ÑĥÐ¼": 2517,
      "ĠÐ²ÐµÑĩ": 2518,
      "ĠÑĤÐµÐ»ÐµÐ²ÑĸÐ·": 2519,
      "Ð¾Ð»Ð¾Ð³ÑĸÑĹ": 2520,
      "irekte": 2521,
      "Ġetwas": 2522,
      "endungen": 2523,
      "ĠmÃ¶chte": 2524,
      "Ġzwischen": 2525,
      "rÃ¼fung": 2526,
      "ĠÐ¼Ð°Ð³Ð°Ð·": 2527,
      "ĠÑĥÐ½ÑĸÐ²ÐµÑĢÑģÐ¸ÑĤÐµÑĤ": 2528,
      "26": 2529,
      "27": 2530,
      "28": 2531,
      "CH": 2532,
      "Ein": 2533,
      "TE": 2534,
      "br": 2535,
      "best": 2536,
      "eer": 2537,
      "gl": 2538,
      "hÃ¶r": 2539,
      "latz": 2540,
      "lbst": 2541,
      "ogen": 2542,
      "ran": 2543,
      "tner": 2544,
      "uhe": 2545,
      "vest": 2546,
      "verl": 2547,
      "xt": 2548,
      "Ġ.": 2549,
      "Ġen": 2550,
      "Ġgen": 2551,
      "Ġ...": 2552,
      "ĠÐĲ": 2553,
      "ÑıÐ³": 2554,
      "ÑĸÐ¼": 2555,
      "ÑĥÐ±": 2556,
      "inn": 2557,
      "ÐºÐ¾": 2558,
      "Ð¾Ð²Ð¾": 2559,
      "ĠÐ¿Ð¾Ðº": 2560,
      "ĠÐ´Ð¸Ð²": 2561,
      "aul": 2562,
      "ĠÐ·Ð½": 2563,
      "geord": 2564,
      "ĠÐ²Ð¾Ð½Ð°": 2565,
      "eigen": 2566,
      "Ġso": 2567,
      "ÑĤÐ¸ÑģÑı": 2568,
      "Ġgesch": 2569,
      "tisch": 2570,
      "ĠÐ£ÐºÑĢÐ°ÑĹÐ½": 2571,
      "Ð»ÑĮÑĤ": 2572,
      "Ã¼tz": 2573,
      "ĠSpr": 2574,
      "ĠBau": 2575,
      "eite": 2576,
      "ÑĨÑĸÑĹ": 2577,
      "ĠÐ¿ÑĢÐ¾Ð²": 2578,
      "ĠÑĩÐ¸": 2579,
      "ĠÑĩÐ¾Ð¼ÑĥÑģÑĮ": 2580,
      "arf": 2581,
      "unkt": 2582,
      "ĠKont": 2583,
      "ĠFilm": 2584,
      "ĠÐºÐ¾Ð»Ð¸": 2585,
      "ĠÐ¾Ð´": 2586,
      "ÐµÑĢÐµÐ·": 2587,
      "ĠMÃ¼": 2588,
      "ĠMit": 2589,
      "ĠModalverben": 2590,
      "usam": 2591,
      "Ð±ÑĥÐ´": 2592,
      "ĠArtikel": 2593,
      "Ð·Ð²": 2594,
      "ĠfÃ¼": 2595,
      "Ġfolgen": 2596,
      "ÑħÐ¾Ð´": 2597,
      "ĠSchw": 2598,
      "ĠSchul": 2599,
      "Ġkon": 2600,
      "ĠÑĸÐ½ÑĪ": 2601,
      "Ð°Ð»ÑĮÐ½Ð¸Ð¹": 2602,
      "ÃŁe": 2603,
      "itÃ¤t": 2604,
      "Ġ->": 2605,
      "Ġselbst": 2606,
      "achten": 2607,
      "ĠÐ¿Ð¾Ð²ÐµÑĢ": 2608,
      "ildet": 2609,
      "ĠÐ½ÑĸÐ¼ÐµÑĨÑĮÐºÐ¾ÑĹ": 2610,
      "altung": 2611,
      "ĠGesch": 2612,
      "ÑģÑĤÐ²Ð¾": 2613,
      "neten": 2614,
      "ĠÐ³Ð¾Ð´": 2615,
      "ĠÐ³Ð¾ÑĤ": 2616,
      "ĠâĢ¦:": 2617,
      "izeit": 2618,
      "lassen": 2619,
      "Ġbesch": 2620,
      "erein": 2621,
      "elma": 2622,
      "ĠĠĠ": 2623,
      "Ġoft": 2624,
      "Ð½Ð¸Ð¶": 2625,
      "ĠÐ¿Ð¾Ð´Ð¾ÑĢÐ¾Ð¶": 2626,
      "Ã¶rter": 2627,
      "ĠÐĿÑĸ": 2628,
      "liegen": 2629,
      "ogra": 2630,
      "Ð°ÑİÑĤÑĮ": 2631,
      "gebot": 2632,
      "flexive": 2633,
      "waschen": 2634,
      "ĠWelche": 2635,
      "nahm": 2636,
      "Ġverwendet": 2637,
      "ĠwÃ¼rde": 2638,
      "ĠHandlung": 2639,
      "ĠÑĸÐ¼ÐµÐ½Ñĸ": 2640,
      "mÃ¤ÃŁ": 2641,
      "ĠNebensatz": 2642,
      "ĠReflexivpronomen": 2643,
      "Ġ................................................................................": 2644,
      "ingapps": 2645,
      "learningapps": 2646,
      "ĠÑĤÐµÐ»ÐµÐ²ÑĸÐ·Ð¾ÑĢ": 2647,
      "ĠÐ¼Ð°Ð³Ð°Ð·Ð¸Ð½": 2648,
      "vestor": 2649,
      "geordneten": 2650,
      "usammen": 2651,
      "20": 2652,
      "21": 2653,
      "47": 2654,
      "88": 2655,
      "An": 2656,
      "IL": 2657,
      "Mann": 2658,
      "NG": 2659,
      "RA": 2660,
      "SCH": 2661,
      "Um": 2662,
      "UNG": 2663,
      "dlich": 2664,
      "fer": 2665,
      "hung": 2666,
      "hÃ¤lt": 2667,
      "mel": 2668,
      "ob": 2669,
      "prÃ¤": 2670,
      "teil": 2671,
      "ust": 2672,
      "wel": 2673,
      "ym": 2674,
      "zw": 2675,
      "ĠQ": 2676,
      "Ġfe": 2677,
      "ĠÑĢÑĸ": 2678,
      "Ġemp": 2679,
      "Ð½ÑĤ": 2680,
      "ÑģÑĤÑĮ": 2681,
      "recher": 2682,
      "Ð¸Ð»": 2683,
      "Ð¸Ð´": 2684,
      "Ð¸Ð»Ð°": 2685,
      "ende": 2686,
      "ÑĢÐ¿": 2687,
      "ÑĢÐ½Ð¸Ð¹": 2688,
      "ÐµÐ½Ð´": 2689,
      "ĠChe": 2690,
      "ÑĥÑĤÑĮ": 2691,
      "ÑĶÐ¼": 2692,
      "Ð¼Ñĸ": 2693,
      "infinitiv": 2694,
      "ÐºÐ°Ð²": 2695,
      "ÑĩÐ°ÑĤÐ¸": 2696,
      "Ð¾Ð²ÑĥÐ²Ð°ÑĤÐ¸": 2697,
      "ĠInvestor": 2698,
      "auber": 2699,
      "ĠÐ·Ð´": 2700,
      "ĠÐ·Ð±": 2701,
      "gesp": 2702,
      "ĠÑģÐ²ÑĸÑĤ": 2703,
      "ĠÐ²Ð¸ÑĤ": 2704,
      "ange": 2705,
      "anden": 2706,
      "Ġget": 2707,
      "tige": 2708,
      "Ð²Ð¾Ñĩ": 2709,
      "Ð¾ÑĢÐ¸": 2710,
      "Ð¾Ð³Ð¾Ð´": 2711,
      "irma": 2712,
      "ĠSomm": 2713,
      "ĠSpiel": 2714,
      "ÑĦÐ¾Ð½": 2715,
      "Ġnur": 2716,
      "eiten": 2717,
      "ÑĨÑĸÑİ": 2718,
      "Ã¤u": 2719,
      "ĠÑĩÐ¾Ð³Ð¾ÑģÑĮ": 2720,
      "ĠÑĩÐ¸Ð¼Ð¾ÑģÑĮ": 2721,
      "ark": 2722,
      "ĠKar": 2723,
      "ĠFÃ¤": 2724,
      "ĠÐ¾Ñĩ": 2725,
      "ĠÐ¾Ð¿": 2726,
      "ĠÐ¾Ñħ": 2727,
      "llen": 2728,
      "ĠÑĦÑĸÐ»ÑĮÐ¼": 2729,
      "ĠÐ¿Ð¾Ñģ": 2730,
      "ĠÐ¿Ð¾ÑĹ": 2731,
      "Ð±Ðµ": 2732,
      "ĠTre": 2733,
      "ĠTÃ¤": 2734,
      "ĠÐ±Ð°Ð½": 2735,
      "ĠÐ±ÑĢÐ°ÑĤÐ¸": 2736,
      "pel": 2737,
      "Ð°Ð½Ð¾": 2738,
      "Ð°Ð½ÑĤ": 2739,
      "Ġfin": 2740,
      "ĠÑĸÐ½ÑĤÐµÑĢ": 2741,
      "Ġzwei": 2742,
      "alen": 2743,
      "ĠUrlaub": 2744,
      "Ġverl": 2745,
      "Ð°ÑĤÐµ": 2746,
      "ĠFreizeit": 2747,
      "Ġhinter": 2748,
      "att": 2749,
      "ĠÐľÐ¸": 2750,
      "igkeit": 2751,
      "Geld": 2752,
      "vers": 2753,
      "brauch": 2754,
      "ĠLeben": 2755,
      "Ġ18": 2756,
      "Ġbekommen": 2757,
      "Ġbegin": 2758,
      "weiz": 2759,
      "ult": 2760,
      "ular": 2761,
      "Ð°Ð¹Ð±": 2762,
      "ĠÑĢÐ¾Ð·Ð¿": 2763,
      "ÑĸÐ»ÑĮÑĪ": 2764,
      "ĠÐ¹Ð¾Ð³Ð¾": 2765,
      "ĠÐ¹Ð´Ðµ": 2766,
      "ĠJa": 2767,
      "Ġsollte": 2768,
      "ĠÐĽÐµÑģÑĸ": 2769,
      "boten": 2770,
      "ĠÑħÐ¾ÑĩÐµ": 2771,
      "Ġandere": 2772,
      "ĠStadt": 2773,
      "ĠÐ¯ÐºÑīÐ¾": 2774,
      "ziehen": 2775,
      "ĠÑĦÑĸÐ»Ð¾Ð»Ð¾Ð³ÑĸÑĹ": 2776,
      "bauen": 2777,
      "reiten": 2778,
      "emporale": 2779,
      "ĠÐ¿ÑĢÐ¾Ð¿Ð¾Ð·Ð¸": 2780,
      "ĠÐ¼ÑĥÐ·Ð¸Ðº": 2781,
      "ĠÐ³Ð¾Ð²Ð¾ÑĢÐ¸ÑĤÐ¸": 2782,
      "Ġjeden": 2783,
      "Apfel": 2784,
      "TEIL": 2785,
      "ĠÐ£ÐºÑĢÐ°ÑĹÐ½ÐºÐ¸": 2786,
      "ĠSommer": 2787,
      "07": 2788,
      "36": 2789,
      "50": 2790,
      "96": 2791,
      "Be": 2792,
      "Dat": 2793,
      "EF": 2794,
      "EM": 2795,
      "ERT": 2796,
      "HEM": 2797,
      "IK": 2798,
      "Im": 2799,
      "IEF": 2800,
      "MM": 2801,
      "Mit": 2802,
      "ORT": 2803,
      "STEIL": 2804,
      "THEM": 2805,
      "Wenn": 2806,
      "abl": 2807,
      "bar": 2808,
      "brechen": 2809,
      "ii": 2810,
      "itz": 2811,
      "jug": 2812,
      "kra": 2813,
      "laden": 2814,
      "nung": 2815,
      "ossen": 2816,
      "ppe": 2817,
      "rund": 2818,
      "sa": 2819,
      "sam": 2820,
      "tschaft": 2821,
      "wo": 2822,
      "zug": 2823,
      "©Ð¾": 2824,
      "Ġind": 2825,
      "Ð½Ð¾Ð¼": 2826,
      "Ð½Ð¾Ð¼Ñĥ": 2827,
      "Ð½ÑĸÐ¹": 2828,
      "Ð¾Ñħ": 2829,
      "Ð¾Ñī": 2830,
      "ÐµÐ»ÑĮ": 2831,
      "ÐµÑĨÑĸ": 2832,
      "ÑıÐ²": 2833,
      "ÑıÐ·": 2834,
      "ÑģÑĥ": 2835,
      "ret": 2836,
      "Ð°Ð»Ð¸": 2837,
      "ÑĥÑĪ": 2838,
      "Ð¼Ð°ÑĤÐ¸": 2839,
      "innen": 2840,
      "stÃ¼r": 2841,
      "ÐºÐ»Ð°Ð´": 2842,
      "ÑĩÐ½Ð¾": 2843,
      "Ð¾Ð²Ð½Ð¸Ð¹": 2844,
      "ÑģÐ½Ð¸Ð¹": 2845,
      "ĠÐ¿Ð¾Ð¼": 2846,
      "ĠÐ¿Ð¾Ð¿": 2847,
      "ĠÐ´Ð¾Ð¼": 2848,
      "ĠÐ´ÑĸÑĶ": 2849,
      "ĠÐ´Ð¾Ð´": 2850,
      "asse": 2851,
      "ĠÐ¼Ð°ÑĤÐµ": 2852,
      "ĠÐ½Ð¾Ð²": 2853,
      "ĠÑģÐ¼Ð°": 2854,
      "ĠÐ²Ð±": 2855,
      "Ġwann": 2856,
      "ÑĤÐ¸Ð¹": 2857,
      "tigen": 2858,
      "Ġmal": 2859,
      "ÑĸÐ´Ð¾Ð¼": 2860,
      "Ð²Ð¸Ð¹": 2861,
      "ĠAuf": 2862,
      "ÑĨÑĤ": 2863,
      "ĠBl": 2864,
      "ĠÑĢÐµÐºÐ¾Ð¼": 2865,
      "ĠÑģÑĤÐ¾ÑĹ": 2866,
      "ĠÑģÑĤÑĢÐ°Ð²": 2867,
      "ĠÑĥÑĩ": 2868,
      "ĠÐ¿ÑĢÐ¾Ð±": 2869,
      "ĠHo": 2870,
      "ĠHer": 2871,
      "ĠHoch": 2872,
      "ĠKre": 2873,
      "ĠFall": 2874,
      "ĠFirma": 2875,
      "ĠÐºÐ¸Ð¼Ð¾ÑģÑĮ": 2876,
      "ÑİÑĤÑĮ": 2877,
      "ĠÐ¾Ð²Ð¾Ñĩ": 2878,
      "ĠÐ·Ð°Ñħ": 2879,
      "Ð¾Ð»Ð¸Ð½": 2880,
      "Ð»ÑĮÐ½Ð¾Ð³Ð¾": 2881,
      "ĠMen": 2882,
      "usik": 2883,
      "ĠGarten": 2884,
      "ĠGRA": 2885,
      "Ġganz": 2886,
      "Ð°Ð²ÑģÑı": 2887,
      "ĠTag": 2888,
      "rochen": 2889,
      "ĠSubjekt": 2890,
      "Ġaufge": 2891,
      "ĠÐ½Ð°ÑĢÐ¾Ð´": 2892,
      "ĠÐ½Ð°ÑĪ": 2893,
      "ĠZug": 2894,
      "ichten": 2895,
      "ĠÐ±Ð°Ð³Ð°ÑĤÐ¾": 2896,
      "Ġtrennb": 2897,
      "estell": 2898,
      "Ð°Ð½Ñĸ": 2899,
      "ĠÑģÐ¿ÑĸÐ²": 2900,
      "Ã¶glich": 2901,
      "ĠSchreiben": 2902,
      "ÑĸÑģÑĤ": 2903,
      "ĠÐ±ÑĥÐ´Ð¸Ð½": 2904,
      "ĠWendungen": 2905,
      "ĠWORT": 2906,
      "one": 2907,
      "ĠÐ¶Ð¸ÑĤ": 2908,
      "itten": 2909,
      "ĠÐ¿Ð¾Ð²ÑĸÐ´Ð¾Ð¼": 2910,
      "erlativ": 2911,
      "etter": 2912,
      "ĠVERT": 2913,
      "ĠFreunde": 2914,
      "ĠReg": 2915,
      "ÑģÑĤÑĢÑĥ": 2916,
      "Ð»Ð°ÑĪÑĤ": 2917,
      "Ġviele": 2918,
      "ĠEssen": 2919,
      "hol": 2920,
      "hoch": 2921,
      "ĠâĢ¦.": 2922,
      "Ġ20": 2923,
      "mittel": 2924,
      "ĠNot": 2925,
      "ĠNatur": 2926,
      "ĠÑīÐµ": 2927,
      "ÑĢÐ°ÑĪ": 2928,
      "Ġverb": 2929,
      "Ġ12": 2930,
      "ational": 2931,
      "ĠÃ¼bergeordneten": 2932,
      "ĠÐ²Ð¸Ð¿Ð°Ð´": 2933,
      "Ã¤ndern": 2934,
      "ĠÐ´Ð¾ÑħÑĸÐ´": 2935,
      "Ð¿ÑĢÐ¾": 2936,
      "ĠBeantworten": 2937,
      "halt": 2938,
      "stellt": 2939,
      "junktion": 2940,
      "rift": 2941,
      "Ġsollten": 2942,
      "klin": 2943,
      "ĠÑĤÐµÐ»ÐµÑĦÐ¾Ð½": 2944,
      "Ð²Ð°Ð¶Ð°Ñİ": 2945,
      "ĠOrd": 2946,
      "handel": 2947,
      "ĠÐ½Ð°Ð²Ñĩ": 2948,
      "zeug": 2949,
      "ĠFrage": 2950,
      "ATZ": 2951,
      "ATIK": 2952,
      "omparativ": 2953,
      "omparation": 2954,
      "ÑģÑĮÐºÐ¾Ð³Ð¾": 2955,
      "ĠÐºÐ°ÑĦ": 2956,
      "ĠStraÃŁen": 2957,
      "Stuhl": 2958,
      "fallen": 2959,
      "ĠÑĨÑĸÐºÐ°Ð²": 2960,
      "steig": 2961,
      "drÃ¼cken": 2962,
      "heim": 2963,
      "ĠÐ¼ÐµÐ½Ðµ": 2964,
      "ĠHauptsatz": 2965,
      "ĠWohnung": 2966,
      "Ġwichtig": 2967,
      "SCHATZ": 2968,
      "UNGSTEIL": 2969,
      "welt": 2970,
      "IEFUNGSTEIL": 2971,
      "MMATIK": 2972,
      "THEMA": 2973,
      "ĠÑģÑĤÐ¾ÑĹÑĤÑĮ": 2974,
      "ĠGRAMMATIK": 2975,
      "ĠWORTSCHATZ": 2976,
      "ĠVERTIEFUNGSTEIL": 2977,
      "37": 2978,
      "40": 2979,
      "79": 2980,
      "Ab": 2981,
      "Aus": 2982,
      "Akk": 2983,
      "Auf": 2984,
      "Bahn": 2985,
      "Co": 2986,
      "Fre": 2987,
      "LÃ¶ffel": 2988,
      "Ma": 2989,
      "Su": 2990,
      "eklin": 2991,
      "fragen": 2992,
      "finden": 2993,
      "gie": 2994,
      "io": 2995,
      "iÃŁ": 2996,
      "ion": 2997,
      "itze": 2998,
      "ivers": 2999,
      "punkt": 3000,
      "son": 3001,
      "tre": 3002,
      "tlich": 3003,
      "we": 3004,
      "zieren": 3005,
      "zent": 3006,
      "zogen": 3007,
      "ÐŁ": 3008,
      "Ġa": 3009,
      "ĠÃ¼b": 3010,
      "ĠÐĩ": 3011,
      "ĠÐĵ": 3012,
      "ĠÐ©Ð¾": 3013,
      "Ð½ÑĶ": 3014,
      "ÐµÐ»": 3015,
      "ÐµÐ¶": 3016,
      "ÐµÑĢÑĥ": 3017,
      "ÑĸÑĤÐ°": 3018,
      "ÑģÑĸÐ´": 3019,
      "reflexive": 3020,
      "Ð¸Ð±": 3021,
      "Ð¸ÑĪ": 3022,
      "ÑĤÑĤÑı": 3023,
      "ÑĢÐ¾Ð·": 3024,
      "ÑĥÐ»ÑĮÑĤ": 3025,
      "inen": 3026,
      "standen": 3027,
      "ÐºÑĢ": 3028,
      "iere": 3029,
      "ieder": 3030,
      "Ð¾Ð²ÐºÐ°": 3031,
      "ĠÐ¿ÑĢÐµ": 3032,
      "asch": 3033,
      "Ð´ÑĸÐ»": 3034,
      "ĠÐ¼Ñĸ": 3035,
      "ĠÐ¼Ð¾ÑĢ": 3036,
      "ĠÐ¼Ð¾Ð²Ð¸": 3037,
      "ÑĮÐ¾Ð³Ð¾Ð´": 3038,
      "geld": 3039,
      "ĠÑģÐ¼": 3040,
      "ÑĸÑĶÑİ": 3041,
      "ĠÐ²Ð¾Ð½Ð¸": 3042,
      "ĠDach": 3043,
      "ander": 3044,
      "eist": 3045,
      "eiger": 3046,
      "Ġkenn": 3047,
      "Ġgeb": 3048,
      "aufgaben": 3049,
      "ĠAuss": 3050,
      "ĠAktiv": 3051,
      "ÑĨÐµÐ½ÑĤ": 3052,
      "irge": 3053,
      "ĠSing": 3054,
      "ĠBo": 3055,
      "ĠBei": 3056,
      "âĢĺ": 3057,
      "Ð¾Ð´Ð¸Ñĩ": 3058,
      "achsen": 3059,
      "ĠnÃ¤": 3060,
      "schrift": 3061,
      "ĠÐ·Ð°Ð³": 3062,
      "ĠHa": 3063,
      "ĠÐºÑĢ": 3064,
      "ĠÐºÐ»": 3065,
      "ĠÐºÐ°Ð²": 3066,
      "ĠÐºÑĥÑĢ": 3067,
      "genommen": 3068,
      "llig": 3069,
      "ĠÐ·Ð°Ð¼Ð¾Ð²": 3070,
      "ĠÐ·Ð°ÑĢÐ¿": 3071,
      "feste": 3072,
      "ĠÑĦÑĸÑĢ": 3073,
      "ĠMeer": 3074,
      "ĠGer": 3075,
      "ĠGem": 3076,
      "Ð±Ð°": 3077,
      "ĠTur": 3078,
      "ÑĢÑĸÑĹ": 3079,
      "ĠÐ½Ð°ÑĥÐº": 3080,
      "ĠPo": 3081,
      "ĠPosition": 3082,
      "ĠPrÃ¼fung": 3083,
      "ĠPaul": 3084,
      "Ð²ÑĸÑģÑĤÑĮ": 3085,
      "Ð½Ð°Ð»": 3086,
      "Ð½ÑıÑĤÑĤÑı": 3087,
      "beg": 3088,
      "Ġersten": 3089,
      "ĠÑģÐ¿ÐµÑĨÑĸ": 3090,
      "ĠSchweiz": 3091,
      "Ġschw": 3092,
      "isten": 3093,
      "rÃ¤ch": 3094,
      "ĠWun": 3095,
      "ische": 3096,
      "erman": 3097,
      "ĠLie": 3098,
      "wort": 3099,
      "Ġsicher": 3100,
      "ĠÐľÐµÐ½Ñĸ": 3101,
      "ĠEn": 3102,
      "etzten": 3103,
      "Schrank": 3104,
      "ĠâĢ¦,": 3105,
      "ĠÑĢÐ¾Ðº": 3106,
      "lasse": 3107,
      "ĠÐ¾ÑģÐ¾Ð±": 3108,
      "ĠOp": 3109,
      "ĠObjekt": 3110,
      "Ð¾Ð½Ð¾Ð¼": 3111,
      "ÑĢÐ°Ñħ": 3112,
      "ÑģÑĮÐºÐ°": 3113,
      "Ð¾ÑĩÐµ": 3114,
      "ĠKonjunktiv": 3115,
      "ĠÑħÐ¾ÑĤÑĸ": 3116,
      "ĠÐ²Ð¸Ð±": 3117,
      "ĠÐ¿ÑĢÐ¾ÑĦ": 3118,
      "ĠÐ´Ð¾ÑĨÐµÐ½ÑĤ": 3119,
      "gelmÃ¤ÃŁ": 3120,
      "ÐµÐºÑĤÐ¸": 3121,
      "egation": 3122,
      "Ġstatt": 3123,
      "matik": 3124,
      "Ġabge": 3125,
      "Ð¸ÑĩÐ°Ð¹": 3126,
      "ĠSatzende": 3127,
      "fÃ¼hr": 3128,
      "stellen": 3129,
      "lang": 3130,
      "ĠÑĹÑĹ": 3131,
      "opf": 3132,
      "oppel": 3133,
      "ĠÐ²ÑĸÐ´Ð¿ÑĥÑģÑĤ": 3134,
      "ĠÐ²ÑĸÐ´Ð¿Ð¾Ð²ÑĸÐ´": 3135,
      "richten": 3136,
      "ĠÐºÑĥÐ¿Ð¸ÑĤÐ¸": 3137,
      "hÃ¶ren": 3138,
      "Ġetw": 3139,
      "schieden": 3140,
      "zeugen": 3141,
      "ĠFlug": 3142,
      "Ġanderen": 3143,
      "ÑĥÑģÑĤÑĢÑĸ": 3144,
      "Ġdavon": 3145,
      "ĠÐ¿Ð°ÑĢÑĤ": 3146,
      "ĠÐ·Ð»Ð¾ÑĩÐ¸Ð½": 3147,
      "ĠAdjektive": 3148,
      "ĠÑĩÐ°ÑģÑĥ": 3149,
      "Ġgerne": 3150,
      "dium": 3151,
      "www": 3152,
      "ĠÐ¦Ðµ": 3153,
      "ĠGebÃ¤u": 3154,
      "ĠFinalsatz": 3155,
      "ĠÐ½Ð°ÑĨÑĸÐ¾Ð½Ð°Ð»ÑĮÐ½Ð¾Ð³Ð¾": 3156,
      "ico": 3157,
      "ĠFernsehen": 3158,
      "ĠÐ¿ÑĢÐ°ÑĨÑİ": 3159,
      "Arbeit": 3160,
      "ĠÐ¾Ð´ÑıÐ³": 3161,
      "Ġkonjug": 3162,
      "ograf": 3163,
      "hÃ¤ltnis": 3164,
      "ĠÑĢÑĸÐ·": 3165,
      "gesprÃ¤ch": 3166,
      "Ġfinde": 3167,
      "Ġbeginnt": 3168,
      "Ð°Ð¹Ð±ÑĥÑĤ": 3169,
      "ĠÐ²Ð±Ð¸Ð²": 3170,
      "ĠÐ¿ÑĢÐ¾Ð±Ð»Ðµ": 3171,
      "hochschule": 3172,
      "iversitÃ¤t": 3173,
      "ÑĮÐ¾Ð³Ð¾Ð´Ð½Ñĸ": 3174,
      "Ġkenne": 3175,
      "ĠÐ·Ð°ÑĢÐ¿Ð»": 3176,
      "!!": 3177,
      "34": 3178,
      "48": 3179,
      "Computer": 3180,
      "Fach": 3181,
      "SB": 3182,
      "Wel": 3183,
      "__": 3184,
      "ati": 3185,
      "bÃ¼": 3186,
      "bahn": 3187,
      "bringen": 3188,
      "dir": 3189,
      "eter": 3190,
      "ehmen": 3191,
      "fro": 3192,
      "film": 3193,
      "go": 3194,
      "gr": 3195,
      "glei": 3196,
      "gab": 3197,
      "gang": 3198,
      "garten": 3199,
      "ick": 3200,
      "itzen": 3201,
      "itik": 3202,
      "jahr": 3203,
      "ker": 3204,
      "kehr": 3205,
      "komparation": 3206,
      "lage": 3207,
      "md": 3208,
      "mm": 3209,
      "modalverben": 3210,
      "oren": 3211,
      "ole": 3212,
      "passiv": 3213,
      "rag": 3214,
      "rim": 3215,
      "san": 3216,
      "sum": 3217,
      "siert": 3218,
      "smittel": 3219,
      "tag": 3220,
      "tieren": 3221,
      "trennb": 3222,
      "zei": 3223,
      "Ãĸ": 3224,
      "ÐĲ": 3225,
      "ÐĿ": 3226,
      "Ġ:": 3227,
      "Ġ=": 3228,
      "ĠNom": 3229,
      "ĠÑģÐ»Ñĥ": 3230,
      "Ð½Ð¸Ð¼": 3231,
      "ÐµÑĤÐ°": 3232,
      "ÑģÑĤÑĢ": 3233,
      "reis": 3234,
      "Ð°Ð»ÑĮ": 3235,
      "ches": 3236,
      "chmal": 3237,
      "ÐµÐ½Ð°": 3238,
      "ÐµÐ½ÑĨÑĸÑı": 3239,
      "Ð»Ð¾": 3240,
      "Ð»ÑİÐ±": 3241,
      "ÑĥÐ»Ñı": 3242,
      "stru": 3243,
      "stit": 3244,
      "stamm": 3245,
      "ĠIhre": 3246,
      "ÐºÑĤÐ¸": 3247,
      "ÐºÐ°ÑĤÐ¸": 3248,
      "ÐºÑĸÐ²": 3249,
      "ÐºÐ¾Ð²Ð¸Ð¹": 3250,
      "ief": 3251,
      "iesen": 3252,
      "ieÃŁen": 3253,
      "ÑĩÑĩ": 3254,
      "ÑĩÐ½Ð°": 3255,
      "Ð¾Ð²Ð°Ð½Ð¸Ð¹": 3256,
      "ĠÐ¿Ð¾Ð»": 3257,
      "ĠÐ¿Ð¸Ñģ": 3258,
      "ĠÐ¿Ð¾Ð±": 3259,
      "ĠInsel": 3260,
      "ĠÐ´Ð¸": 3261,
      "ĠÐ´ÐµÐ½ÑĮ": 3262,
      "Ð´Ð°ÑĤÐ¸": 3263,
      "aupt": 3264,
      "ĠÐ¼Ð¾Ð²": 3265,
      "ĠÐ¼Ð¾Ð³": 3266,
      "ĠÐ¼Ð°Ñİ": 3267,
      "ĠÐ¼Ð°Ð¹Ð±ÑĥÑĤ": 3268,
      "ĠÐ·Ð³": 3269,
      "ĠÐ·ÑĢÐ¾Ð±": 3270,
      "Ġihn": 3271,
      "ĠÐ½Ð°Ð¿": 3272,
      "ĠÑģÐ¾": 3273,
      "ĠÑģÐ²Ð°ÑĢ": 3274,
      "ĠÐ²Ñĩ": 3275,
      "ĠÐ²Ð¿": 3276,
      "ĠÐ²Ð·": 3277,
      "ĠÐ²ÑĸÐº": 3278,
      "ĠÐ²Ð¸Ð²": 3279,
      "ĠÐ²Ð°Ð¶": 3280,
      "einer": 3281,
      "anst": 3282,
      "anzen": 3283,
      "angebot": 3284,
      "Ġweg": 3285,
      "Ġwissen": 3286,
      "Ġ(=": 3287,
      "Ġsp": 3288,
      "Ġgeben": 3289,
      "ĠÐ½ÐµÐ²": 3290,
      "aufen": 3291,
      "Ð²ÑĢ": 3292,
      "Ð²Ð°Ð³": 3293,
      "Ġbere": 3294,
      "ĠÐ¿ÑĸÐ´Ð²Ð¸": 3295,
      "ĠSelma": 3296,
      "ĠBa": 3297,
      "ĠBÃ¼r": 3298,
      "ess": 3299,
      "Ð¾Ð´Ð°": 3300,
      "ĠÑģÑĤÑĢ": 3301,
      "ĠÑģÑĤÑĢÐ°Ñħ": 3302,
      "achte": 3303,
      "schn": 3304,
      "schutz": 3305,
      "ÑĨÑĸÐ¹": 3306,
      "Ã¤d": 3307,
      "ĠÐ¿ÑĢÐ¾Ð³": 3308,
      "erneinen": 3309,
      "ĠÑĩÐµÐº": 3310,
      "ĠÑĤÐ¾Ñĩ": 3311,
      "ĠÑĤÑĥÑĢ": 3312,
      "ĠHil": 3313,
      "sekt": 3314,
      "ĠKann": 3315,
      "ÑģÑĸÐ±": 3316,
      "ĠÐ¾ÑĦ": 3317,
      "ĠÐ¾Ð³": 3318,
      "Ð°Ð³Ð°ÑĤÐ¸": 3319,
      "Ð¾Ð»Ð°": 3320,
      "ĠMo": 3321,
      "ĠMon": 3322,
      "ĠMÃ¤r": 3323,
      "ĠMesse": 3324,
      "ĠGo": 3325,
      "ĠGegen": 3326,
      "Ġger": 3327,
      "ĠTa": 3328,
      "ĠTeil": 3329,
      "ĠDeutschen": 3330,
      "Ð°Ð¼ÑĸÐ½": 3331,
      "Ð°Ð¼Ð°ÑĤÐ¸": 3332,
      "ÑĢÑĸÐ°Ð»": 3333,
      "Ð¶ÐµÐ½Ð½Ñı": 3334,
      "ĠPf": 3335,
      "ĠPol": 3336,
      "ĠPlatz": 3337,
      "ĠArbeits": 3338,
      "Ð³Ð¾Ð²Ð¾ÑĢ": 3339,
      "ĠÐ±Ð¸": 3340,
      "Ġinteres": 3341,
      "umen": 3342,
      "begin": 3343,
      "Ð°Ð½Ð´": 3344,
      "Ġfern": 3345,
      "ĠÑģÐ¿ÑĸÐ»": 3346,
      "ĠÑģÐ¿Ð¾ÑĢÑĤ": 3347,
      "ĠÐ·Ð°Ð¹Ð¼": 3348,
      "Ð¿ÐµÑĢ": 3349,
      "chten": 3350,
      "ĠÐ´ÑĢÑĥÐ·": 3351,
      "Ð°Ð»ÑĮÐ½Ð°": 3352,
      "ĠPartner": 3353,
      "ÑĨÑĮÐºÐ°": 3354,
      "ĠWald": 3355,
      "ĠWÃ¶rter": 3356,
      "ĠÐ·Ð°Ð¿ÑĢ": 3357,
      "ĠÐ²ÑĸÐ´Ð±": 3358,
      "ringt": 3359,
      "aler": 3360,
      "ĠUSB": 3361,
      "zig": 3362,
      "sicher": 3363,
      "Ġvom": 3364,
      "ierung": 3365,
      "Ġneuen": 3366,
      "Ð¾ÑĤÐµÑĢÐµ": 3367,
      "Ġher": 3368,
      "ÑģÑĤÑĢÑĸ": 3369,
      "ÑģÑĤÐ°Ð½": 3370,
      "urs": 3371,
      "ÑĥÐ²Ð°Ð»Ð°": 3372,
      "ats": 3373,
      "agesatz": 3374,
      "ĠÐ³Ð¾ÑĢ": 3375,
      "ĠÐ³Ð¾ÑģÑĤÑĸ": 3376,
      "ĠStudium": 3377,
      "ĠÐ±ÐµÐ·Ð¿Ðµ": 3378,
      "ĠText": 3379,
      "Schl": 3380,
      "schlag": 3381,
      "ĠÑĢÐ°Ñħ": 3382,
      "zahlen": 3383,
      "ĠWohin": 3384,
      "Ã¶ff": 3385,
      "warten": 3386,
      "ÑīÐ°": 3387,
      "ÐµÑĢÑĤ": 3388,
      "ĠHausaufgaben": 3389,
      "ĠÐ¾ÑģÐ²Ñĸ": 3390,
      "Ġmeiner": 3391,
      "ĠVerw": 3392,
      "ĠOst": 3393,
      "braucht": 3394,
      "Ð½Ð¾ÑĹ": 3395,
      "ĠÐĴÐ°Ñģ": 3396,
      "ĠÐ»Ñİ": 3397,
      "ĠÐ»Ð¸ÑģÑĤ": 3398,
      "ĠÐ»ÐµÐº": 3399,
      "ĠÐ»Ð¾ÑĤÐµÑĢÐµ": 3400,
      "Ġ11": 3401,
      "Ġ13": 3402,
      "Ġ15": 3403,
      "ĠKonjunktion": 3404,
      "ĠÑħÐ²Ð¾ÑĢ": 3405,
      "Ð»Ð¸ÑĪ": 3406,
      "Ð»Ð¸Ð·": 3407,
      "ĠÐ¼Ð¾Ð¶Ñĥ": 3408,
      "adt": 3409,
      "adio": 3410,
      "Ð½Ð¸ÑĨÑĤ": 3411,
      "ĠVerbrecher": 3412,
      "ĠVerbstamm": 3413,
      "ÑĸÐ»ÑĮÑĪÐµ": 3414,
      "ĠÐ´ÑĥÐ¼Ð°Ñİ": 3415,
      "halb": 3416,
      "fÃ¼hren": 3417,
      "ositiv": 3418,
      "stellung": 3419,
      "Ã¤tte": 3420,
      "Ð»ÑıÑĤÐ¸ÑģÑı": 3421,
      "ĠRegel": 3422,
      "lungs": 3423,
      "ammel": 3424,
      "ĠÐ»ÑİÐ±Ð¸ÑĤÑĮ": 3425,
      "geschÃ¤ft": 3426,
      "ĠOrt": 3427,
      "ĠAusbildung": 3428,
      "ÐµÐ´ÑĢÐ¸": 3429,
      "schied": 3430,
      "Ġalle": 3431,
      "ĠÐµÐºÑģ": 3432,
      "ĠÐµÐºÐ¾Ð½Ð¾Ð¼": 3433,
      "meer": 3434,
      "ĠÐ§Ð¸": 3435,
      "ĠÐºÐ¾Ð»ÑĮ": 3436,
      "ĠÐºÐ¾Ð»ÐµÐ³": 3437,
      "Ð±Ð¸ÑĢÐ°ÑĤÐ¸": 3438,
      "ĠStadtr": 3439,
      "konjunktiv": 3440,
      "ÑĥÐ½Ð¾Ðº": 3441,
      "ÑģÐ»ÑĥÐ³": 3442,
      "Ġbestimm": 3443,
      "Ġverwenden": 3444,
      "ĠSofa": 3445,
      "ĠĠĠĠĠĠĠĠĠĠĠĠĠĠĠĠ": 3446,
      "ĠÐ¿Ð»Ð°Ð½": 3447,
      "sprache": 3448,
      "dienen": 3449,
      "zÃ¤hlt": 3450,
      "ĠAls": 3451,
      "ĠÑģÑĤÑĥÐ´ÐµÐ½ÑĤÑĸÐ²": 3452,
      "ĠRelativpronomen": 3453,
      "ĠÐ»ÑĸÐºÐ°ÑĢ": 3454,
      "bieten": 3455,
      "besch": 3456,
      "folge": 3457,
      "Ġdiesem": 3458,
      "ĠÑĢÐ¾Ð±Ð¾ÑĩÐ¸Ð¹": 3459,
      "ĠÐ²ÐµÑĩÑĸÑĢ": 3460,
      "ĠÑĥÐ½ÑĸÐ²ÐµÑĢÑģÐ¸ÑĤÐµÑĤÑĥ": 3461,
      "bestimm": 3462,
      "ĠÐ´Ð¸Ð²Ð¸ÑĤÐ¸ÑģÑı": 3463,
      "Ġfolgenden": 3464,
      "ĠQR": 3465,
      "ĠChef": 3466,
      "ĠÐ¾ÑħÐ¾ÑĩÐµ": 3467,
      "ultur": 3468,
      "ĠÐ¿ÑĢÐ¾Ð¿Ð¾Ð·Ð¸ÑĨÑĸÑı": 3469,
      "tschafts": 3470,
      "ĠÑĢÐµÐºÐ¾Ð¼ÐµÐ½Ð´Ð°": 3471,
      "Ð¾Ð»Ð¸Ð½ÑģÑĮÐºÐ¾Ð³Ð¾": 3472,
      "Ã¶glichkeit": 3473,
      "ĠÐ±ÑĥÐ´Ð¸Ð½Ð¾Ðº": 3474,
      "ĠÐ¶Ð¸ÑĤÑĤÑı": 3475,
      "ĠÐºÐ°ÑĦÐµÐ´ÑĢÐ¸": 3476,
      "Codes": 3477,
      "Freund": 3478,
      "iederlan": 3479,
      "ĠSingular": 3480,
      "ĠPost": 3481,
      "Ġkonjugierte": 3482,
      "ĠÑģÐ»ÑĥÐ¶": 3483,
      "ĠÐ¿ÑĸÐ´Ð²Ð¸Ñī": 3484,
      ");": 3485,
      "33": 3486,
      "35": 3487,
      "45": 3488,
      "49": 3489,
      "57": 3490,
      "67": 3491,
      "Ber": 3492,
      "Deutsch": 3493,
      "Hand": 3494,
      "Men": 3495,
      "Par": 3496,
      "Pro": 3497,
      "aha": 3498,
      "aar": 3499,
      "ahl": 3500,
      "com": 3501,
      "dung": 3502,
      "doppel": 3503,
      "ex": 3504,
      "for": 3505,
      "fach": 3506,
      "fft": 3507,
      "gst": 3508,
      "gern": 3509,
      "gation": 3510,
      "hein": 3511,
      "higkeit": 3512,
      "ium": 3513,
      "iff": 3514,
      "kÃ¼": 3515,
      "kurs": 3516,
      "lÃ¶": 3517,
      "los": 3518,
      "low": 3519,
      "markt": 3520,
      "namen": 3521,
      "oten": 3522,
      "pas": 3523,
      "perfekt": 3524,
      "perlativ": 3525,
      "qu": 3526,
      "ras": 3527,
      "rieben": 3528,
      "rÃ¼n": 3529,
      "su": 3530,
      "ses": 3531,
      "swort": 3532,
      "ty": 3533,
      "tragen": 3534,
      "temporale": 3535,
      "uz": 3536,
      "uster": 3537,
      "voll": 3538,
      "verein": 3539,
      "wÃ¤": 3540,
      "weg": 3541,
      "zin": 3542,
      "zog": 3543,
      "zone": 3544,
      "Ð¢": 3545,
      "Ð£": 3546,
      "Ðł": 3547,
      "Ġeigen": 3548,
      "ĠÐ¥": 3549,
      "ĠÐł": 3550,
      "Ð¾ÑĢÐµ": 3551,
      "ÐµÑĦ": 3552,
      "ÑıÑĤÑĮ": 3553,
      "ÑĸÑĩÐ½Ð¸Ð¹": 3554,
      "rer": 3555,
      "regelmÃ¤ÃŁ": 3556,
      "Ð¾Ð¹": 3557,
      "Ð°Ð´Ð°": 3558,
      "Ð¸Ð»Ð¸": 3559,
      "ÑĤÐµÐ½": 3560,
      "ÑĢÐ¸Ð¹": 3561,
      "ÑĢÐ¾Ð±Ñĸ": 3562,
      "ÑĢÐ°Ð·": 3563,
      "ÐµÐ½ÑĤÑĢ": 3564,
      "ÐµÐ½ÐµÑĢ": 3565,
      "Ð»ÐµÐ½": 3566,
      "Ð»Ð»Ñı": 3567,
      "ÑĥÑĢÐ°": 3568,
      "Ð¼Ð¸": 3569,
      "inge": 3570,
      "ingt": 3571,
      "stich": 3572,
      "stimmen": 3573,
      "stadt": 3574,
      "ÐºÑĤÐ¾ÑĢ": 3575,
      "ÐºÐ¾Ð³Ð¾ÑģÑĮ": 3576,
      "ÐºÐ¾Ð²Ð¾": 3577,
      "ieg": 3578,
      "iem": 3579,
      "iegen": 3580,
      "Ġdun": 3581,
      "Ġdeutsch": 3582,
      "Ġdann": 3583,
      "Ġdrei": 3584,
      "ÑĩÐ°": 3585,
      "ÑĩÐ½Ðµ": 3586,
      "ÑĩÐºÐ°": 3587,
      "ÑģÐ½Ð¸Ðº": 3588,
      "ĠÐ¿ÐµÑĢ": 3589,
      "ĠÐ¿ÑĸÑĪ": 3590,
      "ĠÐ¿Ð¾Ð»Ñĸ": 3591,
      "Ð¾Ð¼Ð°": 3592,
      "Ð¾Ð¼Ð¸Ð¹": 3593,
      "Ð¾Ð¼Ð°ÑĤ": 3594,
      "ĠInsekt": 3595,
      "ĠÐ´Ð¾ÑĢ": 3596,
      "ĠÐ´Ð²Ñĸ": 3597,
      "ĠÐ´Ð¾Ðº": 3598,
      "ĠÐ´Ð¾Ð±": 3599,
      "ĠÐ´ÐµÑĤ": 3600,
      "ĠÐ´Ð¸ÑĢ": 3601,
      "Ð¸ÐºÐ¸": 3602,
      "aschen": 3603,
      "ÑģÐ»ÑĸÐ²": 3604,
      "ĠÐ¼Ð¾ÑĹ": 3605,
      "ĠÐ¼Ð¾Ð²Ð°": 3606,
      "ĠÐ¼ÑĥÑģ": 3607,
      "ĠÐ¼ÑĢÑĸÑĹ": 3608,
      "Ð°ÑĶÑĪ": 3609,
      "Ð°ÑĶÐ¼Ð¾": 3610,
      "ĠÐ·Ð¼": 3611,
      "ĠÐ·Ð½Ð¸Ð¶": 3612,
      "ĠÐ·ÑĥÑģÑĤÑĢÑĸ": 3613,
      "gesetz": 3614,
      "ĠÐ½Ð°Ð¼": 3615,
      "ĠÐ½Ð¾Ð²Ð¸Ð¹": 3616,
      "ĠÑģÑĮÐ¾Ð³Ð¾Ð´Ð½Ñĸ": 3617,
      "ÑĸÑĶÐ½ÑĤ": 3618,
      "ĠÐ²Ð¼": 3619,
      "ĠÐ²Ð°ÑĢ": 3620,
      "ĠÐ²Ð¿ÑĢÐ°Ð²": 3621,
      "einander": 3622,
      "ÑĢÐµÑĤ": 3623,
      "Ġhal": 3624,
      "ĠDem": 3625,
      "Ġwo": 3626,
      "ÑĤÐ¸Ð½Ð°": 3627,
      "ĠkÃ¤": 3628,
      "Ġgem": 3629,
      "ĠÐ½ÐµÐ¿": 3630,
      "ĠÐ½ÐµÐ·": 3631,
      "Ġmei": 3632,
      "Ð²Ð°ÑĤÐ¸": 3633,
      "Ð²Ð½Ð¸Ð¹": 3634,
      "Ð¾ÑĢÐ°": 3635,
      "Ð¾ÑĢÐ¾Ð²": 3636,
      "Ð¾ÑĢÐ¾Ð½": 3637,
      "Ð¾ÑĢÐ¾ÑĪ": 3638,
      "Ð¼ÐµÑĢ": 3639,
      "Ġba": 3640,
      "Ã¼se": 3641,
      "Ã¼tzen": 3642,
      "Ð¹Ð¾Ð½": 3643,
      "ĠSon": 3644,
      "ĠSeite": 3645,
      "ĠBÃ¤": 3646,
      "ĠBrÃ¼": 3647,
      "ÑĦÐµÑĢ": 3648,
      "esung": 3649,
      "âĢĵ": 3650,
      "âĢŀ": 3651,
      "Ð¾Ð´ÐµÐ½": 3652,
      "Ð¾Ð´ÑĸÐ¹": 3653,
      "ĠÑģÑĤÑĢÐµ": 3654,
      "ĠÑĥÐºÑĥ": 3655,
      "ĠÑĥÑģÐ¿": 3656,
      "ÑĤÐ¸ÐºÐ¸": 3657,
      "scheiden": 3658,
      "decken": 3659,
      "Ã¤f": 3660,
      "ĠÐ¿ÑĢÐ¸Ð½": 3661,
      "ĠÐ¿ÑĢÐ¾ÑĤ": 3662,
      "ĠÐ¿ÑĢÐ¸Ð³": 3663,
      "ĠÐ¿ÑĢÐ¸Ð²": 3664,
      "ĠÑĩÐ¸ÑĤ": 3665,
      "ĠÑĩÑĥÐ´": 3666,
      "ĠÑĩÐ¸ÑģÑĤÐ¸": 3667,
      "ĠÑĩÐµÑĢÐµÐ·": 3668,
      "arage": 3669,
      "ĠÑĤÐ°Ð¼": 3670,
      "Ġeines": 3671,
      "unft": 3672,
      "ĠKan": 3673,
      "ĠKrank": 3674,
      "ĠKunden": 3675,
      "ĠKopf": 3676,
      "ĠKultur": 3677,
      "ĠFor": 3678,
      "ĠÐºÑĢÐ°": 3679,
      "ÑİÑĢ": 3680,
      "ĠÐ¾Ð¿Ðµ": 3681,
      "Ð¸Ð½Ñĸ": 3682,
      "llt": 3683,
      "ĠÐ·Ð°Ð»Ð¸ÑĪ": 3684,
      "Ð¾Ð»ÑĮ": 3685,
      "ĠÑĦÐ¾ÑĤ": 3686,
      "ĠÑĩÐ°ÑģÑĤ": 3687,
      "ĠMot": 3688,
      "ĠGast": 3689,
      "ĠGrund": 3690,
      "ĠÐ¿Ð¾ÑģÐ¸": 3691,
      "Ġgera": 3692,
      "ĠTrau": 3693,
      "ĠTrin": 3694,
      "ĠTal": 3695,
      "ĠTier": 3696,
      "ĠTour": 3697,
      "ÑĥÑĶÐ¼Ð¾": 3698,
      "ĠDeutschland": 3699,
      "annt": 3700,
      "ktur": 3701,
      "ĠZu": 3702,
      "ĠPati": 3703,
      "ĠPreis": 3704,
      "Ð³Ð°": 3705,
      "ÑĢÑĥÐ´": 3706,
      "Ð½Ð¸ÐºÐ¸": 3707,
      "ĠÐ±Ð°Ñģ": 3708,
      "rennen": 3709,
      "Ġteil": 3710,
      "raut": 3711,
      "rauen": 3712,
      "ĠerhÃ¶": 3713,
      "ĠerzÃ¤hlt": 3714,
      "Ġfliegen": 3715,
      "ĠSchwar": 3716,
      "ĠSchuhe": 3717,
      "Ð½ÐµÑĤÑĸ": 3718,
      "Ð½ÐµÐ´ÑĸÐ»": 3719,
      "ĠÐ¼ÑĸÑģÑĤÐ¸": 3720,
      "dieren": 3721,
      "ennt": 3722,
      "ĠWein": 3723,
      "ĠWenn": 3724,
      "telefon": 3725,
      "ÑĢÑıÑĤÐ¸": 3726,
      "ĠÐ¶Ð¾Ð²": 3727,
      "ĠÐ¶Ð¸ÑĤÐ¸": 3728,
      "itte": 3729,
      "itag": 3730,
      "ittel": 3731,
      "durch": 3732,
      "Ġausge": 3733,
      "ĠausdrÃ¼cken": 3734,
      "Ð»ÑİÐ²Ð°ÑĤÐ¸": 3735,
      "ÑĸÐ¹ÑģÐ½": 3736,
      "serv": 3737,
      "Ð¾ÑĤÐ°": 3738,
      "Ã¼rfen": 3739,
      "Ġwohnen": 3740,
      "ĠÑĨÑĮÐ¾Ð¼Ñĥ": 3741,
      "ame": 3742,
      "ĠÐ¢ÑĥÑĤ": 3743,
      "ĠVoll": 3744,
      "ĠFreitag": 3745,
      "ĠRes": 3746,
      "ĠhÃ¶": 3747,
      "ĠÑĤÐ°ÐºÐ¸Ð¹": 3748,
      "ÑģÑĤÑĥÐ¿": 3749,
      "iss": 3750,
      "ural": 3751,
      "nee": 3752,
      "negation": 3753,
      "arbeiter": 3754,
      "Ð»ÐµÐ¶": 3755,
      "ĠEi": 3756,
      "ĠEl": 3757,
      "ĠEnt": 3758,
      "ĠGew": 3759,
      "rak": 3760,
      "ĠÐ³ÑĢÐ°": 3761,
      "ĠÐĹÐ°": 3762,
      "Ð´Ð°ÑĢ": 3763,
      "schlossen": 3764,
      "ĠÑĢÐ¸Ð½": 3765,
      "zahl": 3766,
      "Ġ22": 3767,
      "schlagen": 3768,
      "Ã¤rm": 3769,
      "Ġmeinem": 3770,
      "ĠVerkehr": 3771,
      "Ð¸Ð²ÑģÑı": 3772,
      "Ð¸Ð²Ð°Ð½Ð½Ñı": 3773,
      "ress": 3774,
      "ĠNein": 3775,
      "ĠNegation": 3776,
      "ĠNoten": 3777,
      "ĠÐĴÐ¾Ð½Ð¸": 3778,
      "ĠÐĴÐ°ÑĪ": 3779,
      "Ð¾Ð¶Ð½Ð°": 3780,
      "Ġ10": 3781,
      "ĠÑĢÐ¾Ð±Ð¾ÑĤÐ¸": 3782,
      "olz": 3783,
      "olks": 3784,
      "ationen": 3785,
      "ĠÐ°Ð²ÑĤ": 3786,
      "Ġbeg": 3787,
      "Ġbeantworten": 3788,
      "ÑĥÑĤÐ±": 3789,
      "ÑĥÑĤÑĤÑı": 3790,
      "ĠÐ²Ð¸Ð´": 3791,
      "othe": 3792,
      "Ġvorbei": 3793,
      "rÃ¼hst": 3794,
      "weise": 3795,
      "ulieren": 3796,
      "000": 3797,
      "ĠÑĪÐµÑĦ": 3798,
      "ĠÐ¿ÐµÑĢÐµÐ¼": 3799,
      "ĠÐ¿ÐµÑĢÐµÐ²Ñĸ": 3800,
      "hinter": 3801,
      "Ġstu": 3802,
      "Ð°ÑģÑĤÑĮ": 3803,
      "ĠÐ·Ð½Ð°Ñİ": 3804,
      "problem": 3805,
      "liegt": 3806,
      "ĠÐ²ÐµÐ»Ð¸Ðº": 3807,
      "wendig": 3808,
      "ĠUniversitÃ¤t": 3809,
      "ÐµÐ¹Ð½": 3810,
      "ĠÐºÐ¾Ð¼Ð¿": 3811,
      "ĠÐºÐ¾Ð¼Ð°Ñħ": 3812,
      "ĠÑıÐºÑīÐ¾": 3813,
      "ÑĸÑĤÐ½Ð¸Ð¹": 3814,
      "eller": 3815,
      "ĠÑĨÐ¸Ð¼": 3816,
      "Ġpassen": 3817,
      "ĠÑģÐ²Ð¾ÑĹ": 3818,
      "ĠSpei": 3819,
      "ĠReihen": 3820,
      "werden": 3821,
      "heits": 3822,
      "ÑģÐ¿Ð¾ÑĢÑĤ": 3823,
      "ÑĢÐ°Ð²Ð°ÑĤÐ¸": 3824,
      "ĠWelt": 3825,
      "ĠWelches": 3826,
      "Ð»Ð¸Ð²Ð¾": 3827,
      "Ð»Ð¸Ð²Ð¸Ð¹": 3828,
      "ĠÐ³ÑĢÐ¾ÑĪÐµÐ¹": 3829,
      "echseln": 3830,
      "ÐºÐ°ÑĢÐ¶": 3831,
      "ĠWiese": 3832,
      "flicht": 3833,
      "okale": 3834,
      "ĠÐ§Ð¾Ð¼Ñĥ": 3835,
      "freund": 3836,
      "ÑĸÑĪÐ°ÑĤÐ¸": 3837,
      "ĠUnterricht": 3838,
      "Beispiele": 3839,
      "ĠÐ²Ð¸Ð³ÑĢÐ°ÑĪ": 3840,
      "ĠStraÃŁe": 3841,
      "ÑĥÑİÑĤÑĮ": 3842,
      "gewinnen": 3843,
      "Ġwelche": 3844,
      "Ġwelcher": 3845,
      "ĠGebirge": 3846,
      "zÃ¤hl": 3847,
      "ĠÐŀÐ±": 3848,
      "ĠÑģÐµÐ±Ðµ": 3849,
      "Ġgewonnen": 3850,
      "ĠAbsicht": 3851,
      "ĠAlpen": 3852,
      "ĠStelle": 3853,
      "ĠÐ½Ð°ÑĨÑĸÐ¾Ð½Ð°Ð»ÑĮÐ½Ð¸Ð¹": 3854,
      "ĠLandschaft": 3855,
      "ĠRelativsatz": 3856,
      "ĠÑĪÐºÐ¾Ð»Ð°": 3857,
      "ĠÐºÐ¾Ð½ÑĤÐ°": 3858,
      "ĠPrÃ¤fixe": 3859,
      "rammatik": 3860,
      "Ġrichtige": 3861,
      "ĠÑģÐµÑĢÐ²Ñĸ": 3862,
      "ĠÐ¿ÑĢÐ¾Ð´ÑĥÐº": 3863,
      "hÃ¶rt": 3864,
      "ĠKonto": 3865,
      "ĠMÃ¼cken": 3866,
      "ĠGeschÃ¤ft": 3867,
      "ĠÐ²Ð¸ÑĤÑĢÐ°ÑĤÐ¸": 3868,
      "Ġgetan": 3869,
      "ĠSpieler": 3870,
      "ĠTÃ¤ter": 3871,
      "ĠÐ±Ð°Ð½ÐºÑĥ": 3872,
      "ÑıÐ²ÐºÑĥ": 3873,
      "ĠÑĥÑĩÐ°ÑģÑĤÑĮ": 3874,
      "ĠHochzeit": 3875,
      "ĠÐ¾Ð²Ð¾ÑĩÑĸ": 3876,
      "ĠMenschen": 3877,
      "ĠRegal": 3878,
      "ĠÑĤÐµÐ»ÐµÑĦÐ¾Ð½Ñĥ": 3879,
      "handeln": 3880,
      "Ausbildung": 3881,
      "Mail": 3882,
      "eklination": 3883,
      "ÑĸÑĤÐ°ÑĢÑĸ": 3884,
      "ĠÐ¿ÑĢÐµÐ´": 3885,
      "ĠÐ¼Ð¾ÑĢÑĸ": 3886,
      "ĠGemÃ¼se": 3887,
      "ĠWunsch": 3888,
      "ĠÑħÐ¾ÑĤÑĸÐ»Ð°": 3889,
      "Ð¸ÑĩÐ°Ð¹Ð½Ð¾": 3890,
      "ĠÐ²ÑĸÐ´Ð¿ÑĥÑģÑĤÐºÑĥ": 3891,
      "ĠFlugzeug": 3892,
      "ĠÐ¿ÑĢÐ¾Ð±Ð»ÐµÐ¼Ð°": 3893,
      "Welche": 3894,
      "ĠNomen": 3895,
      "struktur": 3896,
      "stitut": 3897,
      "ĠÐ¼Ð¾Ð³Ð»Ð¸": 3898,
      "ĠÑģÐ²Ð°ÑĢÐ¸ÑĤÐ¸ÑģÑı": 3899,
      "ĠBÃ¼rger": 3900,
      "SchlÃ¼ssel": 3901,
      "ĠÑĢÐ°ÑħÑĥÐ½Ð¾Ðº": 3902,
      "ĠÐ»ÑİÐ´": 3903,
      "ĠStadtrand": 3904,
      "ÑĢÐ¾Ð±ÑĸÑĤ": 3905,
      "ĠÐ´ÐµÑĤÐµÐºÑĤÐ¸": 3906,
      "ĠÐ´Ð¸ÑĢÐ¸Ð³": 3907,
      "ĠÑĥÐºÑĥÑģ": 3908,
      "ĠMotor": 3909,
      "ĠTrink": 3910,
      "ĠÐ±Ð°ÑģÐµÐ¹Ð½": 3911,
      ".,": 3912,
      "39": 3913,
      "97": 3914,
      "Fin": 3915,
      "Ges": 3916,
      "Komparativ": 3917,
      "Meinung": 3918,
      "Nicht": 3919,
      "Pol": 3920,
      "PrÃ¼fung": 3921,
      "Positiv": 3922,
      "Sti": 3923,
      "Satz": 3924,
      "Selma": 3925,
      "akt": 3926,
      "aten": 3927,
      "bs": 3928,
      "baren": 3929,
      "bad": 3930,
      "dre": 3931,
      "dienst": 3932,
      "dgesch": 3933,
      "ehen": 3934,
      "ehm": 3935,
      "fs": 3936,
      "fu": 3937,
      "fas": 3938,
      "fern": 3939,
      "fil": 3940,
      "funden": 3941,
      "gn": 3942,
      "gru": 3943,
      "gte": 3944,
      "glie": 3945,
      "german": 3946,
      "hor": 3947,
      "ift": 3948,
      "itet": 3949,
      "iÃ¤t": 3950,
      "kei": 3951,
      "kÃ¤": 3952,
      "kar": 3953,
      "kul": 3954,
      "legen": 3955,
      "lesung": 3956,
      "man": 3957,
      "meine": 3958,
      "mÃ¶": 3959,
      "mmer": 3960,
      "nas": 3961,
      "ndel": 3962,
      "national": 3963,
      "oben": 3964,
      "ock": 3965,
      "osten": 3966,
      "pp": 3967,
      "put": 3968,
      "prÃ¼": 3969,
      "plan": 3970,
      "ppen": 3971,
      "rom": 3972,
      "ss": 3973,
      "sÃ¤": 3974,
      "sÃ¤tze": 3975,
      "sgesprÃ¤ch": 3976,
      "sammel": 3977,
      "ts": 3978,
      "ufe": 3979,
      "ufen": 3980,
      "viel": 3981,
      "wissen": 3982,
      "xi": 3983,
      "yern": 3984,
      "zwei": 3985,
      "Ðĳ": 3986,
      "Ðķ": 3987,
      "Ðŀ": 3988,
      "Ġ!": 3989,
      "ĠÑģÐ½": 3990,
      "ĠÃ¤": 3991,
      "Ġus": 3992,
      "Ġ..": 3993,
      "ĠÃĸ": 3994,
      "Ð½Ñİ": 3995,
      "Ð½Ð°Ð²": 3996,
      "Ð¾ÑĶÐ¼": 3997,
      "ÐµÑģ": 3998,
      "ÐµÑĤÑĢ": 3999,
      "ÐµÑĢÑĸÐ²": 4000,
      "ÑıÐ½": 4001,
      "ÑıÐ´": 4002,
      "ÑĸÑħ": 4003,
      "ÑĸÐ»Ðµ": 4004,
      "ÑģÐ¾Ð²Ð¸Ð¹": 4005,
      "reg": 4006,
      "reten": 4007,
      "Ð°ÑĦ": 4008,
      "Ð°ÑĤÑĮ": 4009,
      "Ð°ÑĢÑĥ": 4010,
      "rechn": 4011,
      "Ð¸Ð¶": 4012,
      "Ð¸Ñī": 4013,
      "Ð¸ÑĶÐ¼": 4014,
      "enut": 4015,
      "ÑĤÑĢÑĥ": 4016,
      "ÑĢÐ°Ð±": 4017,
      "ÑĢÐ°Ð¼Ð°": 4018,
      "ÑĢÐ¾Ñī": 4019,
      "ÐµÐ½Ð¾": 4020,
      "ÐµÐ½ÑĤÐ¸": 4021,
      "Ð»Ð¾Ð²": 4022,
      "ÑĥÑĤÐ¸": 4023,
      "erw": 4024,
      "erte": 4025,
      "Ð¼Ð¾Ñģ": 4026,
      "Ð¼Ð°ÑĤÐ¸ÑģÑı": 4027,
      "ina": 4028,
      "inken": 4029,
      "ÐµÐ½Ð½ÑıÐ¼": 4030,
      "stag": 4031,
      "stand": 4032,
      "ĠIran": 4033,
      "ÐºÐ¾Ð²Ð°": 4034,
      "iete": 4035,
      "Ġdre": 4036,
      "Ġdarf": 4037,
      "ÑĩÐµ": 4038,
      "ÑĩÑĸ": 4039,
      "ÑĩÐ¸": 4040,
      "ÑĩÐ½Ñĸ": 4041,
      "ÑĩÐµÑĢÐµÐ·": 4042,
      "Ð¾Ð²Ð°ÑĢ": 4043,
      "Ð¾Ð²Ð°Ð½Ñĸ": 4044,
      "ĠÐ¿Ð¾Ð²Ñĸ": 4045,
      "ĠÐ¿ÑĸÑĤÐ¸": 4046,
      "ĠÐ¿Ð¾Ð¶": 4047,
      "ĠÐ¿ÐµÑĢÑĪ": 4048,
      "ĠInteres": 4049,
      "ĠÐ´Ð¾Ð²": 4050,
      "ĠÐ´ÑĸÑı": 4051,
      "ĠÐ´Ð·Ð²": 4052,
      "asus": 4053,
      "Ð´Ð¾": 4054,
      "Ð´Ñĥ": 4055,
      "Ð´Ð°ÑĤ": 4056,
      "Ð´ÐµÑĢ": 4057,
      "Ð´ÑĥÐ¼": 4058,
      "auer": 4059,
      "hafen": 4060,
      "ĠÐ¼Ð°Ð²": 4061,
      "ĠÐ¼ÑĸÐ¹": 4062,
      "Ð°ÑĶÐ¼": 4063,
      "Ð°ÑĶÑĤÐµ": 4064,
      "ĠÐ°ÑĤ": 4065,
      "ĠÐ·ÐµÐ¼": 4066,
      "gest": 4067,
      "gemein": 4068,
      "ĠÐ½Ð°Ð³": 4069,
      "ĠÐ½Ð°Ð·": 4070,
      "ĠÑģÐ²ÑĸÐ¹": 4071,
      "ĠÑģÐ¾Ð½": 4072,
      "ĠÑģÐ°Ð´": 4073,
      "ĠÑģÐ¸Ð´": 4074,
      "ĠÐ²ÑģÑĸ": 4075,
      "ĠÐ²Ð¸ÑģÑĤÐ°Ð²": 4076,
      "ĠÐ²ÑĸÑĤ": 4077,
      "ĠÐ²Ð²Ð°Ð¶": 4078,
      "ĠÐ²ÐµÑĢÑĪ": 4079,
      "ĠÐ²ÑĸÐ»ÑĮÐ½": 4080,
      "einem": 4081,
      "ÑĢÐµÐºÑĤÐ¾ÑĢ": 4082,
      "Ġhandel": 4083,
      "ĠDeklination": 4084,
      "ans": 4085,
      "anlage": 4086,
      "ĠweiÃŁ": 4087,
      "Ġwechseln": 4088,
      "Ġseit": 4089,
      "Ġsagen": 4090,
      "Ġsauber": 4091,
      "Ġsitzen": 4092,
      "Ġgespielt": 4093,
      "Ġgestellt": 4094,
      "ĠgehÃ¶rt": 4095,
      "ĠÐ½ÐµÐ´": 4096,
      "ĠÐ½ÐµÐ¼Ð°": 4097,
      "ĠÐ½ÐµÐ¿ÑĢ": 4098,
      "utto": 4099,
      "Ġmel": 4100,
      "ĠmiÃŁ": 4101,
      "ÑĸÐ´Ð½Ñı": 4102,
      "Ð²Ð½": 4103,
      "Ð²Ð¸ÑĤ": 4104,
      "Ð²Ð»Ð°ÑĪÑĤ": 4105,
      "ĠAber": 4106,
      "Ð¾ÑĢÑĥ": 4107,
      "Ð¾ÑĢÐ°Ð½": 4108,
      "Ð¾Ð³Ñĥ": 4109,
      "Ð¾Ð³ÑĤÐ¸": 4110,
      "Ð¾Ð³ÑĢÐ°": 4111,
      "ÑĨÑĸÐ½": 4112,
      "Ġbet": 4113,
      "Ġbilden": 4114,
      "Ġbringen": 4115,
      "Ġbildet": 4116,
      "Ð¼ÐµÑĤÐ¾Ð´Ð¸Ñĩ": 4117,
      "ĠSti": 4118,
      "ĠSand": 4119,
      "ĠSetz": 4120,
      "ĠSort": 4121,
      "ĠBr": 4122,
      "ĠBas": 4123,
      "ĠBes": 4124,
      "ĠBet": 4125,
      "ĠBord": 4126,
      "ĠBestell": 4127,
      "Ð¿ÑĤÐµ": 4128,
      "eshalb": 4129,
      "icher": 4130,
      "Ð¾Ð´Ñĸ": 4131,
      "ĠÑĢÐµÐ¼Ð¾": 4132,
      "ĠÑģÑĤÐ¾Ð»": 4133,
      "ĠÑģÑĤÐ¾Ð¼Ð°ÑĤ": 4134,
      "Ġnie": 4135,
      "Ġnorm": 4136,
      "Ġneben": 4137,
      "eitet": 4138,
      "ĠÑĥÑģÑĸ": 4139,
      "ĠÑĥÐ²Ð°Ð³": 4140,
      "scher": 4141,
      "schein": 4142,
      "dete": 4143,
      "ÑĨÑĸÐ²": 4144,
      "Ã¤he": 4145,
      "Ã¤che": 4146,
      "Ã¤uf": 4147,
      "ĠÑĩÐ°Ð¹": 4148,
      "arke": 4149,
      "arzt": 4150,
      "ĠÑĤÐ°Ð½": 4151,
      "ĠÑĤÐ¾Ð±Ñĸ": 4152,
      "ĠÑĤÐ¾ÑĢÑĤ": 4153,
      "ĠÑĤÐ²Ð°ÑĢ": 4154,
      "ĠÑĤÐ¾Ð¹": 4155,
      "ĠÑĤÐ¾Ð²Ð°ÑĢ": 4156,
      "Ġeinmal": 4157,
      "under": 4158,
      "ĠHalt": 4159,
      "ĠHex": 4160,
      "ĠKlasse": 4161,
      "ĠKrim": 4162,
      "ĠFot": 4163,
      "ĠÐºÑĥ": 4164,
      "ĠÐºÐ¾Ð¼Ñĥ": 4165,
      "ĠÐºÐ»Ð°": 4166,
      "ĠÐºÐ°Ð¿": 4167,
      "ĠÐºÑĢÐ°ÑĹ": 4168,
      "ĠÐºÐ²Ð°ÑĢ": 4169,
      "ĠÐºÐ½Ð¸Ð¶": 4170,
      "ĠÐºÐ°Ð¼ÑĸÐ½": 4171,
      "ĠÐºÐµÑĢÑĸÐ²": 4172,
      "Ġlei": 4173,
      "Ġlange": 4174,
      "Ġletzten": 4175,
      "ÑİÑĤÐµÑĢ": 4176,
      "ĠÐ·Ð°Ð´": 4177,
      "ĠÐ·Ð°ÑħÑĸÐ´": 4178,
      "ĠÐ·Ð°ÑģÑĸÐ´": 4179,
      "ĠÐ·Ð°ÑģÑĸÐ±": 4180,
      "ĠÐ·Ð°ÑıÐ²ÐºÑĥ": 4181,
      "fehlen": 4182,
      "rum": 4183,
      "ÐµÑĢÐµÐ¶": 4184,
      "ĠMin": 4185,
      "ĠMeine": 4186,
      "ĠMat": 4187,
      "ĠMusik": 4188,
      "Ð¸ÑģÐº": 4189,
      "ĠÐ¿Ð¾ÑĪ": 4190,
      "ĠÐ¿Ð¾Ð½ÐµÐ´ÑĸÐ»": 4191,
      "indirekte": 4192,
      "Ġganzen": 4193,
      "Ð°Ð²ÐµÑĨÑĮ": 4194,
      "ĠTiere": 4195,
      "rocken": 4196,
      "ĠÐ·Ð°ÐºÐ¾Ñħ": 4197,
      "chenke": 4198,
      "eile": 4199,
      "derung": 4200,
      "Ð¶Ñĸ": 4201,
      "ĠZusammen": 4202,
      "ĠPl": 4203,
      "Ð³ÑĢ": 4204,
      "ĠZeitschrift": 4205,
      "ĠÐ±Ð¾Ð»": 4206,
      "ĠÐ±Ð°Ð³Ð°ÑĤ": 4207,
      "ĠÐ±ÑĸÐ»ÑĮÑĪ": 4208,
      "ĠÐ±ÐµÑĢÑĥ": 4209,
      "ument": 4210,
      "rennt": 4211,
      "bed": 4212,
      "bet": 4213,
      "bew": 4214,
      "bereit": 4215,
      "Ġerlau": 4216,
      "Ð·ÑĮ": 4217,
      "Ð·Ð°ÑĤÐ¸": 4218,
      "Ð·Ð°Ð±": 4219,
      "Ð°Ð½ÑĤÐ¸": 4220,
      "Ð°Ð½ÑģÐ¿Ð¾ÑĢÑĤ": 4221,
      "Ġfol": 4222,
      "ĠfrÃ¼": 4223,
      "Ġfliegt": 4224,
      "ÑħÐ°": 4225,
      "Ã¶l": 4226,
      "Ã¶s": 4227,
      "ĠSchiff": 4228,
      "Ð¿ÐµÑĤÐµÐ½": 4229,
      "Ð¿ÐµÐ²Ð½": 4230,
      "chtung": 4231,
      "hnt": 4232,
      "stet": 4233,
      "ĠErdgesch": 4234,
      "Ð´Ð¸ÑĤÐ¸": 4235,
      "fte": 4236,
      "ĠÑĸÐ½Ð¾Ð·": 4237,
      "ĠÑĸÐ½ÑģÑĤÑĢÑĥ": 4238,
      "Ð°Ð»ÑĮÐ½Ð¸Ðº": 4239,
      "Ð´Ð½Ð¸Ð¹": 4240,
      "rÃ¤u": 4241,
      "ĠParty": 4242,
      "ĠÐ²Ð¸ÐºÐ¾ÑĢÐ¸ÑģÑĤÐ°Ð½Ð½Ñı": 4243,
      "ĠWe": 4244,
      "ĠWeg": 4245,
      "ĠWissen": 4246,
      "ĠWinter": 4247,
      "ĠWetter": 4248,
      "ĠÐ²ÑĸÐ´Ð²ÑĸÐ´": 4249,
      "ĠÐ²ÑĸÐ´ÐºÑĢ": 4250,
      "ÑĢÑıÐ´Ð¶": 4251,
      "ond": 4252,
      "onn": 4253,
      "undes": 4254,
      "Ġzusammen": 4255,
      "ĠWirtschafts": 4256,
      "alkon": 4257,
      "ausgeben": 4258,
      "ientieren": 4259,
      "ĠApothe": 4260,
      "ĠUkra": 4261,
      "duzieren": 4262,
      "gangenheit": 4263,
      "Ð¾Ð±Ð¾Ñİ": 4264,
      "ĠLi": 4265,
      "ĠÑĩÐ¾Ð»Ð¾Ð²ÑĸÐº": 4266,
      "eidung": 4267,
      "agt": 4268,
      "ÑĢÐµÐ±Ð°": 4269,
      "ilien": 4270,
      "Ð¾ÑĤÑĥ": 4271,
      "ĠÐ½ÑĸÑĩÐ¾Ð³Ð¾": 4272,
      "ÑĨÐµÐ²Ð»Ð°ÑĪÑĤ": 4273,
      "Ð°ÑĤÐ¾ÑĢ": 4274,
      "Ð°ÑĤÐ¾Ðº": 4275,
      "ĠÐ¢Ð°Ðº": 4276,
      "Ġunbestimm": 4277,
      "ĠRiesen": 4278,
      "ĠRadio": 4279,
      "ĠRhein": 4280,
      "ĠhÃ¤n": 4281,
      "ĠhÃ¤tte": 4282,
      "ÑģÑĤÐ¾ÑĢÐ°Ð½": 4283,
      "urz": 4284,
      "urfen": 4285,
      "ÑĥÐ²Ð°ÑĶÑĤÑĮÑģÑı": 4286,
      "ĠFreundin": 4287,
      "Ð»Ð°Ð»Ð°": 4288,
      "ĠStau": 4289,
      "ĠStÃ¤d": 4290,
      "arbeiten": 4291,
      "ĠÐĨÐ½": 4292,
      "rain": 4293,
      "selprÃ¤": 4294,
      "ĠÐ³ÑĥÐ±": 4295,
      "ĠÐ³ÑĢÑĥÐ´": 4296,
      "ĠÐ³ÑĸÑĤÐ°ÑĢÑĸ": 4297,
      "Ð»ÑĸÑĤ": 4298,
      "Ġbleiben": 4299,
      "Ġbleibt": 4300,
      "ĠTelefon": 4301,
      "leben": 4302,
      "ÑģÑĤÐ°Ð²Ð»ÑıÑĤÐ¸": 4303,
      "ĠSchla": 4304,
      "Schule": 4305,
      "schlieÃŁen": 4306,
      "Ġstellen": 4307,
      "ĠAmt": 4308,
      "trag": 4309,
      "Ġ21": 4310,
      "Ġ25": 4311,
      "kannt": 4312,
      "berg": 4313,
      "berichten": 4314,
      "ÐµÑĢÑħ": 4315,
      "Ġbesuchen": 4316,
      "Gebur": 4317,
      "Ġmeinen": 4318,
      "Ð¸Ð²Ð°ÑĶ": 4319,
      "tigkeit": 4320,
      "verbrauch": 4321,
      "verstanden": 4322,
      "Ð°ÑĢÑĩ": 4323,
      "mittag": 4324,
      "ĠNational": 4325,
      "ĠNico": 4326,
      "ĠNÃ¤he": 4327,
      "ĠÐ»ÐµÐ³": 4328,
      "Ð¾Ð½ÑĥÐ²Ð°ÑĤÐ¸": 4329,
      "ĠÑīÐ°": 4330,
      "Ġvergessen": 4331,
      "Ġverschieden": 4332,
      "Ġ14": 4333,
      "Ġ16": 4334,
      "Ġ17": 4335,
      "Ġ19": 4336,
      "ĠÑħÐ¾ÑĢÐ¾ÑĪ": 4337,
      "ÑİÐ²Ð°ÑĤÐ¸ÑģÑı": 4338,
      "spitze": 4339,
      "Ð»Ð¸Ð²ÑĸÑģÑĤÑĮ": 4340,
      "ÐºÑĥÑĢ": 4341,
      "ĠÐ²Ð¸ÑĢÑĸÑĪ": 4342,
      "bungsgesprÃ¤ch": 4343,
      "otter": 4344,
      "otto": 4345,
      "reise": 4346,
      "reibt": 4347,
      "ĠÐ¼Ð¾Ð¶Ð»Ð¸Ð²ÑĸÑģÑĤÑĮ": 4348,
      "weis": 4349,
      "weisen": 4350,
      "weihung": 4351,
      "Ð°Ð¹Ðº": 4352,
      "ĠÑĪÑĥÐº": 4353,
      "Ġpaar": 4354,
      "ÐµÑĤÐµ": 4355,
      "ĠÐ¿Ð¾Ð´ÑıÐº": 4356,
      "ĠÐ¿Ð¾Ð´Ð°ÑĢÑĥ": 4357,
      "stens": 4358,
      "ĠÐ¿ÐµÑĢÐµÐºÐ»Ð°Ð´": 4359,
      "ĠBewer": 4360,
      "ĠBezug": 4361,
      "ÐµÐºÑĢÐµÑĤ": 4362,
      "Ã¶rt": 4363,
      "ĠÐĿÐµ": 4364,
      "Ð°ÑģÐ¸Ðº": 4365,
      "ĠAngst": 4366,
      "liehen": 4367,
      "Ð¸ÑĩÐ°ÑĤÐ¸": 4368,
      "ĠÐ¿ÑĢÐ¸ÑĢÐ¾Ð´": 4369,
      "ĠÐ¿ÑĢÐ¸Ð±ÑĥÐ´": 4370,
      "fÃ¼llen": 4371,
      "wendet": 4372,
      "Ġunterhalten": 4373,
      "nergie": 4374,
      "ĠÑıÐºÐ±Ð¸": 4375,
      "gebaut": 4376,
      "alsÃ¤tze": 4377,
      "ellen": 4378,
      "ĠÑĨÑĸÐ½": 4379,
      "ĠÑĨÐµÐ½ÑĤÑĢ": 4380,
      "ĠVorschlag": 4381,
      "ĠJahr": 4382,
      "klÃ¤r": 4383,
      "ĠÐ¡Ðº": 4384,
      "ĠReisen": 4385,
      "ĠEinkommen": 4386,
      "Inseln": 4387,
      "Ġwieder": 4388,
      "ĠÐ¿ÑĢÐ°ÑĨÐµÐ²Ð»Ð°ÑĪÑĤ": 4389,
      "unterst": 4390,
      "ĠÐ²ÑĸÐ´Ð¿Ð¾Ñĩ": 4391,
      "boden": 4392,
      "ÐĴÐ¸": 4393,
      "Ġrepar": 4394,
      "ÐºÐ¾Ð¼Ð¿ÐµÑĤÐµÐ½": 4395,
      "ĠAusstellung": 4396,
      "echs": 4397,
      "echselprÃ¤": 4398,
      "igent": 4399,
      "ÐµÐ´ÐµÐ½Ð½Ñı": 4400,
      "ĠÑĤÑĢÐ°Ð¿": 4401,
      "ĠÑĤÑĢÐ°Ð½ÑģÐ¿Ð¾ÑĢÑĤ": 4402,
      "reichen": 4403,
      "ĠÑħÐ¾ÑĩÑĥ": 4404,
      "flug": 4405,
      "Ã¼bern": 4406,
      "ĠFlur": 4407,
      "ĠÐ¯ÐºÐ±Ð¸": 4408,
      "freu": 4409,
      "endung": 4410,
      "ĠAdjektivs": 4411,
      "ĠBerg": 4412,
      "ĠBeruf": 4413,
      "Ġzweiten": 4414,
      "ĠEuropÃ¤": 4415,
      "ĠEuropa": 4416,
      "Beispiel": 4417,
      "ÑıÐºÑĸ": 4418,
      "ĠÐ²Ð¸Ð³Ð»ÑıÐ´": 4419,
      "ĠSozi": 4420,
      "Ð½ÑĥÑĤÐ¸": 4421,
      "gewann": 4422,
      "Ġwelch": 4423,
      "ĠÐ½Ð°Ð´Ð·Ð²": 4424,
      "ĠKindergarten": 4425,
      "ĠPersonen": 4426,
      "258": 4427,
      "Rektion": 4428,
      "drÃ¼ckt": 4429,
      "ĠFernse": 4430,
      "Ġangefangen": 4431,
      "ĠzurÃ¼ck": 4432,
      "Ð¾ÑĩÐ¸Ð½Ð°ÑĤÐ¸": 4433,
      "ĠÐ¿ÑĢÐ°ÑĨÑİÐ²Ð°ÑĤÐ¸": 4434,
      "Konjunktiv": 4435,
      "Unter": 4436,
      "fÃ¤llig": 4437,
      "hÃ¤ngen": 4438,
      "Ġrichtigen": 4439,
      "ÑĸÐ»ÑĮÐ½Ð°": 4440,
      "haften": 4441,
      "ĠSee": 4442,
      "ĠÐ±ÑĸÐ»Ñı": 4443,
      "ĠÑĥÐ½ÑĸÐ²ÐµÑĢÑģÐ¸ÑĤÐµÑĤÑĸ": 4444,
      "innern": 4445,
      "ĠÐ·Ð½Ð°Ð¹": 4446,
      "ĠSprach": 4447,
      "ĠfÃ¼hren": 4448,
      "ĠÐ¿Ð¾Ð²ÐµÑĢÑģÑĸ": 4449,
      "nahme": 4450,
      "Umwelt": 4451,
      "teilnehmen": 4452,
      "ymnas": 4453,
      "Ġfest": 4454,
      "Ð¸Ð»Ð°ÑģÑı": 4455,
      "ĠKarte": 4456,
      "ĠFÃ¤higkeit": 4457,
      "ĠÐ¾ÑĩÑĸÐº": 4458,
      "ĠÐ¾Ð¿Ð¸ÑĤ": 4459,
      "ĠÐ¿Ð¾ÑĹÑħÐ°ÑĤÐ¸": 4460,
      "ĠTÃ¤tigkeit": 4461,
      "Ġverloren": 4462,
      "ĠÐ¹Ð´ÐµÐ¼Ð¾": 4463,
      "ĠJahre": 4464,
      "ĠÑħÐ¾ÑĩÐµÐ¼Ð¾": 4465,
      "ĠÐ¼ÑĥÐ·Ð¸ÐºÑĥ": 4466,
      "itzung": 4467,
      "sah": 4468,
      "ĠÐ´Ð¾Ð¼Ð¾Ð²": 4469,
      "ĠÐ´ÑĸÑĶÑģÐ»ÑĸÐ²": 4470,
      "ĠBlog": 4471,
      "ĠHof": 4472,
      "ĠHotel": 4473,
      "ĠHerz": 4474,
      "ĠKreuz": 4475,
      "ĠÐ½Ð°ÑĢÐ¾Ð´Ð¶ÐµÐ½Ð½Ñı": 4476,
      "Ġtrennbaren": 4477,
      "estelle": 4478,
      "holen": 4479,
      "ĠStraÃŁenbahn": 4480,
      "Superlativ": 4481,
      "Ġaber": 4482,
      "ĠÐĩÐ¼": 4483,
      "Ġgebildet": 4484,
      "ĠAussicht": 4485,
      "ĠBoden": 4486,
      "ĠnÃ¤chst": 4487,
      "ĠÐºÐ°Ð²Ñĥ": 4488,
      "ĠÐºÑĥÑĢÑģÑĥ": 4489,
      "ĠÑĦÑĸÑĢÐ¼Ñĸ": 4490,
      "ĠTurm": 4491,
      "ĠPauli": 4492,
      "begann": 4493,
      "ĠEnde": 4494,
      "ĠÐ¿ÑĢÐ¾ÑĦÐµÑģÑĸ": 4495,
      "fÃ¼hrung": 4496,
      "ĠÐ²ÑĸÐ´Ð¿Ð¾Ð²ÑĸÐ´Ð°ÑĤÐ¸": 4497,
      "ĠÐ¿Ð°ÑĢÑĤÐ½ÐµÑĢ": 4498,
      "ĠGebÃ¤ude": 4499,
      "ĠÐ¿ÑĢÐ°ÑĨÑİÑĶ": 4500,
      "ĠÐ·Ð°ÑĢÐ¿Ð»Ð°ÑĤÐ°": 4501,
      "gleich": 4502,
      "ĠÐ¿Ð¸ÑģÑĮ": 4503,
      "ĠÐ´Ð¸ÑĢÐµÐºÑĤÐ¾ÑĢ": 4504,
      "ĠÐ·ÑĢÐ¾Ð±Ð¸Ð²": 4505,
      "Ð²ÑĢÐ¾Ð¿": 4506,
      "Ġbereitet": 4507,
      "ĠÑģÑĤÑĢÐ°Ð¶": 4508,
      "ĠÑģÑĤÑĢÐ°ÑħÐ¾Ð²ÐºÐ°": 4509,
      "ĠÑĩÐµÐºÐ°ÑĤÐ¸": 4510,
      "ĠÑĤÑĥÑĢÐ¸ÑģÑĤÐ¸": 4511,
      "ĠHilfs": 4512,
      "ĠÐ¾ÑĦÑĸÑģ": 4513,
      "ĠÐ¾Ð³Ð»ÑıÐ´": 4514,
      "ĠMÃ¤rz": 4515,
      "beginnen": 4516,
      "ĠÑģÐ¿ÑĸÐ»Ðº": 4517,
      "ĠÐ·Ð°Ð¹Ð¼Ð°ÑĶÑĤÑĮÑģÑı": 4518,
      "ĠÐ²ÑĸÐ´Ð±ÑĥÐ²Ð°ÑĶÑĤÑĮÑģÑı": 4519,
      "alerweise": 4520,
      "sicherung": 4521,
      "ĠÐ¾ÑģÐ²ÑĸÑĤÐ°": 4522,
      "ĠVerwaltung": 4523,
      "Ð½Ð¸ÑĨÑĤÐ²Ð¾": 4524,
      "ĠÐµÐºÑģÐºÑĥÑĢ": 4525,
      "ĠÐºÐ¾Ð»ÑĮÐ¾ÑĢ": 4526,
      "ĠÐºÐ¾Ð»ÐµÐ³Ð°Ð¼Ð¸": 4527,
      "ĠÑĢÐµÐºÐ¾Ð¼ÐµÐ½Ð´Ð°ÑĨÑĸÑĹ": 4528,
      "iederlande": 4529,
      "ĠÑģÐ»ÑĥÐ¶Ð±Ð°": 4530,
      "Handlung": 4531,
      "Ġdunkel": 4532,
      "ĠÐ´Ð¾Ð±ÑĢÐµ": 4533,
      "ĠÐ½Ð°Ð¼ÑĸÑĢ": 4534,
      "ĠBÃ¤cker": 4535,
      "ĠBrÃ¼cke": 4536,
      "ĠÑģÑĤÑĢÐµÑģÑĥ": 4537,
      "ĠÐ¿ÑĢÐ¸Ð²Ð°ÑĤ": 4538,
      "ĠÑĩÑĥÐ´Ð¾Ð²Ð¸Ð¹": 4539,
      "ĠÐ·Ð°Ð»Ð¸ÑĪÐ°ÑĤÐ¸": 4540,
      "ĠÑĩÐ°ÑģÑĤÐ¾": 4541,
      "ĠÐ¿Ð¾ÑģÐ¸Ð»": 4542,
      "Ġgerade": 4543,
      "ĠPatient": 4544,
      "telefonieren": 4545,
      "ĠÐ¶Ð¾Ð²ÑĤ": 4546,
      "ĠVerkehrsmittel": 4547,
      "olkshochschule": 4548,
      "Ġbegonnen": 4549,
      "ĠSpeicher": 4550,
      "ĠReihenfolge": 4551,
      "ĠÐºÐ¾Ð½ÑĤÐ°ÐºÑĤ": 4552,
      "Mails": 4553,
      "ĠMotorrad": 4554,
      "ĠTrinkgeld": 4555,
      "Stick": 4556,
      "glied": 4557,
      "horn": 4558,
      "Ġusw": 4559,
      "Ð¾ÑĶÐ¼Ñĥ": 4560,
      "ĠInteresse": 4561,
      "ĠÑģÐ¸Ð´ÑĸÑĤÐ¸": 4562,
      "Ð¾Ð³ÑĢÐ°ÑĦ": 4563,
      "ĠSetzen": 4564,
      "ĠSortieren": 4565,
      "ĠÑĢÐµÐ¼Ð¾Ð½ÑĤ": 4566,
      "ĠÑģÑĤÐ¾Ð¼Ð°ÑĤÐ¾Ð»Ð¾Ð³": 4567,
      "ĠHaltestelle": 4568,
      "ĠFoto": 4569,
      "Ġfolgt": 4570,
      "ĠErdgeschoss": 4571,
      "ĠÑĸÐ½Ð¾Ð·ÐµÐ¼": 4572,
      "ĠApotheke": 4573,
      "ĠÐ³ÑĢÑĥÐ´Ð½Ñı": 4574,
      "ĠÐ¿Ð¾Ð´ÑıÐºÑĥÐ²Ð°Ð»Ð°": 4575,
      "ĠBewerbungsgesprÃ¤ch": 4576,
      "ÐµÐºÑĢÐµÑĤÐ°ÑĢ": 4577,
      "ymnasium": 4578,
      ".âĢľ": 4579,
      "/-": 4580,
      "/?": 4581,
      "01": 4582,
      "05": 4583,
      "09": 4584,
      "32": 4585,
      "38": 4586,
      "316": 4587,
      "41": 4588,
      "56": 4589,
      "62": 4590,
      "78": 4591,
      "Al": 4592,
      "Ant": 4593,
      "Bi": 4594,
      "BÃ¼": 4595,
      "Bes": 4596,
      "Bundes": 4597,
      "Dinge": 4598,
      "EN": 4599,
      "ER": 4600,
      "En": 4601,
      "Fl": 4602,
      "Gymnasium": 4603,
      "Hob": 4604,
      "Haupt": 4605,
      "Ihre": 4606,
      "Kar": 4607,
      "Li": 4608,
      "Lis": 4609,
      "Muster": 4610,
      "Netz": 4611,
      "Natur": 4612,
      "Nico": 4613,
      "Niederlande": 4614,
      "Ph": 4615,
      "Pers": 4616,
      "Rad": 4617,
      "Relativ": 4618,
      "Se": 4619,
      "Sp": 4620,
      "Tour": 4621,
      "Urlaub": 4622,
      "Vor": 4623,
      "Wohn": 4624,
      "adie": 4625,
      "ahre": 4626,
      "ace": 4627,
      "by": 4628,
      "buch": 4629,
      "bot": 4630,
      "cen": 4631,
      "dan": 4632,
      "dativ": 4633,
      "dru": 4634,
      "dit": 4635,
      "drig": 4636,
      "diert": 4637,
      "ding": 4638,
      "direkte": 4639,
      "dÃ¼rfen": 4640,
      "ew": 4641,
      "ete": 4642,
      "egt": 4643,
      "eld": 4644,
      "ecke": 4645,
      "gnet": 4646,
      "garage": 4647,
      "gress": 4648,
      "hÃ¼": 4649,
      "hÃ¤": 4650,
      "hiel": 4651,
      "heiÃŁ": 4652,
      "haupt": 4653,
      "hitzung": 4654,
      "ian": 4655,
      "ider": 4656,
      "iser": 4657,
      "ice": 4658,
      "itel": 4659,
      "ihm": 4660,
      "izig": 4661,
      "ka": 4662,
      "ki": 4663,
      "kor": 4664,
      "kat": 4665,
      "kret": 4666,
      "kasus": 4667,
      "ln": 4668,
      "lt": 4669,
      "lat": 4670,
      "leute": 4671,
      "lokale": 4672,
      "mo": 4673,
      "mu": 4674,
      "mas": 4675,
      "mon": 4676,
      "met": 4677,
      "mma": 4678,
      "miÃŁ": 4679,
      "mÃ¶glichkeit": 4680,
      "nst": 4681,
      "nier": 4682,
      "nÃ¤hr": 4683,
      "nik": 4684,
      "ness": 4685,
      "ose": 4686,
      "oder": 4687,
      "ohlen": 4688,
      "ph": 4689,
      "pra": 4690,
      "pers": 4691,
      "passen": 4692,
      "platz": 4693,
      "rt": 4694,
      "ritt": 4695,
      "sf": 4696,
      "so": 4697,
      "seit": 4698,
      "sil": 4699,
      "soll": 4700,
      "szeit": 4701,
      "sow": 4702,
      "tter": 4703,
      "tage": 4704,
      "use": 4705,
      "ull": 4706,
      "verm": 4707,
      "wa": 4708,
      "wit": 4709,
      "wÃ¼r": 4710,
      "wic": 4711,
      "wÃ¶rter": 4712,
      "wechs": 4713,
      "yp": 4714,
      "ylt": 4715,
      "ziel": 4716,
      "zte": 4717,
      "Â©": 4718,
      "ÃĦ": 4719,
      "Ð¡": 4720,
      "Ð¯": 4721,
      "ÐĹ": 4722,
      "Ġ>": 4723,
      "ĠÑģÐ»": 4724,
      "ĠÑĢÑĸÐ²": 4725,
      "ĦÐ²ÑĢÐ¾Ð¿": 4726,
      "ĠÐ¨": 4727,
      "ĠÐ®": 4728,
      "Ð½ÐµÐ½Ð½Ñı": 4729,
      "Ð½ÑĸÐº": 4730,
      "Ð¾ÑĦ": 4731,
      "Ð¾ÑģÑı": 4732,
      "Ð¾Ð½ÐµÑĢ": 4733,
      "ÐµÐ²": 4734,
      "ÐµÑĢÑĸ": 4735,
      "ÐµÐ»ÑĮÐ½Ð¸Ð¹": 4736,
      "ÑıÑĤ": 4737,
      "ÑıÑĩÐ¸Ð¹": 4738,
      "ÑĸÑĩ": 4739,
      "ÑĸÐ¼Ðµ": 4740,
      "ÑģÐ¸Ñĩ": 4741,
      "ÑģÐ¿ÑĢÐ°Ð²": 4742,
      "ree": 4743,
      "reig": 4744,
      "reffen": 4745,
      "Ð¾Ð°": 4746,
      "Ð°Ð»Ðµ": 4747,
      "Ð°Ð»Ñĸ": 4748,
      "Ð°ÐµÑĢ": 4749,
      "Ð°ÐºÑĥ": 4750,
      "Ð°ÑĨÑĸÑı": 4751,
      "orf": 4752,
      "recht": 4753,
      "Ð¸Ð²Ñĸ": 4754,
      "chi": 4755,
      "chste": 4756,
      "chnet": 4757,
      "ender": 4758,
      "enden": 4759,
      "enhaus": 4760,
      "enige": 4761,
      "enzin": 4762,
      "enstich": 4763,
      "ÑĤÑĥ": 4764,
      "ÑĤÑĶ": 4765,
      "ÑĤÐ¾Ð²": 4766,
      "ÑĤÐ¾Ð¿": 4767,
      "ÑĤÑĥÐ²Ð°ÑĤÐ¸": 4768,
      "ÑĤÑĸÑģÑĤÑĮ": 4769,
      "ÑĤÐ²ÐµÑĢ": 4770,
      "ÑĢÐ¸ÑĤÐ¸": 4771,
      "ÑĢÐ¾ÑĪ": 4772,
      "ÑĢÐ¸Ð²Ð°ÑĤÐ¸": 4773,
      "ÐµÐ½Ñİ": 4774,
      "ÐµÐ½Ð·": 4775,
      "ÐµÐ½Ð¾ÑģÐ¸ÑĤÐ¸": 4776,
      "Ð»ÐºÐ°": 4777,
      "Ð»ÐµÐ½Ð¸Ð¹": 4778,
      "ĠCD": 4779,
      "ĠChan": 4780,
      "ÑĥÐ»Ð¸": 4781,
      "ÑĶÐ´Ð½": 4782,
      "erk": 4783,
      "erhÃ¶": 4784,
      "erdig": 4785,
      "erinnen": 4786,
      "Ð¼Ð¸Ð½": 4787,
      "Ð¼Ð°Ð½": 4788,
      "Ð¼Ð¾Ð²Ð°": 4789,
      "inkt": 4790,
      "inne": 4791,
      "inner": 4792,
      "inform": 4793,
      "interes": 4794,
      "star": 4795,
      "station": 4796,
      "strei": 4797,
      "stÃ¼tz": 4798,
      "ĠIr": 4799,
      "ĠIhnen": 4800,
      "ÐºÐ¾Ð½Ð°": 4801,
      "ÐºÐ¾ÑĪ": 4802,
      "ÐºÑĨÑĸÑı": 4803,
      "iehen": 4804,
      "ieÃŁ": 4805,
      "iebt": 4806,
      "Ġde": 4807,
      "Ġdau": 4808,
      "Ġdar": 4809,
      "Ġdam": 4810,
      "ĠdrÃ¼": 4811,
      "Ġdirekt": 4812,
      "ÑĩÐ½Ð¸Ðº": 4813,
      "ÑĩÑĥÐ²Ð°ÑĤÐ¸": 4814,
      "ÑĩÑĥÐº": 4815,
      "Ð¾Ð²Ð¾Ð»": 4816,
      "Ð¾Ð²Ð¸ÑĤÐ¸": 4817,
      "Ð¾Ð²ÐµÑĨÑĮ": 4818,
      "Ð¾Ð²Ð½Ð¸Ñħ": 4819,
      "ĠÐ¿Ð¾Ð·": 4820,
      "ĠÐ¿Ð¸ÑĤÐ¸": 4821,
      "ĠÐ¿Ð°Ð´": 4822,
      "ĠÐ¿Ð°Ð»": 4823,
      "Ð¾Ð¼ÐµÑĢ": 4824,
      "Ð¾Ð¼ÐµÐ½ÑĤ": 4825,
      "ĠInten": 4826,
      "ĠÐ´Ð¾Ð¿": 4827,
      "ĠÐ´Ð¸ÑĤ": 4828,
      "ĠÐ´ÐµÑĢ": 4829,
      "ĠÐ´ÑĸÑĤ": 4830,
      "ĠÐ´ÑıÐº": 4831,
      "ĠÐ´Ð¾Ð²ÑĸÐ´": 4832,
      "ĠÐ´ÑĸÑİ": 4833,
      "asen": 4834,
      "aske": 4835,
      "Ð´Ñĸ": 4836,
      "Ð´Ð¸Ð¹": 4837,
      "Ð´Ð°Ð½Ð½Ñı": 4838,
      "Ð´Ð¾Ð¼Ð°": 4839,
      "auch": 4840,
      "auen": 4841,
      "auran": 4842,
      "aukasus": 4843,
      "ĠÐ¼Ðµ": 4844,
      "ĠÐ¼Ð°Ð¼": 4845,
      "ĠÐ¼ÑĸÐ»ÑĮ": 4846,
      "ĠÐ¼Ð°ÑĪ": 4847,
      "ĠÐ¼Ð°ÑİÑĤÑĮ": 4848,
      "ĠÐ¼Ð¾ÑĢÐµ": 4849,
      "ĠÐ¼Ð¾Ð¼ÐµÐ½ÑĤ": 4850,
      "ĠÐ°Ð½": 4851,
      "ĠÐ°Ð¿ÑĤÐµ": 4852,
      "ĠÐ·ÑĢÑĥ": 4853,
      "ĠÐ·Ð½Ð¸Ðº": 4854,
      "ĠÐ·Ð½Ñı": 4855,
      "ĠÐ·Ð¾ÑĢÑĥ": 4856,
      "Ġihm": 4857,
      "gefÃ¼": 4858,
      "geogra": 4859,
      "gezogen": 4860,
      "gebraucht": 4861,
      "gegn": 4862,
      "ĠÐ½ÑĸÐº": 4863,
      "ĠÐ½Ð°Ð¼Ð¸": 4864,
      "ĠÐ½Ð¾Ð¼ÐµÑĢ": 4865,
      "ĠÑģÐ¸Ð¼": 4866,
      "ĠÑģÐ²Ñĸ": 4867,
      "ĠÐ²Ñĸ": 4868,
      "ĠÐ²Ðº": 4869,
      "ĠÐ²Ð¸Ñģ": 4870,
      "ĠÐ²Ð»Ð°": 4871,
      "ĠÐ²Ð²Ð°Ð¶Ð°Ñİ": 4872,
      "ĠÐ²ÑģÑĤÐ°Ð½": 4873,
      "ĠÐ²ÑĸÑĪÐ°ÑĤÐ¸": 4874,
      "ĠÐ²Ð¿ÐµÐ²Ð½": 4875,
      "ÑĸÐ½Ð°Ð½": 4876,
      "Ð»ÑıÑĶ": 4877,
      "Ð»ÑıÑİ": 4878,
      "Ð»ÑıÑİÑĤÑĮ": 4879,
      "ĠDen": 4880,
      "ĠDiÃ¤t": 4881,
      "ande": 4882,
      "andes": 4883,
      "anis": 4884,
      "anbie": 4885,
      "Ġweit": 4886,
      "Ġwert": 4887,
      "eim": 4888,
      "eich": 4889,
      "eigt": 4890,
      "Ġson": 4891,
      "Ġsollen": 4892,
      "Ġspr": 4893,
      "Ġsingen": 4894,
      "Ġschenke": 4895,
      "ÑĤÐ¸ÑĢÐ°": 4896,
      "ĠkÃ¶nn": 4897,
      "Ġgeg": 4898,
      "Ġgewor": 4899,
      "Ġgebo": 4900,
      "Ġgefl": 4901,
      "Ġgesetz": 4902,
      "Ġgewaschen": 4903,
      "Ġgeboten": 4904,
      "Ġgefallen": 4905,
      "Ġgeliehen": 4906,
      "tis": 4907,
      "tier": 4908,
      "uten": 4909,
      "ĠAt": 4910,
      "ĠAu": 4911,
      "ĠAut": 4912,
      "ĠAug": 4913,
      "Ð¾ÑĢÐ´": 4914,
      "Ð¾Ð³Ð°": 4915,
      "Ð¼ÐµÑĢÐ°": 4916,
      "Ð»ÑĮÐ¿": 4917,
      "Ð»ÑĮÐ¹Ð¾Ð½": 4918,
      "ÑĨÑİ": 4919,
      "Ġber": 4920,
      "Ġbel": 4921,
      "Ġbenut": 4922,
      "Ã¼hr": 4923,
      "Ã¼cken": 4924,
      "ĠÐ¿ÑĸÐ´ÑĤÑĢÐ¸Ð¼": 4925,
      "ĠÐ¿ÑĸÐ´Ð¿ÑĢ": 4926,
      "Ð¹Ð½Ð°": 4927,
      "ĠSÃ¼": 4928,
      "ĠSÃ¤": 4929,
      "ĠSicher": 4930,
      "ĠSylt": 4931,
      "ĠSender": 4932,
      "ĠBÃ¼": 4933,
      "ĠBil": 4934,
      "ĠBis": 4935,
      "ĠBond": 4936,
      "ĠBalkon": 4937,
      "ÑĦÐ¾ÑĢÑĤ": 4938,
      "Ð¿Ð¾": 4939,
      "Ð¿Ñĸ": 4940,
      "Ð¿Ð°ÑĤÐ¸": 4941,
      "Ð¿Ð¾Ð·": 4942,
      "Ð¿ÑĥÑģ": 4943,
      "Ð¾Ð´Ñĥ": 4944,
      "ĠÑĢÐµÑģÑĤÐ¾ÑĢÐ°Ð½": 4945,
      "ĠÑģÑĤÐ°Ð²": 4946,
      "ĠÑģÑĤÑĢÑĸ": 4947,
      "ĠÑģÑĤÐ¾Ñģ": 4948,
      "ĠÑģÑĤÐ¾Ð»Ñĸ": 4949,
      "ĠnÃ¼tz": 4950,
      "Erd": 4951,
      "eiter": 4952,
      "ĠÑĥÐºÑĢÐ°ÑĹÐ½": 4953,
      "schal": 4954,
      "schien": 4955,
      "schmer": 4956,
      "ÑĨÑĸÐ¾Ð½": 4957,
      "Ã¤ren": 4958,
      "Ã¤rin": 4959,
      "Ã¤gt": 4960,
      "Ã¤dlich": 4961,
      "heben": 4962,
      "ernhof": 4963,
      "erneinung": 4964,
      "ĠÑĩÐ¸ÑģÑĤ": 4965,
      "ĠÑĩÐµÑĢ": 4966,
      "arum": 4967,
      "arken": 4968,
      "arischen": 4969,
      "artner": 4970,
      "ĠÑĤÐ¾": 4971,
      "ĠÑĤÐ°ÑĶÐ¼": 4972,
      "Ġeinige": 4973,
      "Ġeinfach": 4974,
      "Ġeinverstanden": 4975,
      "untern": 4976,
      "unktion": 4977,
      "ĠHÃ¼": 4978,
      "ĠHier": 4979,
      "ĠKn": 4980,
      "ĠKoll": 4981,
      "ĠKomp": 4982,
      "ĠKomparativ": 4983,
      "ĠKeller": 4984,
      "ĠFC": 4985,
      "ĠFrÃ¼hst": 4986,
      "ĠFace": 4987,
      "ĠFeld": 4988,
      "ĠFunktion": 4989,
      "ĠÐºÐ¾Ð³Ð¾": 4990,
      "ĠÐºÐ°Ð¶": 4991,
      "ĠÐºÑĸÐ»ÑĮ": 4992,
      "ĠÐºÐ°Ñģ": 4993,
      "ĠÐºÑĢÐ¸": 4994,
      "ĠÐºÑĸÐ¼": 4995,
      "ĠÐºÐ°Ð½Ð´": 4996,
      "ĠÐºÐ²Ð¸ÑĤ": 4997,
      "ÑģÑĸÐ»Ð»Ñı": 4998,
      "genehm": 4999,
      "Ġlau": 5000,
      "Ġlang": 5001,
      "Ġlaufen": 5002,
      "ÑİÑģ": 5003,
      "ÑİÐºÐ°": 5004,
      "ĠÐ¾ÑĨÑĸÐ½": 5005,
      "Ð¸Ð½Ð¾Ñİ": 5006,
      "Ð¸Ð½Ð°Ð¼Ð¸": 5007,
      "ĠÐ·Ð°ÑĢÐ¾Ð±": 5008,
      "Ð¾Ð»Ð¾Ð²": 5009,
      "Ġdenn": 5010,
      "fehl": 5011,
      "ÑģÑıÑĨÑĮ": 5012,
      "Ġdiesen": 5013,
      "Ġdieser": 5014,
      "ĠÑĦÐ°ÑĢ": 5015,
      "ĠÑĦÑĥÑĤÐ±": 5016,
      "ĠÑĦÑĸÐ½Ð°Ð½": 5017,
      "ĠMar": 5018,
      "ĠMaus": 5019,
      "ĠMetz": 5020,
      "ĠMasch": 5021,
      "ĠGÃ¤": 5022,
      "ĠGlei": 5023,
      "ĠGasse": 5024,
      "ĠGerman": 5025,
      "ĠGrÃ¼n": 5026,
      "ĠGrammatik": 5027,
      "ĠÐ¿Ð¾ÑģÐ»ÑĸÐ´": 5028,
      "ĠÐ¿Ð¾ÑģÐ»Ñĥ": 5029,
      "inder": 5030,
      "Ð±ÑĥÐ²Ð°ÑĤÐ¸ÑģÑı": 5031,
      "Ð°Ð²Ð°": 5032,
      "ĠTo": 5033,
      "ĠTim": 5034,
      "ĠTrÃ¶": 5035,
      "ĠTief": 5036,
      "ĠTaschen": 5037,
      "rop": 5038,
      "teratur": 5039,
      "terhorn": 5040,
      "ĠDeutschkurs": 5041,
      "Ð°Ð¼Ð¿": 5042,
      "ĠSuche": 5043,
      "annte": 5044,
      "ĠSuperlativ": 5045,
      "chenk": 5046,
      "eilen": 5047,
      "ĠArt": 5048,
      "ĠÐ½Ð°Ñģ": 5049,
      "ĠÐ½Ð°ÑģÑĤÑĢÑĸ": 5050,
      "ĠÐ½Ð°Ð»ÐµÐ¶": 5051,
      "Ð¶Ð°Ð²": 5052,
      "Ð¶ÑĥÐ²Ð°ÑĤÐ¸": 5053,
      "Ð¶ÐµÐ½Ð¸Ð¹": 5054,
      "Ð¶Ð´Ð¶": 5055,
      "ĠZeu": 5056,
      "ĠZust": 5057,
      "ĠPeter": 5058,
      "ichte": 5059,
      "kaufs": 5060,
      "Ð³Ð°Ð½": 5061,
      "ÑĢÑĥÑĩÐ½Ð¸Ðº": 5062,
      "ĠÐ±ÑĸÐ´": 5063,
      "ĠÐ±Ð¾ÑĢ": 5064,
      "ĠÐ±Ð°ÑĢ": 5065,
      "ĠÐ±Ð°Ð»": 5066,
      "ĠÐ±ÑĸÐ·": 5067,
      "ĠÐ±Ð°Ñĩ": 5068,
      "ĠÐ±Ð°Ð³Ð°ÑĤÐ¸": 5069,
      "ĠÐ±ÑĸÐ»ÑĮÑĪÐµ": 5070,
      "pekt": 5071,
      "pektiv": 5072,
      "ÑĪÐºÐ°": 5073,
      "ummer": 5074,
      "ummel": 5075,
      "rend": 5076,
      "Ġteu": 5077,
      "Ġtri": 5078,
      "Ġtreffen": 5079,
      "esten": 5080,
      "estauran": 5081,
      "beantworten": 5082,
      "becken": 5083,
      "bekl": 5084,
      "bereiten": 5085,
      "Ġerk": 5086,
      "Ð·Ð´": 5087,
      "Ð°Ð½Ð´Ð¸": 5088,
      "Ġfr": 5089,
      "Ġfot": 5090,
      "Ġfaul": 5091,
      "ĠÑģÐ¿Ð°": 5092,
      "ĠÑģÐ¿Ð¾Ðº": 5093,
      "ĠÑģÐ¿ÑĢÐ°Ð²": 5094,
      "ÑħÐ¾": 5095,
      "ĠÑĤÐµÐ¶": 5096,
      "ĠÑĤÐµÑģÑĤ": 5097,
      "ĠÑĤÐµÐ±Ðµ": 5098,
      "Ã¶hnen": 5099,
      "Ã¶llig": 5100,
      "Ã¶hnt": 5101,
      "Ð½ÐµÑĤ": 5102,
      "Ð½ÐµÑĢÐ°": 5103,
      "hte": 5104,
      "ĠschÃ¤dlich": 5105,
      "hne": 5106,
      "hnung": 5107,
      "ĠÐ¼ÑĸÑģÑĤÐ¾": 5108,
      "ĠÐ¼ÑĸÑģÑĤÐ°": 5109,
      "Ġanal": 5110,
      "Ġanfangen": 5111,
      "Ġangenehm": 5112,
      "ĠÐŁÑĢÐ¾": 5113,
      "denken": 5114,
      "ĠÐ±ÑĥÐ²": 5115,
      "ĠÐ±ÑĥÐ»ÑĮÐ¹Ð¾Ð½": 5116,
      "Ð°ÑĤÐ¸Ð²": 5117,
      "ĠErho": 5118,
      "ĠErzÃ¤hl": 5119,
      "ĠErnÃ¤hr": 5120,
      "Ð´Ð¸Ð²": 5121,
      "Ð°Ð»ÑĮÐ½Ð¾": 5122,
      "Ð´Ð½Ð¾": 5123,
      "Ð°Ð²Ð¸Ð»ÑĮÐ½Ð¸Ñħ": 5124,
      "Ð¾Ð¿ÑĸÐ¹": 5125,
      "ÑĸÐ²ÐºÐ°": 5126,
      "Ð¸ÑĤÐ°ÑĤÐ¸": 5127,
      "Ð¸ÑĤÐµÐ»ÑĮ": 5128,
      "ennen": 5129,
      "PrÃ¤positionen": 5130,
      "ĠWes": 5131,
      "tete": 5132,
      "ĠÐ·Ð°Ð¿Ð¸Ñģ": 5133,
      "ĠÐ²ÑĸÐ´Ñĩ": 5134,
      "ĠÐ²ÑĸÐ´ÑĮ": 5135,
      "ĠÐ²ÑĸÐ´ÑĢÑıÐ´Ð¶": 5136,
      "ÑĥÑĩÐ°ÑĤÐ¸": 5137,
      "Ã¶nliche": 5138,
      "ĠÑĢÐµÑĩÑĸ": 5139,
      "ĠÐ¶ÑĥÑĢ": 5140,
      "ĠÐ¶Ð°Ð»ÑĮ": 5141,
      "Ġzwar": 5142,
      "Ġzeigt": 5143,
      "ĠÐ·Ð°Ð²ÐµÑĢÑĪ": 5144,
      "ĠÐ·Ð°Ð²Ð´Ð°Ð½Ð½Ñı": 5145,
      "ĠÐ¶ÑĸÐ½ÐºÐ°": 5146,
      "alz": 5147,
      "demittel": 5148,
      "ĠÐ´Ð¾Ð¿Ð¾Ð¼Ð¾Ð³ÑĤÐ¸": 5149,
      "ille": 5150,
      "ermine": 5151,
      "uÃŁern": 5152,
      "dukt": 5153,
      "ĠFuÃŁgÃ¤n": 5154,
      "ziert": 5155,
      "ĠBuchladen": 5156,
      "ĠÐļÐ°ÑĢ": 5157,
      "ĠLÃ¤ndern": 5158,
      "ĠLotto": 5159,
      "kosten": 5160,
      "Ġausgeben": 5161,
      "sichtig": 5162,
      "ĠUhrzeit": 5163,
      "Ġverm": 5164,
      "Ġvier": 5165,
      "Ġverneinen": 5166,
      "ierig": 5167,
      "ĠÐ¾Ð·ÐµÑĢ": 5168,
      "ÑĸÐ¹Ð½Ð¸Ð¹": 5169,
      "Ġliegen": 5170,
      "ilft": 5171,
      "kenland": 5172,
      "erleben": 5173,
      "erlegt": 5174,
      "ethe": 5175,
      "ette": 5176,
      "Ã¼ritz": 5177,
      "dessen": 5178,
      "ames": 5179,
      "amil": 5180,
      "Ð¼Ð¾Ð½": 5181,
      ".....": 5182,
      "ĠÐ½ÑĸÐ¼ÐµÑĨÑĮÐºÑĥ": 5183,
      "ÑĨÐµÑĢ": 5184,
      "mpfen": 5185,
      "ĠGesprÃ¤": 5186,
      "ĠGeschenk": 5187,
      "Ð¾Ð·Ð²Ñĸ": 5188,
      "andt": 5189,
      "andte": 5190,
      "ĠVerneinen": 5191,
      "ĠVerneinung": 5192,
      "ĠFreunden": 5193,
      "ĠFremd": 5194,
      "ĠRuhe": 5195,
      "ĠRasen": 5196,
      "ĠRestauran": 5197,
      "ĠParkhaus": 5198,
      "ĠhÃ¼b": 5199,
      "Ġhilft": 5200,
      "ÑģÑĤÐµÑĢ": 5201,
      "isÃ¶r": 5202,
      "urde": 5203,
      "neben": 5204,
      "ÑĥÐ²Ð°Ð½": 5205,
      "ĠStamm": 5206,
      "ĠSteiger": 5207,
      "ĠStock": 5208,
      "ĠProfil": 5209,
      "ator": 5210,
      "ĠProbleme": 5211,
      "ĠÐľÐ¾Ñı": 5212,
      "ĠÐľÑĸÐ¹": 5213,
      "ĠÐľÐ°Ð¼Ð°": 5214,
      "imal": 5215,
      "ĠEx": 5216,
      "ĠEnergie": 5217,
      "ĠEtage": 5218,
      "ĠEreig": 5219,
      "leiden": 5220,
      "rafen": 5221,
      "ration": 5222,
      "bteil": 5223,
      "sterben": 5224,
      "ĠÐ³Ð°Ð·": 5225,
      "ĠÐ³Ð°Ð»": 5226,
      "ĠÐ³ÑĥÑģ": 5227,
      "ĠÐ³ÑĸÐ³": 5228,
      "ĠÐ¾Ð±Ð¾Ð²": 5229,
      "ĠÐ¾Ð±Ð»Ð°ÑĪÑĤ": 5230,
      "ĠÐ¾Ð±ÑģÐ»ÑĥÐ³": 5231,
      "ĠÐ¾Ð±ÐµÑĢÐµÐ¶": 5232,
      "ÐºÐ¸Ñħ": 5233,
      "Ã¼nsche": 5234,
      "Schwar": 5235,
      "Schul": 5236,
      "Schreiben": 5237,
      "schloss": 5238,
      "ĠBahnsteig": 5239,
      "Ã¤len": 5240,
      "Ġleben": 5241,
      "ĠÑĢÑĸÐ´": 5242,
      "ĠÑĢÐ¸Ð±": 5243,
      "ĠWochen": 5244,
      "ĠBildung": 5245,
      "Ġ23": 5246,
      "Ġ24": 5247,
      "mÃ¼tlich": 5248,
      "Ð²Ð°ÑĢÑĸ": 5249,
      "Ð²Ð°Ð»Ð°": 5250,
      "ÑĹÑħ": 5251,
      "ÑĹÐ¶Ð´Ð¶": 5252,
      "Ġseiner": 5253,
      "lichen": 5254,
      "ÑīÐµ": 5255,
      "ÑīÐ¸Ð½Ð°": 5256,
      "ÐµÑĢÐ»": 5257,
      "ÐµÑĢÑİ": 5258,
      "gerzone": 5259,
      "ĠÐ¾ÑģÐ²ÑĸÑĤ": 5260,
      "Ã¤rgern": 5261,
      "ĠÐ³Ð¾Ð»Ð¾Ð²Ð½Ð¸Ð¹": 5262,
      "ĠVerhÃ¤ltnis": 5263,
      "ĠVergangenheit": 5264,
      "iesland": 5265,
      "Ġdeinen": 5266,
      "ĠKomma": 5267,
      "verw": 5268,
      "verhÃ¤ltnis": 5269,
      "versicherung": 5270,
      "ÃŁerdem": 5271,
      "sitzen": 5272,
      "ĠNacht": 5273,
      "ĠNamen": 5274,
      "ĠÐĴÑĸÐ´": 5275,
      "ĠÐĴÐ°Ð¼": 5276,
      "ĠÐĴÐ¾Ð»Ð¸Ð½ÑģÑĮÐºÐ¾Ð³Ð¾": 5277,
      "ĠÐ»ÑĸÐº": 5278,
      "ĠÐ»ÑĸÑĤ": 5279,
      "ĠÐ»ÐµÐ¶": 5280,
      "Ð¾Ð½Ð´Ð°ÑĢ": 5281,
      "Ð¾Ð¶Ð¸Ð²Ð°Ð½Ð½Ñı": 5282,
      "Ãľb": 5283,
      "ĠNachrichten": 5284,
      "Ġverboten": 5285,
      "Ġverdoppel": 5286,
      "Ð¾ÑĩÐºÐ°": 5287,
      "ĠÑĢÐ¾Ð±Ð¸ÑĤÐ¸": 5288,
      "ĠÑĢÐ¾Ð±Ð¾ÑĤÑĥ": 5289,
      "âĢ¦);": 5290,
      "keln": 5291,
      "ĠPrÃ¤sens": 5292,
      "âĢľ.": 5293,
      "âĢľ:": 5294,
      "ĠKongress": 5295,
      "ĠÑħÐ¾ÑĤ": 5296,
      "ĠÑħÐ¾Ð»Ð¾Ð´": 5297,
      "ĠÑħÐ²Ð¸": 5298,
      "ĠÑħÐ°ÑĢÑĩ": 5299,
      "spro": 5300,
      "spunkt": 5301,
      "ĠMorgeng": 5302,
      "abonn": 5303,
      "Ð»Ð¸Ð²Ñĸ": 5304,
      "Ð»Ð¸Ð²Ð°": 5305,
      "Ð°Ð´ÑĥÐ²Ð°ÑĤÐ¸": 5306,
      "ĠÐ²Ð¸ÑģÐ»Ð¾Ð²": 5307,
      "ĠÐ²Ð¸Ð·": 5308,
      "ĠÐ²Ð¸Ñī": 5309,
      "ĠÐ²Ð¸ÑĢÐ¾Ð±": 5310,
      "Ġmachte": 5311,
      "ĠÐ¿ÑĢÐ¾ÑĤÐ¸": 5312,
      "satzes": 5313,
      "ÑĤÐ°Ð»": 5314,
      "ÑĤÐ°ÑĪ": 5315,
      "Ð¿ÑĢÐ¾Ð¿": 5316,
      "adjektiv": 5317,
      "ĠÑĪÐ°Ð½": 5318,
      "Ġplan": 5319,
      "ÐµÑĤÐ¾Ð´Ð¸Ñĩ": 5320,
      "zentr": 5321,
      "Ð½Ð¸ÑĨÑı": 5322,
      "ĠÐ¿Ð¾Ð´Ð°ÑĤÐ¾Ðº": 5323,
      "ĠÑĢÐ¾Ð·ÐµÑĤ": 5324,
      "ÑĸÐ»ÑĮÐºÐ¸": 5325,
      "ĠÐ¿ÐµÑĢÐµÑĢ": 5326,
      "ĠÐ¿ÐµÑĢÐµÐ±": 5327,
      "ĠÐ¿ÐµÑĢÐµÐ±ÑĥÐ´": 5328,
      "ĠBedeut": 5329,
      "ĠBezie": 5330,
      "ĠBeding": 5331,
      "ĠBeerdig": 5332,
      "ĠÐ³ÑĢÐ°ÑĤÐ¸": 5333,
      "ĠÐ³ÑĢÐ°Ð¼Ð°ÑĤÐ¸": 5334,
      "ÐµÐºÐ¾Ð¼": 5335,
      "ÑĥÐ´ÑĮ": 5336,
      "Ð°Ð»ÑĸÑģÑĤ": 5337,
      "Ġstreiten": 5338,
      "Ġstarke": 5339,
      "ĠAntwor": 5340,
      "ĠAngebot": 5341,
      "ĠAnzahl": 5342,
      "fing": 5343,
      "findet": 5344,
      "iven": 5345,
      "ĠÐ¿ÑĢÐ¸Ñħ": 5346,
      "ĠÐ¿ÑĢÐ¸Ð²ÑĸÑĤ": 5347,
      "gabe": 5348,
      "ika": 5349,
      "ogle": 5350,
      "stelle": 5351,
      "ÑĥÑģÐºÐ°ÑĤÐ¸": 5352,
      "sivstation": 5353,
      "ntag": 5354,
      "ĠÐºÐ¾Ð¼ÑĦÐ¾ÑĢÑĤ": 5355,
      "ĠRepar": 5356,
      "ĠÑıÐºÑĸ": 5357,
      "ĠÑıÐºÐ¾Ñİ": 5358,
      "ÑĸÑĤÑĤÑı": 5359,
      "ĠManchmal": 5360,
      "flexiven": 5361,
      "ĠÑĨÑİ": 5362,
      "ĠÑĨÑĥÐº": 5363,
      "ĠÑĹÐ¹": 5364,
      "ĠÑĹÐ´Ðµ": 5365,
      "ĠÑĹÑģÑĤÐ¸": 5366,
      "ĠVorort": 5367,
      "ĠVorlesung": 5368,
      "ĠVortrag": 5369,
      "Ġpassiert": 5370,
      "riffen": 5371,
      "ĠJames": 5372,
      "ĠÐĳÐ°Ð³Ð°ÑĤÐ¾": 5373,
      "ĠÐĳÐ°ÑĤÑĮ": 5374,
      "Ġsolltest": 5375,
      "ĠÐ¡ÐµÐºÑĢÐµÑĤÐ°ÑĢ": 5376,
      "ĠÑģÐ²ÑĸÐ´": 5377,
      "ĠÑģÐ²ÐµÑĤÑĢ": 5378,
      "ĠÑģÐ²Ð¾ÑĶÐ¼Ñĥ": 5379,
      "ĠSport": 5380,
      "ĠSpitze": 5381,
      "ĠSpree": 5382,
      "ĠEinkaufen": 5383,
      "ĠEinweihung": 5384,
      "ÑĸÐ·Ð¸Ðº": 5385,
      "ÑĸÐ·Ð½Ð°": 5386,
      "Infinitiv": 5387,
      "Institut": 5388,
      "haushalt": 5389,
      "Ð¾Ð²Ð¾ÑĢÐ¸ÑĤÐ¸": 5390,
      "geschaut": 5391,
      "geschehen": 5392,
      "Ð²Ð¸Ð´": 5393,
      "Ð²Ð¸Ð´Ð½Ð¾": 5394,
      "ÑģÐ¿ÑĸÐ²": 5395,
      "ÑĤÐµÑĢÐ½ÐµÑĤÑĸ": 5396,
      "Ð²Ð°Ð¶Ð»Ð¸Ð²": 5397,
      "ĠÐ²ÑĸÐ´Ð¿Ð¾Ð²Ñĸ": 5398,
      "ĠOrte": 5399,
      "135": 5400,
      "Verb": 5401,
      "Verbst": 5402,
      "Veranst": 5403,
      "book": 5404,
      "nahmen": 5405,
      "ÐĴÑĸÐ½": 5406,
      "ÐĴÐ¾Ð½Ð°": 5407,
      "ÐĴÐ¾Ð»Ð¸Ð½ÑģÑĮÐºÐ¾Ð³Ð¾": 5408,
      "Ġreflexiven": 5409,
      "Ð°ÑĩÐ°": 5410,
      "ÑĥÐ¼ÐµÐ½ÑĤ": 5411,
      "ÑĥÐ¼ÐµÐ½ÑĤÐ¸": 5412,
      "hand": 5413,
      "ĠAusdru": 5414,
      "Ġenthalten": 5415,
      "ĠFormular": 5416,
      "ĠFormulieren": 5417,
      "reichbar": 5418,
      "ÑĥÐ·ÑĮ": 5419,
      "ĠÐ½Ð°Ð²Ðº": 5420,
      "ĠÑħÐ¾ÑĩÐµÑĤÐµ": 5421,
      "Ð¿ÑĢÐ°Ð²Ð»ÑıÑĤÐ¸": 5422,
      "ĠÐĿÐ°ÑĪ": 5423,
      "meckt": 5424,
      "ukunft": 5425,
      "ĠÐ¿Ð¾Ð³ÑĢÐ°Ð±": 5426,
      "ĠÐ¿Ð¾Ð³Ð¾Ð²Ð¾ÑĢÐ¸ÑĤÐ¸": 5427,
      "ĠÐ´ÐµÑıÐºÑĸ": 5428,
      "delmarkt": 5429,
      "ĠFragesatz": 5430,
      "ĠFrisÃ¶r": 5431,
      "rennbare": 5432,
      "freut": 5433,
      "rief": 5434,
      "riere": 5435,
      "ÑĸÑĪÐ½Ð¸Ð¹": 5436,
      "ÑĥÐ½ÐºÐ¸": 5437,
      "Ġdabei": 5438,
      "ĠdafÃ¼r": 5439,
      "ĠÐ·Ð»Ð¸ÑĤÐ¸ÑģÑı": 5440,
      "ĠÐ·Ð»Ð¾Ð´ÑĸÐ¹": 5441,
      "Ġbesten": 5442,
      "ĠBerge": 5443,
      "ĠBergen": 5444,
      "ĠÑĦÑĸÐ»Ð¾Ð»": 5445,
      "ĠÑĩÐ°ÑģÑĤÐ¸Ð½Ð°": 5446,
      "ĠUnterstÃ¼tz": 5447,
      "baute": 5448,
      "ĠÐ²Ð¸Ð³ÑĢÐ°Ð²Ð°ÑĤÐ¸": 5449,
      "ĠwÃ¼rden": 5450,
      "Ġgesund": 5451,
      "Ġgesagt": 5452,
      "ungsfor": 5453,
      "Ð¾Ð·Ð¸ÑĨÑĮÐºÐ°": 5454,
      "emporalsatz": 5455,
      "dition": 5456,
      "ĠÐ¦ÐµÐ¹": 5457,
      "ÐµÐ¼ÐµÐ½Ñİ": 5458,
      "ĠÐ¿ÑĢÐ¾Ð¿Ð¾Ð½ÑĥÐ²Ð°ÑĤÐ¸": 5459,
      "ĠKlo": 5460,
      "ĠKleid": 5461,
      "ĠÐ½Ð°Ð´ÑĤÐ¾": 5462,
      "ĠPersonal": 5463,
      "Redemittel": 5464,
      "ffpunkt": 5465,
      "frieren": 5466,
      "friesland": 5467,
      "paten": 5468,
      "ĠÑĨÑĸÐ»": 5469,
      "steigen": 5470,
      "ĠÑģÐµÑĢÑĸÐ°Ð»": 5471,
      "ĠAbschied": 5472,
      "ĠÑĢÐ°Ð´ÑĸÑĤÐ¸": 5473,
      "ĠÑĢÐ°Ð´ÑĸÑİ": 5474,
      "ĠÐ»ÑĸÐºÐ°": 5475,
      "ĠReflexive": 5476,
      "folg": 5477,
      "ÐľÐµÑĤÐ¾Ð´Ð¸Ñĩ": 5478,
      "ĠÐ¿ÑĢÐ¸Ð¹Ð¾Ð¼": 5479,
      "ĠÐ¿ÑĢÐ¸Ð¹ÑĪ": 5480,
      "ĠÐ¿ÑĢÐ¸Ð¹Ð¼Ð°ÑĤÐ¸": 5481,
      "ĠÐ¾ÑĢÐ³Ð°Ð½": 5482,
      "ĠUmwelt": 5483,
      "605": 5484,
      "hÃ¤ng": 5485,
      "ĠÐ¿ÑĢÐ¾Ð´Ð°Ð¶": 5486,
      "ĠÐ³Ð°ÑĢÐ½Ð¾": 5487,
      "ĠÐ³Ð°ÑĢÐ½Ñĸ": 5488,
      "ĠÐ´ÑĥÐ¼ÐºÐ°": 5489,
      "ĠÐ²ÐµÑĩÐµÑĢÑİ": 5490,
      "289": 5491,
      "verlor": 5492,
      "verlieren": 5493,
      "Ġendet": 5494,
      "Ġgenannt": 5495,
      "ĠÐ¿Ð¾ÐºÑĥÐ¿": 5496,
      "ĠÐ¿Ð¾ÐºÐ»Ð°Ð»Ð°": 5497,
      "ĠÐ·Ð½Ð°ÑĶÑĤÐµ": 5498,
      "Ġgeschrieben": 5499,
      "Ð»ÑĮÑĤÐµÑĤ": 5500,
      "ĠSprache": 5501,
      "ĠBaum": 5502,
      "ĠBauernhof": 5503,
      "ĠBaustelle": 5504,
      "ĠÐ¿ÑĢÐ¾Ð²Ð¾Ð´Ð¸ÑĤÐ¸": 5505,
      "ĠÐ¿ÑĢÐ¾Ð²ÐµÐ´ÐµÐ½Ð½Ñı": 5506,
      "ĠMÃ¼ll": 5507,
      "ÑħÐ¾Ð´Ð¸": 5508,
      "ĠSchulhof": 5509,
      "ĠSchuljahr": 5510,
      "ĠÐ¿Ð¾Ð²ÐµÑĢÑħ": 5511,
      "ĠbeschÃ¤f": 5512,
      "Ġ...................................................................................": 5513,
      "Ansicht": 5514,
      "melden": 5515,
      "zwischen": 5516,
      "zwald": 5517,
      "ÐµÐ½Ð´Ð¾Ð²": 5518,
      "ĠChefin": 5519,
      "ĠÐ·Ð´ÑĸÐ¹ÑģÐ½": 5520,
      "ĠÐ·Ð±ÑĢ": 5521,
      "ĠÐ·Ð±ÑĸÐ»ÑĮÑĪ": 5522,
      "ĠÐ²Ð¸ÑĤÑĢÐ°": 5523,
      "Ð¾ÑĢÐ¸ÑģÐ½": 5524,
      "ĠFÃ¤hre": 5525,
      "ĠÐ¿Ð¾ÑģÐºÐ°ÑĢÐ¶": 5526,
      "ĠTreppe": 5527,
      "ĠTreppen": 5528,
      "ĠTreffpunkt": 5529,
      "ĠÑĸÐ½ÑĤÐµÑĢÐ½ÐµÑĤ": 5530,
      "ĠLebens": 5531,
      "ĠÑĢÐ¾Ð·Ð¿Ð¾ÑĩÐ¸Ð½Ð°ÑĤÐ¸": 5532,
      "ĠJahren": 5533,
      "ĠÐ¼ÑĥÐ·Ð¸ÐºÐ°": 5534,
      "966": 5535,
      "Beantworten": 5536,
      "Ġindirekt": 5537,
      "Ġindirekte": 5538,
      "Ð¾ÑīÐ°Ð´": 5539,
      "stÃ¼rzen": 5540,
      "ĠÐ¿Ð¾Ð¼Ð¸": 5541,
      "ĠÐ¿Ð¾Ð¿ÑĢÐ¾Ñī": 5542,
      "ĠÐ´Ð¾Ð¼Ð°ÑĪ": 5543,
      "ĠÐ´Ð¾Ð´Ð¾Ð¼Ñĥ": 5544,
      "ĠÐ¼Ð°ÑĤÐµÐ¼Ð°": 5545,
      "ĠÐ¼Ð°ÑĤÐµÑĢÑĸÐ°Ð»": 5546,
      "ĠÑģÑĤÑĢÐ°Ð²Ñĥ": 5547,
      "ĠKredit": 5548,
      "ĠÐ·Ð°ÑħÐ¸ÑģÑĤ": 5549,
      "ĠMensch": 5550,
      "ĠTagung": 5551,
      "ĠZugspitze": 5552,
      "ĠÐ¿Ð¾Ð²ÑĸÐ´Ð¾Ð¼Ð»ÑıÑĤÐ¸": 5553,
      "ĠÐ¿Ð¾Ð²ÑĸÐ´Ð¾Ð¼Ð»ÐµÐ½Ð½Ñı": 5554,
      "ettert": 5555,
      "Ġ2022": 5556,
      "ĠNotar": 5557,
      "ĠNotwendig": 5558,
      "Ġverbunden": 5559,
      "Ġverbringt": 5560,
      "ĠÐ²Ð¸Ð¿Ð°Ð´Ð¾Ðº": 5561,
      "ĠOrdner": 5562,
      "ĠOrdnung": 5563,
      "ĠÐ½Ð°Ð²ÑĩÐ°Ð½Ð½Ñı": 5564,
      "ĠStraÃŁenecke": 5565,
      "ĠÑĨÑĸÐºÐ°Ð²Ð¸ÑĤÐ¸ÑģÑı": 5566,
      "sondern": 5567,
      "zentrum": 5568,
      "ĠÃ¼berlegt": 5569,
      "ĠÐ¼ÑĸÑģÑıÑĨÑĮ": 5570,
      "ĠDachboden": 5571,
      "ĠBoot": 5572,
      "ĠBeispiel": 5573,
      "ĠÐºÐ»ÑĸÑĶÐ½ÑĤ": 5574,
      "ĠÐ·Ð°Ð¼Ð¾Ð²Ð»ÐµÐ½Ð½Ñı": 5575,
      "ĠÑĦÑĸÑĢÐ¼Ð°": 5576,
      "ĠGericht": 5577,
      "ĠGerÃ¤t": 5578,
      "ĠTurnier": 5579,
      "ĠÑģÐ¿ÐµÑĨÑĸÐ°Ð»ÑĮÐ½Ð¸Ð¹": 5580,
      "Ġschwimmen": 5581,
      "isteninform": 5582,
      "ĠLiefer": 5583,
      "ĠEndung": 5584,
      "ĠÑĢÐ¾ÐºÑĸÐ²": 5585,
      "ĠÐ¾ÑģÐ¾Ð±Ð»Ð¸Ð²Ð¾": 5586,
      "ĠÐ²Ð¸Ð±Ð°Ñĩ": 5587,
      "Ġabgeschlossen": 5588,
      "ĠÐ¿Ð°ÑĢÑĤÐ½ÐµÑĢÐ°": 5589,
      "ĠÐ·Ð»Ð¾ÑĩÐ¸Ð½ÐµÑĨÑĮ": 5590,
      "ĠGebÃ¤uden": 5591,
      "ĠÐ¿ÑĢÐ°ÑĨÑİÑİ": 5592,
      "ĠÐ²Ð±Ð¸Ð²ÑĨÑı": 5593,
      "ĠÐ²Ð±Ð¸Ð²ÑģÑĤÐ²Ð¾": 5594,
      "!!!": 5595,
      "Fachhochschule": 5596,
      "bÃ¼ro": 5597,
      "frosch": 5598,
      "gramm": 5599,
      "mmt": 5600,
      "zeichen": 5601,
      "zeichnet": 5602,
      "ÑĥÐ»ÑıÑĢÐ½Ð¸Ð¹": 5603,
      "ĠÐ¼Ð¾Ð²Ñĥ": 5604,
      "ĠÐ¼Ð°Ð¹Ð±ÑĥÑĤÐ½ÑĮÐ¾Ð¼Ñĥ": 5605,
      "ĠÐ¼Ð°Ð¹Ð±ÑĥÑĤÐ½ÑĶ": 5606,
      "ĠÐ·Ð³Ð¾Ð´ÐµÐ½": 5607,
      "ĠÑģÐ¾Ð½Ñı": 5608,
      "ĠÐ²Ð¿Ð»Ð¸Ð²": 5609,
      "ĠÐ²Ð¸Ð²Ñĩ": 5610,
      "ĠÐ²Ð¸Ð²ÑĩÐ°ÑĤÐ¸": 5611,
      "ĠÐ½ÐµÐ²Ð´Ð°": 5612,
      "ĠBayern": 5613,
      "schnitt": 5614,
      "ĠÐ¿ÑĢÐ¾Ð³ÑĢÐ°Ð¼Ð°": 5615,
      "ĠÑĤÐ¾ÑĩÐ½Ð¾": 5616,
      "ĠMosel": 5617,
      "ĠGoethe": 5618,
      "ĠGoogle": 5619,
      "ĠGegend": 5620,
      "ĠTaxi": 5621,
      "ĠPfosten": 5622,
      "ĠPoliz": 5623,
      "Ð³Ð¾Ð²Ð¾ÑĢÐµÐ½Ð½Ñı": 5624,
      "ĠÐ´ÑĢÑĥÐ·Ñĸ": 5625,
      "ĠÐ·Ð°Ð¿ÑĢÐ¾Ñģ": 5626,
      "ĠÐ±ÐµÐ·Ð¿ÐµÐºÐ¸": 5627,
      "Ã¶ffnung": 5628,
      "ĠOstfriesland": 5629,
      "ĠÐ»Ð¾ÑĤÐµÑĢÐµÑİ": 5630,
      "lungsreich": 5631,
      "ĠÐ¿Ð»Ð°Ð½ÑĥÐ²Ð°ÑĤÐ¸": 5632,
      "ĠÐ²ÐµÑĩÑĸÑĢÐºÑĥ": 5633,
      "ĠÐ¿ÑĸÐ´Ð²Ð¸ÑīÐµÐ½Ð½ÑıÐ¼": 5634,
      "Partizip": 5635,
      "kÃ¼ste": 5636,
      "rasilien": 5637,
      "ĠÐ¥ÑĤÐ¾": 5638,
      "regelmÃ¤ÃŁigen": 5639,
      "iemand": 5640,
      "ĠÐ¿ÑĸÑĪÐ¾Ð²": 5641,
      "ĠÐ²Ð¼ÑĸÑĶ": 5642,
      "ĠÐ²Ð¿ÑĢÐ°Ð²Ð¸": 5643,
      "Ġhalten": 5644,
      "Ġwohl": 5645,
      "ĠkÃ¤mmt": 5646,
      "Ġgemalt": 5647,
      "Ġmeistens": 5648,
      "ĠSonntag": 5649,
      "ÑĦÐµÑĢÐ°": 5650,
      "ĠÐ¿ÑĢÐ¸Ð½ÑĤÐµÑĢ": 5651,
      "ĠÐ¿ÑĢÐ¸Ð³Ð°Ð´ÑĥÐ²Ð°ÑĤÐ¸": 5652,
      "ĠKanarischen": 5653,
      "ĠKulturangebot": 5654,
      "ÑİÑĢÐ¸ÑģÑĤ": 5655,
      "ĠÑĦÐ¾ÑĤÐ¾": 5656,
      "ĠTournee": 5657,
      "ĠerhÃ¶hen": 5658,
      "ĠSchwarzwald": 5659,
      "durcheinander": 5660,
      "service": 5661,
      "ĠEifel": 5662,
      "ĠEltern": 5663,
      "ĠGewinn": 5664,
      "ĠÑĢÐ¸Ð½Ð¾Ðº": 5665,
      "ĠÐĴÐ°ÑĪÑĥ": 5666,
      "ĠBÃ¼rgersteig": 5667,
      "ĠÐ´Ð¸ÑĢÐ¸Ð³ÐµÐ½ÑĤ": 5668,
      "Politik": 5669,
      "bseite": 5670,
      "karte": 5671,
      "nationalit": 5672,
      "romiss": 5673,
      "zweig": 5674,
      "ĠÃ¤uÃŁern": 5675,
      "ÑıÐ´Ð¾Ðº": 5676,
      "Ð¼Ð¾ÑģÑĦÐµÑĢÐ°": 5677,
      "Ġdrehen": 5678,
      "ĠÐ´Ð·Ð²Ð¾Ð½": 5679,
      "ĠÐ°ÑĤÐ¼Ð¾ÑģÑĦÐµÑĢÐ°": 5680,
      "ĠÐ²ÐµÑĢÑĪÐ¸Ð½Ð°": 5681,
      "ĠÐ²ÑĸÐ»ÑĮÐ½Ð¾Ð³Ð¾": 5682,
      "Ġhandeln": 5683,
      "ĠÐ½ÐµÐ¿ÑĢÐ°Ð²Ð¸Ð»ÑĮÐ½Ð¸Ñħ": 5684,
      "ĠBaskenland": 5685,
      "ĠBesuch": 5686,
      "ĠBetrag": 5687,
      "ĠBestellung": 5688,
      "Ġnormalerweise": 5689,
      "ĠÑĤÐ¾Ð²Ð°ÑĢÐ¸": 5690,
      "ĠÐºÐ°Ð¼ÑĸÐ½ÑĮ": 5691,
      "ĠÐºÐµÑĢÑĸÐ²Ð½Ð¸ÑĨÑĤÐ²Ð¾": 5692,
      "ĠÐ·Ð°ÑģÑĸÐ´Ð°Ð½Ð½Ñı": 5693,
      "ĠMatterhorn": 5694,
      "ĠÐ¿Ð¾Ð½ÐµÐ´ÑĸÐ»Ð¾Ðº": 5695,
      "ĠPlural": 5696,
      "Ġerlaubt": 5697,
      "ĠWebseite": 5698,
      "ĠWirtschaftszweig": 5699,
      "ĠUkraine": 5700,
      "Ġunbestimmten": 5701,
      "ĠhÃ¤ngt": 5702,
      "ĠStÃ¤dte": 5703,
      "ĠÐĨÐ½ÑĤÐµÑĢÐ½ÐµÑĤÑĸ": 5704,
      "rainieren": 5705,
      "ĠÐ³ÑĥÐ±Ð¸ÑĤÐ¸": 5706,
      "Geburts": 5707,
      "ÐºÐ¾Ð¼Ð¿ÐµÑĤÐµÐ½ÑĨÑĸÑĹ": 5708,
      "echselprÃ¤positionen": 5709,
      "freudig": 5710,
      "ĠSozialen": 5711,
      "Ġwelchem": 5712,
      "ĠÐ½Ð°Ð´Ð·Ð²Ð¸ÑĩÐ°Ð¹Ð½Ð¾": 5713,
      "ĠFernseh": 5714,
      "ĠSprachschule": 5715,
      "ĠTÃ¤tigkeiten": 5716,
      "ĠAussichtspunkt": 5717,
      "ĠÐ´Ð¸ÑĢÐµÐºÑĤÐ¾ÑĢÐ¾Ð¼": 5718,
      "ĠÑģÑĤÑĢÐ°Ð¶Ð´Ð°ÑĤÐ¸": 5719,
      "ĠHilfsverb": 5720,
      "ĠÑģÐ¿ÑĸÐ»ÐºÑĥÐ²Ð°ÑĤÐ¸ÑģÑı": 5721,
      "ĠÐµÐºÑģÐºÑĥÑĢÑģÑĸ": 5722,
      "ĠÐ¿ÑĢÐ¸Ð²Ð°ÑĤÐ½Ð¸Ð¹": 5723,
      "ĠÐ¿Ð¾ÑģÐ¸Ð»Ð°Ð½Ð½Ñı": 5724,
      "ĠÐ¶Ð¾Ð²ÑĤÐ½Ñı": 5725,
      "ĠÑĸÐ½Ð¾Ð·ÐµÐ¼Ð½Ð¾ÑĹ": 5726,
      "Hobby": 5727,
      "Lisa": 5728,
      "Touristeninform": 5729,
      "Wohnen": 5730,
      "hielt": 5731,
      "kretÃ¤rin": 5732,
      "nstration": 5733,
      "persÃ¶nliche": 5734,
      "wechslungsreich": 5735,
      "Ð°ÐµÑĢÐ¾Ð¿": 5736,
      "Ð°ÐºÑĥÐ»ÑĮÑĤÐµÑĤ": 5737,
      "ÑĤÐ²ÐµÑĢÐ´Ð¶": 5738,
      "ĠChancen": 5739,
      "Ġdamit": 5740,
      "ĠdrÃ¼cken": 5741,
      "ĠIntensivstation": 5742,
      "ĠÐ´Ð¾Ð¿Ð¸ÑĤ": 5743,
      "ĠÐ´Ð¸ÑĤÑıÑĩÐ¸Ð¹": 5744,
      "ĠÐ´ÐµÑĢÐ¶Ð°Ð²": 5745,
      "ĠÐ´ÑĸÑĤÐµÐ¹": 5746,
      "ĠÐ¼Ð°Ð¼Ñĸ": 5747,
      "ĠÐ¼ÑĸÐ»ÑĮÐ¹": 5748,
      "geograph": 5749,
      "gegnungen": 5750,
      "ĠÐ²ÑģÑĤÐ°Ð½Ð¾Ð²": 5751,
      "anbieter": 5752,
      "Ġspricht": 5753,
      "ĠÐ¿ÑĸÐ´Ð¿ÑĢÐ¸ÑĶÐ¼": 5754,
      "ĠSÃ¤tzen": 5755,
      "ĠBilder": 5756,
      "ĠÑģÑĤÐ¾ÑģÑĥÐ½ÐºÐ¸": 5757,
      "ĠnÃ¼tzlich": 5758,
      "ĠFrÃ¼hstÃ¼ck": 5759,
      "ĠFacebook": 5760,
      "ĠFeldberg": 5761,
      "ĠÐºÑĸÐ¼Ð½Ð°": 5762,
      "ĠÑĦÑĥÑĤÐ±Ð¾Ð»": 5763,
      "ĠMetzger": 5764,
      "ĠGleis": 5765,
      "ĠÐ¿Ð¾ÑģÐ»ÑĥÑħÐ°ÑĤÐ¸": 5766,
      "ĠTrÃ¶delmarkt": 5767,
      "ĠTiefgarage": 5768,
      "ĠÐ½Ð°ÑģÑĤÑĢÑĸÐ¹": 5769,
      "ĠÐ±ÑĸÐ·Ð½Ðµ": 5770,
      "pektive": 5771,
      "Ġtrifft": 5772,
      "bekleidung": 5773,
      "ĠÑģÐ¿Ð¾ÐºÑĸÐ¹": 5774,
      "ĠErnÃ¤hrung": 5775,
      "ĠÐ²ÑĸÐ´ÑĢÑıÐ´Ð¶ÐµÐ½Ð½Ñı": 5776,
      "ĠÐ¶ÑĥÑĢÐ½Ð°Ð»": 5777,
      "ĠFuÃŁgÃ¤ngerzone": 5778,
      "ĠRestaurant": 5779,
      "ĠÐ³Ð°Ð»ÑĥÐ·ÑĮ": 5780,
      "ĠÐ³ÑĥÑģÑĤÐ¸Ð¹": 5781,
      "ĠÐ³ÑĸÐ³Ð°Ð½ÑĤ": 5782,
      "Ð¾Ð½Ð´Ð°ÑĢÑĩÑĥÐº": 5783,
      "ĠBeerdigung": 5784,
      "ĠReparatur": 5785,
      "ĠÐĳÐ°ÑĤÑĮÐºÑĸÐ²": 5786,
      "Ð²Ð°Ð¶Ð»Ð¸Ð²Ð¸Ð¼": 5787,
      "Verbstamm": 5788,
      "ĠAusdruck": 5789,
      "ĠUnterstÃ¼tzung": 5790,
      "ungsformen": 5791,
      "ÐµÐ¼ÐµÐ½ÑİÐº": 5792,
      "ÐľÐµÑĤÐ¾Ð´Ð¸ÑĩÐ½Ñĸ": 5793,
      "ĠÐ¾ÑĢÐ³Ð°Ð½ÑĸÐ·": 5794,
      "ĠTreppenhaus": 5795,
      "ĠNotwendigkeit": 5796,
      "Touristeninformation": 5797,
      ")/": 5798,
      "-/": 5799,
      "02": 5800,
      "03": 5801,
      "04": 5802,
      "06": 5803,
      "08": 5804,
      "216": 5805,
      "350": 5806,
      "44": 5807,
      "46": 5808,
      "488": 5809,
      "51": 5810,
      "58": 5811,
      "69": 5812,
      "737": 5813,
      "87": 5814,
      "99": 5815,
      "Ad": 5816,
      "Auss": 5817,
      "Achtung": 5818,
      "Abteil": 5819,
      "BC": 5820,
      "BE": 5821,
      "Ba": 5822,
      "Bill": 5823,
      "Baha": 5824,
      "Brasilien": 5825,
      "Che": 5826,
      "Drei": 5827,
      "ES": 5828,
      "Eis": 5829,
      "Eins": 5830,
      "Euro": 5831,
      "Emma": 5832,
      "Fr": 5833,
      "Fahr": 5834,
      "FÃ¼n": 5835,
      "GÃ¤n": 5836,
      "Gri": 5837,
      "Grund": 5838,
      "Jahre": 5839,
      "Kan": 5840,
      "Krank": 5841,
      "Kaus": 5842,
      "Kont": 5843,
      "Koch": 5844,
      "Kaukasus": 5845,
      "Leben": 5846,
      "Links": 5847,
      "Leist": 5848,
      "Landes": 5849,
      "MW": 5850,
      "MÃ¼": 5851,
      "Meine": 5852,
      "Mon": 5853,
      "Mat": 5854,
      "Meer": 5855,
      "MÃ¼ritz": 5856,
      "Nor": 5857,
      "Neben": 5858,
      "Nord": 5859,
      "Negation": 5860,
      "Niemand": 5861,
      "Ost": 5862,
      "Position": 5863,
      "Peter": 5864,
      "Reg": 5865,
      "Radio": 5866,
      "Si": 5867,
      "Sein": 5868,
      "Singap": 5869,
      "Slow": 5870,
      "Tsch": 5871,
      "Tages": 5872,
      "Temporale": 5873,
      "Tiere": 5874,
      "Trennbare": 5875,
      "Volkshochschule": 5876,
      "WechselprÃ¤positionen": 5877,
      "Zwei": 5878,
      "Zust": 5879,
      "Zukunft": 5880,
      "az": 5881,
      "ape": 5882,
      "aal": 5883,
      "abend": 5884,
      "acken": 5885,
      "ahm": 5886,
      "aats": 5887,
      "akei": 5888,
      "bc": 5889,
      "bf": 5890,
      "bem": 5891,
      "beu": 5892,
      "brot": 5893,
      "bieren": 5894,
      "bast": 5895,
      "btisch": 5896,
      "bringt": 5897,
      "ca": 5898,
      "cc": 5899,
      "dau": 5900,
      "dun": 5901,
      "dki": 5902,
      "dose": 5903,
      "diven": 5904,
      "echt": 5905,
      "eden": 5906,
      "ehnen": 5907,
      "elefon": 5908,
      "fein": 5909,
      "fand": 5910,
      "fÃ¤hr": 5911,
      "fort": 5912,
      "frei": 5913,
      "flie": 5914,
      "fri": 5915,
      "fang": 5916,
      "frie": 5917,
      "fassen": 5918,
      "fliegen": 5919,
      "frÃ¼hst": 5920,
      "fohlen": 5921,
      "grei": 5922,
      "ggel": 5923,
      "glan": 5924,
      "garn": 5925,
      "grammatik": 5926,
      "gift": 5927,
      "ganis": 5928,
      "hig": 5929,
      "hungen": 5930,
      "iw": 5931,
      "ide": 5932,
      "icken": 5933,
      "jas": 5934,
      "jem": 5935,
      "jiw": 5936,
      "kan": 5937,
      "kom": 5938,
      "kter": 5939,
      "kung": 5940,
      "kam": 5941,
      "kont": 5942,
      "komp": 5943,
      "kri": 5944,
      "karten": 5945,
      "klasse": 5946,
      "kunft": 5947,
      "lu": 5948,
      "lett": 5949,
      "lungen": 5950,
      "leitung": 5951,
      "line": 5952,
      "lingen": 5953,
      "mus": 5954,
      "mann": 5955,
      "maus": 5956,
      "mÃ¤n": 5957,
      "mord": 5958,
      "musik": 5959,
      "minken": 5960,
      "marken": 5961,
      "nie": 5962,
      "nte": 5963,
      "nal": 5964,
      "nisch": 5965,
      "nig": 5966,
      "nland": 5967,
      "nsche": 5968,
      "nungs": 5969,
      "neiden": 5970,
      "nutz": 5971,
      "nÃ¼tz": 5972,
      "nitten": 5973,
      "name": 5974,
      "njem": 5975,
      "oo": 5976,
      "ore": 5977,
      "oge": 5978,
      "ochen": 5979,
      "oko": 5980,
      "offe": 5981,
      "obt": 5982,
      "prec": 5983,
      "pier": 5984,
      "ption": 5985,
      "port": 5986,
      "pfle": 5987,
      "pflicht": 5988,
      "perte": 5989,
      "pitel": 5990,
      "plat": 5991,
      "romm": 5992,
      "rren": 5993,
      "rand": 5994,
      "ritten": 5995,
      "ritte": 5996,
      "rzte": 5997,
      "saus": 5998,
      "such": 5999,
      "sollen": 6000,
      "sra": 6001,
      "sig": 6002,
      "sol": 6003,
      "singen": 6004,
      "sfÃ¤": 6005,
      "ssprache": 6006,
      "slow": 6007,
      "sinken": 6008,
      "surfen": 6009,
      "sandte": 6010,
      "tÃ¤": 6011,
      "tÃ¶": 6012,
      "tÃ¶n": 6013,
      "ttern": 6014,
      "treiben": 6015,
      "trauen": 6016,
      "uh": 6017,
      "usch": 6018,
      "ude": 6019,
      "ubl": 6020,
      "vieren": 6021,
      "vÃ¶llig": 6022,
      "wie": 6023,
      "wehr": 6024,
      "wahr": 6025,
      "wert": 6026,
      "wachsen": 6027,
      "wiegen": 6028,
      "wunder": 6029,
      "wurde": 6030,
      "wusch": 6031,
      "xten": 6032,
      "yst": 6033,
      "ysi": 6034,
      "yjiw": 6035,
      "zes": 6036,
      "zung": 6037,
      "zusammen": 6038,
      "zess": 6039,
      "Ð¨": 6040,
      "âĨĴ": 6041,
      "Ġor": 6042,
      "Ġern": 6043,
      "ĠÑĢÐ¾Ð´": 6044,
      "Ġro": 6045,
      "ĠÑĸÑģ": 6046,
      "Ġal": 6047,
      "Ġat": 6048,
      "Ġrei": 6049,
      "ĠÃ¤ndern": 6050,
      "ĠÃľb": 6051,
      "ĠÑİÑĢÐ¸ÑģÑĤ": 6052,
      "ĠÐĦÐ²ÑĢÐ¾Ð¿": 6053,
      "Ð½ÐºÐ°": 6054,
      "Ð½Ð¾Ðº": 6055,
      "Ð½Ð°Ð·": 6056,
      "Ð½ÐºÐ¸": 6057,
      "Ð½Ð¸Ð³": 6058,
      "Ð½ÑİÐ²Ð°ÑĤÐ¸": 6059,
      "Ð½ÑĥÑĤ": 6060,
      "Ð½Ð°Ð¹": 6061,
      "Ð½Ð¾ÑģÐ¸ÑĤÐ¸": 6062,
      "Ð½Ð¾ÑģÑĤÑĸ": 6063,
      "Ð½ÑĸÑģÑĤ": 6064,
      "Ð¾ÑĶ": 6065,
      "Ð¾ÑģÐ»": 6066,
      "Ð¾Ð½Ðµ": 6067,
      "Ð¾ÑģÐ½Ð¾Ð²": 6068,
      "Ð¾ÑĥÑĤÐ±": 6069,
      "ÐµÑı": 6070,
      "ÐµÐ»Ð°": 6071,
      "ÐµÐ»Ñĸ": 6072,
      "ÐµÐºÐ°ÑĢ": 6073,
      "ÐµÐ»Ð¸Ðº": 6074,
      "ÐµÑĨÑĤ": 6075,
      "ÐµÐ²Ð¸Ð´Ð½Ð¾": 6076,
      "ÑıÑĢ": 6077,
      "ÑıÑģÐ½": 6078,
      "ÑıÐ½Ð°": 6079,
      "ÑıÑĤÐ°": 6080,
      "ÑĸÑĨÑĸ": 6081,
      "ÑĸÐ±": 6082,
      "ÑĸÑĤÑĮ": 6083,
      "ÑĸÐºÐ°": 6084,
      "ÑģÐ¾": 6085,
      "ÑģÐ°": 6086,
      "ÑģÐº": 6087,
      "ÑģÐ¸Ðº": 6088,
      "ÑģÐµÑĢÐµÐ´": 6089,
      "ÑģÑĥÐ²Ð°ÑĤÐ¸": 6090,
      "ÑģÐµÐ»": 6091,
      "rein": 6092,
      "reden": 6093,
      "repar": 6094,
      "reduzieren": 6095,
      "Ð°ÑĢÐµ": 6096,
      "Ð°Ð½ÑĮ": 6097,
      "Ð°ÑİÑĤÑĮÑģÑı": 6098,
      "Ð°ÑĢÑĸÐ²": 6099,
      "Ð°Ð¾ÑĤÐ¸": 6100,
      "orge": 6101,
      "orben": 6102,
      "ordent": 6103,
      "orca": 6104,
      "Ð¸ÑĨÑı": 6105,
      "Ð¸Ð·ÑĮ": 6106,
      "chs": 6107,
      "enten": 6108,
      "enseit": 6109,
      "ÑĤÐ°ÑĤÐ¸": 6110,
      "ÑĤÐ½Ð¸Ð¹": 6111,
      "ÑĤÐ°Ð½Ð½Ñı": 6112,
      "ÑĤÐºÐ¸": 6113,
      "ÑĤÑĢÐµÐ±Ð°": 6114,
      "ÑĢÐ³": 6115,
      "ÑĢÐ°Ð½": 6116,
      "ÑĢÐ¸ÑĤ": 6117,
      "ÑĢÐ¾Ðº": 6118,
      "ÑĢÐ¾Ð¶": 6119,
      "ÑĢÐ¸Ñĩ": 6120,
      "ÑĢÐ°Ð¼Ð¸": 6121,
      "ÑĢÐ¸ÑģÑĤÐ¸": 6122,
      "ÐµÐ½Ðµ": 6123,
      "ÐµÐ½Ñģ": 6124,
      "ÐµÐ½Ð¸Ð¼": 6125,
      "ÐµÐ½ÑģÑĸ": 6126,
      "ÐµÐ½Ð°Ð³": 6127,
      "ÐµÐ½ÑĪ": 6128,
      "Ð»Ð¸Ð½": 6129,
      "Ð»Ð¸Ð¹": 6130,
      "Ð»Ð°Ð¼": 6131,
      "Ð»Ð°Ð½": 6132,
      "Ð»Ð¾Ð¿": 6133,
      "Ð»ÑĥÑĩ": 6134,
      "Ð»ÑĸÐ¹": 6135,
      "ÑĥÑĢÐµ": 6136,
      "ÑĥÑģÑı": 6137,
      "ÑĥÑĨÑĮÐº": 6138,
      "ÑĥÑģÑĤÐ°": 6139,
      "ÑĥÐ±Ð¸": 6140,
      "ÐµÐ½Ð½Ð¾": 6141,
      "ÑĶÑĢ": 6142,
      "ÑĶÑĢÐ°": 6143,
      "ÑĶÐºÑĤ": 6144,
      "erie": 6145,
      "erren": 6146,
      "ersten": 6147,
      "erinnern": 6148,
      "erfolg": 6149,
      "Ð¼Ñĥ": 6150,
      "Ð¼Ð¾Ð²Ñĸ": 6151,
      "Ð¼Ð¾Ðº": 6152,
      "Ð¼ÐºÑĥ": 6153,
      "Ð¼Ð°Ð¹": 6154,
      "Ð¼ÐµÐ½ÑĤ": 6155,
      "Ð¼Ð¾Ð²Ð¸Ð¹": 6156,
      "Ð¼ÑĸÑĹ": 6157,
      "inar": 6158,
      "insen": 6159,
      "inal": 6160,
      "stu": 6161,
      "stein": 6162,
      "stÃ¤r": 6163,
      "stÃ¤n": 6164,
      "streiten": 6165,
      "stieg": 6166,
      "stolz": 6167,
      "ÐºÑĸ": 6168,
      "ÐºÐ¾Ð¼Ñĥ": 6169,
      "ÐºÐ¾Ð´": 6170,
      "ÐºÑĥÐ¿": 6171,
      "ÐºÑģÑĤ": 6172,
      "ÐºÑĥÐ²Ð°ÑĤÐ¸": 6173,
      "ÐºÐ»Ðµ": 6174,
      "ÐºÐ¾Ð½": 6175,
      "ÐºÐ°ÑĤÐ¸ÑģÑı": 6176,
      "ÐºÑĸÑģÑĤÑĮ": 6177,
      "ÐºÑĸÑĤ": 6178,
      "ieden": 6179,
      "ieur": 6180,
      "iegel": 6181,
      "Ġdeut": 6182,
      "Ġdeklin": 6183,
      "ĠdÃ¼rfen": 6184,
      "ÑĩÑĥ": 6185,
      "ÑĩÐ¸Ðº": 6186,
      "ÑĩÐ°Ð½Ð½Ñı": 6187,
      "ÑĩÐ½Ð¾Ð¼Ñĥ": 6188,
      "ÑĩÐ°ÑĶÐ¼Ð¾": 6189,
      "ÑĩÐ°Ð»ÑĮÐ½Ð¾": 6190,
      "ĠÐŁÐ¾Ð´": 6191,
      "ĠÐŁÐ°ÑģÐ¸Ðº": 6192,
      "Ð¾Ð²Ñĥ": 6193,
      "Ð¾Ð²Ð¾Ð³Ð¾": 6194,
      "Ð¾Ð²Ð¾Ð´": 6195,
      "Ð¾Ð²Ð·": 6196,
      "Ð¾Ð²Ð¸ÑĤ": 6197,
      "Ð¾Ð²Ð°Ð¹": 6198,
      "Ð¾Ð²Ð°Ð¼Ð¸": 6199,
      "Ð¾Ð²Ð¸Ñħ": 6200,
      "Ð¾Ð²ÑĥÐ²Ð°Ð½Ð½Ñı": 6201,
      "Ð¾Ð²ÐµÑĢÑħ": 6202,
      "Ð¾Ð²Ð½ÑİÐ²Ð°ÑĤÐ¸": 6203,
      "ĠÐ¿Ñĸ": 6204,
      "ĠÐ¿ÑĸÐ½": 6205,
      "ĠÐ¿Ð°Ð½": 6206,
      "ĠÐ¿ÑĸÑģ": 6207,
      "ĠÐ¿ÑĸÐ²": 6208,
      "ĠÐ¿Ð¾Ð»Ð¸": 6209,
      "ĠÐ¿Ð»Ð°": 6210,
      "ĠÐ¿Ð°Ð¿": 6211,
      "ĠÐ¿ÐµÑĤ": 6212,
      "ĠÐ¿ÑĥÐ±": 6213,
      "ĠÐ¿ÐµÐºÐ°ÑĢ": 6214,
      "ĠÐ¿ÐµÐ½ÑģÑĸ": 6215,
      "Ð¾Ð¼ÑĸÑģ": 6216,
      "Ð¾Ð¼Ð°Ð´": 6217,
      "Ð¾Ð¼Ð°Ð½ÑĤÐ¸": 6218,
      "Ð¾Ð¼Ð¾Ð²Ð½Ð¸Ñħ": 6219,
      "ĠInge": 6220,
      "ĠInter": 6221,
      "ĠInnen": 6222,
      "ĠInform": 6223,
      "ĠInseln": 6224,
      "ĠÐ´ÐµÐ½Ð½": 6225,
      "ĠÐ´Ð¸ÑģÑĤ": 6226,
      "ĠÐ´Ð½Ñı": 6227,
      "ĠÐ´ÑĸÑĤÐ¸": 6228,
      "ĠÐ´ÑĸÐ²": 6229,
      "ĠÐ´Ð°Ð½Ñĸ": 6230,
      "ĠÐ´ÑĸÐ¹ÑģÐ½": 6231,
      "ĠÐ´Ð¸ÑģÐº": 6232,
      "ĠÐ´Ð¾Ð·Ð²Ñĸ": 6233,
      "ĠÐ´Ð¾ÑĩÐºÐ°": 6234,
      "Ð¸ÐºÐ°ÑĤÐ¸": 6235,
      "Ð´ÑĮ": 6236,
      "Ð´Ð»Ñı": 6237,
      "Ð´Ð°Ð²": 6238,
      "Ð´ÑĸÐ¶": 6239,
      "Ð´ÐµÐ½ÑĮ": 6240,
      "aue": 6241,
      "ause": 6242,
      "auben": 6243,
      "aune": 6244,
      "halle": 6245,
      "ÑģÐ»Ð¸Ð²": 6246,
      "ĠÐ¼Ñĥ": 6247,
      "ĠÐ¼Ð¾Ñı": 6248,
      "ĠÐ¼ÑĸÐ½": 6249,
      "ĠÐ¼Ð¸ÑģÑĤ": 6250,
      "ĠÐ¼ÑĸÐ¶": 6251,
      "ĠÐ¼Ð¸ÑĤÐ¸": 6252,
      "ĠÐ¼Ð°Ð»": 6253,
      "ĠÐ¼Ð°Ñģ": 6254,
      "ĠÐ¼Ð°Ð»Ð°": 6255,
      "ĠÐ¼Ð¾ÑĤÐ¸": 6256,
      "ĠÐ¼ÑĸÐ³": 6257,
      "ĠÐ¼ÐµÑĤÐ°": 6258,
      "ÑĮÐ¾Ð¼Ñĥ": 6259,
      "ÑĮÐ¾Ñħ": 6260,
      "ÑĮÐ¹Ð¾Ð½": 6261,
      "ĠÐ°Ð´": 6262,
      "ĠÐ°Ð¿Ðµ": 6263,
      "ĠÐ°ÑĥÐº": 6264,
      "ĠÐ°Ð½Ð°Ð»": 6265,
      "ĠÐ·Ð¸Ð¼": 6266,
      "ĠÐ·ÑĥÐ¿": 6267,
      "ĠÐ·Ð½Ñĸ": 6268,
      "ĠÐ·Ð¾Ð½Ð°": 6269,
      "ĠÐ·Ð¾ÑĪ": 6270,
      "ĠÐ·ÐµÐ»": 6271,
      "ĠÐ·Ð±Ð¸ÑĢÐ°ÑĤÐ¸": 6272,
      "ĠÐ·ÑĥÐ±Ð¸": 6273,
      "Ġihren": 6274,
      "Ġirren": 6275,
      "gekommen": 6276,
      "gearbeit": 6277,
      "gewohn": 6278,
      "gehÃ¶r": 6279,
      "gelassen": 6280,
      "gestellt": 6281,
      "gefÃ¼hr": 6282,
      "geizig": 6283,
      "ĠÐ½Ñİ": 6284,
      "ĠÐ½Ð¾Ñģ": 6285,
      "ĠÐ½ÑĸÐ¶": 6286,
      "ĠÐ½Ð¸Ð¼Ð¸": 6287,
      "ĠÐ½Ð°Ð¹Ð±": 6288,
      "ĠÐ½Ð¾ÑĥÑĤÐ±": 6289,
      "ĠÐ½Ð¸Ð·ÑĮ": 6290,
      "ĠÐ½ÑĮÐ¾Ð¼Ñĥ": 6291,
      "ĠÑģÑı": 6292,
      "ĠÑģÐ°": 6293,
      "ĠÑģÑĤÐ¸": 6294,
      "ĠÑģÐ¾Ð»": 6295,
      "ĠÑģÑĢÑĸÐ±": 6296,
      "ĠÑģÐ²Ð°": 6297,
      "ĠÑģÐ¸ÑĢ": 6298,
      "ĠÑģÑĸÐ¼": 6299,
      "ĠÑģÐ¸Ð»": 6300,
      "ĠÑģÐ¼ÐµÑĢ": 6301,
      "ĠÑģÐºÐ°ÑĢÐ¶": 6302,
      "ĠÑģÐ¾Ð±Ð¾Ñİ": 6303,
      "ÑĸÑĶÑĪ": 6304,
      "ĠÐ²Ð²": 6305,
      "ĠÐ²Ð¾Ð´": 6306,
      "ĠÐ²Ð¸Ð½": 6307,
      "ĠÐ²ÐºÐ°Ð·": 6308,
      "ĠÐ²ÑĤÑĢ": 6309,
      "ĠÐ²Ð¾ÑģÑĮ": 6310,
      "ĠÐ²ÑĸÑĢ": 6311,
      "ĠÐ²ÑĸÐ·": 6312,
      "ĠÐ²ÑħÑĸÐ´": 6313,
      "ĠÐ²ÑħÐ¾Ð´": 6314,
      "ĠÐ²ÑĸÑĤÐ°": 6315,
      "ĠÐ²ÑģÑĤÐ°Ð²Ð»ÑıÑĤÐ¸": 6316,
      "ĠÐ²ÐµÑĢÑħ": 6317,
      "ĠÐ²ÑĥÐ»Ð¸": 6318,
      "ĠÐ²Ð´Ð¾Ð¼Ð°": 6319,
      "ĠÐ²Ð½ÑĥÑĤ": 6320,
      "ÑĸÐ½Ñĸ": 6321,
      "einkommen": 6322,
      "einnehmen": 6323,
      "einbauen": 6324,
      "einrichten": 6325,
      "einsammel": 6326,
      "Ð»ÑıÑĢ": 6327,
      "ÑĢÐµÐ¹": 6328,
      "ÑĢÐµÑĤÐ°": 6329,
      "ÑĢÐµÐºÐ¾Ð¼": 6330,
      "ĠDir": 6331,
      "ĠDru": 6332,
      "ĠDok": 6333,
      "ĠDingen": 6334,
      "ĠDamen": 6335,
      "ĠDram": 6336,
      "ĠDeshalb": 6337,
      "ĠDorf": 6338,
      "antiv": 6339,
      "anem": 6340,
      "anon": 6341,
      "anfangen": 6342,
      "anerinnen": 6343,
      "anmelden": 6344,
      "Ġwachsen": 6345,
      "Ġwider": 6346,
      "Ġwenige": 6347,
      "eichen": 6348,
      "eihn": 6349,
      "eister": 6350,
      "eiera": 6351,
      "eignet": 6352,
      "Ġsen": 6353,
      "Ġsau": 6354,
      "Ġsan": 6355,
      "Ġsammel": 6356,
      "Ġsurfen": 6357,
      "ÑĤÐ¸ÑĤÐ¸": 6358,
      "Ġke": 6359,
      "Ġkam": 6360,
      "Ġgebe": 6361,
      "Ġgeho": 6362,
      "Ġgesp": 6363,
      "Ġgescha": 6364,
      "ĠgefÃ¼": 6365,
      "Ġgegeben": 6366,
      "Ġgehan": 6367,
      "Ġgesche": 6368,
      "Ġgespr": 6369,
      "Ġgefangen": 6370,
      "Ġgeschw": 6371,
      "Ġgebr": 6372,
      "Ġgezogen": 6373,
      "ĠgehÃ¶ren": 6374,
      "Ġgefro": 6375,
      "Ġgebraucht": 6376,
      "Ġgeschlagen": 6377,
      "Ġgefunden": 6378,
      "ĠgemÃ¼tlich": 6379,
      "Ġgefreut": 6380,
      "ĠÐ½ÐµÐ³": 6381,
      "ĠÐ½ÐµÐ¾Ð±": 6382,
      "tigt": 6383,
      "tisieren": 6384,
      "Ġmalt": 6385,
      "Ġmeist": 6386,
      "aufgeben": 6387,
      "aufhaus": 6388,
      "ÑĸÐ´Ð½Ð¾": 6389,
      "Ð²Ð¾Ð¼": 6390,
      "Ð²Ð¸Ðº": 6391,
      "Ð²Ð¾Ð»": 6392,
      "Ð²Ð°Ð½Ð½Ñı": 6393,
      "Ð²ÐµÐ¹": 6394,
      "Ð²Ð¿ÑĢÐ°Ð²": 6395,
      "Ð²Ð²Ð°Ð¶Ð°Ñİ": 6396,
      "Ð²ÑģÑĤÑĢÑĸ": 6397,
      "ĠAll": 6398,
      "ĠAuft": 6399,
      "ĠAfr": 6400,
      "ĠAhnung": 6401,
      "ĠÐĶÐ¾": 6402,
      "ĠÐĶÑıÐº": 6403,
      "Ð¾ÑĢÐ¾ÑĤ": 6404,
      "Ð¾ÑĢÑĥÑĪ": 6405,
      "ÑĨÑĸÑĶÑİ": 6406,
      "ĠbÃ¼": 6407,
      "Ġbitte": 6408,
      "Ã¼be": 6409,
      "Ã¼hren": 6410,
      "Ð¼ÐµÑĤÐ¾Ð´": 6411,
      "irr": 6412,
      "irgen": 6413,
      "ĠÐ¿ÑĸÐ´ÑĸÐ¹": 6414,
      "ĠÐ¿ÑĸÐ´ÑģÐ¸": 6415,
      "ĠÐ¿ÑĸÐ´ÑĢÑĥÑĩÐ½Ð¸Ðº": 6416,
      "Ð¹Ð¾Ð¼": 6417,
      "Ð¹Ð½Ð¸Ð¹": 6418,
      "Ð¹ÑģÑĮÐºÐ¸Ð¹": 6419,
      "ĠSeit": 6420,
      "ĠSind": 6421,
      "ĠSohn": 6422,
      "ĠSachen": 6423,
      "ĠSonnen": 6424,
      "ĠSera": 6425,
      "ĠSauber": 6426,
      "ĠSalz": 6427,
      "ĠSaal": 6428,
      "Ð¸Ð¼Ð¾ÑģÑı": 6429,
      "ĠBom": 6430,
      "ĠBrau": 6431,
      "ĠBest": 6432,
      "ĠBist": 6433,
      "ĠBran": 6434,
      "ĠBraut": 6435,
      "ĠBenzin": 6436,
      "ĠBMW": 6437,
      "ÑĦÐ¾ÑĢÐ¼": 6438,
      "ÑĦÑĸÐ»": 6439,
      "ÑĦÑĸÑĢ": 6440,
      "ÑĦÑĸÐ»ÑĮÐ¼": 6441,
      "Ð¿Ð¾ÑĢ": 6442,
      "Ð¿Ð¾Ð»": 6443,
      "Ð¿Ð¾Ñģ": 6444,
      "Ð¿Ð¾ÑĢÑĤ": 6445,
      "Ð¿Ð°Ð»Ð°": 6446,
      "Ð¿Ð¾Ð»Ñĸ": 6447,
      "Ð¿Ð¾Ð³Ð¾Ð´": 6448,
      "essiv": 6449,
      "ichtig": 6450,
      "Ð¾Ð´Ð½Ñı": 6451,
      "Ð¾Ð´Ð¾Ð±": 6452,
      "Ð¾Ð´Ð¸ÑĤÐ¸ÑģÑı": 6453,
      "Ð¾Ð´Ð¸ÑĤÑĮ": 6454,
      "Ð¾Ð´ÐµÐ½Ð½Ð¾": 6455,
      "ĠÑĢÐµÐº": 6456,
      "ĠÑĢÐµÐ·": 6457,
      "omat": 6458,
      "oment": 6459,
      "ĠÑģÑĤÐ°ÑĤÐ¸": 6460,
      "ĠÑģÑĤÐ°ÑĢ": 6461,
      "ĠÑģÑĤÑĸÐ»": 6462,
      "ĠÑģÑĤÐ°Ð»": 6463,
      "ĠÑģÑĤÑĸÐ»Ðµ": 6464,
      "Ġnennt": 6465,
      "ErgÃ¤nzen": 6466,
      "ErÃ¶ffnung": 6467,
      "ĠÑĥÑĢÑı": 6468,
      "ĠÑĥÐ¶Ðµ": 6469,
      "ĠÑĥÐ»ÑİÐ±": 6470,
      "scheine": 6471,
      "schieben": 6472,
      "scheinen": 6473,
      "schwei": 6474,
      "schrie": 6475,
      "schoss": 6476,
      "schuhe": 6477,
      "schauer": 6478,
      "schritte": 6479,
      "ĠÐ°ÑĢÐ³": 6480,
      "ĠÐ°ÑĢÑħ": 6481,
      "deute": 6482,
      "deckt": 6483,
      "Ã¤ge": 6484,
      "Ã¤se": 6485,
      "Ã¤hlen": 6486,
      "Ã¤llt": 6487,
      "ĠÐ¿ÑĢÐ¾Ð¼": 6488,
      "ĠÐ¿ÑĢÐ¾ÑıÑģÐ½": 6489,
      "ĠÐ¿ÑĢÐ°Ð²": 6490,
      "ĠÐ¿ÑĢÐ°Ð¿": 6491,
      "ĠÐ¿ÑĢÐ¾Ñĩ": 6492,
      "ĠÐ¿ÑĢÐ°Ñģ": 6493,
      "ĠÐ¿ÑĢÐ¾Ð¶Ð¸Ð²Ð°Ð½Ð½Ñı": 6494,
      "here": 6495,
      "hematik": 6496,
      "ĠÑĩÐµÑĢÐµ": 6497,
      "ĠÑĩÑĥÐ²": 6498,
      "ari": 6499,
      "arm": 6500,
      "arz": 6501,
      "artig": 6502,
      "ĠÑĤÑĸ": 6503,
      "ĠÑĤÐ¾ÑĢ": 6504,
      "ĠÑĤÐ¾Ð³Ð¾": 6505,
      "ĠÑĤÐ¾Ð¿": 6506,
      "ĠÑĤÐ²Ð¾ÑĢ": 6507,
      "ĠÑĤÑĢÐ¸": 6508,
      "ĠÑĤÑĢÐ°Ð²": 6509,
      "ĠÑĤÐ²ÐµÑĢ": 6510,
      "Ġeins": 6511,
      "Ġeingekauft": 6512,
      "Ġeinschlafen": 6513,
      "Ġeingesetz": 6514,
      "ungel": 6515,
      "ungest": 6516,
      "unregelmÃ¤ÃŁigen": 6517,
      "ĠHu": 6518,
      "ĠHem": 6519,
      "ĠHÃ¶": 6520,
      "ĠHolz": 6521,
      "seren": 6522,
      "setze": 6523,
      "ĠKÃ¼": 6524,
      "ĠKir": 6525,
      "ĠKenn": 6526,
      "ĠKil": 6527,
      "ĠKra": 6528,
      "ĠKoch": 6529,
      "ĠKyjiw": 6530,
      "ĠKaufhaus": 6531,
      "ĠFas": 6532,
      "ĠFahr": 6533,
      "ĠFÃ¤hrst": 6534,
      "ĠFÃ¼hren": 6535,
      "ĠÐºÑĢÑĸ": 6536,
      "ĠÐºÐ¾ÑĢÐ¸ÑģÑĤ": 6537,
      "ĠÐºÐ¾Ñģ": 6538,
      "ĠÐºÐ°Ð±": 6539,
      "ĠÐºÐ°ÑĤ": 6540,
      "ĠÐºÐ½Ð¸Ð³Ñĥ": 6541,
      "ĠÐºÐ¾ÑĪ": 6542,
      "ĠÐºÑĥÑģ": 6543,
      "ĠÐºÐ²ÑĸÑĤ": 6544,
      "ĠÐºÐ¾Ð¼ÑĥÑģÑĮ": 6545,
      "ĠÐºÐµÑĢÑĥ": 6546,
      "ĠÐºÑĥÐ»ÑĮÑĤ": 6547,
      "ĠÐºÐ°Ð½Ð´Ð¸": 6548,
      "ĠÐºÐ½Ð¸Ð³": 6549,
      "ÑģÑĸÑĤÐ¸": 6550,
      "genieur": 6551,
      "Ġlas": 6552,
      "ĠlÃ¶": 6553,
      "Ġlassen": 6554,
      "Ġleiden": 6555,
      "Ġlobt": 6556,
      "ÑİÐ´Ð¸": 6557,
      "ÑİÐ´Ð¶": 6558,
      "ĠÐ¾Ð»Ñĸ": 6559,
      "ĠÐ¾ÐºÑĢÐ°ÑĹ": 6560,
      "ĠÐ¾ÑģÑĤÐ°Ð½": 6561,
      "ĠÐ¾ÑĤÑĢÑĥ": 6562,
      "Ð¸Ð½ÐºÐ°": 6563,
      "Ð¸Ð½ÑıÑĤÐ¸": 6564,
      "ĠÐ·Ð°Ð»": 6565,
      "ĠÐ·Ð°Ñĩ": 6566,
      "ĠÐ·Ð°ÑĤÑĢÐ¸Ð¼": 6567,
      "ĠÐ·Ð°Ð»Ñĸ": 6568,
      "ĠÐ·Ð°Ð½ÑıÑĤÑĤÑı": 6569,
      "ĠÐ·Ð°Ð¾ÑīÐ°Ð´": 6570,
      "ĠÐ·Ð°Ð°ÑĢÐµ": 6571,
      "ĠÐ·Ð°Ð¼Ð¾Ðº": 6572,
      "Ð¾Ð»ÑĸÐº": 6573,
      "Ð¾Ð»Ð¾ÑĪ": 6574,
      "rug": 6575,
      "Ġdieses": 6576,
      "ĠÑĦÑĢÑĥ": 6577,
      "ĠÑĦÐ»Ðµ": 6578,
      "ĠÑĦÐµÐ´": 6579,
      "ĠÑĦÑĸÐ·Ð¸Ðº": 6580,
      "ĠÑĦÐ°ÐºÑĥÐ»ÑĮÑĤÐµÑĤ": 6581,
      "Ð»ÑĮÐ½Ð¾": 6582,
      "ĠÑĩÐ°ÑĢÑĸÐ²": 6583,
      "senden": 6584,
      "sentieren": 6585,
      "ÐµÑĢÐµÐºÐ»Ð°Ð´": 6586,
      "Ð¾ÑĢÐ¼Ð°": 6587,
      "ĠÑĦÐ¾ÑĢÐ¼Ð°": 6588,
      "ĠMe": 6589,
      "ĠMein": 6590,
      "ĠMus": 6591,
      "ĠMÃ¶": 6592,
      "ĠMund": 6593,
      "ĠMal": 6594,
      "ĠMall": 6595,
      "ĠMill": 6596,
      "ĠMord": 6597,
      "ĠMitt": 6598,
      "ĠMeiner": 6599,
      "ĠMÃ¶glichkeit": 6600,
      "ĠMuster": 6601,
      "ĠMiete": 6602,
      "ĠMaske": 6603,
      "ĠMoment": 6604,
      "ĠGl": 6605,
      "ĠGÃ¶": 6606,
      "ĠGrad": 6607,
      "ĠGrÃ¶": 6608,
      "ĠGol": 6609,
      "ĠGarage": 6610,
      "ĠGift": 6611,
      "ĠÐ¿Ð¾ÑĨÑĸ": 6612,
      "ĠÐ¿Ð¾Ñħ": 6613,
      "ĠÐ¿Ð¾ÑģÐ¿": 6614,
      "ĠÐ¿Ð¾Ð½ÑıÑĤÑĤÑı": 6615,
      "ĠÐ¿Ð¾ÑģÐ»ÑĥÐ³": 6616,
      "indern": 6617,
      "Ð±ÑĥÑĢ": 6618,
      "Ð±ÑĸÐ³": 6619,
      "Ð±Ð°Ð³Ð°ÑĤÐ¾": 6620,
      "Ð±ÑĸÐ»ÑĮÑĪ": 6621,
      "Ð±ÑĥÑĤÐ¸": 6622,
      "Ġgram": 6623,
      "ĠgrÃ¼n": 6624,
      "Ð°Ð²ÐºÑĥ": 6625,
      "ĠTenn": 6626,
      "ĠTagen": 6627,
      "ĠTabl": 6628,
      "ĠTrend": 6629,
      "ĠTermine": 6630,
      "roch": 6631,
      "rohen": 6632,
      "rogen": 6633,
      "ronik": 6634,
      "ÑĥÑĶÑĤÑĮÑģÑı": 6635,
      "ĠÐ·Ð°ÐºÐ¾ÑĢÐ´": 6636,
      "ĠÐºÑĸÐ½ÐµÑĨÑĮ": 6637,
      "ĠSubst": 6638,
      "beitreten": 6639,
      "ÑĢÑĸÐ¹": 6640,
      "ÑĢÑĸÑıÑĤÐ¸": 6641,
      "kte": 6642,
      "ktin": 6643,
      "ĠArchi": 6644,
      "ĠÐ½Ð°ÑĦ": 6645,
      "ders": 6646,
      "Ð¶Ð°": 6647,
      "Ð¶ÐµÑĢ": 6648,
      "Ð¶ÐµÐ½ÐµÑĢ": 6649,
      "Ð¶Ð¸Ð²Ð°Ð½Ð½Ñı": 6650,
      "Ð¶Ð´ÐµÐ½ÑĮ": 6651,
      "ĠZwei": 6652,
      "ĠPist": 6653,
      "ĠPort": 6654,
      "ĠPlan": 6655,
      "ĠPech": 6656,
      "ĠPoss": 6657,
      "ĠPflicht": 6658,
      "iele": 6659,
      "Ð³Ð¾ÑĢ": 6660,
      "Ð³ÑĢÐ°ÑĪ": 6661,
      "Ð³Ð»ÑĸÐ¹": 6662,
      "ÑĢÑĥÐ³Ð°": 6663,
      "ÑĢÑĥÐ¶ÐµÐ½Ð¸Ð¹": 6664,
      "Ð½Ð¸ÐºÑĸÐ²": 6665,
      "Ð½Ð°Ð»ÑĮÐ½": 6666,
      "Ð½Ð°Ñħ": 6667,
      "ĠZeitungen": 6668,
      "ĠZeitpunkt": 6669,
      "tzt": 6670,
      "tzlich": 6671,
      "ĠÐ±Ð¾": 6672,
      "ĠÐ±Ð»": 6673,
      "ĠÐ±Ð°Ð²": 6674,
      "ĠÐ±Ð°Ð·": 6675,
      "ĠÐ±Ð°Ð±": 6676,
      "ĠÐ±Ð°Ð¶": 6677,
      "ĠÐ±ÑĸÐ»": 6678,
      "ĠÐ±Ð¾Ð»Ñĸ": 6679,
      "ĠÐ±ÑİÑĢ": 6680,
      "ĠÐ±ÐµÐ½Ð·": 6681,
      "ĠÐ±ÑİÐ´Ð¶": 6682,
      "Ġinform": 6683,
      "ÑĪÐ°": 6684,
      "ÑĪÐº": 6685,
      "ÑĪÐ½ÑĮÐ¾Ð³Ð¾": 6686,
      "ume": 6687,
      "umm": 6688,
      "umziehen": 6689,
      "Ġtut": 6690,
      "Ġtun": 6691,
      "Ġtragen": 6692,
      "Ġtanzen": 6693,
      "Ġtrocken": 6694,
      "Ġtrennt": 6695,
      "Ġtrainieren": 6696,
      "Ð¾Ð²ÑĸÐ»ÑĮÐ½Ð¾": 6697,
      "euern": 6698,
      "eucht": 6699,
      "berei": 6700,
      "bedeut": 6701,
      "bewer": 6702,
      "bedien": 6703,
      "begl": 6704,
      "bezahlen": 6705,
      "bedienen": 6706,
      "behandeln": 6707,
      "Ġerw": 6708,
      "Ġerste": 6709,
      "Ġerle": 6710,
      "Ġerwarten": 6711,
      "Ġerinnern": 6712,
      "Ġerinne": 6713,
      "Ġerreichbar": 6714,
      "ĠertÃ¶n": 6715,
      "Ð·Ð¸Ðº": 6716,
      "Ð·Ð°Ð¹": 6717,
      "Ð·ÐµÐ½ÑĤ": 6718,
      "Ð·ÑĸÑĢ": 6719,
      "Ð·Ð°Ð»": 6720,
      "Ð·ÐµÐ¼": 6721,
      "Ð·Ð´Ð¸ÑĤÐ¸": 6722,
      "Ð°Ð½Ðµ": 6723,
      "Ð°Ð½ÐµÑĨÑĮ": 6724,
      "Ð°Ð½ÑĸÑĤÐ½Ð¸Ð¹": 6725,
      "Ġform": 6726,
      "Ġfragen": 6727,
      "Ġfinden": 6728,
      "ĠfÃ¤llt": 6729,
      "ĠÑģÐ¿ÑĢÐ¸": 6730,
      "ĠÑģÐ¿ÑĸÐ»ÑĮÐ½": 6731,
      "ĠÑģÐ¿ÑĢÐ¸Ð¹": 6732,
      "ĠÑģÐ¿ÑĢÐµÐ¹": 6733,
      "ÑħÐ°Ð²": 6734,
      "ÑħÑĤÐ¾": 6735,
      "ÑħÐ½Ñĸ": 6736,
      "ÑħÐ°ÑĤÐ¸ÑģÑı": 6737,
      "ĠÑĤÐµÐ¼": 6738,
      "ĠÑĤÐµÐ¿": 6739,
      "ĠÑĤÐµÑĢÐ¿": 6740,
      "ĠÑĤÐµÐºÑģÑĤ": 6741,
      "Ã¶st": 6742,
      "Ã¶gel": 6743,
      "ĠSchn": 6744,
      "ĠSchmer": 6745,
      "ĠSchmu": 6746,
      "ÑĢÑĸÑĪÐ½Ñı": 6747,
      "ÑĸÑģÐ°ÑĢ": 6748,
      "Ġschwer": 6749,
      "Ġschreiben": 6750,
      "Ġschneiden": 6751,
      "hner": 6752,
      "ĠÑĦÐ¾ÑĢÐ¼ÑĥÐ»ÑıÑĢ": 6753,
      "stechen": 6754,
      "ĠÐ¼ÑĸÑģÑĤÑı": 6755,
      "ĠÐ¼ÑĸÑģÑĤÑĸ": 6756,
      "ĠÐ¼ÑĸÑģÑĤÑĥ": 6757,
      "Ð¸Ð»ÑĮÐ½Ð¸Ðº": 6758,
      "ĠÐ´ÑĢÑĥÐ³Ð¾Ð²Ñĸ": 6759,
      "Ġangeln": 6760,
      "Ġanziehen": 6761,
      "Ġanbauen": 6762,
      "Ġangeschaut": 6763,
      "ĠÐŁÑĢÐ¸": 6764,
      "Ġkostet": 6765,
      "denz": 6766,
      "denten": 6767,
      "ĠÐ±ÑĥÐ»Ð°": 6768,
      "ĠÐ±ÑĥÐ»Ð¸": 6769,
      "ĠÐ±ÑĥÐ´Ðµ": 6770,
      "ĠÐ±ÑĥÐ´ÑĮ": 6771,
      "Ð°ÑĤÐ¸Ð²Ð½Ð¸Ð¹": 6772,
      "ĠErlaub": 6773,
      "ĠErinner": 6774,
      "Ð´Ð¸ÑĤÐ¸ÑģÑı": 6775,
      "ĠÑĸÐ³ÑĢÐ°ÑĪ": 6776,
      "ungsst": 6777,
      "ungsp": 6778,
      "ĠÑĸÐ½ÑĤÐµ": 6779,
      "ĠÑĸÐ½Ð°Ðº": 6780,
      "ĠÑĸÐ½Ð¾Ð´Ñĸ": 6781,
      "ĠÑĸÐ½Ð¶ÐµÐ½ÐµÑĢ": 6782,
      "Ð°Ð»ÑĮÐ½ÑĸÑģÑĤÑĮ": 6783,
      "Ð°Ð»ÑĮÐ½Ð¸Ñħ": 6784,
      "rÃ¤umen": 6785,
      "ĠÑĸÐ½ÑĦÐ¾ÑĢÐ¼Ð°": 6786,
      "ÃŁnahme": 6787,
      "ĠÐ¾ÑģÐ½Ð¾Ð²Ð½Ð¸Ñħ": 6788,
      "ĠÐ²Ð¸ÐºÐ¾Ð½Ð°": 6789,
      "Ð¸ÑĤÐµ": 6790,
      "ĠÐ¿Ð¾ÑĩÑĥÐ²Ð°ÑĤÐ¸ÑģÑı": 6791,
      "ĠWer": 6792,
      "ĠWien": 6793,
      "ĠWaren": 6794,
      "ĠWell": 6795,
      "ĠWare": 6796,
      "ĠWahl": 6797,
      "ĠWeile": 6798,
      "ĠWurz": 6799,
      "ĠWÃ¼nsche": 6800,
      "ĠWeihn": 6801,
      "ĠWÃ¤hlen": 6802,
      "tell": 6803,
      "tektin": 6804,
      "ĠÐ·Ð°Ð¿ÑĸÐ·": 6805,
      "ĠÐ²ÑĸÐ´Ð¼ÑĸÐ½": 6806,
      "ĠÐ²ÑĸÐ´Ð´Ð°ÑĤÐ¸": 6807,
      "ĠKamp": 6808,
      "ĠKamer": 6809,
      "ĠKatzen": 6810,
      "ĠKaiser": 6811,
      "ÑĥÑĩÐ¸Ð¹": 6812,
      "ÑĥÑĩÐ½Ð¾Ð¼": 6813,
      "onas": 6814,
      "onummer": 6815,
      "onders": 6816,
      "ĠÐ·ÑĸÐ¿": 6817,
      "ĠÐ¶Ð°Ñħ": 6818,
      "ĠÐ¶ÐµÑĢÑĤ": 6819,
      "ringer": 6820,
      "undfahrt": 6821,
      "its": 6822,
      "itam": 6823,
      "itur": 6824,
      "Ġzer": 6825,
      "Ġzeigen": 6826,
      "blÃ¤t": 6827,
      "blick": 6828,
      "altet": 6829,
      "alitÃ¤t": 6830,
      "ausdrÃ¼cken": 6831,
      "alls": 6832,
      "ĠÐ´Ð¾Ð¿Ð¾Ð¼Ð°Ð³Ð°ÑĤÐ¸": 6833,
      "Ġsechs": 6834,
      "Ġsetzt": 6835,
      "Ð¾ÐºÐ°": 6836,
      "Ð¾ÐºÐ¾Ð»": 6837,
      "ermÃ¶glich": 6838,
      "kommt": 6839,
      "ĠKindern": 6840,
      "dur": 6841,
      "Ð¾Ð±Ð¸": 6842,
      "Ð¾Ð±ÑĥÐ²Ð°ÑĤÐ¸": 6843,
      "Ð¾Ð±ÑĥÑģ": 6844,
      "zik": 6845,
      "zimmer": 6846,
      "Ġumstruktur": 6847,
      "Ġumgezogen": 6848,
      "ĠÐ·Ð¼ÑĸÐ½ÑİÐ²Ð°ÑĤÐ¸ÑģÑı": 6849,
      "ĠÐļÐ¾Ð»ÑĮ": 6850,
      "ĠLei": 6851,
      "ĠLicht": 6852,
      "ĠLag": 6853,
      "ĠLesen": 6854,
      "ĠLeitung": 6855,
      "ĠLang": 6856,
      "ĠLaden": 6857,
      "ĠLaut": 6858,
      "ĠLÃ¤rm": 6859,
      "ĠLÃ¼cken": 6860,
      "ĠLaune": 6861,
      "Ð¾Ð»Ð¸ÑĪÐ½ÑĮÐ¾Ð³Ð¾": 6862,
      "worben": 6863,
      "kohol": 6864,
      "ĠÐ¿Ð¾ÑĩÐ¸Ð½Ð°ÑĤÐ¸": 6865,
      "Ġverein": 6866,
      "ĠÐ¿ÑĢÐ¸ÐºÑĢÐ¸Ð²Ð°ÑĤÐ¸": 6867,
      "ĠÑģÐµÑĢÐµÐ´Ð¾Ð²Ð¸": 6868,
      "Ġgleich": 6869,
      "Ġglauben": 6870,
      "ierungen": 6871,
      "iertel": 6872,
      "Ġwarten": 6873,
      "Ð¾ÑģÐ¸": 6874,
      "Ð¾ÑģÑĤÐ¸": 6875,
      "Ð¾ÑģÐµÑĢ": 6876,
      "Ð¾ÑģÐ¾ÑĦ": 6877,
      "agd": 6878,
      "ager": 6879,
      "agsp": 6880,
      "Ġmehrmal": 6881,
      "ĠÐ¿Ð¾Ð²Ð½Ð¸Ð¹": 6882,
      "ĠÐ¿Ð¾Ð²Ð°ÑĢ": 6883,
      "ĠÐ¿Ð¾Ð²Ð½ÑĸÑģÑĤ": 6884,
      "ilette": 6885,
      "ÑĸÐ¶Ð½Ð¸Ðº": 6886,
      "erleiten": 6887,
      "etten": 6888,
      "amt": 6889,
      "amir": 6890,
      "ÐµÐ·Ð¿Ðµ": 6891,
      "Ð°Ð±Ð°": 6892,
      "Ð°Ð±Ð°Ð½": 6893,
      "Ð°Ð±Ð»Ð¸": 6894,
      "Ð°Ð±ÑĥÑģ": 6895,
      "Ð°Ð±ÐµÐ»ÑĮÐ½Ð¸Ð¹": 6896,
      "Ð°Ð±ÑĸÐ¶Ð½Ð¸Ðº": 6897,
      "ĠÑģÑĥÑħ": 6898,
      "ĠÑģÑĥÑģÑĸÐ´": 6899,
      "ĠÑģÑĥÐ¼ÐºÑĥ": 6900,
      "weilig": 6901,
      "ĠÐ¿Ð¾ÑĢÐ°": 6902,
      "ĠÐ¿Ð¾ÑĢÑıÐ´Ð¾Ðº": 6903,
      "ÑĨÐµÐ¼": 6904,
      "ÑĨÐµÐ¿": 6905,
      "ÑĨÐµÐ¹ÑģÑĮÐºÐ¸Ð¹": 6906,
      "Ġzustimmen": 6907,
      "altungen": 6908,
      "ÑĤÑĢÐ°": 6909,
      "ÑĤÑĢÐ¾Ð²Ð°Ð¼Ð¸": 6910,
      "Ð¿ÑĸÐ´ÑĤÐ²ÐµÑĢÐ´Ð¶": 6911,
      "Ð°ÑĤÐ¾": 6912,
      "Ð°ÑĤÑĥ": 6913,
      "Ð°ÑĤÑĤÑı": 6914,
      "Ð°ÑĤÑĥÑĢÐ°": 6915,
      "mpartner": 6916,
      "mpfehl": 6917,
      "ĠÐ¢Ð¾Ð±Ñĸ": 6918,
      "ĠÐ¢ÑĥÐ´Ð¸": 6919,
      "ĠÐ¢ÑĢÐµÐ±Ð°": 6920,
      "ĠÐ¢ÑĥÑĢÐµ": 6921,
      "ĠÐ¢Ð°ÑĤÐ¾": 6922,
      "Ġuntrennb": 6923,
      "ĠunpersÃ¶nliche": 6924,
      "Ġunseren": 6925,
      "ĠGesund": 6926,
      "ĠGesell": 6927,
      "olle": 6928,
      "ĠVill": 6929,
      "ĠVerl": 6930,
      "ĠVerein": 6931,
      "ĠVolkshochschule": 6932,
      "ĠVÃ¶gel": 6933,
      "ĠVitam": 6934,
      "ĠFreien": 6935,
      "ĠFreude": 6936,
      "ĠRinder": 6937,
      "fahl": 6938,
      "Ġhin": 6939,
      "ĠhÃ¤lt": 6940,
      "Ġhole": 6941,
      "ĠhÃ¤uf": 6942,
      "ĠhÃ¶rt": 6943,
      "ÑģÑĤÑı": 6944,
      "ÑģÑĤÐ²Ð°": 6945,
      "ÑģÑĤÑĥÐ´ÐµÐ½ÑĤ": 6946,
      "ĠWasch": 6947,
      "urm": 6948,
      "urt": 6949,
      "urlos": 6950,
      "ÑĥÐ²Ð°Ð½Ð¸Ð¹": 6951,
      "ĠÐ´ÑĸÑĶÑģÐ»Ð¾Ð²Ð°": 6952,
      "ĠÑĢÑĥÐº": 6953,
      "Ð°ÑĤÐºÐ¸": 6954,
      "Ð°ÑĤÐºÑĥ": 6955,
      "ĠBankmit": 6956,
      "ĠStein": 6957,
      "ĠStÃ¼": 6958,
      "ĠSteuer": 6959,
      "ĠStunde": 6960,
      "ĠStress": 6961,
      "ĠSteuern": 6962,
      "ĠProdukt": 6963,
      "atland": 6964,
      "ĠÐľÐ¾Ð¶": 6965,
      "ĠÐľÐ¾ÑĹ": 6966,
      "ĠÐĨÑĢÐ°": 6967,
      "Wasser": 6968,
      "Ð»ÐµÐº": 6969,
      "ima": 6970,
      "ĠEigen": 6971,
      "etzig": 6972,
      "leihen": 6973,
      "leisch": 6974,
      "ĠGeben": 6975,
      "ray": 6976,
      "raten": 6977,
      "fstÃ¶r": 6978,
      "onto": 6979,
      "sterreich": 6980,
      "ĠÐ³Ðµ": 6981,
      "ĠÐ³Ð°": 6982,
      "ĠÐ³ÐµÑĢ": 6983,
      "ĠÐ³Ð°Ð´": 6984,
      "ĠÐ³ÑĥÑĩÐ½Ð¾Ð¼": 6985,
      "Ð°Ð¿ÑĤ": 6986,
      "ĠStufe": 6987,
      "ĠStudenten": 6988,
      "Ð»ÑĸÐºÐ°": 6989,
      "ĠÐ¾Ð±ÑĢÐ°Ð·": 6990,
      "ĠÐ±ÐµÐ·ÑģÐ»ÑĸÐ´": 6991,
      "ĠÐ±ÐµÐ·ÐºÐ¾ÑĪ": 6992,
      "Ġbeide": 6993,
      "ĠÐĹÐ²ÐµÑĢ": 6994,
      "hopp": 6995,
      "ĠTexten": 6996,
      "leer": 6997,
      "lecht": 6998,
      "lektion": 6999,
      "lecker": 7000,
      "ÐļÐ¾ÑĢÐ¸ÑģÐ½": 7001,
      "ĠAbendsonnen": 7002,
      "ÑģÑĤÐ°Ð²Ð°ÑĤÐ¸": 7003,
      "Ġgestanden": 7004,
      "Ġgestiegen": 7005,
      "Ġgestorben": 7006,
      "ahne": 7007,
      ".........": 7008,
      "Schweiz": 7009,
      "schluss": 7010,
      "schlug": 7011,
      "schlÃ¤ge": 7012,
      "Ã¤lde": 7013,
      "Ġlehren": 7014,
      "Ġlecker": 7015,
      "tri": 7016,
      "ĠâĢ¦?": 7017,
      "ĠÑĢÐ¾Ð³": 7018,
      "ĠÑĢÐ°Ð½Ñĸ": 7019,
      "ĠÑĢÐ°Ð¿ÑĤ": 7020,
      "ÐĶÐļ": 7021,
      "ÐĶÐľ": 7022,
      "Ð¾Ð´Ð¶ÐµÐ½Ð½Ñı": 7023,
      "alaton": 7024,
      "wird": 7025,
      "ĠDiese": 7026,
      "Ġgetrieben": 7027,
      "ĠWol": 7028,
      "ĠWohl": 7029,
      "beln": 7030,
      "beliebt": 7031,
      "wohnen": 7032,
      "wohner": 7033,
      "wohnung": 7034,
      "Ġjem": 7035,
      "Ġjetzig": 7036,
      "Ã¶flich": 7037,
      "Ġteuersten": 7038,
      "Ġklettert": 7039,
      "wartet": 7040,
      "igung": 7041,
      "igit": 7042,
      "igieren": 7043,
      "ĠComputerproblem": 7044,
      "testen": 7045,
      "lichkeit": 7046,
      "bert": 7047,
      "ÑīÐ°Ð½Ð½Ñı": 7048,
      "ÑīÐ¾ÑģÑĮ": 7049,
      "ÑīÐ¾Ð´Ð½Ñı": 7050,
      "ĠFahrradladen": 7051,
      "ÐµÑĢÐ°ÑĤÐ¸Ð²Ð½Ð¸Ð¹": 7052,
      "ĠHaushalt": 7053,
      "Ġbesu": 7054,
      "Ġbesonders": 7055,
      "Ã¤rmen": 7056,
      "ĠÐ³Ð¾Ð»ÑĥÐ±": 7057,
      "Ð¸Ð³ÑĸÐ½": 7058,
      "ĠÑģÐ¸Ð»ÑĮÐ½Ð¸Ñħ": 7059,
      "ckdose": 7060,
      "ĠVerwen": 7061,
      "Ð¸Ð²Ð°ÑĤÐ¸ÑģÑı": 7062,
      "Ġdeiner": 7063,
      "tigung": 7064,
      "tigte": 7065,
      "vergessen": 7066,
      "verfÃ¼": 7067,
      "verga": 7068,
      "verhalten": 7069,
      "verschw": 7070,
      "verboten": 7071,
      "verheim": 7072,
      "verdoppel": 7073,
      "verhaften": 7074,
      "ĠOl": 7075,
      "ĠOrig": 7076,
      "ĠOsten": 7077,
      "ĠOze": 7078,
      "usstsein": 7079,
      "sion": 7080,
      "Ġunserem": 7081,
      "Ð½Ð¾Ñİ": 7082,
      "Ġfast": 7083,
      "Ð°ÑĢÐ°": 7084,
      "ĠNicht": 7085,
      "ĠNiederlan": 7086,
      "ĠName": 7087,
      "ĠNina": 7088,
      "ĠNew": 7089,
      "ĠÐĴÐ°Ð¼Ð¸": 7090,
      "ĠÐ»Ð°Ð·": 7091,
      "ĠÐ»Ð¸Ð¶": 7092,
      "Ð¾Ð½ÑĤ": 7093,
      "Ð¾Ð½Ð´": 7094,
      "Ð¾Ð¶Ð½ÑĸÐ¹": 7095,
      "ĠÑīÐ¸ÑĢ": 7096,
      "ĠÑīÐ¾Ð´ÐµÐ½Ð½Ð¾": 7097,
      "ÑĤÐ¾Ñİ": 7098,
      "ÑĢÐ°Ð´": 7099,
      "ÑĢÐ°Ñī": 7100,
      "ĠNachbar": 7101,
      "ĠLebt": 7102,
      "Ã¼bergeordneten": 7103,
      "Ġverkaufen": 7104,
      "Ġverab": 7105,
      "Ġverschw": 7106,
      "ĠverÃ¤ndern": 7107,
      "Ġverheim": 7108,
      "Ġverglei": 7109,
      "Ġverhaften": 7110,
      "Ġ117": 7111,
      "Ġ124": 7112,
      "ĠÑĢÐ¾Ð±Ð¸ÑĤÑĮ": 7113,
      "ĠÑĢÐ¾Ð±Ð¾ÑĤÐ°": 7114,
      "oline": 7115,
      "ĠÑıÐ»Ð¾Ð²": 7116,
      "sprechenden": 7117,
      "Ġbewer": 7118,
      "Ġbezie": 7119,
      "Ġbegl": 7120,
      "Ġbedienen": 7121,
      "Ġberechn": 7122,
      "Ġbekannt": 7123,
      "Ġbeeilen": 7124,
      "Ġbezeichnet": 7125,
      "Ġbedeute": 7126,
      "ĠKonsum": 7127,
      "ĠKonserv": 7128,
      "Ð¾ÑģÑĤÐ°ÑĤÐ¸": 7129,
      "ĠÑħÐ»Ñĸ": 7130,
      "ĠÑħÑĤÐ¾": 7131,
      "ĠÑħÐ°Ð¾ÑĤÐ¸": 7132,
      "spar": 7133,
      "sparen": 7134,
      "spassiv": 7135,
      "springen": 7136,
      "sprecher": 7137,
      "spurlos": 7138,
      "spray": 7139,
      "ÑĤÐ¾ÑĢÑĸÑı": 7140,
      "abhÃ¤ng": 7141,
      "abstÃ¼rzen": 7142,
      "abwechslungsreich": 7143,
      "Â».": 7144,
      "ertÃ¶n": 7145,
      "ĠÃ¼berzeu": 7146,
      "ĠÃ¼berfallen": 7147,
      "ĠÃ¼berzeugen": 7148,
      "ĠÃ¼berhaupt": 7149,
      "ĠÐ²Ð¸ÑĪ": 7150,
      "ĠÐ²Ð¸Ð»ÐºÐ°": 7151,
      "ĠÐ²Ð¸Ð¶Ð¸Ð²Ð°Ð½Ð½Ñı": 7152,
      "ĠÐ¿ÑĢÐ¾ÑĶÐºÑĤ": 7153,
      "ĠÐ¿ÑĢÐ¾ÑīÐ°Ð½Ð½Ñı": 7154,
      "Ð½ÑĸÐ¼": 7155,
      "enthalten": 7156,
      "Ã¤nder": 7157,
      "Ã¤nderung": 7158,
      "otal": 7159,
      "reibung": 7160,
      "reibtisch": 7161,
      "ĠÐ´Ð¾ÑģÐ»ÑĸÐ´": 7162,
      "Steiger": 7163,
      "rÃ¼fen": 7164,
      "rÃ¼ÃŁen": 7165,
      "ĠÐ¼Ð¾Ð¶ÑĥÑĤÑĮ": 7166,
      "Ð°Ð¶Ð°ÑĤÐ¸": 7167,
      "Ð°Ð¶Ð¸ÑĤÐ¸": 7168,
      "ĠÑĢÐ°Ð·Ð¾Ð¼": 7169,
      "weiÃŁ": 7170,
      "gelten": 7171,
      "geleitet": 7172,
      "ĠÐĶÐ¾ÑģÑĤÐ°Ð²ÐºÑĥ": 7173,
      "Ð¿ÑĢÐ¾Ð²Ð°Ð¹": 7174,
      "Ð¿ÑĢÐ¾Ð¼ÑĸÑģ": 7175,
      "ughafen": 7176,
      "Ð°Ð¹Ð½Ð¸Ð¹": 7177,
      "ada": 7178,
      "jezik": 7179,
      "ĠÑĪÑĥÐ¼": 7180,
      "ĠÑĪÐ°ÑĦ": 7181,
      "herausgeben": 7182,
      "Ġput": 7183,
      "Ġpro": 7184,
      "ĠprÃ¼fen": 7185,
      "ÐµÑĤÑĸÑĤÐ¸": 7186,
      "ÑĸÐ»ÐºÐ°": 7187,
      "Ð½Ð¸ÑĩÐºÐ°": 7188,
      "ĠVerbs": 7189,
      "ĠVerbes": 7190,
      "ĠVerbrechen": 7191,
      "ĠVerbinden": 7192,
      "ĠÐ¿Ð¾Ð´Ð°Ð²": 7193,
      "ĠÐ¿Ð¾Ð´Ð²Ð¾": 7194,
      "ĠÐ¿Ð¾Ð´Ð°Ð²Ð°ÑĤÐ¸": 7195,
      "ĠÐ¿Ð¾Ð´Ð°Ð½Ð¾": 7196,
      "ĠÑĢÐ¾Ð·Ð¼": 7197,
      "ĠÑĢÐ¾Ð·Ð±": 7198,
      "ĠÑĢÐ¾Ð·ÑģÐ»ÑĸÐ´": 7199,
      "ĠÑĢÐ¾Ð·ÑĥÐ¼": 7200,
      "ĠÑĢÐ¾Ð·Ð¼Ð¾Ð²": 7201,
      "ĠÑĢÐ¾Ð·Ð»ÑĥÑĩ": 7202,
      "ĠÐ¿ÐµÑĢÐµÐ²Ð°Ð¶": 7203,
      "ĠÐ¿ÐµÑĢÐµÐºÐ¾Ð½Ð°": 7204,
      "ĠÐ¿ÐµÑĢÐµÑĹÐ¶Ð´Ð¶": 7205,
      "ĠÐ³ÑĢÐ¸Ð²": 7206,
      "ĠÐ³ÑĢÐ°Ð¼Ð°": 7207,
      "ĠÐ³ÑĢÐ°Ð²ÐµÑĨÑĮ": 7208,
      "ĠÐ³ÑĢÐ¾Ð¼Ð°Ð´": 7209,
      "ĠÐ³ÑĢÐ°Ð±ÑĸÐ¶Ð½Ð¸Ðº": 7210,
      "hing": 7211,
      "zufÃ¤llig": 7212,
      "zubereiten": 7213,
      "ÐµÐºÐ»ÐµÐ½": 7214,
      "Ã¶rder": 7215,
      "egin": 7216,
      "Ð°Ð»ÐµÐ½Ð½Ñı": 7217,
      "ĠÐ´ÑĥÑħ": 7218,
      "prache": 7219,
      "ĠstÃ¤r": 7220,
      "Ġsteigen": 7221,
      "Ġstark": 7222,
      "ĠÐ·Ð½Ð°Ð½Ð½Ñı": 7223,
      "ĠAnge": 7224,
      "ĠAnna": 7225,
      "ĠAndenken": 7226,
      "finalsatz": 7227,
      "empfehlen": 7228,
      "empfahl": 7229,
      "schafts": 7230,
      "109": 7231,
      "lieh": 7232,
      "lieÃŁ": 7233,
      "Ġabwaschen": 7234,
      "Ð¸ÑĩÐºÐ°": 7235,
      "Ð¸ÑĩÐ¾Ðº": 7236,
      "ĠSatzes": 7237,
      "ĠSatzglied": 7238,
      "ĠÐ¿ÑĢÐ¸Ð±": 7239,
      "ĠÐ¿ÑĢÐ¸Ð¿ÑĢÐ°Ð²": 7240,
      "ĠÐ¿ÑĢÐ¸Ð±Ð¸ÑĢÐ°ÑĤÐ¸": 7241,
      "ĠÐ¿ÑĢÐ¸ÑĹÑħ": 7242,
      "fÃ¼hlen": 7243,
      "fÃ¼llt": 7244,
      "ĠÐ²ÐµÐ»": 7245,
      "ĠÐ²ÐµÐ´": 7246,
      "ĠÐ²ÐµÐ´Ðµ": 7247,
      "ĠÐ²ÐµÑģÑĸÐ»Ð»Ñı": 7248,
      "ĠÐ²ÐµÑģÐµÐ»": 7249,
      "iker": 7250,
      "ikum": 7251,
      "ikal": 7252,
      "ikanerinnen": 7253,
      "ogie": 7254,
      "steller": 7255,
      "stellte": 7256,
      "112": 7257,
      "ĠÃľberzeug": 7258,
      "Ġunterst": 7259,
      "Ġunterbrechen": 7260,
      "zurÃ¼ck": 7261,
      "ĠÐºÐ¾Ð¼ÐµÐ´": 7262,
      "ĠÐºÐ¾Ð¼Ð°ÑĢÑĸÐ²": 7263,
      "ĠÐºÐ¾Ð¼Ð¿ÑĢÐ¾Ð¼ÑĸÑģ": 7264,
      "telmeer": 7265,
      "ĠReze": 7266,
      "TÃ¼rkei": 7267,
      "ĠÐ¹Ð¾Ð³": 7268,
      "ĠÐ¹Ð´Ñĥ": 7269,
      "ÑĸÑĤÐºÐ°": 7270,
      "gebildet": 7271,
      "ellner": 7272,
      "ĠÑĨÐ²ÑĸÑĤ": 7273,
      "ĠÑĨÐ¸Ð±": 7274,
      "ĠÑĹÑħÐ°ÑĤÐ¸": 7275,
      "ĠÑĹÐ¶Ñĸ": 7276,
      "Ð´ÐµÑĩÐ½Ð¾": 7277,
      "ĠVorgang": 7278,
      "ĠVorbereit": 7279,
      "Ġpassieren": 7280,
      "ĠJagd": 7281,
      "ĠÐĳÐ¾Ð³": 7282,
      "ĠÐĳÐ¾Ð´ÐµÐ½": 7283,
      "ĠÐĳÐµÑĢÐ»": 7284,
      "ĠÐĳÑĥÐ´ÑĮ": 7285,
      "ĠÐĳÐ¾Ð½Ð´Ð°ÑĢÑĩÑĥÐº": 7286,
      "ÑĢÐ¸Ð»Ð¸": 7287,
      "Ġsolltet": 7288,
      "klÃ¤ren": 7289,
      "laut": 7290,
      "wasser": 7291,
      "zeitschrift": 7292,
      "ĠÐ¡ÑĸÐ¼": 7293,
      "ĠÐ¡ÑĮÐ¾Ð³Ð¾Ð´Ð½Ñĸ": 7294,
      "ĠÐ¡ÐµÐ¼ÐµÐ½ÑİÐº": 7295,
      "ĠÐµÐ½ÐµÑĢ": 7296,
      "ĠÐĽÐ¾Ð·Ð¸ÑĨÑĮÐºÐ°": 7297,
      "ĠÐĽÑĥÑĨÑĮÐº": 7298,
      "ĠÑģÐ²ÐµÐº": 7299,
      "ĠSpar": 7300,
      "ĠSpiegel": 7301,
      "ĠEinb": 7302,
      "ĠEinkaufs": 7303,
      "ksam": 7304,
      "vorbei": 7305,
      "vorsichtig": 7306,
      "werk": 7307,
      "werfen": 7308,
      "werken": 7309,
      "ĠÑĤÐ¸ÑħÐ¾": 7310,
      "ĠÑĤÐ¸Ð¶Ð´ÐµÐ½ÑĮ": 7311,
      "ÑĸÐ·Ð½Ð¾": 7312,
      "ÑĥÑĢÑĤ": 7313,
      "ÑĥÑĢÐ½Ð°": 7314,
      "Indirekte": 7315,
      "irekter": 7316,
      "Ð»ÑİÑĩ": 7317,
      "anzÃ¶s": 7318,
      "anziehen": 7319,
      "anzhaushalt": 7320,
      "ĠÐ¿ÑĢÐ°Ðº": 7321,
      "ĠÐ¿ÑĢÐ°ÑĨÑĸ": 7322,
      "untersuchen": 7323,
      "unterbieten": 7324,
      "unterhielt": 7325,
      "Ð¶ÐµÐ»ÑİÐ±": 7326,
      "immbad": 7327,
      "ĠauÃŁerdem": 7328,
      "Ġalso": 7329,
      "Ð²Ð°Ð¶Ð°ÑĤÐ¸ÑģÑı": 7330,
      "schenken": 7331,
      "ÑħÑĸÐ´Ð½Ð¸Ñħ": 7332,
      "ĠOrientieren": 7333,
      "168": 7334,
      "223": 7335,
      "Verben": 7336,
      "Verbrechen": 7337,
      "ktionen": 7338,
      "naie": 7339,
      "ÐĴÐĲ": 7340,
      "Ġ,-": 7341,
      "Ġ811": 7342,
      "Ġreist": 7343,
      "Ġreden": 7344,
      "Ð°ÑĩÐ°ÑĤÐ¸": 7345,
      "Ð°ÑĩÐ¸ÑĤÐ¸": 7346,
      "hang": 7347,
      "ĠAusnahmen": 7348,
      "ĠÐºÑĥÐ¿ÑĥÐ²Ð°ÑĤÐ¸": 7349,
      "ĠÐºÑĥÐ¿Ð¸Ð»Ð°": 7350,
      "ĠÐºÑĥÐ¿Ð»ÑıÑİ": 7351,
      "Ð¾Ð»Ð¾Ð³ÑĸÑı": 7352,
      "Ð¾Ð»Ð¾Ð³ÑĸÑĩ": 7353,
      "...?": 7354,
      "irektor": 7355,
      "hÃ¶rer": 7356,
      "Ġentwe": 7357,
      "Ġentscheiden": 7358,
      "Ġentwic": 7359,
      "schieÃŁen": 7360,
      "ĠÑĤÑĢÐµÐ½": 7361,
      "ĠÑĤÑĢÐ¸Ð²Ð°ÑĶ": 7362,
      "ĠÑĤÑĢÑĮÐ¾Ñħ": 7363,
      "alediven": 7364,
      "ĠPrÃ¤teritumform": 7365,
      "Ġ50": 7366,
      "Ġallen": 7367,
      "Ġallein": 7368,
      "Ġallem": 7369,
      "Ġalleine": 7370,
      "ĠÐ½Ð°Ð²ÑĥÑĪ": 7371,
      "ĠÐ½Ð°Ð²Ð¸ÑĩÐ¾Ðº": 7372,
      "ĠdurchgefÃ¼hr": 7373,
      "ĠÐµÐºÑģÐ¿": 7374,
      "okabel": 7375,
      "ĠÐ§Ð¸Ð¼": 7376,
      "ingu": 7377,
      "ĠÐ¿Ð¾Ð³Ð¾Ð´Ð¶ÑĥÐ²Ð°ÑĤÐ¸ÑģÑı": 7378,
      "ĠÐ¿Ð¾Ð³Ð¾Ð´Ð¸ÑĤÐ¸ÑģÑı": 7379,
      "ĠÐ´ÐµÑģÑĮ": 7380,
      "ĠÐ´ÐµÑĪÐµ": 7381,
      "ĠÐ´ÐµÐ¿Ð¾Ð·": 7382,
      "ĠÐ´ÐµÐ¼Ð¾Ð½": 7383,
      "ĠFranzÃ¶s": 7384,
      "ĠPerspektive": 7385,
      "riechen": 7386,
      "zehn": 7387,
      "Ġ63": 7388,
      "ÑĥÐ½ÑĸÐ²ÐµÑĢÑģÐ¸ÑĤÐµÑĤ": 7389,
      "ĠÐ¿Ð°ÑĢÐº": 7390,
      "ĠmÃ¶gen": 7391,
      "ĠmÃ¶glich": 7392,
      "Ġbestellen": 7393,
      "Ġbestrafen": 7394,
      "ĠÑĦÑĸÐ»Ð¾ÑģÐ¾ÑĦ": 7395,
      "ĠÑĦÑĸÐ»Ð¾Ð»Ð¾Ð³ÑĸÑĩ": 7396,
      "ĠEurozone": 7397,
      "ÑģÑĮÐºÐ¾Ð¼Ñĥ": 7398,
      "ÑģÑĮÐºÐ¾ÑĹ": 7399,
      "ÑģÑĮÐºÐ¸Ð¼Ð¸": 7400,
      "ĠUntersuch": 7401,
      "Beim": 7402,
      "ĠÐ²Ð¸Ð³ÑĢÐ°Ð²": 7403,
      "Ġgesessen": 7404,
      "Ġgesunken": 7405,
      "Ġgesungen": 7406,
      "Ġgesandt": 7407,
      "ĠSoÃŁe": 7408,
      "ĠÐºÐ°Ð½Ð°Ð»": 7409,
      "ĠÐºÐ°Ð¼ÐµÑĢÐ°": 7410,
      "Ð¸ÑģÑĤÐ¸Ð¹": 7411,
      "ungskra": 7412,
      "Ð¾Ð·Ð¸ÑĨÑĸÑİ": 7413,
      "ĠÑĤÐ°ÐºÑģÑĸ": 7414,
      "ĠÑĤÐ°ÐºÐ¾Ð¶": 7415,
      "187": 7416,
      "ÑģÐ¸ÑĩÐ½Ð¸Ð¹": 7417,
      "ÑĥÑİÑģÑı": 7418,
      "ÑĥÑİÑĩÐ¸": 7419,
      "ĠÐ¿Ð»Ð°ÑĤÐ°": 7420,
      "ĠÐ¿Ð»Ð°ÑĤÑĤÑı": 7421,
      "ĠInternetanbieter": 7422,
      "ĠÐ·Ð²Ð¸ÑĩÐ°Ð¹Ð½Ð¾": 7423,
      "ĠÐ·Ð²ÑĥÑĩÐ°ÑĤÐ¸": 7424,
      "ĠÐ·Ð²Ð¸ÑĩÐºÐ°": 7425,
      "ĠwÃ¤ren": 7426,
      "Ð²ÑĸÐ´Ð¿": 7427,
      "Ð²ÑĸÐ´Ð¾Ð¼Ð¸Ð¹": 7428,
      "ĠKlein": 7429,
      "ĠÐ½Ð°Ð´Ð°Ð²Ð°ÑĤÐ¸": 7430,
      "ĠÐ½Ð°Ð´ÑĸÐ¹Ð½Ð¸Ð¹": 7431,
      "sprach": 7432,
      "sprang": 7433,
      "Studieren": 7434,
      "256": 7435,
      "Reflexive": 7436,
      "astrop": 7437,
      "frage": 7438,
      "zÃ¤hlen": 7439,
      "ĠÐ¼ÑĥÐ·Ð¸Ñĩ": 7440,
      "ĠÑģÐµÐ»Ðµ": 7441,
      "Ġgewesen": 7442,
      "Ġgewachsen": 7443,
      "ĠAlkohol": 7444,
      "ĠSteht": 7445,
      "ĠSteckdose": 7446,
      "ĠÑģÑĤÑĥÐ´ÐµÐ½ÑĤÐºÐ°": 7447,
      "schwimmen": 7448,
      "seekÃ¼ste": 7449,
      "setzung": 7450,
      "setzte": 7451,
      "ĠFinnland": 7452,
      "ĠRelativsÃ¤tze": 7453,
      "ĠÐ³Ð¾Ð²Ð¾ÑĢÑıÑĤÑĮ": 7454,
      "ĠÑĢÐ°Ð´ÑĸÑĶÑĪ": 7455,
      "Ġjedem": 7456,
      "verbi": 7457,
      "ĠÐ»ÑĸÑĤÐ°": 7458,
      "ĠÑĪÐºÐ¾Ð´Ð°": 7459,
      "ĠÑĪÐºÑĸÐ»ÑĮÐ½Ð°": 7460,
      "ĠReisebÃ¼ro": 7461,
      "bietet": 7462,
      "besetzt": 7463,
      "folgt": 7464,
      "ÐľÐ¾Ð¶Ð½Ð°": 7465,
      "Ġex": 7466,
      "Ġedel": 7467,
      "ĠImage": 7468,
      "ĠÐ¼ÐµÐ½ÑĪÐµ": 7469,
      "ĠÑģÐºÐ¾ÑĢ": 7470,
      "ĠÑģÐºÑĥÐ¿": 7471,
      "ĠÑģÐºÐ»Ð°Ð´": 7472,
      "ĠDaten": 7473,
      "Ð¿Ð°Ð´Ð°ÑĤÐ¸": 7474,
      "ĠÐ¿ÑĢÐ¸Ð¹ÑĤÐ¸": 7475,
      "ĠÐºÐ°ÑĢÑĤÐ¾Ð¿": 7476,
      "ĠÐºÐ¾Ð½ÑĦÐµÑĢ": 7477,
      "ĠÐºÐ¾Ð½ÑĨÐµÑĢ": 7478,
      "ĠÐ¾ÑĢÐµÐ½Ð´Ð°": 7479,
      "ĠÐ¾ÑĢÑĸÑĶÐ½ÑĤ": 7480,
      "ĠÐ¾ÑĢÐ¸Ð³ÑĸÐ½": 7481,
      "ĠHauptstadt": 7482,
      "Ġangegeben": 7483,
      "Ġangezogen": 7484,
      "ĠWortfolge": 7485,
      "ĠUmsatz": 7486,
      "ĠUmgang": 7487,
      "Konzert": 7488,
      "Konsum": 7489,
      "Kondition": 7490,
      "Manchmal": 7491,
      "Plural": 7492,
      "UniversitÃ¤t": 7493,
      "hÃ¤ngt": 7494,
      "Ġrichtig": 7495,
      "ÐºÑĤÑĥ": 7496,
      "ĠÑģÐµÑĢÑĨÐµ": 7497,
      "Ð»ÑıÐ´Ñĥ": 7498,
      "Ġwichtige": 7499,
      "Ġgelegen": 7500,
      "Ġgelungen": 7501,
      "Ġbisschen": 7502,
      "ĠSekretÃ¤rin": 7503,
      "ĠÐ·Ð°Ð±ÑĢÐ°ÑĤÐ¸": 7504,
      "ĠÐ·Ð°Ð±Ð¾ÑĢÐ¾Ð½": 7505,
      "ĠÐ·Ð°Ð±ÐµÐ·Ð¿Ðµ": 7506,
      "ĠÐ±ÑĸÐ»Ð¸Ð·": 7507,
      "ĠÐ±ÑĸÐ¾Ð³ÑĢÐ°ÑĦ": 7508,
      "ĠÐ¼ÑĸÑģÑĨÐµÐ²ÑĸÑģÑĤÑĮ": 7509,
      "ĠÐ³Ð°ÑĢÐ½Ð¸Ð¹": 7510,
      "ĠÑĢÐ¾Ð±Ð¾ÑĩÑĸ": 7511,
      "ĠÑĢÐ¾Ð±Ð¾ÑĩÐ¾Ð¼Ñĥ": 7512,
      "ĠÐ´ÑĥÐ¼Ð°ÑĶ": 7513,
      "ĠÐ´ÑĥÐ¼ÐºÐ¸": 7514,
      "ĠÐ´ÑĥÐ¼Ð°ÑĶÑĪ": 7515,
      "ĠÐ²ÐµÑĩÐµ": 7516,
      "Einkaufen": 7517,
      "Einige": 7518,
      "EinfÃ¼hrung": 7519,
      "brach": 7520,
      "brachte": 7521,
      "glaube": 7522,
      "glÃ¼cklich": 7523,
      "xtra": 7524,
      "Ġgenug": 7525,
      "Ġgenommen": 7526,
      "Ġ...):": 7527,
      "ĠÐĲÐ²ÑģÑĤÑĢÑĸ": 7528,
      "ÑıÐ³Ð½ÑĥÑĤÐ¸": 7529,
      "ĠÐ¿Ð¾ÐºÐ°Ð·": 7530,
      "ĠÐ·Ð½Ð¾Ð²Ñĥ": 7531,
      "Ġsofern": 7532,
      "Ġgeschossen": 7533,
      "Ġgeschnitten": 7534,
      "ĠSprich": 7535,
      "ĠÐ¿ÑĢÐ¾Ð²ÐµÐ»Ð°": 7536,
      "ĠKontakt": 7537,
      "ĠMitarbeiter": 7538,
      "ĠfÃ¼hlen": 7539,
      "Ġfolgende": 7540,
      "Ġfolgendem": 7541,
      "ÑħÐ¾Ð´Ð¸Ð²": 7542,
      "ÑħÐ¾Ð´Ð¸ÑĤÐ¸ÑģÑı": 7543,
      "ĠSchwimmbad": 7544,
      "ĠSchulzeit": 7545,
      "Ġkonzentr": 7546,
      "ĠÑĸÐ½ÑĪÐ°": 7547,
      "ĠÑĸÐ½ÑĪÐ¸Ð¼": 7548,
      "ĠÑĸÐ½ÑĪÐ¾Ð¼Ð¾Ð²Ð½Ð¸Ñħ": 7549,
      "ĠÐ¿Ð¾Ð²ÐµÑĢÑĤÐ°ÑĤÐ¸": 7550,
      "ĠGeschichten": 7551,
      "ĠGeschirr": 7552,
      "ĠÐ³Ð¾Ð´Ð¸Ð½Ð¸": 7553,
      "ĠÐ³Ð¾Ð´Ð¸Ð½Ð°": 7554,
      "ĠÐ³Ð¾Ð´Ð¸Ð½Ð°Ð¼Ð¸": 7555,
      "ĠÐ³Ð¾ÑĤÑĥÐ²Ð°ÑĤÐ¸": 7556,
      "ĠÐ³Ð¾ÑĤÐµÐ»ÑĮ": 7557,
      "ĠÐ³Ð¾ÑĤÐµÐ»Ñĸ": 7558,
      "Ġbeschreiben": 7559,
      "ĠÐ¿Ð¾Ð´Ð¾ÑĢÐ¾Ð¶ÑĥÐ²Ð°ÑĤÐ¸": 7560,
      "ĠwÃ¼rdest": 7561,
      "mÃ¤ÃŁig": 7562,
      "Ġ....................................................................................": 7563,
      "ferd": 7564,
      "obachten": 7565,
      "prÃ¤sentieren": 7566,
      "ĠQu": 7567,
      "Ġfesten": 7568,
      "Ġempfehlen": 7569,
      "Ġempfohlen": 7570,
      "Ð¸Ð»Ð°ÑĤÐ¸": 7571,
      "Ð¸Ð´ÐµÐ½ÑĨÑĸÑı": 7572,
      "ÐµÐ½Ð´ÑĥÐ²Ð°ÑĤÐ¸": 7573,
      "Ð¼ÑĸÑħÐ°ÑĤÐ¸ÑģÑı": 7574,
      "ĠÐ·Ð´Ð¾ÑĢÐ¾Ð²": 7575,
      "ĠÐ·Ð´Ð¾Ð±ÑĥÐ²Ð°ÑĤÐ¸": 7576,
      "ĠÐ·Ð±ÑĸÑĢ": 7577,
      "gesprochen": 7578,
      "ĠÑģÐ²ÑĸÑĤÑĥ": 7579,
      "ĠÑģÐ²ÑĸÑĤÐ¾Ð²Ð°": 7580,
      "arktis": 7581,
      "ĠKarriere": 7582,
      "ĠFÃ¤llen": 7583,
      "ĠÐ¾ÑĩÐ¸Ñī": 7584,
      "ĠÐ¾ÑĩÐµÐ²Ð¸Ð´Ð½Ð¾": 7585,
      "ĠÐ¿Ð¾ÑģÐ°Ð´Ð°": 7586,
      "ĠÐ¿Ð¾ÑģÐ¼ÑĸÑħÐ°ÑĤÐ¸ÑģÑı": 7587,
      "ĠÐ¿Ð¾ÑĹÐ´Ðµ": 7588,
      "ĠÐ¿Ð¾ÑĹÑħÐ°Ð²": 7589,
      "ĠÐ±Ð°Ð½Ðº": 7590,
      "Ġfindet": 7591,
      "ĠÑĸÐ½ÑĤÐµÑĢÐ½ÐµÑĤÑĸ": 7592,
      "Ġverlassen": 7593,
      "versorgen": 7594,
      "brauchsfÃ¤": 7595,
      "ĠLebensmittel": 7596,
      "Ġbeginnen": 7597,
      "ultat": 7598,
      "ĠÑĢÐ¾Ð·Ð¿Ð¾ÑĢ": 7599,
      "Ġanderer": 7600,
      "ĠÐ¿ÑĢÐ¾Ð¿Ð¾Ð·Ð¸ÑĨÑĸÑİ": 7601,
      "072": 7602,
      "367": 7603,
      "501": 7604,
      "Begegnungen": 7605,
      "ablauf": 7606,
      "ablesen": 7607,
      "ablehnen": 7608,
      "Ġindirekter": 7609,
      "Ð½Ð¾Ð¼Ð°Ð½ÑĸÑĤÐ½Ð¸Ð¹": 7610,
      "ÑıÐ·ÐºÐ¾Ð²Ð¾": 7611,
      "Ð°Ð»Ð¸ÑģÑı": 7612,
      "stÃ¼rzt": 7613,
      "ĠÐ¿Ð¾Ð¼ÑĢÑĸÑıÑĤÐ¸": 7614,
      "ĠÐ¿Ð¾Ð¿ÑĥÐ»ÑıÑĢÐ½Ð¸Ð¹": 7615,
      "ĠÐ´ÑĸÑĶÑĤÐ°": 7616,
      "ĠÐ´Ð¾Ð´Ð°ÑĤÐºÐ¾Ð²Ñĸ": 7617,
      "ĠÐ½Ð¾Ð²Ð¸Ñħ": 7618,
      "ĠÐ½Ð¾Ð²Ð¸Ð¼Ð¸": 7619,
      "ĠÑģÐ¼Ð°ÑĩÐ½Ð¸Ð¹": 7620,
      "ĠÑģÐ¼Ð°ÑĩÐ½Ð¾": 7621,
      "ĠAufklÃ¤r": 7622,
      "ĠBlumen": 7623,
      "ĠÑģÑĤÑĢÐ°Ð²Ð°": 7624,
      "ĠÑĥÑĩÐ¾ÑĢÐ°": 7625,
      "ĠHerr": 7626,
      "ĠHerren": 7627,
      "ĠÐ¾Ð²Ð¾ÑĩÑĸÐ²": 7628,
      "ĠÐ·Ð°ÑħÐ¸Ñī": 7629,
      "Ð¾Ð»Ð¸Ð½ÑģÑĮÐºÐ¸Ð¹": 7630,
      "ĠSubjekts": 7631,
      "Ġaufgestanden": 7632,
      "ĠÐ½Ð°ÑĢÐ¾Ð´Ð½Ð°": 7633,
      "ĠÐ½Ð°ÑĪÐ¾Ð³Ð¾": 7634,
      "ĠÐ½Ð°ÑĪÐ¸Ð¼Ð¸": 7635,
      "Ġtrennbar": 7636,
      "ĠÑģÐ¿ÑĸÐ²Ð°ÑİÑĤÑĮ": 7637,
      "ĠÐ²Ð¸Ð¿Ð°Ð´ÐºÐ¾Ð²Ð¾": 7638,
      "junktionen": 7639,
      "Ð²Ð°Ð¶Ð°ÑİÑĩÐ¸": 7640,
      "ĠOrdnen": 7641,
      "handelte": 7642,
      "ĠÐºÐ°ÑĦÐµ": 7643,
      "steigern": 7644,
      "ĠWohnungstÃ¼r": 7645,
      "373": 7646,
      "4060": 7647,
      "Sudan": 7648,
      "ionen": 7649,
      "sonst": 7650,
      "treten": 7651,
      "weren": 7652,
      "ÐŁÐķ": 7653,
      "ÐŁÐ°ÑģÐ¸Ðº": 7654,
      "ĠÃ¼bern": 7655,
      "ĠÃ¼brig": 7656,
      "ĠÐĩÐ¹": 7657,
      "ĠÐĵÑĢÐ¾ÑĪ": 7658,
      "ÑĢÐ¾Ð·ÑĥÐ¼": 7659,
      "ÑĢÐ¾Ð·Ð²Ð°Ð¶Ð°ÑĤÐ¸ÑģÑı": 7660,
      "ÑĥÐ»ÑĮÑĤÐ°ÑĤ": 7661,
      "ÐºÑĢÐ¸ÑĩÐ°ÑĤÐ¸": 7662,
      "ĠÐ¿ÑĢÐµÐ·ÐµÐ½ÑĤ": 7663,
      "aschinen": 7664,
      "ĠÑģÐ¼ÑĸÑĤÑĤÑı": 7665,
      "ĠAktivsatzes": 7666,
      "ĠÐ·Ð°Ð³Ð°Ð´": 7667,
      "ĠÐ·Ð°Ð³Ð¾Ð»Ð¾Ð²": 7668,
      "ĠHaben": 7669,
      "ĠHawa": 7670,
      "ĠÐºÐ»Ð°Ð²": 7671,
      "ĠÐºÐ°Ð²Ð¸": 7672,
      "ĠÐ·Ð°Ð¼Ð¾Ð²Ð¸ÑĤÐ¸": 7673,
      "ĠGemÃ¤lde": 7674,
      "begriffen": 7675,
      "ĠÑģÐ¿ÐµÑĨÑĸÐ°Ð»ÑĸÑģÑĤ": 7676,
      "istenz": 7677,
      "ĠWunder": 7678,
      "ĠLiebes": 7679,
      "ĠÑĢÐ¾ÐºÑĥ": 7680,
      "ĠÐ¾ÑģÐ¾Ð±Ð¸ÑģÑĤ": 7681,
      "ĠOper": 7682,
      "ĠOpern": 7683,
      "ĠOpfer": 7684,
      "ĠÑħÐ¾ÑĤÑĸÐ»Ð¸": 7685,
      "ĠÐ²Ð¸Ð±ÑĸÑĢ": 7686,
      "ĠÐ²Ð¸Ð±ÑĢÐ°ÑĤÐ¸": 7687,
      "ĠÐ¿ÑĢÐ¾ÑĦÐµÑģ": 7688,
      "ĠabgestÃ¼rzt": 7689,
      "langsam": 7690,
      "ĠFlughafen": 7691,
      "ĠÐ¾Ð´ÑıÐ³Ð°ÑĤÐ¸ÑģÑı": 7692,
      "ografisch": 7693,
      "ografieren": 7694,
      "ĠÑĢÑĸÐ·Ð½Ñĸ": 7695,
      "ĠÑĢÑĸÐ·Ð½Ð¾Ð¼Ð°Ð½ÑĸÑĤÐ½Ð¸Ð¹": 7696,
      "ĠÐ·Ð°ÑĢÐ¿Ð»Ð°ÑĤÐ¸": 7697,
      "Fachzeitschrift": 7698,
      "____": 7699,
      "dirigent": 7700,
      "icky": 7701,
      "itzenklasse": 7702,
      "mmung": 7703,
      "sant": 7704,
      "trennbare": 7705,
      "ÐĿÑĸÐ¼Ðµ": 7706,
      "Ġ=>": 7707,
      "ÑĩÑĩÐ¸Ð½Ð¾Ñİ": 7708,
      "ĠÐ¿Ð¸ÑģÐ°ÑĤÐ¸": 7709,
      "ĠÐ¿Ð¾Ð±Ð»Ð¸Ð·": 7710,
      "ĠÐ¿Ð¾Ð±Ð°ÑĩÐ¸ÑĤÐ¸": 7711,
      "ĠÐ·Ð³ÑĸÐ´Ð½Ð¾": 7712,
      "ĠÐ·ÑĢÐ¾Ð±Ð¸ÑĤÐ¸": 7713,
      "ĠÐ½Ð°Ð¿Ð°Ð´": 7714,
      "ĠÑģÐ¾ÑĨÑĸ": 7715,
      "ĠÐ²ÑĩÐ¾ÑĢÐ°": 7716,
      "ĠÐ²ÑĩÐ¸ÑĤÐµÐ»ÑĮ": 7717,
      "ĠÐ²Ð¿ÑĸÐ·Ð½Ð°": 7718,
      "ĠÐ²Ð·ÑĥÑĤÑĤÑı": 7719,
      "ĠÐ²ÑĸÐºÐ½Ð¾": 7720,
      "ĠÐ²ÑĸÐºÐ½Ð¾Ð¼": 7721,
      "ĠÐ²Ð°Ð¶Ð»Ð¸Ð²Ñĸ": 7722,
      "Ġweggenommen": 7723,
      "Ġsparen": 7724,
      "ĠÐ½ÐµÐ²ÐµÐ»Ð¸Ðº": 7725,
      "Ġbereits": 7726,
      "ĠBade": 7727,
      "schneiden": 7728,
      "ÑĨÑĸÐ¹Ð½Ð°": 7729,
      "ĠHilfe": 7730,
      "ĠKannst": 7731,
      "ĠÐ¾ÑĦÑĸÑĨÑĸ": 7732,
      "ĠMonat": 7733,
      "ĠMonats": 7734,
      "ĠMÃ¤rchen": 7735,
      "ĠGegenwart": 7736,
      "Ġgerufen": 7737,
      "ĠTaste": 7738,
      "ĠTeilzeit": 7739,
      "ĠPfeil": 7740,
      "ĠPolitik": 7741,
      "ĠArbeitsverhÃ¤ltnis": 7742,
      "Ġinteressieren": 7743,
      "Ġinteressiert": 7744,
      "Ġinteressant": 7745,
      "beginnt": 7746,
      "Ġferngesehen": 7747,
      "ĠÑģÐ¿ÑĸÐ»ÐºÐ°": 7748,
      "ĠÑģÐ¿Ð¾ÑĢÑĤÑĥ": 7749,
      "ĠÑģÐ¿Ð¾ÑĢÑĤÐ·Ð°Ð»": 7750,
      "Ð¿ÐµÑĢÑĤ": 7751,
      "ĠÐ´ÑĢÑĥÐ·ÑĸÐ²": 7752,
      "ĠPartnerschaft": 7753,
      "ĠÐ·Ð°Ð¿ÑĢÐ¾ÑĪ": 7754,
      "Ġherr": 7755,
      "Ġheraus": 7756,
      "ĠÐ³Ð¾ÑĢÐ´Ð¸ÑĤÐ¸ÑģÑı": 7757,
      "ĠÐ±ÐµÐ·Ð¿ÐµÐºÐ°": 7758,
      "Ã¶ffnen": 7759,
      "ÐµÑĢÑĤÐ²": 7760,
      "ĠVerwand": 7761,
      "ĠÐ»ÐµÐºÑģÐ¸ÑĩÐ½Ð¸Ð¹": 7762,
      "ĠÐ»Ð¾ÑĤÐµÑĢÐµÑĹ": 7763,
      "ĠÑħÐ²Ð¾ÑĢÐ¸Ð¹": 7764,
      "ĠÑħÐ²Ð¾ÑĢÐ¾Ð±Ð¸": 7765,
      "ĠÐ´ÑĥÐ¼Ð°ÑİÑĤÑĮ": 7766,
      "ĠÐµÐºÑģÐ¿ÐµÑĢÑĤ": 7767,
      "ĠÐµÐºÐ¾Ð½Ð¾Ð¼ÑĸÐºÐ°": 7768,
      "ĠÐºÐ¾Ð»ÐµÐ³Ð¸": 7769,
      "Ġbestimmt": 7770,
      "Ġbestimmten": 7771,
      "ĠĠĠĠĠĠĠĠĠĠĠĠĠĠĠĠĠĠĠĠĠĠĠĠĠĠĠĠĠĠĠĠ": 7772,
      "ĠÑģÐ»ÑĥÐ¶Ð±": 7773,
      "Deutschland": 7774,
      "MenÃ¼": 7775,
      "ahara": 7776,
      "lÃ¶sen": 7777,
      "lÃ¶tzlich": 7778,
      "pass": 7779,
      "passieren": 7780,
      "qualitÃ¤t": 7781,
      "sucht": 7782,
      "vereinbaren": 7783,
      "wÃ¤hlen": 7784,
      "weglassen": 7785,
      "Ð¢Ð¾Ð±Ñĸ": 7786,
      "Ð¢Ð°Ð±Ð»Ð¸": 7787,
      "Ð£ÐĶÐļ": 7788,
      "ÐłÐķ": 7789,
      "Ġeigenen": 7790,
      "Ġeigenes": 7791,
      "ĠÐłÐµÐºÐ¾Ð¼": 7792,
      "ĠÐ¿ÐµÑĢÐµÐ½Ð¾ÑģÐ¸ÑĤÐ¸": 7793,
      "ĠÐ¿Ð¾Ð»ÑĸÑĤÐ¸Ðº": 7794,
      "ĠInsekten": 7795,
      "ĠÐ´Ð²ÑĸÑĩÑĸ": 7796,
      "ĠÐ´Ð¾ÐºÑĥÐ¼ÐµÐ½ÑĤ": 7797,
      "aschengeld": 7798,
      "ĠÐ¼Ð¾ÑĹÐ¹": 7799,
      "ĠÐ¼ÑĥÑģÐ¸ÑĪ": 7800,
      "ĠÐ·Ð¼ÑĸÑı": 7801,
      "ĠÐ·Ð¼ÐµÐ½ÑĪ": 7802,
      "ĠÐ·Ð½Ð¸Ð¶ÐºÐ¸": 7803,
      "ĠÐ·ÑĥÑģÑĤÑĢÑĸÑĩÑĸ": 7804,
      "ĠÐ·ÑĥÑģÑĤÑĢÑĸÑĩÐ°ÑĶÐ¼Ð¾": 7805,
      "ĠÐ²Ð¼ÑĸÑİ": 7806,
      "ĠÐ²Ð°ÑĢÑĤÐ¾": 7807,
      "ĠÐ²Ð°ÑĢÑĤÑĸÑģÑĤÑĮ": 7808,
      "ĠDemo": 7809,
      "ĠÐ½ÐµÐ¿Ð¾ÑĢÑĥÑĪ": 7810,
      "ĠÐ½ÐµÐ·Ð²Ð°Ð¶Ð°ÑİÑĩÐ¸": 7811,
      "Ð¼ÐµÑĢÐ·Ð°ÑĤÐ¸": 7812,
      "Ġbadet": 7813,
      "Ġbackt": 7814,
      "ĠSonne": 7815,
      "ĠÑĥÑģÐ¿ÑĸÑĪ": 7816,
      "ĠÑĥÑģÐ¿ÑĸÑħ": 7817,
      "ĠÐ¿ÑĢÐ¸Ð½Ð¾ÑģÐ¸ÑĤÐ¸": 7818,
      "ĠÐ¿ÑĢÐ¾ÑĤÐµ": 7819,
      "ĠÑĩÐ¸ÑĤÐ°ÑĤÐ¸": 7820,
      "ĠÑĩÐ¸ÑģÑĤÐ¸ÑĤÐ¸": 7821,
      "ĠÑĩÐ¸ÑģÑĤÐ¸Ð¹": 7822,
      "ĠKranken": 7823,
      "ĠKrankheit": 7824,
      "ĠKopfhÃ¶rer": 7825,
      "ĠFormen": 7826,
      "ĠÐºÑĢÐ°ÑīÐµ": 7827,
      "ĠÐºÑĢÐ°Ð´ÑĸÐ¶": 7828,
      "ĠGastfreund": 7829,
      "ĠTraum": 7830,
      "ĠTraumpartner": 7831,
      "ĠTouristen": 7832,
      "Ġteilnehmen": 7833,
      "ĠerhÃ¶ht": 7834,
      "ĠÐ¼ÑĸÑģÑĤÐ¸ÑĤÐ¸ÑģÑı": 7835,
      "itteln": 7836,
      "Ġausgegeben": 7837,
      "ĠausgedrÃ¼ckt": 7838,
      "ĠVollzeit": 7839,
      "ĠVollverb": 7840,
      "ĠRespekt": 7841,
      "ĠResultat": 7842,
      "ĠElbe": 7843,
      "ĠEntfÃ¼hrung": 7844,
      "raktik": 7845,
      "ĠÑĢÐ¸Ð½ÐºÑĥ": 7846,
      "ĠÐ°Ð²ÑĤÐ¾Ð±ÑĥÑģ": 7847,
      "ĠÐ¿ÐµÑĢÐµÐ¼Ð¾Ð¶": 7848,
      "ĠÐ¿ÐµÑĢÐµÐ²ÑĸÑĢÑıÑĤÐ¸": 7849,
      "ĠÐ¿ÐµÑĢÐµÐ²ÑĸÑĢÐ¸Ð»Ð¸": 7850,
      "hinterlassen": 7851,
      "Ġstudieren": 7852,
      "Ġstudiert": 7853,
      "ĠÐ²ÐµÐ»Ð¸ÐºÐ¸Ð¹": 7854,
      "ĠÐºÐ¾Ð¼Ð°ÑħÐ¸": 7855,
      "Ġpassende": 7856,
      "ĠÑģÐ²Ð¾ÑĹÐ¼Ð¸": 7857,
      "freundlich": 7858,
      "ĠUnterrichtsst": 7859,
      "ĠÐŀÐ±Ð³Ð¾Ð²Ð¾ÑĢÐµÐ½Ð½Ñı": 7860,
      "ĠÑģÐµÑĢÐ²ÑĸÑģ": 7861,
      "ĠÐ¿ÑĢÐ¾Ð´ÑĥÐºÑĤ": 7862,
      "ĠÐ¿ÑĢÐ¾Ð´ÑĥÐºÑĤÐ¸": 7863,
      "ĠÐ¿ÑĢÐµÐ´ÑģÑĤÐ°Ð²Ð»ÑıÑĤÐ¸": 7864,
      "ĠÐ»ÑİÐ´ÐµÐ¹": 7865,
      "ÑĢÐ¾Ð±ÑĸÑĤÐ½Ð¸ÐºÐ¸": 7866,
      "ĠÐ´ÐµÑĤÐµÐºÑĤÐ¸Ð²": 7867,
      "ĠÐ´Ð¸ÑĢÐ¸Ð³ÑĥÐ²Ð°ÑĤÐ¸": 7868,
      "aktfreudig": 7869,
      "fuer": 7870,
      "fuhr": 7871,
      "fernsehen": 7872,
      "gruppe": 7873,
      "kÃ¤mpfen": 7874,
      "mÃ¶bel": 7875,
      "mÃ¶chten": 7876,
      "putt": 7877,
      "prÃ¼fen": 7878,
      "plant": 7879,
      "sslich": 7880,
      "wissenschaft": 7881,
      "ÐŀÐĴÐĲ": 7882,
      "Ġ...:": 7883,
      "ÑıÐ½ÑģÑĮÐºÐ¸Ð¹": 7884,
      "regierung": 7885,
      "rechner": 7886,
      "ĠÐ¿Ð¾Ð¶ÐµÑĢÑĤÐ²": 7887,
      "ĠÐ¿ÐµÑĢÑĪÐ¾Ð¼Ñĥ": 7888,
      "ĠÐ¿ÐµÑĢÑĪÐ¸Ð¹": 7889,
      "ĠÐ´Ð¾Ð²Ð³": 7890,
      "ĠÐ·ÐµÐ¼Ð»Ðµ": 7891,
      "gestaltung": 7892,
      "ĠÐ½Ð°Ð³ÑĢÑĸÐ²": 7893,
      "ĠÐ½Ð°Ð·Ð²Ð°": 7894,
      "ĠÐ½Ð°Ð·Ð°Ð´": 7895,
      "ĠÑģÐ¾Ð½ÑĨÐµ": 7896,
      "ĠÐ²Ð¸ÑģÑĤÐ°Ð²ÐºÐ¸": 7897,
      "ĠÐ²ÑĸÑĤÐ°ÑĤÐ¸": 7898,
      "ĠÐ²ÑĸÑĤÐ°Ð¼ÑĸÐ½": 7899,
      "ĠÐ²Ð²Ð°Ð¶Ð°ÑĤÐ¸ÑģÑı": 7900,
      "ĠÐ²Ð²Ð°Ð¶Ð°ÑİÑĤÑĮÑģÑı": 7901,
      "ĠÐ½ÐµÐ´Ð¾Ð»ÑĸÐº": 7902,
      "Ġmelden": 7903,
      "Ġmeldet": 7904,
      "Ð¼ÐµÑĤÐ¾Ð´Ð¸ÑĩÐ½Ð¸Ñħ": 7905,
      "ĠStimmung": 7906,
      "ĠBrutto": 7907,
      "ĠBrille": 7908,
      "ĠÑģÑĤÐ¾Ð»Ð¾Ð²Ð°": 7909,
      "ĠÑĥÑģÑĸÑħ": 7910,
      "ĠÑĥÐ²Ð°Ð³Ñĥ": 7911,
      "scheinlich": 7912,
      "Ã¤cheln": 7913,
      "ĠÑĩÐ°Ð¹Ð½Ð¸Ðº": 7914,
      "ĠÑĤÐ°Ð½ÑĨ": 7915,
      "ĠÑĤÐ²Ð°ÑĢÐ¸Ð½Ð¸": 7916,
      "ĠÑĤÐ²Ð°ÑĢÐ¸Ð½Ð°": 7917,
      "Ġeinmaligen": 7918,
      "ĠHexen": 7919,
      "ĠÐºÐ¾Ð¼ÑĥÐ½ÑĸÐº": 7920,
      "ĠÐºÐ»Ð°ÑģÑĤÐ¸": 7921,
      "ĠÐºÐ°Ð¿ÑĥÑģÑĤÐ°": 7922,
      "ĠÐºÑĢÐ°ÑĹÐ½Ð¸": 7923,
      "ĠÐºÐ²Ð°ÑĢÑĤÐ¸ÑĢÐ°": 7924,
      "ĠÐºÐ½Ð¸Ð¶ÐºÐ¾Ð²Ð¸Ð¹": 7925,
      "Ġleicht": 7926,
      "ĠÐ·Ð°Ð´Ð¾Ð²Ð¾Ð»": 7927,
      "ĠMinuten": 7928,
      "ĠÐ¿Ð¾ÑĪÑĥÐº": 7929,
      "ĠÐ·Ð°ÐºÐ¾ÑħÐ°ÑĤÐ¸ÑģÑı": 7930,
      "ĠÐ·Ð°ÐºÐ¾ÑħÐ°Ð²ÑģÑı": 7931,
      "ĠZusammenleben": 7932,
      "ĠZusammenhang": 7933,
      "Ð³ÑĢÐ°Ð¼Ð°ÑĤÐ¸": 7934,
      "ĠÐ±Ð¾Ð»Ñı": 7935,
      "ĠÐ±ÐµÑĢÑĥÑĤÑĮ": 7936,
      "bedingt": 7937,
      "bewusstsein": 7938,
      "Ð·Ð°Ð±Ð¾ÑĢÐ¾Ð½": 7939,
      "ĠfrÃ¼h": 7940,
      "ĠfrÃ¼her": 7941,
      "ÑħÐ°ÑĥÑģ": 7942,
      "ĠÑĸÐ½ÑģÑĤÑĢÑĥÐºÑĨÑĸÑı": 7943,
      "ĠÑĸÐ½ÑģÑĤÑĢÑĥÐ¼ÐµÐ½ÑĤ": 7944,
      "rÃ¤uber": 7945,
      "ĠWissenschaft": 7946,
      "ĠÐ²ÑĸÐ´ÐºÑĢÐ¸ÑĤÐ¸": 7947,
      "Ġzusammengearbeit": 7948,
      "ĠLiteratur": 7949,
      "ĠStaub": 7950,
      "ĠSchlaf": 7951,
      "ĠSchlafstÃ¶r": 7952,
      "ĠÐ»ÐµÐ³ÐºÐ¾": 7953,
      "ĠÑīÐ°ÑģÐ»Ð¸Ð²": 7954,
      "ĠÑīÐ°ÑģÑĤÑı": 7955,
      "Ġverschiedene": 7956,
      "ĠÐ²Ð¸ÑĢÑĸÑĪÑĥÐ²Ð°ÑĤÐ¸": 7957,
      "otterie": 7958,
      "Ð°Ð¹ÐºÑĢÐ°Ñī": 7959,
      "ĠÑĪÑĥÐºÐ°ÑĤÐ¸": 7960,
      "ĠÐ¿ÐµÑĢÐµÐºÐ»Ð°Ð´Ñĥ": 7961,
      "ĠBezugswort": 7962,
      "ĠÐ¿ÑĢÐ¸Ð±ÑĥÐ´Ðµ": 7963,
      "ĠÐ¿ÑĢÐ¸Ð±ÑĥÐ´ÑĥÑĤÑĮ": 7964,
      "ĠÑĨÑĸÐ½Ð°": 7965,
      "ĠÐ¡ÐºÐ°Ð¶": 7966,
      "ĠÐ¡ÐºÑĸÐ»ÑĮÐºÐ¸": 7967,
      "ĠÐ¿ÑĢÐ°ÑĨÐµÐ²Ð»Ð°ÑĪÑĤÑĥÐ²Ð°Ð½Ð½Ñı": 7968,
      "unterstreichen": 7969,
      "ĠÐ²ÑĸÐ´Ð¿Ð¾ÑĩÐ¸Ð²Ð°ÑĶ": 7970,
      "Ġreparieren": 7971,
      "ĠÑĤÑĢÐ°Ð¿Ð¸Ð»": 7972,
      "ĠÑĤÑĢÐ°Ð¿Ð»ÑıÑĤÐ¸ÑģÑı": 7973,
      "ĠÑĤÑĢÐ°Ð½ÑģÐ¿Ð¾ÑĢÑĤÐ½Ð¸Ð¹": 7974,
      "Ã¼bernehmen": 7975,
      "ĠEuropÃ¤ischen": 7976,
      "ĠÐ²Ð¸Ð³Ð»ÑıÐ´Ð°ÑĶ": 7977,
      "Unterricht": 7978,
      "ĠÐ·Ð½Ð°Ð¹Ð¾Ð¼Ð¸Ð¹": 7979,
      "Umweltschutz": 7980,
      "ĠÐ¾ÑĩÑĸÐºÑĥÑĶÐ¼Ð¾": 7981,
      "ĠÐ¾Ð¿Ð¸ÑĤÑĥÐ²Ð°Ð½Ð½Ñı": 7982,
      "ĠÐ¾Ð¿Ð¸ÑĤÑĥÐ²Ð°Ð½": 7983,
      "ĠÐ´Ð¾Ð¼Ð¾Ð²Ð»ÑıÑĤÐ¸ÑģÑı": 7984,
      "ĠKreuzung": 7985,
      "ĠnÃ¤chsten": 7986,
      "ĠÐ¿ÑĢÐ¾ÑĦÐµÑģÑĸÐ¹Ð½Ð°": 7987,
      "ĠÐ¿Ð¸ÑģÑĮÐ¼Ð¾Ð²Ð¸Ð¹": 7988,
      "ĠÑĤÑĥÑĢÐ¸ÑģÑĤÐ¸ÑĩÐ½Ð°": 7989,
      "ĠÑĤÑĥÑĢÐ¸ÑģÑĤÐ¸ÑĩÐ½Ðµ": 7990,
      "ĠÐºÐ¾Ð»ÑĮÐ¾ÑĢÐ¾Ð²Ð¸Ð¹": 7991,
      "ĠÐºÐ¾Ð½ÑĤÐ°ÐºÑĤÐ½Ð¸Ð¹": 7992,
      "ĠÑģÑĤÐ¾Ð¼Ð°ÑĤÐ¾Ð»Ð¾Ð³Ð°": 7993,
      "Antarktis": 7994,
      "BÃ¼ro": 7995,
      "Flughafen": 7996,
      "Hauptsatz": 7997,
      "Karpaten": 7998,
      "Physi": 7999
    },
    "merges": [
      [
        "Ġ",
        "Ð"
      ],
      [
        "Ð",
        "½"
      ],
      [
        "Ð",
        "¾"
      ],
      [
        "Ð",
        "µ"
      ],
      [
        "Ñ",
        "ı"
      ],
      [
        "Ñ",
        "ĸ"
      ],
      [
        "Ñ",
        "ģ"
      ],
      [
        "r",
        "e"
      ],
      [
        "Ð¾",
        "Ð"
      ],
      [
        "Ð",
        "°"
      ],
      [
        "o",
        "r"
      ],
      [
        "re",
        "c"
      ],
      [
        "or",
        "rec"
      ],
      [
        "orrec",
        "t"
      ],
      [
        "Ð",
        "¸"
      ],
      [
        "c",
        "h"
      ],
      [
        "e",
        "n"
      ],
      [
        "Ġ",
        "'"
      ],
      [
        "Ñ",
        "Ĥ"
      ],
      [
        "Ñ",
        "Ģ"
      ],
      [
        "Ðµ",
        "Ð½"
      ],
      [
        "Ð",
        "»"
      ],
      [
        "Ġ",
        "C"
      ],
      [
        "Ñ",
        "ĥ"
      ],
      [
        "â",
        "ľ"
      ],
      [
        "ĠC",
        "orrect"
      ],
      [
        "âľ",
        "ħ"
      ],
      [
        "ÐµÐ½",
        "Ð½"
      ],
      [
        "Ñ",
        "Ķ"
      ],
      [
        "e",
        "r"
      ],
      [
        "Ð",
        "¼"
      ],
      [
        "i",
        "n"
      ],
      [
        "ÐµÐ½Ð½",
        "Ñı"
      ],
      [
        "s",
        "t"
      ],
      [
        "Ġ",
        "I"
      ],
      [
        "Ð",
        "º"
      ],
      [
        "Ð¾",
        "Ñı"
      ],
      [
        "i",
        "e"
      ],
      [
        "Ġ",
        "d"
      ],
      [
        "Ñ",
        "ĩ"
      ],
      [
        "ĠÐ",
        "Ł"
      ],
      [
        "Ð¾Ð",
        "²"
      ],
      [
        "Ñģ",
        "Ð½"
      ],
      [
        "ĠÐ",
        "¿"
      ],
      [
        "Ð¾Ð",
        "¼"
      ],
      [
        "ĠI",
        "n"
      ],
      [
        "Ð¾Ñı",
        "ÑģÐ½"
      ],
      [
        "Ð¾ÑıÑģÐ½",
        "ÐµÐ½Ð½Ñı"
      ],
      [
        "c",
        "orrect"
      ],
      [
        "â",
        "Ŀ"
      ],
      [
        "ð",
        "Ł"
      ],
      [
        "ĵ",
        "Ŀ"
      ],
      [
        "ĠÐŁ",
        "Ð¾ÑıÑģÐ½ÐµÐ½Ð½Ñı"
      ],
      [
        "ĠIn",
        "correct"
      ],
      [
        "âĿ",
        "Į"
      ],
      [
        "ðŁ",
        "ĵĿ"
      ],
      [
        "ĠÐ",
        "´"
      ],
      [
        "Ð¸",
        "Ðº"
      ],
      [
        "a",
        "s"
      ],
      [
        "Ð",
        "´"
      ],
      [
        "a",
        "u"
      ],
      [
        "h",
        "a"
      ],
      [
        "Ñģ",
        "Ð»"
      ],
      [
        "ĠÐ",
        "¼"
      ],
      [
        "Ñ",
        "Į"
      ],
      [
        "Ð°",
        "ÑĶ"
      ],
      [
        "ĠÐ",
        "°"
      ],
      [
        "ĠÐ",
        "·"
      ],
      [
        "Ġ",
        "i"
      ],
      [
        "g",
        "e"
      ],
      [
        "Ð°",
        "Ð"
      ],
      [
        "ÑģÐ»",
        "Ð¾Ð²"
      ],
      [
        "ĠÐ",
        "½"
      ],
      [
        "'",
        "."
      ],
      [
        "Ġ",
        "Ñģ"
      ],
      [
        "Ñĸ",
        "ÑĶ"
      ],
      [
        "ÑĸÑĶ",
        "ÑģÐ»Ð¾Ð²"
      ],
      [
        "Ð¾Ð¼",
        "Ñĥ"
      ],
      [
        "ĠÐ",
        "²"
      ],
      [
        "ÑĸÑĶÑģÐ»Ð¾Ð²",
        "Ð¾"
      ],
      [
        "Ñĸ",
        "Ð½"
      ],
      [
        "e",
        "in"
      ],
      [
        "Ð»",
        "Ñı"
      ],
      [
        "ÑĢ",
        "Ðµ"
      ],
      [
        "Ġ",
        "ha"
      ],
      [
        "Ġ",
        "D"
      ],
      [
        "a",
        "n"
      ],
      [
        "Ġ",
        "w"
      ],
      [
        "e",
        "i"
      ],
      [
        "Ġ",
        "("
      ],
      [
        "Ġ",
        "s"
      ],
      [
        "S",
        "ie"
      ],
      [
        "ÑĤ",
        "Ð¸"
      ],
      [
        "Ġ",
        "k"
      ],
      [
        "Ġ",
        "ge"
      ],
      [
        "I",
        "ch"
      ],
      [
        "ĠÐ½",
        "Ðµ"
      ],
      [
        "h",
        "r"
      ],
      [
        "Ġi",
        "st"
      ],
      [
        "t",
        "i"
      ],
      [
        "ĠÐ¼",
        "Ð°ÑĶ"
      ],
      [
        "u",
        "t"
      ],
      [
        "'",
        ","
      ],
      [
        "ĠÐ",
        "£"
      ],
      [
        "Ġ",
        "m"
      ],
      [
        "au",
        "f"
      ],
      [
        "Ñĸ",
        "Ð´"
      ],
      [
        "Ð",
        "²"
      ],
      [
        "Ġ",
        "A"
      ],
      [
        "ĠÐ",
        "Ķ"
      ],
      [
        "ti",
        "v"
      ],
      [
        "Ð¾",
        "ÑĢ"
      ],
      [
        "Ñĩ",
        "ÐµÐ½Ð½Ñı"
      ],
      [
        "Ð¾Ð",
        "³"
      ],
      [
        "Ð¾Ð³",
        "Ð¾"
      ],
      [
        "Ð¼",
        "Ðµ"
      ],
      [
        "Ð»",
        "ÑĮ"
      ],
      [
        "Ñ",
        "Ĩ"
      ],
      [
        "ĠÐ´",
        "ÑĸÑĶÑģÐ»Ð¾Ð²Ð¾"
      ],
      [
        "Ġ",
        "b"
      ],
      [
        "Ã",
        "¼"
      ],
      [
        "a",
        "tiv"
      ],
      [
        "Ð¼Ðµ",
        "ÑĤ"
      ],
      [
        "i",
        "r"
      ],
      [
        "Ġha",
        "b"
      ],
      [
        "ĠÐ´",
        "Ð»Ñı"
      ],
      [
        "ĠÐ¿",
        "ÑĸÐ´"
      ],
      [
        "Ð",
        "¹"
      ],
      [
        "Ġ",
        "S"
      ],
      [
        "Ð¸",
        "Ð¼"
      ],
      [
        "ÐµÐ½Ð½",
        "Ð¸Ðº"
      ],
      [
        "Ð¼",
        "ÐµÐ½Ð½Ð¸Ðº"
      ],
      [
        "Ġ",
        "B"
      ],
      [
        "Ñ",
        "Ħ"
      ],
      [
        "Ð",
        "¿"
      ],
      [
        "e",
        "s"
      ],
      [
        "i",
        "ch"
      ],
      [
        "â",
        "Ģ"
      ],
      [
        "Ð¾Ð",
        "´"
      ],
      [
        "Ġ",
        "ÑĢÐµ"
      ],
      [
        "o",
        "m"
      ],
      [
        "ĠÑģ",
        "ÑĤ"
      ],
      [
        "a",
        "ch"
      ],
      [
        "Ġ",
        "n"
      ],
      [
        "E",
        "r"
      ],
      [
        "Ġ",
        "âĢ"
      ],
      [
        "ei",
        "t"
      ],
      [
        "h",
        "en"
      ],
      [
        "Ġ",
        "Ñĥ"
      ],
      [
        "ÑĤ",
        "Ð¸Ðº"
      ],
      [
        "ĠI",
        "ch"
      ],
      [
        "D",
        "as"
      ],
      [
        "s",
        "ch"
      ],
      [
        "ĠÐ°",
        "ÑĢ"
      ],
      [
        "ĠÐ°ÑĢ",
        "ÑĤÐ¸Ðº"
      ],
      [
        "ĠÐ¿ÑĸÐ´",
        "Ð¼ÐµÑĤ"
      ],
      [
        "ĠÐĶ",
        "ÑĸÑĶÑģÐ»Ð¾Ð²Ð¾"
      ],
      [
        "d",
        "e"
      ],
      [
        "ÑĨ",
        "Ñĸ"
      ],
      [
        "Ã",
        "¤"
      ],
      [
        "ĠÐ¿",
        "ÑĢ"
      ],
      [
        "ĠÐ·",
        "Ð°Ð"
      ],
      [
        "h",
        "e"
      ],
      [
        "Ð¾Ñı",
        "ÑĤÐ¸"
      ],
      [
        "ĠÑģÑĤ",
        "Ð¾ÑıÑĤÐ¸"
      ],
      [
        "er",
        "n"
      ],
      [
        "Ġ",
        "Ñĩ"
      ],
      [
        "a",
        "r"
      ],
      [
        "Ġ",
        "ÑĤ"
      ],
      [
        "Ġ",
        "ein"
      ],
      [
        "W",
        "ir"
      ],
      [
        "u",
        "n"
      ],
      [
        "Ġb",
        "in"
      ],
      [
        "ĠÑĢÐµ",
        "ÑĩÐµÐ½Ð½Ñı"
      ],
      [
        "Ġ",
        "H"
      ],
      [
        "s",
        "e"
      ],
      [
        "Ġ",
        "K"
      ],
      [
        "ÑĢ",
        "Ð¾Ð´"
      ],
      [
        "Ġ",
        "F"
      ],
      [
        "ÑĢÐ¾Ð´",
        "Ñĥ"
      ],
      [
        "ĠÐ",
        "º"
      ],
      [
        "Ñģ",
        "Ñĸ"
      ],
      [
        "g",
        "en"
      ],
      [
        "Ġ",
        "l"
      ],
      [
        "Ñ",
        "İ"
      ],
      [
        "ĠÐ",
        "¾"
      ],
      [
        "Ð°Ð",
        "³"
      ],
      [
        "Ð¸",
        "Ð½"
      ],
      [
        "'",
        ")"
      ],
      [
        "l",
        "l"
      ],
      [
        "ĠÐ²",
        "Ð¸Ð¼"
      ],
      [
        "Ð°Ð³",
        "Ð°ÑĶ"
      ],
      [
        "ĠÐ²Ð¸Ð¼",
        "Ð°Ð³Ð°ÑĶ"
      ],
      [
        "ĠÐ·",
        "Ð°"
      ],
      [
        "Ð¾Ð",
        "»"
      ],
      [
        "Ġd",
        "as"
      ],
      [
        "b",
        "en"
      ],
      [
        "Ġm",
        "Ã¼"
      ],
      [
        "Ġd",
        "er"
      ],
      [
        "ĠÐ°ÑĢÑĤÐ¸Ðº",
        "Ð»ÑĮ"
      ],
      [
        "Ġd",
        "en"
      ],
      [
        "f",
        "e"
      ],
      [
        "Ġ(",
        "'"
      ],
      [
        "r",
        "u"
      ],
      [
        "Ð¸",
        "Ð¹"
      ],
      [
        "Ñģ",
        "Ñı"
      ],
      [
        "Ġd",
        "ie"
      ],
      [
        "Ġ",
        "ÑĦ"
      ],
      [
        "Ð»ÑĮ",
        "Ð½"
      ],
      [
        "D",
        "u"
      ],
      [
        "ĠÑĩ",
        "Ð°"
      ],
      [
        "s",
        "en"
      ],
      [
        "Ðµ",
        "ÑĢÐµ"
      ],
      [
        "I",
        "hr"
      ],
      [
        "ĠÑĩÐ°",
        "ÑģÑĸ"
      ],
      [
        "Ð¾ÑĢ",
        "Ð¼"
      ],
      [
        "e",
        "m"
      ],
      [
        "ĠÑĦ",
        "Ð¾ÑĢÐ¼"
      ],
      [
        "om",
        "m"
      ],
      [
        "Ġ",
        "Sie"
      ],
      [
        "e",
        "ut"
      ],
      [
        "ĠmÃ¼",
        "de"
      ],
      [
        "Ġ",
        "M"
      ],
      [
        "Ð¸",
        "Ñģ"
      ],
      [
        "u",
        "s"
      ],
      [
        "Ġ",
        "G"
      ],
      [
        "ĠÐ¿",
        "Ð¾"
      ],
      [
        "in",
        "d"
      ],
      [
        "Ð",
        "±"
      ],
      [
        "Ġ",
        "g"
      ],
      [
        "ÑĤ",
        "ÑĮ"
      ],
      [
        "Ġ",
        "ÑĢÐ¾Ð´Ñĥ"
      ],
      [
        "ĠÐĶ",
        "Ð»Ñı"
      ],
      [
        "Ð°Ð",
        "²"
      ],
      [
        "Ġn",
        "ach"
      ],
      [
        "Ġ",
        "T"
      ],
      [
        "r",
        "o"
      ],
      [
        "t",
        "er"
      ],
      [
        "ÑĤÑĮ",
        "ÑģÑı"
      ],
      [
        "Ñĥ",
        "ÑĶ"
      ],
      [
        "eut",
        "sch"
      ],
      [
        "ĠD",
        "eutsch"
      ],
      [
        "ĠÐ¿ÑĸÐ´Ð¼ÐµÑĤ",
        "Ð°"
      ],
      [
        "ĠÐ·Ð°",
        "Ðº"
      ],
      [
        "Ð°",
        "Ð¼"
      ],
      [
        "ĠÐ·Ð°Ðº",
        "ÑĸÐ½"
      ],
      [
        "ĠÐ·Ð°ÐºÑĸÐ½",
        "ÑĩÐµÐ½Ð½Ñı"
      ],
      [
        "Ġ'",
        "-"
      ],
      [
        "ĠÐº",
        "ÑĸÐ½"
      ],
      [
        "Ð½",
        "ÑĮ"
      ],
      [
        "ĠÐºÑĸÐ½",
        "ÑĨÑĸ"
      ],
      [
        "ĠS",
        "u"
      ],
      [
        "an",
        "n"
      ],
      [
        "Ġha",
        "t"
      ],
      [
        "ĠâĢ",
        "Ķ"
      ],
      [
        "ĠSu",
        "p"
      ],
      [
        "Ġhab",
        "e"
      ],
      [
        "b",
        "eit"
      ],
      [
        "Ġ",
        "auf"
      ],
      [
        "ch",
        "en"
      ],
      [
        "ÑĢ",
        "Ñĸ"
      ],
      [
        "ĠÑģ",
        "Ð°Ð¼"
      ],
      [
        "ĠÑģÐ°Ð¼",
        "Ð¾Ð¼Ñĥ"
      ],
      [
        "k",
        "t"
      ],
      [
        "ei",
        "l"
      ],
      [
        "ĠA",
        "r"
      ],
      [
        "Ġl",
        "ern"
      ],
      [
        "ĠÐ½",
        "Ð°"
      ],
      [
        "d",
        "er"
      ],
      [
        "ÐµÑĢÐµ",
        "Ð´"
      ],
      [
        "Ð",
        "¶"
      ],
      [
        "Ġ",
        "Z"
      ],
      [
        "Ġ",
        "P"
      ],
      [
        "Ġd",
        "em"
      ],
      [
        "Ð¸Ñģ",
        "ÑĤ"
      ],
      [
        "ich",
        "t"
      ],
      [
        "ĠD",
        "as"
      ],
      [
        "ie",
        "l"
      ],
      [
        "Ð²",
        "Ñĸ"
      ],
      [
        "an",
        "k"
      ],
      [
        "k",
        "auf"
      ],
      [
        "ĠAr",
        "beit"
      ],
      [
        "Ð",
        "³"
      ],
      [
        "ÑĢ",
        "Ñĥ"
      ],
      [
        "Ð½",
        "Ð¸Ðº"
      ],
      [
        "Ð½",
        "Ð°"
      ],
      [
        "Ġhab",
        "en"
      ],
      [
        "Ġk",
        "auf"
      ],
      [
        "ĠZ",
        "eit"
      ],
      [
        "Ð½",
        "Ñı"
      ],
      [
        "t",
        "z"
      ],
      [
        "ĠÐ",
        "±"
      ],
      [
        "p",
        "e"
      ],
      [
        "Ġ",
        "in"
      ],
      [
        "Ñ",
        "Ī"
      ],
      [
        "Ġge",
        "he"
      ],
      [
        "u",
        "m"
      ],
      [
        "re",
        "n"
      ],
      [
        "Ñĩ",
        "Ð¾Ð³Ð¾"
      ],
      [
        "Ġ",
        "t"
      ],
      [
        "r",
        "au"
      ],
      [
        "k",
        "k"
      ],
      [
        "ĠA",
        "kk"
      ],
      [
        "e",
        "st"
      ],
      [
        "ĠâĢ",
        "ĵ"
      ],
      [
        "Ð¾Ð²",
        "Ñĸ"
      ],
      [
        "e",
        "u"
      ],
      [
        "ĠD",
        "u"
      ],
      [
        "b",
        "e"
      ],
      [
        "Ġ",
        "er"
      ],
      [
        "Ð",
        "·"
      ],
      [
        "us",
        "ativ"
      ],
      [
        "ĠH",
        "au"
      ],
      [
        "ĠAkk",
        "usativ"
      ],
      [
        "ein",
        "e"
      ],
      [
        "Ð°",
        "Ð½"
      ],
      [
        "Ġ",
        "f"
      ],
      [
        "Ġd",
        "u"
      ],
      [
        "ĠÑģ",
        "Ð¿"
      ],
      [
        "Ñ",
        "ħ"
      ],
      [
        "Ġw",
        "eil"
      ],
      [
        "ĠÐ·Ð°Ð",
        "¹"
      ],
      [
        "Ð¸Ð¹",
        "Ð¼ÐµÐ½Ð½Ð¸Ðº"
      ],
      [
        "ĠÐ·Ð°Ð¹",
        "Ð¼ÐµÐ½Ð½Ð¸Ðº"
      ],
      [
        "Ð½Ð°",
        "Ñĩ"
      ],
      [
        "ÐµÐ½Ð½",
        "Ñĸ"
      ],
      [
        "ĠD",
        "ativ"
[...]
