{
  "version": "1.0",
  "truncation": null,
  "padding": null,
  "added_tokens": [
    {
      "id": 0,
      "content": "<PAD>",
      "single_word": false,
      "lstrip": false,
      "rstrip": false,
      "normalized": false,
      "special": true
    },
    {
      "id": 1,
      "content": "<BOS>",
      "single_word": false,
      "lstrip": false,
      "rstrip": false,
      "normalized": false,
      "special": true
    },
    {
      "id": 2,
      "content": "<EOS>",
      "single_word": false,
      "lstrip": false,
      "rstrip": false,
      "normalized": false,
      "special": true
    },
    {
      "id": 3,
      "content": "<UNK>",
      "single_word": false,
      "lstrip": false,
      "rstrip": false,
      "normalized": false,
      "special": true
    },
    {
      "id": 8000,
      "content": "</s>",
      "single_word": false,
      "lstrip": false,
      "rstrip": false,
      "normalized": false,
      "special": true
    },
    {
      "id": 8001,
      "content": "<s>",
      "single_word": false,
      "lstrip": false,
      "rstrip": false,
      "normalized": false,
      "special": true
    },
    {
      "id": 8002,
      "content": "<mask>",
      "single_word": false,
      "lstrip": false,
      "rstrip": false,
      "normalized": false,
      "special": true
    }
  ],
  "normalizer": null,
  "pre_tokenizer": {
    "type": "ByteLevel",
    "add_prefix_space": false,
    "trim_offsets": true,
    "use_regex": true
  },
  "post_processor": {
    "type": "RobertaProcessing",
    "sep": [
      "</s>",
      8000
    ],
    "cls": [
      "<s>",
      8001
    ],
    "trim_offsets": true,
    "add_prefix_space": false
  },
  "decoder": {
    "type": "ByteLevel",
    "add_prefix_space": true,
    "trim_offsets": true,
    "use_regex": true
  },
  "model": {
    "type": "BPE",
    "dropout": null,
    "unk_token": "<UNK>",
    "continuing_subword_prefix": null,
    "end_of_word_suffix": null,
    "fuse_unk": false,
    "byte_fallback": false,
    "ignore_merges": false,
    "vocab": {
      "<PAD>": 0,
      "<BOS>": 1,
      "<EOS>": 2,
      "<UNK>": 3,
      "!": 4,
      "%": 5,
      "'": 6,
      "(": 7,
      ")": 8,
      "*": 9,
      "+": 10,
      ",": 11,
      "-": 12,
      ".": 13,
      "/": 14,
      "0": 15,
      "1": 16,
      "2": 17,
      "3": 18,
      "4": 19,
      "5": 20,
      "6": 21,
      "7": 22,
      "8": 23,
      "9": 24,
      ":": 25,
      ";": 26,
      "=": 27,
      ">": 28,
      "?": 29,
      "A": 30,
      "B": 31,
      "C": 32,
      "D": 33,
      "E": 34,
      "F": 35,
      "G": 36,
      "H": 37,
      "I": 38,
      "J": 39,
      "K": 40,
      "L": 41,
      "M": 42,
      "N": 43,
      "O": 44,
      "P": 45,
      "Q": 46,
      "R": 47,
      "S": 48,
      "T": 49,
      "U": 50,
      "V": 51,
      "W": 52,
      "X": 53,
      "Y": 54,
      "Z": 55,
      "[": 56,
      "]": 57,
      "_": 58,
      "`": 59,
      "a": 60,
      "b": 61,
      "c": 62,
      "d": 63,
      "e": 64,
      "f": 65,
      "g": 66,
      "h": 67,
      "i": 68,
      "j": 69,
      "k": 70,
      "l": 71,
      "m": 72,
      "n": 73,
      "o": 74,
      "p": 75,
      "q": 76,
      "r": 77,
      "s": 78,
      "t": 79,
      "u": 80,
      "v": 81,
      "w": 82,
      "x": 83,
      "y": 84,
      "z": 85,
      "¡": 86,
      "¢": 87,
      "£": 88,
      "¤": 89,
      "¥": 90,
      "¦": 91,
      "§": 92,
      "¨": 93,
      "©": 94,
      "«": 95,
      "®": 96,
      "¯": 97,
      "°": 98,
      "±": 99,
      "²": 100,
      "³": 101,
      "´": 102,
      "µ": 103,
      "¶": 104,
      "·": 105,
      "¸": 106,
      "¹": 107,
      "º": 108,
      "»": 109,
      "¼": 110,
      "½": 111,
      "¾": 112,
      "¿": 113,
      "Â": 114,
      "Ã": 115,
      "Ð": 116,
      "Ñ": 117,
      "Ò": 118,
      "â": 119,
      "ï": 120,
      "ð": 121,
      "Ċ": 122,
      "Ġ": 123,
      "Ģ": 124,
      "ģ": 125,
      "Ĥ": 126,
      "ĥ": 127,
      "Ħ": 128,
      "ħ": 129,
      "Ĩ": 130,
      "ĩ": 131,
      "Ī": 132,
      "ī": 133,
      "Į": 134,
      "İ": 135,
      "ı": 136,
      "Ĳ": 137,
      "ĳ": 138,
      "Ĵ": 139,
      "ĵ": 140,
      "Ķ": 141,
      "ķ": 142,
      "ĸ": 143,
      "Ĺ": 144,
      "ĺ": 145,
      "Ļ": 146,
      "ļ": 147,
      "Ľ": 148,
      "ľ": 149,
      "Ŀ": 150,
      "ŀ": 151,
      "Ł": 152,
      "ł": 153,
      "ĠÐ": 154,
      "Ð½": 155,
      "Ð¾": 156,
      "Ðµ": 157,
      "Ñı": 158,
      "Ñĸ": 159,
      "Ñģ": 160,
      "re": 161,
      "Ð¾Ð": 162,
      "Ð°": 163,
      "or": 164,
      "rec": 165,
      "orrec": 166,
      "orrect": 167,
      "Ð¸": 168,
      "Ġ'": 169,
      "en": 170,
      "ch": 171,
      "ÑĤ": 172,
      "ÑĢ": 173,
      "ÐµÐ½": 174,
      "Ð»": 175,
      "Ñĥ": 176,
      "ĠC": 177,
      "âľ": 178,
      "ĠCorrect": 179,
      "âľħ": 180,
      "ÐµÐ½Ð½": 181,
      "ÑĶ": 182,
      "er": 183,
      "Ð¼": 184,
      "in": 185,
      "ÐµÐ½Ð½Ñı": 186,
      "st": 187,
      "ĠI": 188,
      "Ðº": 189,
      "Ð¾Ñı": 190,
      "Ġd": 191,
      "ie": 192,
      "Ñĩ": 193,
      "ĠÐŁ": 194,
      "Ð¾Ð²": 195,
      "ÑģÐ½": 196,
      "ĠÐ¿": 197,
      "ĠIn": 198,
      "Ð¾Ð¼": 199,
      "Ð¾ÑıÑģÐ½": 200,
      "Ð¾ÑıÑģÐ½ÐµÐ½Ð½Ñı": 201,
      "correct": 202,
      "âĿ": 203,
      "ðŁ": 204,
      "ĵĿ": 205,
      "ĠÐŁÐ¾ÑıÑģÐ½ÐµÐ½Ð½Ñı": 206,
      "ĠIncorrect": 207,
      "âĿĮ": 208,
      "ðŁĵĿ": 209,
      "ĠÐ´": 210,
      "Ð¸Ðº": 211,
      "Ð´": 212,
      "as": 213,
      "au": 214,
      "ha": 215,
      "ÑģÐ»": 216,
      "ĠÐ¼": 217,
      "ÑĮ": 218,
      "Ð°ÑĶ": 219,
      "ĠÐ°": 220,
      "ĠÐ·": 221,
      "ge": 222,
      "Ġi": 223,
      "ÑģÐ»Ð¾Ð²": 224,
      "Ð°Ð": 225,
      "ĠÐ½": 226,
      "'.": 227,
      "ĠÑģ": 228,
      "ÑĸÑĶ": 229,
      "Ð¾Ð¼Ñĥ": 230,
      "ÑĸÑĶÑģÐ»Ð¾Ð²": 231,
      "ĠÐ²": 232,
      "ÑĸÑĶÑģÐ»Ð¾Ð²Ð¾": 233,
      "ÑĸÐ½": 234,
      "ein": 235,
      "Ġha": 236,
      "Ð»Ñı": 237,
      "ÑĢÐµ": 238,
      "Ġw": 239,
      "an": 240,
      "ĠD": 241,
      "ei": 242,
      "Ġ(": 243,
      "Ġs": 244,
      "ÑĤÐ¸": 245,
      "hr": 246,
      "Sie": 247,
      "Ġge": 248,
      "Ġk": 249,
      "ĠÐ½Ðµ": 250,
      "Ich": 251,
      "ti": 252,
      "Ġist": 253,
      "ĠÐ¼Ð°ÑĶ": 254,
      "ut": 255,
      "ĠÐ£": 256,
      "',": 257,
      "auf": 258,
      "Ġm": 259,
      "ÑĸÐ´": 260,
      "Ð²": 261,
      "ĠÐĶ": 262,
      "ĠA": 263,
      "tiv": 264,
      "Ð¾ÑĢ": 265,
      "ÑĩÐµÐ½Ð½Ñı": 266,
      "Ð¾Ð³": 267,
      "Ð¾Ð³Ð¾": 268,
      "ÑĨ": 269,
      "Ð¼Ðµ": 270,
      "Ð»ÑĮ": 271,
      "ĠÐ´ÑĸÑĶÑģÐ»Ð¾Ð²Ð¾": 272,
      "Ġb": 273,
      "Ġhab": 274,
      "ir": 275,
      "ativ": 276,
      "Ð¼ÐµÑĤ": 277,
      "ĠÐ´Ð»Ñı": 278,
      "Ã¼": 279,
      "ĠÐ¿ÑĸÐ´": 280,
      "Ð¸Ð¼": 281,
      "Ð¹": 282,
      "ÐµÐ½Ð½Ð¸Ðº": 283,
      "Ð¼ÐµÐ½Ð½Ð¸Ðº": 284,
      "ÑĦ": 285,
      "es": 286,
      "ĠB": 287,
      "Ð¿": 288,
      "ĠS": 289,
      "ich": 290,
      "âĢ": 291,
      "om": 292,
      "Ð¾Ð´": 293,
      "ĠÑĢÐµ": 294,
      "ĠÑģÑĤ": 295,
      "ach": 296,
      "Ġn": 297,
      "ĠâĢ": 298,
      "ĠÑĥ": 299,
      "Er": 300,
      "eit": 301,
      "hen": 302,
      "ÑĤÐ¸Ðº": 303,
      "ĠIch": 304,
      "ĠÐ°ÑĢ": 305,
      "ĠÐ°ÑĢÑĤÐ¸Ðº": 306,
      "Ã¤": 307,
      "Das": 308,
      "sch": 309,
      "ĠÐĶÑĸÑĶÑģÐ»Ð¾Ð²Ð¾": 310,
      "ÑĨÑĸ": 311,
      "ĠÐ¿ÑĸÐ´Ð¼ÐµÑĤ": 312,
      "ĠÐ¿ÑĢ": 313,
      "de": 314,
      "ĠÐ·Ð°Ð": 315,
      "Ð¾ÑıÑĤÐ¸": 316,
      "ĠÑģÑĤÐ¾ÑıÑĤÐ¸": 317,
      "ar": 318,
      "Wir": 319,
      "he": 320,
      "ĠÑĩ": 321,
      "un": 322,
      "Ġein": 323,
      "ĠH": 324,
      "ern": 325,
      "ĠÑĤ": 326,
      "ĠF": 327,
      "Ġbin": 328,
      "ĠK": 329,
      "ĠÑĢÐµÑĩÐµÐ½Ð½Ñı": 330,
      "gen": 331,
      "ÑĢÐ¾Ð´": 332,
      "ÑģÑĸ": 333,
      "se": 334,
      "ÑĢÐ¾Ð´Ñĥ": 335,
      "ĠÐº": 336,
      "Ñİ": 337,
      "Ġl": 338,
      "')": 339,
      "ĠÐ¾": 340,
      "Ð°Ð³": 341,
      "ll": 342,
      "Ð¸Ð½": 343,
      "ĠÐ²Ð¸Ð¼": 344,
      "Ð°Ð³Ð°ÑĶ": 345,
      "ĠÐ²Ð¸Ð¼Ð°Ð³Ð°ÑĶ": 346,
      "Ġdas": 347,
      "Ð¾Ð»": 348,
      "ĠÐ·Ð°": 349,
      "ĠÐ°ÑĢÑĤÐ¸ÐºÐ»ÑĮ": 350,
      "Ġder": 351,
      "ben": 352,
      "fe": 353,
      "Ġ('": 354,
      "ĠmÃ¼": 355,
      "Ġden": 356,
      "Ð¸Ð¹": 357,
      "ĠÑĦ": 358,
      "Ihr": 359,
      "ÑģÑı": 360,
      "Ð¾ÑĢÐ¼": 361,
      "ru": 362,
      "ĠÑĦÐ¾ÑĢÐ¼": 363,
      "sen": 364,
      "ĠÑĩÐ°": 365,
      "ÐµÑĢÐµ": 366,
      "ĠÑĩÐ°ÑģÑĸ": 367,
      "omm": 368,
      "Ð»ÑĮÐ½": 369,
      "em": 370,
      "Du": 371,
      "ĠM": 372,
      "Ġdie": 373,
      "ĠG": 374,
      "ĠSie": 375,
      "eut": 376,
      "ĠmÃ¼de": 377,
      "ĠÐ¿Ð¾": 378,
      "Ð¸Ñģ": 379,
      "Ġg": 380,
      "ind": 381,
      "Ð±": 382,
      "us": 383,
      "ÑĤÑĮ": 384,
      "ĠÑĢÐ¾Ð´Ñĥ": 385,
      "ĠÐĶÐ»Ñı": 386,
      "Ġnach": 387,
      "ter": 388,
      "Ð°Ð²": 389,
      "ĠT": 390,
      "ÑĥÑĶ": 391,
      "ÑĤÑĮÑģÑı": 392,
      "eutsch": 393,
      "Ġhabe": 394,
      "ĠDeutsch": 395,
      "Ġauf": 396,
      "Ð°Ð¼": 397,
      "ĠÐºÑĸÐ½": 398,
      "ĠÐºÑĸÐ½ÑĨÑĸ": 399,
      "ann": 400,
      "ro": 401,
      "Ð½ÑĮ": 402,
      "ĠÐ¿ÑĸÐ´Ð¼ÐµÑĤÐ°": 403,
      "ĠâĢĶ": 404,
      "chen": 405,
      "ĠÐ·Ð°Ðº": 406,
      "ÑĢÑĸ": 407,
      "kt": 408,
      "ĠÐ·Ð°ÐºÑĸÐ½": 409,
      "ĠÐ·Ð°ÐºÑĸÐ½ÑĩÐµÐ½Ð½Ñı": 410,
      "Ġhat": 411,
      "Ġ'-": 412,
      "ĠÑģÐ°Ð¼": 413,
      "ĠÑģÐ°Ð¼Ð¾Ð¼Ñĥ": 414,
      "beit": 415,
      "eil": 416,
      "ĠSu": 417,
      "ĠAr": 418,
      "ĠSup": 419,
      "Ġlern": 420,
      "ĠÐ½Ð°": 421,
      "der": 422,
      "ÐµÑĢÐµÐ´": 423,
      "Ð¶": 424,
      "ĠP": 425,
      "ĠZ": 426,
      "Ġdem": 427,
      "kauf": 428,
      "ank": 429,
      "Ð¸ÑģÑĤ": 430,
      "icht": 431,
      "Ġhaben": 432,
      "ĠDas": 433,
      "ren": 434,
      "Ð³": 435,
      "Ð½Ð°": 436,
      "Ð²Ñĸ": 437,
      "Ġin": 438,
      "Ð½Ð¸Ðº": 439,
      "ÑĢÑĥ": 440,
      "ĠArbeit": 441,
      "ĠÐ±": 442,
      "iel": 443,
      "Ð½Ñı": 444,
      "ĠZeit": 445,
      "Ġkauf": 446,
      "rau": 447,
      "um": 448,
      "Ġgehe": 449,
      "ÑĪ": 450,
      "ÑĩÐ¾Ð³Ð¾": 451,
      "tz": 452,
      "kk": 453,
      "Ġdu": 454,
      "ĠâĢĵ": 455,
      "Ð°Ð½": 456,
      "ĠAkk": 457,
      "eu": 458,
      "pe": 459,
      "Ð¾Ð²Ñĸ": 460,
      "eine": 461,
      "ĠHau": 462,
      "Ð·": 463,
      "Ð¸Ð¹Ð¼ÐµÐ½Ð½Ð¸Ðº": 464,
      "usativ": 465,
      "ĠAkkusativ": 466,
      "ĠÑģÐ¿": 467,
      "Ġer": 468,
      "be": 469,
      "Ġt": 470,
      "Ġkomm": 471,
      "Ġf": 472,
      "Ġweil": 473,
      "Ð½Ð°Ñĩ": 474,
      "ÐµÐ½Ð½Ñĸ": 475,
      "ĠDu": 476,
      "Ñħ": 477,
      "Ã¶": 478,
      "ĠÐ¿ÑĸÐ´Ð¼ÐµÑĤÐ¾Ð¼": 479,
      "ĠDativ": 480,
      "ĠÐ·Ð°Ð¹": 481,
      "ÑĸÑģ": 482,
      "ĠÐ·Ð°Ð¹Ð¼ÐµÐ½Ð½Ð¸Ðº": 483,
      "ste": 484,
      "ĠÑĤÐµ": 485,
      "hn": 486,
      "Ð¿Ðµ": 487,
      "ist": 488,
      "Ġsp": 489,
      "est": 490,
      "Ð½Ðµ": 491,
      "ĠHause": 492,
      "ÑĢÑĸÑĪ": 493,
      "Ġsch": 494,
      "Ð½ÑĮÐ¾Ð¼Ñĥ": 495,
      "ĠÑĤÐµÐ¿Ðµ": 496,
      "che": 497,
      "ÑĢÑĸÑĪÐ½ÑĮÐ¾Ð¼Ñĥ": 498,
      "ĠÑĤÐµÐ¿ÐµÑĢÑĸÑĪÐ½ÑĮÐ¾Ð¼Ñĥ": 499,
      "ĠÐ¼ÑĸÑģ": 500,
      "ĠÑĦÐ¾ÑĢÐ¼Ñĥ": 501,
      "Ġgut": 502,
      "Ġan": 503,
      "Nom": 504,
      "ĠÐ´ÑĢÑĥ": 505,
      "inativ": 506,
      "ĠSch": 507,
      "Nominativ": 508,
      "haben": 509,
      "ĠÐ´ÑĢÑĥÐ³": 510,
      "ĠÐ¼ÑĸÑģÑĨÑĸ": 511,
      "ĠÐ´ÑĢÑĥÐ³Ð¾Ð¼Ñĥ": 512,
      "ĠÐ±Ñĥ": 513,
      "ht": 514,
      "ĠÐŁÑĢ": 515,
      "ĠÐ¿Ð¾ÑĤ": 516,
      "ĠÐ±ÑĥÑĤÐ¸": 517,
      "hren": 518,
      "ĠÑĸ": 519,
      "Ð¸Ð»ÑĮÐ½": 520,
      "Ð´Ð¸": 521,
      "cht": 522,
      "ĠÐ¿ÐµÑĢÐµÐ´": 523,
      "Ġlernen": 524,
      "ĠSuppe": 525,
      "ung": 526,
      "ĠÑĤÐ¾Ð¼Ñĥ": 527,
      "ehr": 528,
      "ĠÑĸÐ½": 529,
      "den": 530,
      "ft": 531,
      "itiv": 532,
      "ÑĸÑĤÐ¸": 533,
      "Ð°ÑĤÐ¸": 534,
      "Ġwir": 535,
      "Ġich": 536,
      "ĠPar": 537,
      "ĠGen": 538,
      "ĠÑĸÐ½ÑĦ": 539,
      "ĠGenitiv": 540,
      "Ð°Ð»ÑĮÐ½": 541,
      "ÑĸÐ½ÑĸÑĤÐ¸": 542,
      "ĠÑĸÐ½ÑĦÑĸÐ½ÑĸÑĤÐ¸": 543,
      "ĠÑĸÐ½ÑĦÑĸÐ½ÑĸÑĤÐ¸Ð²Ñĸ": 544,
      "ges": 545,
      "ĠÑĦÐ¾ÑĢÐ¼Ñĸ": 546,
      "ĠEr": 547,
      "das": 548,
      "Ð´Ð½": 549,
      "Ð¾Ð¿": 550,
      "Ð¸Ð½Ñĥ": 551,
      "Ġhe": 552,
      "ĠÐ¼Ð¸Ð½Ñĥ": 553,
      "Ð»Ð¾Ð¼Ñĥ": 554,
      "ĠÐ¼Ð¸Ð½ÑĥÐ»Ð¾Ð¼Ñĥ": 555,
      "ÑĨÑĮ": 556,
      "Ð¸ÑĤ": 557,
      "Ġko": 558,
      "ohn": 559,
      "Ð°Ð²Ð¸Ð»ÑĮÐ½": 560,
      "ÑģÐ½Ð¾Ð²": 561,
      "rÃ¤": 562,
      "ĠÐ¾ÑģÐ½Ð¾Ð²": 563,
      "egen": 564,
      "ĠÑĸÐ¼ÐµÐ½Ð½Ð¸Ðº": 565,
      "Ġhast": 566,
      "ĠÐ¾ÑģÐ½Ð¾Ð²Ð½Ðµ": 567,
      "ÑĸÑģÐ»": 568,
      "ÑĸÑģÐ»Ñı": 569,
      "Ð¾Ð¿Ð¾Ð¼": 570,
      "ÃŁ": 571,
      "enn": 572,
      "die": 573,
      "..": 574,
      "ĠW": 575,
      "ĠÐ²Ð¸Ðº": 576,
      "Ð¾ÑĢÐ¸ÑģÑĤ": 577,
      "ÑĸÐ²": 578,
      "ĠÐ²Ð¸ÐºÐ¾ÑĢÐ¸ÑģÑĤ": 579,
      "Ð¾Ð²ÑĥÑĶ": 580,
      "ĠÐ²Ð¸ÐºÐ¾ÑĢÐ¸ÑģÑĤÐ¾Ð²ÑĥÑĶ": 581,
      "ĠÐ¿Ð¾Ñĩ": 582,
      "Ð°Ð²Ð¸Ð»ÑĮÐ½Ð¾": 583,
      "ĠÐ²ÑĸÐ´": 584,
      "ĠÐ·Ð°Ð¿": 585,
      "ĠÑģÐ»Ð¾Ð²": 586,
      "und": 587,
      "PrÃ¤": 588,
      "').": 589,
      "te": 590,
      "rank": 591,
      "ĠÐ°ÑĢÑĤÐ¸ÐºÐ»Ñı": 592,
      "Ã¶n": 593,
      "on": 594,
      "ĠKa": 595,
      "ÑĢÑı": 596,
      "ÑĥÑĩ": 597,
      "ĠNominativ": 598,
      "ĠÐ·Ñĸ": 599,
      "it": 600,
      "Ġspiel": 601,
      "kauft": 602,
      "ĠÑĢÐµÑĩ": 603,
      "Ġdes": 604,
      "Ð½Ð¸ÐºÐ¾Ð¼": 605,
      "ĠÐ¿ÑĸÐ´ÑĢÑı": 606,
      "Ð¾Ð»ÑĥÑĩ": 607,
      "ĠÑģÐ¿Ð¾Ð»ÑĥÑĩ": 608,
      "Ð´Ð½Ð¾Ð¼Ñĥ": 609,
      "ĠÑĢÐµÑĩÐµÐ½Ð½Ñĸ": 610,
      "ĠÐ¿ÑĸÐ´ÑĢÑıÐ´Ð½Ð¾Ð¼Ñĥ": 611,
      "ĠÑģÐ¿Ð¾Ð»ÑĥÑĩÐ½Ð¸ÐºÐ¾Ð¼": 612,
      "ĠWir": 613,
      "utter": 614,
      "ĠÐ¶": 615,
      "Ġsie": 616,
      "Ð²Ð¾ÑĢ": 617,
      "rin": 618,
      "ĠÐ·Ð°Ð²": 619,
      "fel": 620,
      "ĠIhr": 621,
      "Ġhabt": 622,
      "ĠMutter": 623,
      "Ð¶Ð´Ð¸": 624,
      "ĠÐ·Ð°Ð²Ð¶Ð´Ð¸": 625,
      "fen": 626,
      "ruder": 627,
      "Ġgehen": 628,
      "ĠÐ¶ÑĸÐ½": 629,
      "Ġes": 630,
      "ĠÐŁÑĢÐ¸Ð¹Ð¼ÐµÐ½Ð½Ð¸Ðº": 631,
      "ĠÐ¶ÑĸÐ½Ð¾": 632,
      "Ġsind": 633,
      "ĠÐ¶ÑĸÐ½Ð¾ÑĩÐ¾Ð³Ð¾": 634,
      "al": 635,
      "dem": 636,
      "Ġ-": 637,
      "Ġz": 638,
      "ĠÐ´Ð¾Ð¿Ð¾Ð¼": 639,
      "ÐºÐ°": 640,
      "ester": 641,
      "wester": 642,
      "Ð½Ð¸Ð¹": 643,
      "ĠFrau": 644,
      "aus": 645,
      "all": 646,
      "'),": 647,
      "Ð½Ð¾Ð³Ð¾": 648,
      "Ġim": 649,
      "gessen": 650,
      "ĠÐ¿ÑĢÐ°Ð²Ð¸Ð»ÑĮÐ½Ð¾": 651,
      "rot": 652,
      "ien": 653,
      "bl": 654,
      "sehen": 655,
      "Ġkrank": 656,
      "Ð¾Ðº": 657,
      "Ġse": 658,
      "du": 659,
      "ĠU": 660,
      "Ġmeine": 661,
      "sein": 662,
      "ĠBrot": 663,
      "Ã¤hren": 664,
      "Ã¤hrend": 665,
      "zi": 666,
      "ĠAp": 667,
      "ÑİÐ²": 668,
      "Ġste": 669,
      "Ġwenn": 670,
      "isch": 671,
      "Ġnicht": 672,
      "ĠII": 673,
      "erfe": 674,
      "erfekt": 675,
      "zip": 676,
      "tizip": 677,
      "ĠL": 678,
      "uch": 679,
      "Ġum": 680,
      "ĠPartizip": 681,
      "wor": 682,
      "angen": 683,
      "Perfekt": 684,
      "erm": 685,
      "eid": 686,
      "Ð¾Ð±": 687,
      "ĠKind": 688,
      "uto": 689,
      "ill": 690,
      "Ġ7": 691,
      "gangen": 692,
      "ĠUhr": 693,
      "arkt": 694,
      "Ð¼ÑĸÐ½": 695,
      "Ð°ÑĶÑĤÑĮÑģÑı": 696,
      "ihr": 697,
      "ĠÑĶ": 698,
      "ĠBruder": 699,
      "ĠSuperm": 700,
      "ĠSupermarkt": 701,
      "komm": 702,
      "ĠApfel": 703,
      "ĠÐ·Ð¼ÑĸÐ½": 704,
      "ĠÐļ": 705,
      "Ð»ÑİÐ²": 706,
      "ĠAuto": 707,
      "Ð¸ÑģÑĤÐ°Ð²": 708,
      "Ð¾Ð»Ð¸": 709,
      "kaufen": 710,
      "ÑĢÐµÐ¼": 711,
      "Ð°Ð½Ð¸Ð¼": 712,
      "ĠÐ¿ÑĢÐ¸ÑģÑĤÐ°Ð²": 713,
      "ĠÐ¿ÑĢÐ¸ÑģÑĤÐ°Ð²ÐºÐ°": 714,
      "hat": 715,
      "acht": 716,
      "ĠÐ²ÑĸÐ´Ð¾Ðº": 717,
      "Ð»ÑİÐ²Ð°Ð½Ð¸Ð¼": 718,
      "ÑĢÐµÐ¼Ð»ÑİÐ²Ð°Ð½Ð¸Ð¼": 719,
      "ĠÐ²ÑĸÐ´Ð¾ÐºÑĢÐµÐ¼Ð»ÑİÐ²Ð°Ð½Ð¸Ð¼": 720,
      "ĠTisch": 721,
      "uÃŁ": 722,
      "rotz": 723,
      "ÑİÑĤÑĮÑģÑı": 724,
      "ĠÐ¿ÑĢÐ¸Ðº": 725,
      "ĠFuÃŁ": 726,
      "Ð¼ÐµÑĤÐ½Ð¸Ðº": 727,
      "ĠÐ¿ÑĢÐ¸ÐºÐ¼ÐµÑĤÐ½Ð¸Ðº": 728,
      "ball": 729,
      "ĠFuÃŁball": 730,
      "ĠÐļÐ¾Ð»Ð¸": 731,
      "Ð½ÑĮÐ¾Ð³Ð¾": 732,
      "ĠÐ¿Ð¾ÑĩÐ¸Ð½": 733,
      "ĠÑģÐµÑĢÐµÐ´": 734,
      "Ġdass": 735,
      "ĠÐ¿Ð¾ÑĩÐ¸Ð½Ð°ÑĶÑĤÑĮÑģÑı": 736,
      "ĠÑģÐµÑĢÐµÐ´Ð½ÑĮÐ¾Ð³Ð¾": 737,
      "ĠHung": 738,
      "ĠHunger": 739,
      "rink": 740,
      "Ġsich": 741,
      "ĠÑĩÐ¾Ð»": 742,
      "ĠÑĩÐ¾Ð»Ð¾Ð²Ñĸ": 743,
      "ĠÐ·Ð°Ð¹Ð¼ÐµÐ½Ð½Ð¸ÐºÐ°": 744,
      "ffe": 745,
      "ĠÑĩÐ¾Ð»Ð¾Ð²ÑĸÑĩÐ¾Ð³Ð¾": 746,
      "sich": 747,
      "ĠKaffe": 748,
      "twor": 749,
      "Ġv": 750,
      "ĠSchwester": 751,
      "ĠKaffee": 752,
      "Ġaus": 753,
      "Ġwar": 754,
      "ier": 755,
      "ko": 756,
      "Wo": 757,
      "Ġgl": 758,
      "ĠBuch": 759,
      "Ġkaufen": 760,
      "Ġkochen": 761,
      "erl": 762,
      "orgen": 763,
      "Ð½Ð°ÑĩÐµÐ½": 764,
      "Ð½Ð°ÑĩÐµÐ½Ð¾Ð³Ð¾": 765,
      "ten": 766,
      "Ð¾Ñģ": 767,
      "ÑĢÐµÐ±": 768,
      "ÑĢÑĸÐ±": 769,
      "Ġfre": 770,
      "ĠÐ¿Ð¾ÑĤÑĢÐµÐ±": 771,
      "ĠÐ¿Ð¾ÑĤÑĢÑĸÐ±": 772,
      "ĠÐ¿Ð¾ÑĤÑĢÐµÐ±ÑĥÑĶ": 773,
      "ute": 774,
      "kommen": 775,
      "Ġausru": 776,
      "Am": 777,
      "Ð¾Ð´Ð°Ð»ÑĮÐ½": 778,
      "Ġwas": 779,
      "Ġwohn": 780,
      "sens": 781,
      "Ġheute": 782,
      "ĠÐºÐ¾ÑĢ": 783,
      "ag": 784,
      "PrÃ¤sens": 785,
      "Ġgegessen": 786,
      "ĠÐ¿ÑĢÐ¸Ð¹Ð¼ÐµÐ½Ð½Ð¸Ðº": 787,
      "ĠÐºÐ¾ÑĢÐµÐ½": 788,
      "ĠBerl": 789,
      "ĠBerlin": 790,
      "Ð¾Ð±Ñĸ": 791,
      "ÑĸÐ¹": 792,
      "et": 793,
      "ÑĸÐ¶": 794,
      "ĠwÃ¤hrend": 795,
      "Ġkauft": 796,
      "Ġwegen": 797,
      "Ġneu": 798,
      "Ġbrau": 799,
      "ĠÐ¾Ð·": 800,
      "ser": 801,
      "ĠÑĨÑĮ": 802,
      "Wann": 803,
      ").": 804,
      "Ġmehr": 805,
      "uss": 806,
      "ĠÑĸÐ¼ÐµÐ½Ð½Ð¸ÐºÐ°": 807,
      "ĠÐ¿Ð¾ÑĤÑĢÑĸÐ±ÐµÐ½": 808,
      "ĠÑĨÑĮÐ¾Ð³Ð¾": 809,
      "bend": 810,
      "Ġlie": 811,
      "Ð°Ð½Ð½Ñı": 812,
      "Ð°Ð·": 813,
      "ĠAbend": 814,
      "Ġgekauft": 815,
      "lern": 816,
      "Ġihr": 817,
      "Ġspielt": 818,
      "Ġgegangen": 819,
      "Ġeine": 820,
      "ĠÐ²Ð¸ÐºÐ¾ÑĢÐ¸ÑģÑĤÐ¾Ð²ÑĥÑĶÑĤÑĮÑģÑı": 821,
      "Ã¼r": 822,
      "aube": 823,
      "Ġkein": 824,
      "Ġkomme": 825,
      "Ġglaube": 826,
      "il": 827,
      "Ð¾ÑĤ": 828,
      "Ġschl": 829,
      "des": 830,
      "ĠÐ¿Ð¾Ð²": 831,
      "Ġwill": 832,
      "asche": 833,
      "Ġtrotz": 834,
      "oll": 835,
      "ÑĨÐµ": 836,
      "am": 837,
      "Ġtrink": 838,
      "ĠÐ¿ÑĸÑģÐ»Ñı": 839,
      "ÑĤÑĢ": 840,
      "ĠÐ¿Ð¸ÑĤ": 841,
      "Es": 842,
      "ÑĥÐ¿": 843,
      "Ð¸ÑĤÐ°Ð½Ð½Ñı": 844,
      "ÐµÐ·": 845,
      "Ð°Ð»ÑĮÐ½Ð¾Ð³Ð¾": 846,
      "Ġhel": 847,
      "ĠÐ·Ð°Ð¿Ð¸ÑĤÐ°Ð½Ð½Ñı": 848,
      "ĠÑģÐ»Ð¾Ð²Ð°": 849,
      "ĠÐ¿Ð¸ÑĤÐ°Ð»ÑĮÐ½Ð¾Ð³Ð¾": 850,
      "ĠÐ·Ð°Ð¿Ð¸ÑĤÐ°Ð½Ð½ÑıÑħ": 851,
      "rst": 852,
      "Ð¼Ð¾": 853,
      "ĠDurst": 854,
      "ÐµÐ½Ñĸ": 855,
      "ĠTasche": 856,
      "ÑĸÐº": 857,
      "ĠÐ½Ñĸ": 858,
      "Ð°Ð±": 859,
      "Der": 860,
      "ĠÑĨÐµ": 861,
      "....": 862,
      "ÑĨÑĮÐº": 863,
      "alt": 864,
      "Ð¼ÐµÑĨÑĮÐº": 865,
      "ĠÐ½ÑĸÐ¼ÐµÑĨÑĮÐº": 866,
      "weil": 867,
      "ÐºÐ°Ð·": 868,
      "ĠÑģÑĥ": 869,
      "Ġseid": 870,
      "nicht": 871,
      "),": 872,
      "ĠÐ¿Ð¾ÑĢ": 873,
      "ÑĤÑĢÐ¸Ð¼": 874,
      "Ð½Ð½Ñı": 875,
      "Ð¿ÑĸÐ´": 876,
      "ĠÐŁÑĸÑģÐ»Ñı": 877,
      "ĠÐ·Ð½Ð°Ñĩ": 878,
      "ĠÐ¾ÑĤÑĢÐ¸Ð¼": 879,
      "Ġzu": 880,
      "ĠÐ·Ð½Ð°ÑĩÐµÐ½Ð½Ñĸ": 881,
      "ĠÐ¾ÑĤÑĢÐ¸Ð¼ÑĥÑĶ": 882,
      "ÑĤÐ²Ð¾ÑĢ": 883,
      "ĠÐ¼Ð°ÑĤÐ¸": 884,
      "Ð¾Ð³Ð¾Ñİ": 885,
      "ÑģÑĸÐ²": 886,
      "ĠÐ´Ð¾Ð¿Ð¾Ð¼Ð¾Ð³Ð¾Ñİ": 887,
      "mehr": 888,
      "ÑĦÑĸÐº": 889,
      "ĠÑģÑĤÑĥÐ¿": 890,
      "Ġantwor": 891,
      "Ð¿ÑĸÐ´Ð¼ÐµÑĤ": 892,
      "ĠÐ¼Ð¾Ð²Ñĸ": 893,
      "ĠÑĥÑĤÐ²Ð¾ÑĢ": 894,
      "ÑİÑİÑĤÑĮÑģÑı": 895,
      "Ð½ÑıÐ½Ð½Ñı": 896,
      "ÑĸÐ²Ð½ÑıÐ½Ð½Ñı": 897,
      "ĠÐ²Ð¸ÐºÐ¾ÑĢÐ¸ÑģÑĤÐ¾Ð²ÑĥÑĶÐ¼Ð¾": 898,
      "ĠÑģÐ»Ð¾Ð²Ð¾Ð¼": 899,
      "ĠÐ·Ð¼ÑĸÐ½Ð¸": 900,
      "ĠÐºÐ¾ÑĢÐµÐ½Ñı": 901,
      "Ð°Ð±Ð¾": 902,
      "ĠÐ½ÑĸÐ¼ÐµÑĨÑĮÐºÑĸÐ¹": 903,
      "ĠÑģÑĥÑĦÑĸÐº": 904,
      "ĠÐ¿Ð¾ÑĢÑĸÐ²Ð½ÑıÐ½Ð½Ñı": 905,
      "ĠÑģÑĤÑĥÐ¿ÐµÐ½Ñĸ": 906,
      "ĠÑĥÑĤÐ²Ð¾ÑĢÑİÑİÑĤÑĮÑģÑı": 907,
      "ĠÑģÑĥÑĦÑĸÐºÑģÑĸÐ²": 908,
      "Ð²ÑĸÐ¹": 909,
      "ÐµÑĢÐµÑĩÐµÐ½Ð½Ñı": 910,
      "ĠÐ·Ð°Ð¿ÐµÑĢÐµÑĩÐµÐ½Ð½Ñı": 911,
      "Ġun": 912,
      "ĠÐ¿Ð¾Ð²Ð¸Ð½": 913,
      "erien": 914,
      "ĠGes": 915,
      "Ð¸ÑģÐ²ÑĸÐ¹": 916,
      "ĠÐ¿Ð¾Ð²Ð¸Ð½ÐµÐ½": 917,
      "Ð¸ÑģÐ²ÑĸÐ¹Ð½Ð¸Ð¹": 918,
      "ĠFerien": 919,
      "mp": 920,
      "Ġru": 921,
      "Ã¶nn": 922,
      "sp": 923,
      "Ð°ÑĤ": 924,
      "Imp": 925,
      "ĠÑģÐ¿Ð¾Ñģ": 926,
      "erativ": 927,
      "Ð¾Ð²Ð¾Ð¼Ñĥ": 928,
      "ĠÐ½Ð°ÐºÐ°Ð·": 929,
      "Imperativ": 930,
      "ĠÑģÐ¿Ð¾ÑģÐ¾Ð±Ñĸ": 931,
      "ĠÐ½Ð°ÐºÐ°Ð·Ð¾Ð²Ð¾Ð¼Ñĥ": 932,
      "Ð¾Ð·": 933,
      "fa": 934,
      "ĠFre": 935,
      "ĠÐ¢": 936,
      "rechen": 937,
      "ĠGesicht": 938,
      "Die": 939,
      "Ġbist": 940,
      "sind": 941,
      "ĠÐ·Ð²Ð¾ÑĢ": 942,
      "Ð¾ÑĤÐ½Ð¾Ð³Ð¾": 943,
      "ĠÐ·Ð²Ð¾ÑĢÐ¾ÑĤÐ½Ð¾Ð³Ð¾": 944,
      "Ġh": 945,
      "Ã¼che": 946,
      "ĠMann": 947,
      "Ġfreu": 948,
      "Ġkann": 949,
      "ĠFreund": 950,
      "Ġkalt": 951,
      "ĠHund": 952,
      "ĠschÃ¶n": 953,
      "ĠÐ¢Ð¾Ð¼Ñĥ": 954,
      "Ġmuss": 955,
      "gt": 956,
      "?'": 957,
      "ieben": 958,
      "ĠKÃ¼che": 959,
      "terit": 960,
      "teritum": 961,
      "uchen": 962,
      "ĠV": 963,
      "Ġgekommen": 964,
      "ĠBank": 965,
      "ĠÑĤÐ°": 966,
      "Ġeu": 967,
      "Ġgebl": 968,
      "Ġgeblieben": 969,
      "ĠPark": 970,
      "kein": 971,
      "Ã¼s": 972,
      "ollen": 973,
      "habe": 974,
      "is": 975,
      "and": 976,
      "ĠÐ½ÐµÐ¾Ð·": 977,
      "PrÃ¤teritum": 978,
      "ĠÐ½ÐµÐ¾Ð·Ð½Ð°ÑĩÐµÐ½Ð¾Ð³Ð¾": 979,
      "hast": 980,
      "Ġsprechen": 981,
      "ne": 982,
      "ĠÐ´Ð¾Ð¿Ð¾Ð¼ÑĸÐ¶": 983,
      "fahren": 984,
      "ĠÐ´Ð¾Ð¿Ð¾Ð¼ÑĸÐ¶Ð½Ð¾Ð³Ð¾": 985,
      "ÑĥÐ²": 986,
      "Ã¤ft": 987,
      "ke": 988,
      "ĠR": 989,
      "ino": 990,
      "ĠWas": 991,
      "hre": 992,
      "ĠKino": 993,
      "tze": 994,
      "ur": 995,
      "Ġmorgen": 996,
      "ÑģÑĤ": 997,
      "Ġsehen": 998,
      "Ã¶nnen": 999,
      "Ġmit": 1000,
      "Ġhier": 1001,
      "ĠÐ°Ð±": 1002,
      "ĠÐ°Ð±Ð¾": 1003,
      "gehen": 1004,
      "Ð»Ð°": 1005,
      "tet": 1006,
      "mer": 1007,
      "Ġkommen": 1008,
      "essen": 1009,
      "spiel": 1010,
      "ra": 1011,
      "Ġgesehen": 1012,
      "Ð°ÑĤÐº": 1013,
      "Ġlerne": 1014,
      "Ġkommst": 1015,
      "hst": 1016,
      "lernen": 1017,
      "ĠÐ´ÑĸÑĶÑģÐ»Ð¾Ð²": 1018,
      "Ġessen": 1019,
      "ĠÐ¼Ð¾Ð´Ð°Ð»ÑĮÐ½": 1020,
      "ĠÑĢÐµÑĩÐµÐ½Ð½ÑıÑħ": 1021,
      "Ġzum": 1022,
      "ĠÐ´ÑĸÑĶÑģÐ»Ð¾Ð²Ð¾Ð¼": 1023,
      "ĠÐ¼Ð¾Ð´Ð°Ð»ÑĮÐ½Ð¸Ð¼": 1024,
      "Ð°ÑĤÐºÐ¾Ð²Ñĸ": 1025,
      "ĠÐ¿ÑĢÐ¸ÑģÐ²ÑĸÐ¹Ð½Ð¸Ð¹": 1026,
      "ĠÐ¿Ð¾ÑĩÐ°ÑĤÐºÐ¾Ð²Ñĸ": 1027,
      "ĠÐ¿Ð¾ÑĩÐ°ÑĤÐºÐ¾Ð²ÑĸÐ¹": 1028,
      "ĠÑĢÑĥ": 1029,
      "ahr": 1030,
      "aren": 1031,
      "ÑĥÐ²Ð°ÑĤÐ¸": 1032,
      "ĠSt": 1033,
      "Ġschne": 1034,
      "Ġschnell": 1035,
      "ĠTa": 1036,
      "at": 1037,
      "ĠÐ¾Ð·Ð½Ð°Ñĩ": 1038,
      "ĠÑĢÑĥÑħ": 1039,
      "ĠschlÃ¤ft": 1040,
      "ĠÐ¾Ð·Ð½Ð°ÑĩÐ°ÑĶ": 1041,
      "stehen": 1042,
      "arbeit": 1043,
      "Ġviel": 1044,
      "ĠÐľ": 1045,
      "Ġliest": 1046,
      "ĠTages": 1047,
      "ĠGe": 1048,
      "ĠÐĨ": 1049,
      "kocht": 1050,
      "Ġwohnt": 1051,
      "Ġarbeit": 1052,
      "im": 1053,
      "ĠE": 1054,
      "macht": 1055,
      "chst": 1056,
      "ĠÐĨÐ¼ÐµÐ½Ð½Ð¸Ðº": 1057,
      "ĠKatze": 1058,
      "Ġwohnst": 1059,
      "rufen": 1060,
      "Ðļ": 1061,
      "ÑĥÐ´Ð¸": 1062,
      "ienst": 1063,
      "etz": 1064,
      "Ð»Ðµ": 1065,
      "Ġesse": 1066,
      "ÐļÑĥÐ´Ð¸": 1067,
      "fst": 1068,
      "bt": 1069,
      "ĠDienst": 1070,
      "ĠPro": 1071,
      "ĠDienstag": 1072,
      "blem": 1073,
      "Ġwaschen": 1074,
      "ĠAbends": 1075,
      "Was": 1076,
      "Ġmacht": 1077,
      "Ġdenke": 1078,
      "Ã¼n": 1079,
      "Ð¾Ð´Ð°Ð»ÑĮÐ½Ðµ": 1080,
      "ĠÐľÐ¾Ð´Ð°Ð»ÑĮÐ½Ðµ": 1081,
      "ĠProblem": 1082,
      "zt": 1083,
      "anken": 1084,
      "ont": 1085,
      "Ġtrinke": 1086,
      "Ġgeht": 1087,
      "ÐºÐ¸": 1088,
      "ĠProblems": 1089,
      "ster": 1090,
      "Ġausruhen": 1091,
      "pÃ¤": 1092,
      "ĠÐ³": 1093,
      "ĠTe": 1094,
      "Ġfreuen": 1095,
      "lei": 1096,
      "Ġlernt": 1097,
      "etzt": 1098,
      "Ð°Ð¿": 1099,
      "Ġeinen": 1100,
      "Ð»Ñĸ": 1101,
      "pÃ¤ter": 1102,
      "Ġgest": 1103,
      "Jetzt": 1104,
      "ĠArzt": 1105,
      "Nach": 1106,
      "ÑĩÐ½Ð¸Ð¹": 1107,
      "ĠMil": 1108,
      "Ġkocht": 1109,
      "ĠMilch": 1110,
      "Ġbei": 1111,
      "enster": 1112,
      "ĠMont": 1113,
      "Ġstell": 1114,
      "ĠMontag": 1115,
      "ĠÐĹ": 1116,
      "Ð±ÐµÐ·": 1117,
      "le": 1118,
      "wenn": 1119,
      "eute": 1120,
      "ĠÑĸÐ¼ÐµÐ½Ð½Ð¸ÐºÑĸÐ²": 1121,
      "ĠÐ¾Ð·Ð½Ð°ÑĩÐµÐ½Ð¾Ð³Ð¾": 1122,
      "Ð»Ð°Ð´": 1123,
      "ĠTee": 1124,
      "Ġgestern": 1125,
      "ĠRegen": 1126,
      "Ð´Ð°": 1127,
      "ĠRegens": 1128,
      "ĠWasser": 1129,
      "ĠStu": 1130,
      "sel": 1131,
      "Ġle": 1132,
      "ÑĢÐ¸Ðº": 1133,
      "Ġblei": 1134,
      "ĠÐ±ÐµÐ·": 1135,
      "Ġliegt": 1136,
      "habt": 1137,
      "Ð°Ð¿ÑĢÐ¸Ðº": 1138,
      "Ð°Ð¿ÑĢÐ¸ÐºÐ»Ð°Ð´": 1139,
      "bin": 1140,
      "ken": 1141,
      "Ð½Ð°Ð¿ÑĢÐ¸ÐºÐ»Ð°Ð´": 1142,
      "Ġwaren": 1143,
      "Ð»ÑĸÑĩÐ½Ð¸Ð¹": 1144,
      "ĠÐĹÐ»ÑĸÑĩÐ½Ð¸Ð¹": 1145,
      "kochen": 1146,
      "aufstehen": 1147,
      "ĠÐ¾Ð±": 1148,
      "einkaufen": 1149,
      "Ġgefahren": 1150,
      "hl": 1151,
      "seid": 1152,
      "ohne": 1153,
      "Ġbleibe": 1154,
      "iz": 1155,
      "euer": 1156,
      "........": 1157,
      "ho": 1158,
      "ĠÐ°Ð»Ðµ": 1159,
      "anach": 1160,
      "ĠFenster": 1161,
      "Ġseht": 1162,
      "za": 1163,
      "Ġbraucht": 1164,
      "ĠWo": 1165,
      "anrufen": 1166,
      "ÑĥÐ²Ð°ÑĤÐ¸ÑģÑı": 1167,
      "ÑģÑĤÐ°Ð²": 1168,
      "ĠBier": 1169,
      "sst": 1170,
      "wohn": 1171,
      "Ã¤l": 1172,
      "Ġkommt": 1173,
      "Ġsteht": 1174,
      "ĠPiz": 1175,
      "Ġantwortet": 1176,
      "ĠPizza": 1177,
      "Ġdich": 1178,
      "ĠÐ²ÑĸÐ´ÐºÐ¸": 1179,
      "Ġhelft": 1180,
      "Ġarbeitet": 1181,
      "Ð´Ð°ÑİÑĤÑĮÑģÑı": 1182,
      "ĠÐ²ÑĸÐ´ÐºÐ¸Ð´Ð°ÑİÑĤÑĮÑģÑı": 1183,
      "lÃ¼s": 1184,
      "Ġmich": 1185,
      "ahn": 1186,
      "sie": 1187,
      "ĠEis": 1188,
      "ankt": 1189,
      "Ġhatte": 1190,
      "lÃ¼ssel": 1191,
      "ater": 1192,
      "Ġdankt": 1193,
      "schl": 1194,
      "ĠfÃ¼r": 1195,
      "dass": 1196,
      "ĠÐ¾Ð±ÑģÑĤÐ°Ð²": 1197,
      "ĠÐ¾Ð±ÑģÑĤÐ°Ð²Ð¸Ð½": 1198,
      "ĠHand": 1199,
      "ĠÐ¿ÑĢÐ¸ÐºÐ¼ÐµÑĤÐ½Ð¸ÐºÑĸÐ²": 1200,
      "wegen": 1201,
      "Ġsu": 1202,
      "ĠAm": 1203,
      "ĠâĢ¦": 1204,
      "rad": 1205,
      "Ð¾Ð´Ð¶": 1206,
      "rinkt": 1207,
      "ampe": 1208,
      "ĠSchlÃ¼ssel": 1209,
      "ett": 1210,
      "ĠÑĢ": 1211,
      "Ġspielen": 1212,
      "ĠVater": 1213,
      "ĠKuchen": 1214,
      "estern": 1215,
      "Ġtrinken": 1216,
      "Ġruft": 1217,
      "hof": 1218,
      "ĠschÃ¶ne": 1219,
      "Ð¾Ð´Ð¶ÑĥÐ²Ð°ÑĤÐ¸ÑģÑı": 1220,
      "bist": 1221,
      "hrt": 1222,
      "ĠÐĶÐ¾Ð¿Ð¾Ð¼": 1223,
      "ĠÑĥÐ·": 1224,
      "Ð³Ð¾Ð´Ð¶ÑĥÐ²Ð°ÑĤÐ¸ÑģÑı": 1225,
      "ÑĸÐ¶Ð½Ðµ": 1226,
      "ĠÐĶÐ¾Ð¿Ð¾Ð¼ÑĸÐ¶Ð½Ðµ": 1227,
      "ĠÑĥÐ·Ð³Ð¾Ð´Ð¶ÑĥÐ²Ð°ÑĤÐ¸ÑģÑı": 1228,
      "Morgen": 1229,
      "ĠBahn": 1230,
      "Sch": 1231,
      "Ġuns": 1232,
      "ahrrad": 1233,
      "ĠEs": 1234,
      "Ġgemacht": 1235,
      "Ã¤lter": 1236,
      "war": 1237,
      "ĠBahnhof": 1238,
      "Des": 1239,
      "gegessen": 1240,
      "immer": 1241,
      "ĠHandy": 1242,
      "Dem": 1243,
      "achen": 1244,
      "ĠÐŁÑĢÐ°Ð²Ð¸Ð»ÑĮÐ½Ð¾": 1245,
      "ĠWann": 1246,
      "SpÃ¤ter": 1247,
      "neu": 1248,
      "Ġwollen": 1249,
      "ÐĶ": 1250,
      "Ġihre": 1251,
      "tr": 1252,
      "ĠTÃ¼r": 1253,
      "Ã¶f": 1254,
      "omp": 1255,
      "Heute": 1256,
      "Ġkeine": 1257,
      "Ġkaufst": 1258,
      "Ġfreut": 1259,
      "ĠDie": 1260,
      "bel": 1261,
      "ild": 1262,
      "gekauft": 1263,
      "gesehen": 1264,
      "ÐĶÐµ": 1265,
      "Ġgegen": 1266,
      "ĠLampe": 1267,
      "Den": 1268,
      "Ġgekocht": 1269,
      "alat": 1270,
      "Ġneue": 1271,
      "wir": 1272,
      "wÃ¤hrend": 1273,
      "Ġvon": 1274,
      "Ã¶ffel": 1275,
      "gut": 1276,
      "ĠBett": 1277,
      "ĠSalat": 1278,
      "Ġkaufe": 1279,
      "las": 1280,
      "Ġeuch": 1281,
      "ld": 1282,
      "ĠZimmer": 1283,
      "ĠkÃ¶nnen": 1284,
      "ĠLÃ¶ffel": 1285,
      "Ġausruht": 1286,
      "Ġbrauchen": 1287,
      "will": 1288,
      "Ġkl": 1289,
      "abel": 1290,
      "lfen": 1291,
      "antwor": 1292,
      "Ġwascht": 1293,
      "wollen": 1294,
      "ĠDer": 1295,
      "Ġgetr": 1296,
      "unken": 1297,
      "ĠFahrrad": 1298,
      "Bruder": 1299,
      "helfen": 1300,
      "antworten": 1301,
      "Kind": 1302,
      "lich": 1303,
      "trotz": 1304,
      "Ġ2": 1305,
      "Ġklein": 1306,
      "Ġgetrunken": 1307,
      "Dann": 1308,
      "Danach": 1309,
      "ule": 1310,
      "Ġj": 1311,
      "Ġaufste": 1312,
      "Ġsucht": 1313,
      "kÃ¶nnen": 1314,
      "uter": 1315,
      "Ġschla": 1316,
      "Ġohne": 1317,
      "omputer": 1318,
      "Ġgute": 1319,
      "gegangen": 1320,
      "Ð²Ð°": 1321,
      "ĠStuhl": 1322,
      "Schwester": 1323,
      "ĠSchrank": 1324,
      "ĠComputer": 1325,
      "ĠÐ¾Ð´Ð½": 1326,
      "Ġins": 1327,
      "tion": 1328,
      "test": 1329,
      "ĠMÃ¼n": 1330,
      "ĠMÃ¼nchen": 1331,
      "Gestern": 1332,
      "ĠGabel": 1333,
      "ĠGeld": 1334,
      "Ġanru": 1335,
      "bur": 1336,
      "ĠHaus": 1337,
      "ĠSchule": 1338,
      "danken": 1339,
      "mÃ¼s": 1340,
      "ĠZeitung": 1341,
      "Ġteuer": 1342,
      "burg": 1343,
      "ĠBild": 1344,
      "muss": 1345,
      "ÑĹ": 1346,
      "amburg": 1347,
      "trink": 1348,
      "ĠHamburg": 1349,
      "roÃŁ": 1350,
      "Ġwillst": 1351,
      "Ġhelfen": 1352,
      "ck": 1353,
      "ig": 1354,
      "ĠgroÃŁ": 1355,
      "Ġ3": 1356,
      "Ã¤hrt": 1357,
      "kann": 1358,
      "Ge": 1359,
      "spielt": 1360,
      "ber": 1361,
      "Ñī": 1362,
      "ĠÐ¾Ñģ": 1363,
      "ÐµÑĢ": 1364,
      "ĠGlas": 1365,
      "Ġstehen": 1366,
      "Ġkeinen": 1367,
      "Ð¸ÑĤÐ¸": 1368,
      "ĠÐŁÑĢÐ¸ÑģÐ²ÑĸÐ¹Ð½Ð¸Ð¹": 1369,
      "Ġisst": 1370,
      "Ã¤r": 1371,
      "Ġhatten": 1372,
      "ssen": 1373,
      "bei": 1374,
      "Ġsein": 1375,
      "Ð¸Ð½Ð¸": 1376,
      "ĠÐ³Ð¾Ð»": 1377,
      "ÑĶÑĤÑĮÑģÑı": 1378,
      "Ġtrinkt": 1379,
      "ger": 1380,
      "lernt": 1381,
      "Ġantworten": 1382,
      "ĠÑģÐ¸Ð»ÑĮÐ½": 1383,
      "Ġstellt": 1384,
      "ĠmÃ¼ssen": 1385,
      "Ġlege": 1386,
      "schla": 1387,
      "Ð¾ÑģÐ½": 1388,
      "Ġbes": 1389,
      "ÑİÑĶÑĤÑĮÑģÑı": 1390,
      "mÃ¼ssen": 1391,
      "ÐµÐ²Ð°": 1392,
      "ĠÐ·Ð¼ÑĸÐ½ÑİÑĶÑĤÑĮÑģÑı": 1393,
      "Ġstelle": 1394,
      "ĠÐºÐ¾ÑĢÐµÐ½ÐµÐ²Ð°": 1395,
      "ĠÐ¾Ð´Ð½Ð¸Ð½Ð¸": 1396,
      "ĠÐ¾ÑģÐ¾Ð±Ñĸ": 1397,
      "ĠÐ³Ð¾Ð»Ð¾ÑģÐ½": 1398,
      "ĠÑģÐ¸Ð»ÑĮÐ½Ðµ": 1399,
      "ĠÐ³Ð¾Ð»Ð¾ÑģÐ½Ð°": 1400,
      "Ġdein": 1401,
      "Ġwarst": 1402,
      "Ġdank": 1403,
      "Ġsehr": 1404,
      "Komm": 1405,
      "Ġmein": 1406,
      "Ġunser": 1407,
      "Ġrufen": 1408,
      "Ġdanken": 1409,
      "ĠVer": 1410,
      "Ġkleiner": 1411,
      "ere": 1412,
      "Ð¸Ð³": 1413,
      "Ġschneller": 1414,
      "esen": 1415,
      "Ġeinkauft": 1416,
      "rÃ¶": 1417,
      "Ġwart": 1418,
      "Ġlegt": 1419,
      "Ġsuchen": 1420,
      "Ã¼ck": 1421,
      "ĠÑģÑĤÐ°Ð½": 1422,
      "ĠLe": 1423,
      "ps": 1424,
      "Ð¸Ð²": 1425,
      "ÃŁer": 1426,
      "................": 1427,
      "wohnst": 1428,
      "Ġeuer": 1429,
      "ĠÐ·Ð¼ÑĸÐ½Ñĥ": 1430,
      "wohnt": 1431,
      "trinken": 1432,
      "ĠÑģÑĤÐ°Ð½Ñĥ": 1433,
      "ĠwÃ¤r": 1434,
      "ĠkÃ¤lter": 1435,
      "Ġgutes": 1436,
      "Ġbesser": 1437,
      "ĠwÃ¤rmer": 1438,
      "ver": 1439,
      "ies": 1440,
      "ĠgrÃ¶": 1441,
      "blei": 1442,
      "von": 1443,
      "ĠgrÃ¶ÃŁer": 1444,
      "bleiben": 1445,
      "sere": 1446,
      "Ġguter": 1447,
      "Ã¶nnt": 1448,
      "Ġaufsteht": 1449,
      "el": 1450,
      "Ġund": 1451,
      "usst": 1452,
      "Ġfahr": 1453,
      "Ġsehe": 1454,
      "kommst": 1455,
      "Ġlernst": 1456,
      "Ġfa": 1457,
      "Ġunsere": 1458,
      "atz": 1459,
      "si": 1460,
      "ĠÐ¯": 1461,
      "schÃ¶n": 1462,
      "Ġspiele": 1463,
      "Ġeuere": 1464,
      "hrer": 1465,
      "Ã¼nger": 1466,
      "//": 1467,
      "://": 1468,
      "tps": 1469,
      "ĠKomm": 1470,
      "https": 1471,
      "ollt": 1472,
      "ĠjÃ¼nger": 1473,
      "Ã¼cklich": 1474,
      "res": 1475,
      "Ġneues": 1476,
      "ĠÃ¤lter": 1477,
      "ĠLehrer": 1478,
      "ĠglÃ¼cklich": 1479,
      "ĠKon": 1480,
      "ĠfÃ¤hrt": 1481,
      "keine": 1482,
      "tig": 1483,
      "Ġneuer": 1484,
      "mit": 1485,
      "Ġanruft": 1486,
      "ort": 1487,
      "Ð°ÑĢ": 1488,
      "ert": 1489,
      "Ġbrauchst": 1490,
      "Ð½Ð¾": 1491,
      "Ġfahrt": 1492,
      "ĠO": 1493,
      "Ġmachen": 1494,
      "Ġkoche": 1495,
      "Ġspielst": 1496,
      "Ð¸Ð³Ñĥ": 1497,
      "ĠĠ": 1498,
      "Ġkochst": 1499,
      "ĠN": 1500,
      "ĠÐĴ": 1501,
      "Ð°Ñİ": 1502,
      "our": 1503,
      "ĠÐ»": 1504,
      "Ġdeine": 1505,
      "brau": 1506,
      "Ð¾Ð½": 1507,
      "Ġausruhst": 1508,
      "net": 1509,
      "isst": 1510,
      "ce": 1511,
      "Ð¾Ð¶": 1512,
      "trinkt": 1513,
      "ĠÑī": 1514,
      "Ġhabst": 1515,
      "Ġsehst": 1516,
      "spielen": 1517,
      "Ãľ": 1518,
      "Ġarbeiten": 1519,
      "ĠmÃ¼sst": 1520,
      "uft": 1521,
      "ÑĢÐ°": 1522,
      "unser": 1523,
      ")'": 1524,
      "dw": 1525,
      "ÑģÑĮ": 1526,
      "Ġhattet": 1527,
      "Ġbrauche": 1528,
      "Ġfreue": 1529,
      "Ġ+": 1530,
      "Ġseine": 1531,
      "Ã¼ber": 1532,
      "ĠÑĢÐ¾Ð±": 1533,
      "Ġ1": 1534,
      "Ð¾Ñĩ": 1535,
      "ĠLuft": 1536,
      "wordw": 1537,
      "resour": 1538,
      "wordwall": 1539,
      "resource": 1540,
      "dich": 1541,
      "Ð¿ÑĸÑģÐ»Ñı": 1542,
      "ĠÐ¿ÑĢÐ°Ð²Ð¸Ð»ÑĮÐ½": 1543,
      "dent": 1544,
      "Ġstehe": 1545,
      "Ġschlaft": 1546,
      "ĠÐ¿ÑĢÐ°Ð²Ð¸Ð»ÑĮÐ½ÑĸÐ¹": 1547,
      "Ġeinkaufen": 1548,
      "Ġver": 1549,
      "nach": 1550,
      "rig": 1551,
      "zert": 1552,
      "ĠWand": 1553,
      "ĠStudent": 1554,
      "ol": 1555,
      "suchen": 1556,
      "ĠkÃ¶nnt": 1557,
      "Ġwaschst": 1558,
      "Ġantwortest": 1559,
      "Ġkannst": 1560,
      "Ġdanke": 1561,
      "mein": 1562,
      "ĠNach": 1563,
      "Ġsuch": 1564,
      "ĠMorgen": 1565,
      "Ġausruhe": 1566,
      "ĠKonzert": 1567,
      "Ġsuchst": 1568,
      "Ġwollt": 1569,
      "âĢ¦": 1570,
      "Ġrufst": 1571,
      "Ġfreust": 1572,
      "brauchen": 1573,
      "ation": 1574,
      "ÑĤÐ¾": 1575,
      "Ġmusst": 1576,
      "Ġbe": 1577,
      "ĠPrÃ¤": 1578,
      "keinen": 1579,
      "mich": 1580,
      "waren": 1581,
      "gegen": 1582,
      "Ġstehst": 1583,
      "Ġhelfe": 1584,
      "Ġhelfst": 1585,
      "fÃ¼r": 1586,
      "ĠSpÃ¤ter": 1587,
      "Ġanrufen": 1588,
      "sprechen": 1589,
      "ĠÑı": 1590,
      "ĠJetzt": 1591,
      "Ã¤fst": 1592,
      "Ġhattest": 1593,
      "osi": 1594,
      "ertig": 1595,
      "âĢľ": 1596,
      "Ġtrau": 1597,
      "Ġfertig": 1598,
      "hatte": 1599,
      "Ġrufe": 1600,
      "osition": 1601,
      "ĠÑħ": 1602,
      "ieren": 1603,
      "ĠMacht": 1604,
      "Ġaufstehen": 1605,
      "Ġwasche": 1606,
      "Ġtraurig": 1607,
      "machen": 1608,
      "schlafen": 1609,
      "Â«": 1610,
      "dein": 1611,
      "Â»": 1612,
      "ĠÂ«": 1613,
      "ĠHeute": 1614,
      "Ð¾ÑģÑĤ": 1615,
      "ĠGeh": 1616,
      "ĠGeht": 1617,
      "Ġmach": 1618,
      "ĠDanach": 1619,
      "Ġgehst": 1620,
      "ÑİÐ²Ð°ÑĤÐ¸": 1621,
      "spiele": 1622,
      "ab": 1623,
      "Ġo": 1624,
      "Ð»Ð¸": 1625,
      "ÐºÑĥ": 1626,
      "ĠDann": 1627,
      "tit": 1628,
      "Ġlesen": 1629,
      "petit": 1630,
      "ĠLies": 1631,
      "Ð¾ÑĤÑĸ": 1632,
      "uns": 1633,
      "ĠMach": 1634,
      "euch": 1635,
      "ĠAppetit": 1636,
      "ĠLest": 1637,
      "Ġmachst": 1638,
      "position": 1639,
      "ĠÃ¼ber": 1640,
      "Ġdort": 1641,
      "ĠÐ°Ð²": 1642,
      "hrst": 1643,
      "kaufe": 1644,
      "kaufst": 1645,
      "Ġwarm": 1646,
      "Ð¾ÑģÑĮ": 1647,
      "fahrt": 1648,
      "men": 1649,
      "vom": 1650,
      "ÑĤÐ¾ÑĢ": 1651,
      "Ð¼Ð°Ñİ": 1652,
      "einen": 1653,
      "Ġalt": 1654,
      "Ð°Ð´": 1655,
      "ĠÐ²Ð¸": 1656,
      "ĠÐ¿ÑĢÐ¾": 1657,
      "kel": 1658,
      "bung": 1659,
      "Ð½Ñĸ": 1660,
      "ent": 1661,
      "ÑĥÑĤ": 1662,
      "Ã¤n": 1663,
      "ot": 1664,
      "rei": 1665,
      "ÑĸÐ½Ð½Ñı": 1666,
      "ante": 1667,
      "Ð¾Ð»Ð¾Ð´": 1668,
      "Ġjung": 1669,
      "Ġfahren": 1670,
      "fÃ¤hrt": 1671,
      "ĠÐ´Ð¾": 1672,
      "Ġantworte": 1673,
      "ĠÑĢÐ¾Ð±Ð¾ÑĤÑĸ": 1674,
      "Ð½Ð¸Ð³Ñĥ": 1675,
      "ĠTante": 1676,
      "Ġvor": 1677,
      "ĠschÃ¶nes": 1678,
      "ĠVerben": 1679,
      "Ġesst": 1680,
      "Ġdankst": 1681,
      "ĠÐ°Ð²ÑĤÐ¾": 1682,
      "rÃ¼": 1683,
      "satz": 1684,
      "ÐºÐ½Ð¸Ð³Ñĥ": 1685,
      "ĠÐ²Ð¾Ð»Ð¾Ð´": 1686,
      "ĠKommt": 1687,
      "ĠÐ²Ð¾Ð»Ð¾Ð´ÑĸÐ½Ð½Ñı": 1688,
      "Ð¾Ð½Ð°": 1689,
      "Ð°ÑĤÐ¸Ðº": 1690,
      "Ð°Ð¶": 1691,
      "tzen": 1692,
      "St": 1693,
      "ktiv": 1694,
      "ĠGestern": 1695,
      "lernst": 1696,
      "Ġfahre": 1697,
      "Lesen": 1698,
      "nen": 1699,
      "ÐµÑĤ": 1700,
      "ĠÐ¼Ð¾Ð¶": 1701,
      "lerne": 1702,
      "................................": 1703,
      "Ãľbung": 1704,
      "wei": 1705,
      "gel": 1706,
      "Ð¿ÑĢ": 1707,
      "ĠschlÃ¤fst": 1708,
      "Gehen": 1709,
      "Ġoder": 1710,
      "koche": 1711,
      "ĠschÃ¶ner": 1712,
      "positionen": 1713,
      "ug": 1714,
      "ul": 1715,
      "Ð°Ð¹": 1716,
      "Ã¤hrst": 1717,
      "ungen": 1718,
      "kochst": 1719,
      "spielst": 1720,
      "ĠÑĢÐ°Ð·": 1721,
      "00": 1722,
      "ad": 1723,
      "willst": 1724,
      "Ð°ÑĤÐ¸ÐºÐ°": 1725,
      "je": 1726,
      "Ġ/": 1727,
      "Ġâ": 1728,
      "ĠÑĪ": 1729,
      "orm": 1730,
      "ĠÐĶÐ¾ÑģÑĤ": 1731,
      "ĠSp": 1732,
      "det": 1733,
      "ÑģÑĤÐ°ÑĤÐ¸ÐºÐ°": 1734,
      "Lies": 1735,
      "Macht": 1736,
      "Machen": 1737,
      "her": 1738,
      "Ġp": 1739,
      "ÑĸÐ»": 1740,
      "ĠBe": 1741,
      "Ð½ÑĮÐ¾": 1742,
      "stell": 1743,
      "ragen": 1744,
      "ĠÐ¾Ð´Ð½Ð¾Ð³Ð¾": 1745,
      "Geh": 1746,
      "Geht": 1747,
      "Kommt": 1748,
      "Wie": 1749,
      "zen": 1750,
      "Ð½Ð¸": 1751,
      "ÐµÐ½ÑĤ": 1752,
      "Ġ-âĢľ": 1753,
      "ĠÐ¿Ð¾ÑĤÑĢÑĸÐ±Ð½Ð¾": 1754,
      "ĠÐ¿Ð¾Ð²ÑĤÐ¾ÑĢ": 1755,
      "Ð°ÑĤÐ½ÑĮÐ¾": 1756,
      "schlÃ¤ft": 1757,
      "Kommen": 1758,
      "ĠVerb": 1759,
      "ĠÑĢÐ°Ð·Ñĥ": 1760,
      "ĠÐĶÐ¾ÑģÑĤÐ°ÑĤÐ½ÑĮÐ¾": 1761,
      "ĠÐ¿Ð¾Ð²ÑĤÐ¾ÑĢÑİÐ²Ð°ÑĤÐ¸": 1762,
      "Mach": 1763,
      "Ġ*": 1764,
      "ÑĤÐ°": 1765,
      "ĠÐ¿Ð¾Ð´": 1766,
      "Ð´Ð²": 1767,
      "ĠÐ·Ð½Ð°": 1768,
      "âĢĻ": 1769,
      "Ġsuche": 1770,
      "wart": 1771,
      "Ġschlafen": 1772,
      "schlaft": 1773,
      "sten": 1774,
      "scha": 1775,
      "ĠÐ³ÑĢ": 1776,
      "ĠÑĢÐ¾Ð·": 1777,
      "Ġanrufst": 1778,
      "cken": 1779,
      "Ð¾ÑĪ": 1780,
      "Ð¾ÑĹ": 1781,
      "ÑĸÐ»ÑĮ": 1782,
      "ĠÐ¿ÐµÑĢÐµ": 1783,
      "Ġwird": 1784,
      "Ġschlafe": 1785,
      "Ð¸Ð³ÑĥÐ½": 1786,
      "Ð´Ð²Ð¸Ð³ÑĥÐ½": 1787,
      "ÑĸÑĢ": 1788,
      "ĠÐ²Ð¶": 1789,
      "Ġaufstehe": 1790,
      "Ġaufstehst": 1791,
      "ĠOn": 1792,
      "Lest": 1793,
      "hin": 1794,
      "zu": 1795,
      "ÐµÐº": 1796,
      "Ð°Ð»": 1797,
      "ÑĥÐ´": 1798,
      "Ã¶r": 1799,
      "Ð°ÑĤÐ¸ÑģÑı": 1800,
      "warst": 1801,
      "ĠOnkel": 1802,
      "eg": 1803,
      "pro": 1804,
      "ĠÐ´Ñĥ": 1805,
      "Ã¤tze": 1806,
      "ĠÑīÐ¾": 1807,
      "ma": 1808,
      "Ġst": 1809,
      "ĠÐĿ": 1810,
      "Ð°Ñģ": 1811,
      "ĠAn": 1812,
      "ĠBus": 1813,
      "Ð¸ÑĤÐ¸ÑģÑı": 1814,
      "fin": 1815,
      "kÃ¶nnt": 1816,
      "ÑĥÐº": 1817,
      "Ġmir": 1818,
      "ÑĸÑģÑĤÑĮ": 1819,
      "hatten": 1820,
      "Ġtrinkst": 1821,
      "ĠÑīÐ¾ÑģÑĮ": 1822,
      "ĠÐ¼Ð¾Ð¶Ð½Ð°": 1823,
      "lie": 1824,
      "musst": 1825,
      "Ġdir": 1826,
      "emp": 1827,
      "mÃ¼sst": 1828,
      "ĠĠĠĠ": 1829,
      "Ãľber": 1830,
      "schaft": 1831,
      "10": 1832,
      "iv": 1833,
      "Ġab": 1834,
      "Ð¸Ñĩ": 1835,
      "Ð¾Ð²Ð¸Ð¹": 1836,
      "hal": 1837,
      "ĠSatz": 1838,
      "ĠÐ¿ÑĢÐ¸": 1839,
      "):": 1840,
      "fÃ¼": 1841,
      "ga": 1842,
      "ik": 1843,
      "os": 1844,
      "¸ļ": 1845,
      "ÐºÐ¸Ð¹": 1846,
      "ĠÐ²Ðµ": 1847,
      "ĠDat": 1848,
      "eiÃŁ": 1849,
      "esse": 1850,
      "ÑİÐ±": 1851,
      "Ġanrufe": 1852,
      "Tasche": 1853,
      "og": 1854,
      "tern": 1855,
      "wen": 1856,
      "wollt": 1857,
      "ÑĸÑĤ": 1858,
      "ork": 1859,
      "Ð¾Ð²Ð°": 1860,
      "ĠÑģÐºÐ°Ð·": 1861,
      "Ġeinem": 1862,
      "setzen": 1863,
      "ĠfÃ¤hrst": 1864,
      "Ġâ¸ļ": 1865,
      "-,": 1866,
      "11": 1867,
      "Buch": 1868,
      "fle": 1869,
      "keit": 1870,
      "lan": 1871,
      "och": 1872,
      "ĠÃľber": 1873,
      "ÑĢÐ°ÑĤÐ¸": 1874,
      "ÑĥÑģ": 1875,
      "Ġwork": 1876,
      "Ã¤t": 1877,
      "ĠUn": 1878,
      "iert": 1879,
      "Ġunter": 1880,
      "siv": 1881,
      "ĠÐ·Ð½Ð°ÑĩÐµÐ½Ð½Ñı": 1882,
      "ĠÑģÐºÐ°Ð·Ð°ÑĤÐ¸": 1883,
      "Fahrrad": 1884,
      "nt": 1885,
      "ner": 1886,
      "zur": 1887,
      "ÐµÐ¹": 1888,
      "ÑĤÑı": 1889,
      "ins": 1890,
      "Ð»ÑıÑĤÐ¸": 1891,
      "Ġman": 1892,
      "Ġeinkaufe": 1893,
      "ĠÑĤÑĥÑĤ": 1894,
      "ĠÐºÐ¾Ð¼": 1895,
      "tel": 1896,
      "ĠRe": 1897,
      "verben": 1898,
      "ĠÑıÐº": 1899,
      "eben": 1900,
      "xiv": 1901,
      "Ġhttps": 1902,
      "ĠÐ¹": 1903,
      "Ð¼Ð°": 1904,
      "geb": 1905,
      "Ð¾Ð³Ð¾ÑģÑĮ": 1906,
      "ĠMan": 1907,
      "als": 1908,
      "trinke": 1909,
      "kannst": 1910,
      "flexiv": 1911,
      "TÃ¼r": 1912,
      "nom": 1913,
      "uf": 1914,
      "Ġam": 1915,
      "ĠÑĹ": 1916,
      "Ð¾Ñİ": 1917,
      "Ð°Ñħ": 1918,
      "Ð´Ðµ": 1919,
      "esst": 1920,
      "ĠSÃ¤tze": 1921,
      "Ð°Ð¼Ð¸": 1922,
      "ĠVor": 1923,
      "hlen": 1924,
      "olgen": 1925,
      "ĠPrÃ¤positionen": 1926,
      "Ġpas": 1927,
      "nomen": 1928,
      "Fenster": 1929,
      "hm": 1930,
      "hmen": 1931,
      "jun": 1932,
      "lung": 1933,
      "ri": 1934,
      "zeit": 1935,
      "ïĥ": 1936,
      "ĠJ": 1937,
      "ĠÑĨ": 1938,
      "ĠÐĳ": 1939,
      "ÑĢÐ¸": 1940,
      "Ġsoll": 1941,
      "ÑĨÑĸÑı": 1942,
      "Ġeinkaufst": 1943,
      "ïĥĺ": 1944,
      "';": 1945,
      ".:": 1946,
      "Frau": 1947,
      "Haus": 1948,
      "Ka": 1949,
      "Mutter": 1950,
      "kl": 1951,
      "lau": 1952,
      "rch": 1953,
      "was": 1954,
      "ĠÐ¡": 1955,
      "ĠÐµ": 1956,
      "ĠÐĽ": 1957,
      "ers": 1958,
      "assiv": 1959,
      "geben": 1960,
      "ĠÑģÐ²": 1961,
      "deut": 1962,
      "ĠDeutsche": 1963,
      "ischen": 1964,
      "ĠRei": 1965,
      "ĠEin": 1966,
      "Ð¸Ð²Ð°ÑĶÑĤÑĮÑģÑı": 1967,
      "Station": 1968,
      "ĠÐ²Ð¶Ð¸Ð²Ð°ÑĶÑĤÑĮÑģÑı": 1969,
      "pronomen": 1970,
      "ĠÃľbersetzen": 1971,
      "Auto": 1972,
      "Glas": 1973,
      "KÃ¼che": 1974,
      "Lampe": 1975,
      "ks": 1976,
      "richt": 1977,
      "vor": 1978,
      "wer": 1979,
      "ĠÑĤÐ¸": 1980,
      "ÑĸÑı": 1981,
      "ÑĸÐ·": 1982,
      "ord": 1983,
      "Ð¸Ñħ": 1984,
      "ÑĥÑĢ": 1985,
      "ĠÐ¼Ð¸": 1986,
      "Ð¾ÑĢÑĤ": 1987,
      "ĠFragen": 1988,
      "Ð¸Ð½Ð°": 1989,
      "amm": 1990,
      "ĠheiÃŁ": 1991,
      "ĠÐ»ÑİÐ±": 1992,
      "finitiv": 1993,
      "Katze": 1994,
      "15": 1995,
      "Bett": 1996,
      "In": 1997,
      "haus": 1998,
      "ire": 1999,
      "land": 2000,
      "pr": 2001,
      "pt": 2002,
      "zum": 2003,
      "Ð»Ñİ": 2004,
      "Ð¾Ð²Ð¾ÑĢ": 2005,
      "ÑģÐ»ÑĸÐ´": 2006,
      "gesch": 2007,
      "Ġwie": 2008,
      "anz": 2009,
      "Ð²Ð¸": 2010,
      "ĠÐ¿ÑĢÐ°": 2011,
      "unter": 2012,
      "Ð¶Ðµ": 2013,
      "ĠÑĤÐµÐ»Ðµ": 2014,
      "ÃŁen": 2015,
      "ÑĥÐ²Ð°Ð½Ð½Ñı": 2016,
      "imm": 2017,
      "schlÃ¤fst": 2018,
      "Ġschlafst": 2019,
      "schlafst": 2020,
      "Bild": 2021,
      "Zimmer": 2022,
      "heit": 2023,
      "la": 2024,
      "op": 2025,
      "Ġau": 2026,
      "Ġals": 2027,
      "ÑģÐ¿": 2028,
      "Ð°Ñĩ": 2029,
      "ÑĤÐµ": 2030,
      "ÑĤÐµÑĢ": 2031,
      "ÑĢÐ°Ð²": 2032,
      "einung": 2033,
      "Ð²Ð°Ð¶": 2034,
      "ĠâĢŀ": 2035,
      "schen": 2036,
      "unden": 2037,
      "Ġeiner": 2038,
      "ÑħÑĸÐ´": 2039,
      "ĠWel": 2040,
      "ĠÐ²ÑĸÐ´Ð¿": 2041,
      "Wohin": 2042,
      "trinkst": 2043,
      "ĠOr": 2044,
      "ÑĢÐ°ÑĹ": 2045,
      "jekt": 2046,
      "ĠheiÃŁt": 2047,
      "13": 2048,
      "16": 2049,
      "22": 2050,
      "Ver": 2051,
      "bo": 2052,
      "gÃ¤n": 2053,
      "ktion": 2054,
      "na": 2055,
      "od": 2056,
      "rach": 2057,
      "ÐĴ": 2058,
      "Ġ,": 2059,
      "Ġ8": 2060,
      "Ġre": 2061,
      "Ð»Ð¸Ð²": 2062,
      "ÑĥÐ¼": 2063,
      "ÐºÐ¾Ð¼": 2064,
      "han": 2065,
      "Ð²Ð¾": 2066,
      "ĠAus": 2067,
      "Ð¸Ð¼Ð¾ÑģÑĮ": 2068,
      "ĠÐºÑĥÐ¿": 2069,
      "Ð¾Ð»Ð¾Ð³": 2070,
      "ÑĪÐµ": 2071,
      "...": 2072,
      "hattet": 2073,
      "Woher": 2074,
      "jektiv": 2075,
      "ĠÐ³ÑĢÐ¾ÑĪ": 2076,
      "irekt": 2077,
      "12": 2078,
      "14": 2079,
      "Brot": 2080,
      "Hand": 2081,
      "bst": 2082,
      "ech": 2083,
      "hÃ¶": 2084,
      "igen": 2085,
      "uro": 2086,
      "Ġet": 2087,
      "Ġent": 2088,
      "ÐµÐ´": 2089,
      "Ð°Ð»Ð°": 2090,
      "Ġwer": 2091,
      "ĠâĢľ": 2092,
      "schie": 2093,
      "ĠÑĤÑĢ": 2094,
      "ĠForm": 2095,
      "Ġgi": 2096,
      "Ð²ÑĸÑĤ": 2097,
      "chte": 2098,
      "ale": 2099,
      "ÐºÐ°ÑĢ": 2100,
      "atur": 2101,
      "ĠPrÃ¤teritum": 2102,
      "reiben": 2103,
      "17": 2104,
      "30": 2105,
      "bjekt": 2106,
      "gin": 2107,
      "Ġ5": 2108,
      "Ġall": 2109,
      "ÐµÐ¼": 2110,
      "reich": 2111,
      "Ð¸ÑĤÑĮ": 2112,
      "ÑĥÐ·": 2113,
      "ÑĥÑģÑĤ": 2114,
      "ĠÐ½Ð°Ð²": 2115,
      "ang": 2116,
      "tik": 2117,
      "Ð°Ð³Ð°ÑĤ": 2118,
      "renn": 2119,
      "Ġdurch": 2120,
      "ĠWie": 2121,
      "ilden": 2122,
      "ĠÑħÐ¾Ñĩ": 2123,
      "Ð¿ÑĢÐ°Ð²": 2124,
      "ĠÐĿÐ°": 2125,
      "ĠÐµÐº": 2126,
      "odal": 2127,
      "Ġgibt": 2128,
      ".)": 2129,
      "djektiv": 2130,
      "form": 2131,
      "lo": 2132,
      "me": 2133,
      "nis": 2134,
      "uk": 2135,
      "zeu": 2136,
      "ĠÐ§": 2137,
      "ÐµÑĨÑĮ": 2138,
      "ÑĸÑĹ": 2139,
      "ing": 2140,
      "ÐºÑĢÐ°ÑĹ": 2141,
      "Ġda": 2142,
      "ĠÐ¿Ð¾Ð³": 2143,
      "ĠÐ´Ðµ": 2144,
      "Ã¼b": 2145,
      "âĢĿ": 2146,
      "del": 2147,
      "unde": 2148,
      "ĠÐºÐ¾Ð»": 2149,
      "Ð±Ð¸": 2150,
      "ĠPers": 2151,
      "Ġande": 2152,
      "ilm": 2153,
      "ĠÐ¢Ð¸": 2154,
      "ĠStad": 2155,
      "ĠÐ¯Ðº": 2156,
      "ĠÐĴÑĸÐ½": 2157,
      "junktiv": 2158,
      "deutsch": 2159,
      "Ġauch": 2160,
      "rennb": 2161,
      "odalverben": 2162,
      "AT": 2163,
      "RT": 2164,
      "fre": 2165,
      "ige": 2166,
      "kon": 2167,
      "prÃ¤": 2168,
      "rie": 2169,
      "to": 2170,
      "ze": 2171,
      "zie": 2172,
      "Ġ4": 2173,
      "Ġ6": 2174,
      "ÑĸÑĪ": 2175,
      "end": 2176,
      "ÑĥÐ½": 2177,
      "ĠÐ¿Ð°ÑĢ": 2178,
      "ÑģÐ»Ñĥ": 2179,
      "ĠÐ·Ð»": 2180,
      "Ġ(-": 2181,
      "aufs": 2182,
      "ĠmÃ¶": 2183,
      "ĠAdjektiv": 2184,
      "ÑĨÑı": 2185,
      "ĠBer": 2186,
      "arten": 2187,
      "ĠÑĦÑĸÐ»": 2188,
      "ĠÑĩÐ°Ñģ": 2189,
      "ÑĢÑĸÐ²": 2190,
      "Ð°Ð½Ð¸Ð¹": 2191,
      "alsatz": 2192,
      "Ġzw": 2193,
      "Ġimmer": 2194,
      "hattest": 2195,
      "nehmen": 2196,
      "ĠEuro": 2197,
      "ompar": 2198,
      "ÑīÐ¾": 2199,
      "elativ": 2200,
      "ĠÐĴÐ¾Ð½Ð°": 2201,
      "ÑģÑĮÐº": 2202,
      "Ġverwen": 2203,
      "ternet": 2204,
      "ĠUnter": 2205,
      "Ġpasst": 2206,
      "gÃ¤nzen": 2207,
      "Ġwerden": 2208,
      "29": 2209,
      "Bei": 2210,
      "Gabel": 2211,
      "Mann": 2212,
      "bau": 2213,
      "cke": 2214,
      "ffen": 2215,
      "ler": 2216,
      "rich": 2217,
      "âĹ": 2218,
      "ĨĴ": 2219,
      "Ð½ÑĸÑģÑĤÑĮ": 2220,
      "ÐµÑģÑĸ": 2221,
      "ÑıÐº": 2222,
      "reit": 2223,
      "ÐµÐ½Ð¸Ð¹": 2224,
      "ine": 2225,
      "inks": 2226,
      "Ð´Ð¶": 2227,
      "gew": 2228,
      "ĠÐ²ÑĸÐ½": 2229,
      "ĠÐ²Ð¸Ð³": 2230,
      "ĠwÃ¼r": 2231,
      "Ġges": 2232,
      "ĠSo": 2233,
      "sche": 2234,
      "ĠFl": 2235,
      "ĠÐºÐ°": 2236,
      "lle": 2237,
      "Ð¸ÑģÑĤÐ¸": 2238,
      "Ġgern": 2239,
      "inden": 2240,
      "ĠPassiv": 2241,
      "ungs": 2242,
      "ringen": 2243,
      "Ð¾Ð·Ð¸": 2244,
      "ĠÑĤÐ°Ðº": 2245,
      "issen": 2246,
      "ĠStra": 2247,
      "Ð²Ð°ÑĢ": 2248,
      "ÑģÑĮÐºÐ¸Ð¹": 2249,
      "ÑĥÐ´ÐµÐ½ÑĤ": 2250,
      "ĠÐ´ÑĥÐ¶Ðµ": 2251,
      "empor": 2252,
      "ĠĠĠĠĠĠĠĠ": 2253,
      "ĠÐ³ÑĢÐ¾ÑĪÑĸ": 2254,
      "âĹı": 2255,
      "18": 2256,
      "19": 2257,
      "23": 2258,
      "bild": 2259,
      "ckt": 2260,
      "di": 2261,
      "fÃ¤hrst": 2262,
      "glich": 2263,
      "mal": 2264,
      "ok": 2265,
      "pen": 2266,
      "ww": 2267,
      "ĠÐ¦": 2268,
      "Ð½Ñĥ": 2269,
      "ÑıÑĤÐ¸": 2270,
      "ÑģÐ¸": 2271,
      "cher": 2272,
      "Ð»ÐµÐ½Ð½Ñı": 2273,
      "ÑĥÑİ": 2274,
      "ingen": 2275,
      "inter": 2276,
      "ĠÐ¿Ð»": 2277,
      "ĠInternet": 2278,
      "ĠÐ·Ð²": 2279,
      "ĠwÃ¤": 2280,
      "Ġwel": 2281,
      "Ġgef": 2282,
      "Ð²ÑĸÐ´": 2283,
      "ĠBilden": 2284,
      "eitung": 2285,
      "ĠÐ¿ÑĢÐ¾Ð¿": 2286,
      "arn": 2287,
      "ĠFolgen": 2288,
      "Ð»ÑĮÐ½Ð¸Ð¹": 2289,
      "ĠÐ½Ð°Ð´": 2290,
      "ÑħÐ°ÑĤÐ¸": 2291,
      "ĠÑĸÐ¼": 2292,
      "ÑĸÐ²ÐµÑĢ": 2293,
      "onnen": 2294,
      "ĠKinder": 2295,
      "fahrst": 2296,
      "ĠGeb": 2297,
      "Ġbeim": 2298,
      "Ġfahrst": 2299,
      "ĠÐĴÐ¸": 2300,
      "Ð¾Ð½Ð¸": 2301,
      "halten": 2302,
      "laub": 2303,
      "Handy": 2304,
      "ÐºÑĢÐ°ÑĹÐ½": 2305,
      "ĠPerson": 2306,
      "25": 2307,
      "Re": 2308,
      "Teil": 2309,
      "dern": 2310,
      "dien": 2311,
      "dig": 2312,
      "ell": 2313,
      "ff": 2314,
      "fi": 2315,
      "mÃ¤": 2316,
      "pa": 2317,
      "par": 2318,
      "sicht": 2319,
      "zÃ¤": 2320,
      "Ġ9": 2321,
      "ĠÑĨÑĸ": 2322,
      "Ġ................................": 2323,
      "ĠÐŀ": 2324,
      "Ð¾ÑĤÐ¸": 2325,
      "ÐµÐ³": 2326,
      "ÑĸÐ³": 2327,
      "ÑģÐ¸ÑĤ": 2328,
      "Ð°ÑĪ": 2329,
      "org": 2330,
      "Ð¸ÑĢ": 2331,
      "ÑĤÑĸ": 2332,
      "ÑĢÐ¾Ð±": 2333,
      "ÐµÐ½ÑĮ": 2334,
      "stei": 2335,
      "Ð¾Ð²Ð¸": 2336,
      "Ð¾Ð²ÑĸÐ´": 2337,
      "ĠÐ¼ÑĥÐ·": 2338,
      "ĠÑģÐµ": 2339,
      "Ġgew": 2340,
      "ĠAb": 2341,
      "ĠAl": 2342,
      "ĠSte": 2343,
      "ĠÑģÑĤÑĥÐ´ÐµÐ½ÑĤ": 2344,
      "Ġnoch": 2345,
      "schw": 2346,
      "schule": 2347,
      "ÑĨÑĸÐ¾Ð½Ð°": 2348,
      "ĠFin": 2349,
      "see": 2350,
      "setz": 2351,
      "ĠÐºÐ¾Ð³Ð¾ÑģÑĮ": 2352,
      "ommen": 2353,
      "ĠMeinung": 2354,
      "ĠÐ½Ð°ÑĨÑĸÐ¾Ð½Ð°": 2355,
      "Ð·Ð°": 2356,
      "ĠErgÃ¤nzen": 2357,
      "teres": 2358,
      "itt": 2359,
      "ĠLand": 2360,
      "ĠLinks": 2361,
      "amen": 2362,
      "ĠRelativ": 2363,
      "ĠÐ³Ð¾Ð²Ð¾ÑĢ": 2364,
      "ĠÑĢÐ°Ð´": 2365,
      "Ġje": 2366,
      "cker": 2367,
      "verb": 2368,
      "ĠNeben": 2369,
      "ĠÐ»Ñĸ": 2370,
      "rÃ¼f": 2371,
      "ĠâĨĴ": 2372,
      "ĠÑĪÐº": 2373,
      "Ð½Ð¸Ñħ": 2374,
      "ĠÐ²Ð¶Ðµ": 2375,
      "gaben": 2376,
      "oss": 2377,
      "ĠReflexiv": 2378,
      "ĠReise": 2379,
      "Ð°Ð³Ð°ÑĤÐ¾": 2380,
      "bildung": 2381,
      "ÑĸÐ²ÐµÑĢÑģÐ¸ÑĤ": 2382,
      "fix": 2383,
      "Ġ................................................................": 2384,
      "ÑĸÐ²ÐµÑĢÑģÐ¸ÑĤÐµÑĤ": 2385,
      ",-": 2386,
      "24": 2387,
      "ast": 2388,
      "age": 2389,
      "bie": 2390,
      "bes": 2391,
      "drÃ¼": 2392,
      "fl": 2393,
      "fon": 2394,
      "fol": 2395,
      "hei": 2396,
      "ic": 2397,
      "rlaub": 2398,
      "Ðľ": 2399,
      "Ġe": 2400,
      "ÑĸÑİ": 2401,
      "ÑģÑĤÐ¸": 2402,
      "inga": 2403,
      "ĠÐ¼ÐµÐ½": 2404,
      "ĠÐ¼Ð°Ð³": 2405,
      "ĠÑģÐº": 2406,
      "Ð¾Ð¼ÑĥÑģÑĮ": 2407,
      "ĠDa": 2408,
      "tikel": 2409,
      "Ġbest": 2410,
      "Ð¿Ð°Ð´": 2411,
      "Ð¾Ð´Ð¸ÑĤÐ¸": 2412,
      "ĠÑĥÐ½": 2413,
      "ĠÐ¿ÑĢÐ¸Ð¹": 2414,
      "ĠFern": 2415,
      "ĠFra": 2416,
      "ĠÐºÐ°ÑĢ": 2417,
      "ĠÐºÐ¾Ð½": 2418,
      "ĠÐ¾ÑĢ": 2419,
      "Ð¾Ð»Ñĸ": 2420,
      "Ð°Ð²Ð°ÑĤÐ¸": 2421,
      "Ð°Ð¼Ð°": 2422,
      "ĠPerfekt": 2423,
      "Ð²ÑĸÐ·": 2424,
      "ĠHaupt": 2425,
      "Ġange": 2426,
      "ĠWohn": 2427,
      "ĠWort": 2428,
      "ĠUm": 2429,
      "ierte": 2430,
      "Ð¾ÑģÐ¸ÑĤÐ¸": 2431,
      "Ġzur": 2432,
      "hlt": 2433,
      "liche": 2434,
      "ÐµÑĢÑĤ": 2435,
      "ÐµÑĢÑĪ": 2436,
      "beim": 2437,
      "Ð¸Ð²Ð°ÑĤÐ¸": 2438,
      "Ð¾ÑĩÐ¸Ð½": 2439,
      "ĠPrÃ¤fix": 2440,
      "ĠÐ»ÑİÐ±Ð»Ñİ": 2441,
      "ĠÐ¿ÑĢÐ°ÑĨ": 2442,
      "ĠwÃ¤re": 2443,
      "ingap": 2444,
      "60": 2445,
      "Ar": 2446,
      "Fre": 2447,
      "Kon": 2448,
      "Man": 2449,
      "Pl": 2450,
      "Un": 2451,
      "are": 2452,
      "fr": 2453,
      "fÃ¤": 2454,
      "fangen": 2455,
      "hÃ¤n": 2456,
      "ram": 2457,
      "ĠÑģÐ»ÑĸÐ´": 2458,
      "Ġrich": 2459,
      "ÑĸÐ»ÑĮÐ½": 2460,
      "Ð°Ðº": 2461,
      "ÐµÐ½Ð´Ð°": 2462,
      "Ð»Ð¸Ðº": 2463,
      "era": 2464,
      "Ð¼Ð¾Ð²": 2465,
      "ÐºÑĤ": 2466,
      "ÑĩÐ¸Ð¹": 2467,
      "ĠInfinitiv": 2468,
      "Ð´Ð¸Ð½": 2469,
      "assen": 2470,
      "aut": 2471,
      "haft": 2472,
      "ĠÐ¼ÐµÐ½Ñĸ": 2473,
      "ĠÑģÐµÑĢ": 2474,
      "Ð»ÑıÐ´": 2475,
      "Ġwich": 2476,
      "eiden": 2477,
      "utz": 2478,
      "Ð¾ÑĢÐ¾Ð¶": 2479,
      "Ġbis": 2480,
      "Ã¼ler": 2481,
      "Ð¸Ð¼Ð¸": 2482,
      "ĠSe": 2483,
      "ĠÐ¿ÑĢÐ¾Ð´": 2484,
      "ĠÐ·Ð°Ð±": 2485,
      "ĠKl": 2486,
      "Ġdiese": 2487,
      "ĠÐ±Ñĸ": 2488,
      "ÑĪÑĤ": 2489,
      "hnen": 2490,
      "Ð½ÐµÑĢ": 2491,
      "Ġschon": 2492,
      "ĠÐ¼ÑĸÑģÑĨÐµ": 2493,
      "ĠSchÃ¼ler": 2494,
      "ĠÑĸÐ·": 2495,
      "ald": 2496,
      "Ð°ÑĤÐ°": 2497,
      "immen": 2498,
      "ĠÐ³Ð°ÑĢ": 2499,
      "learn": 2500,
      "lefon": 2501,
      "seln": 2502,
      "Ã¤lt": 2503,
      "sieren": 2504,
      "Schrank": 2505,
      "Ð°ÑİÑĤÑĮ": 2506,
      "ĠÑĢÐ¾Ð±Ð¾Ñĩ": 2507,
      "ĠPrÃ¤position": 2508,
      "Ð¾ÑģÑĤÑĸ": 2509,
      "Stu": 2510,
      "geln": 2511,
      "ÑĸÐ»ÑĮÐ¼": 2512,
      "ĠÐ´ÑĥÐ¼": 2513,
      "ĠÐ²ÐµÑĩ": 2514,
      "ĠÑĤÐµÐ»ÐµÐ²ÑĸÐ·": 2515,
      "Ð¾Ð»Ð¾Ð³ÑĸÑĹ": 2516,
      "irekte": 2517,
      "Ġetwas": 2518,
      "endungen": 2519,
      "ĠmÃ¶chte": 2520,
      "Ġzwischen": 2521,
      "rÃ¼fung": 2522,
      "ĠÐ¼Ð°Ð³Ð°Ð·": 2523,
      "ĠÑĥÐ½ÑĸÐ²ÐµÑĢÑģÐ¸ÑĤÐµÑĤ": 2524,
      "26": 2525,
      "27": 2526,
      "28": 2527,
      "CH": 2528,
      "Ein": 2529,
      "TE": 2530,
      "Zeitung": 2531,
      "eer": 2532,
      "fall": 2533,
      "gl": 2534,
      "hÃ¶r": 2535,
      "latz": 2536,
      "lbst": 2537,
      "ran": 2538,
      "tner": 2539,
      "uhe": 2540,
      "vest": 2541,
      "verl": 2542,
      "xt": 2543,
      "Ġ.": 2544,
      "Ġen": 2545,
      "Ġgen": 2546,
      "Ġ...": 2547,
      "ĠÐĲ": 2548,
      "ÑıÐ³": 2549,
      "ÑĸÐ¼": 2550,
      "ÑĥÐ±": 2551,
      "inn": 2552,
      "ĠIm": 2553,
      "ÐºÐ¾": 2554,
      "Ð¾Ð²Ð¾": 2555,
      "ĠÐ¿Ð¾Ðº": 2556,
      "ĠÐ´Ð¸Ð²": 2557,
      "aul": 2558,
      "ĠÐ·Ð½": 2559,
      "geord": 2560,
      "ĠÐ²Ð¾Ð½Ð°": 2561,
      "eigen": 2562,
      "Ġso": 2563,
      "ÑĤÐ¸ÑģÑı": 2564,
      "Ġgel": 2565,
      "Ġgesch": 2566,
      "tisch": 2567,
      "ĠÐ£ÐºÑĢÐ°ÑĹÐ½": 2568,
      "Ð»ÑĮÑĤ": 2569,
      "Ã¼tz": 2570,
      "ĠBau": 2571,
      "eite": 2572,
      "ÑĨÑĸÑĹ": 2573,
      "ĠÐ¿ÑĢÐ¾Ð²": 2574,
      "arf": 2575,
      "ĠÑĩÐ¸": 2576,
      "ĠÑĩÐ¾Ð¼ÑĥÑģÑĮ": 2577,
      "unkt": 2578,
      "ĠFilm": 2579,
      "ĠKont": 2580,
      "ĠÐºÐ¾Ð»Ð¸": 2581,
      "ĠÐ¾Ð´": 2582,
      "ÐµÑĢÐµÐ·": 2583,
      "ĠMÃ¼": 2584,
      "ĠMit": 2585,
      "ĠModalverben": 2586,
      "Ð±ÑĥÐ´": 2587,
      "usam": 2588,
      "ĠArtikel": 2589,
      "Ð·Ð²": 2590,
      "ĠfÃ¼": 2591,
      "Ġfolgen": 2592,
      "ÑħÐ¾Ð´": 2593,
      "ĠSchw": 2594,
      "ĠSchul": 2595,
      "ĠÑĸÐ½ÑĪ": 2596,
      "Ð°Ð»ÑĮÐ½Ð¸Ð¹": 2597,
      "Ġkon": 2598,
      "ÃŁe": 2599,
      "itÃ¤t": 2600,
      "Ġ->": 2601,
      "Ġselbst": 2602,
      "achten": 2603,
      "ildet": 2604,
      "altung": 2605,
      "ĠÐ½ÑĸÐ¼ÐµÑĨÑĮÐºÐ¾ÑĹ": 2606,
      "ĠGesch": 2607,
      "neten": 2608,
      "ÑģÑĤÐ²Ð¾": 2609,
      "ĠÐ³Ð¾Ð´": 2610,
      "ĠÐ³Ð¾ÑĤ": 2611,
      "izeit": 2612,
      "ĠHandlung": 2613,
      "ĠâĢ¦:": 2614,
      "lassen": 2615,
      "Ġbesch": 2616,
      "erein": 2617,
      "elma": 2618,
      "ĠĠĠ": 2619,
      "Ġoft": 2620,
      "stellen": 2621,
      "Ð½Ð¸Ð¶": 2622,
      "ĠÐ¿Ð¾Ð´Ð¾ÑĢÐ¾Ð¶": 2623,
      "Ã¶rter": 2624,
      "ĠÐĿÑĸ": 2625,
      "liegen": 2626,
      "ogra": 2627,
      "gebot": 2628,
      "flexive": 2629,
      "waschen": 2630,
      "ĠWelche": 2631,
      "nahm": 2632,
      "Ġverwendet": 2633,
      "ĠwÃ¼rde": 2634,
      "ĠÑĸÐ¼ÐµÐ½Ñĸ": 2635,
      "mÃ¤ÃŁ": 2636,
      "ĠNebensatz": 2637,
      "ĠReflexivpronomen": 2638,
      "Ġ................................................................................": 2639,
      "ingapps": 2640,
      "Freund": 2641,
      "learningapps": 2642,
      "ĠÑĤÐµÐ»ÐµÐ²ÑĸÐ·Ð¾ÑĢ": 2643,
      "ĠÐ¼Ð°Ð³Ð°Ð·Ð¸Ð½": 2644,
      "vestor": 2645,
      "geordneten": 2646,
      "usammen": 2647,
      "20": 2648,
      "21": 2649,
      "47": 2650,
      "88": 2651,
      "An": 2652,
      "IL": 2653,
      "NG": 2654,
      "RA": 2655,
      "SCH": 2656,
      "Um": 2657,
      "UNG": 2658,
      "dlich": 2659,
      "fer": 2660,
      "hung": 2661,
      "hÃ¤lt": 2662,
      "mel": 2663,
      "ob": 2664,
      "teil": 2665,
      "ust": 2666,
      "wel": 2667,
      "ym": 2668,
      "zw": 2669,
      "ĠQ": 2670,
      "Ġfe": 2671,
      "ĠÑĢÑĸ": 2672,
      "Ġemp": 2673,
      "Ð½ÑĤ": 2674,
      "ÑģÑĤÑĮ": 2675,
      "recher": 2676,
      "Ð¸Ð»": 2677,
      "Ð¸Ð´": 2678,
      "Ð¸Ð»Ð°": 2679,
      "ende": 2680,
      "ÑĢÐ¿": 2681,
      "ÑĢÐ½Ð¸Ð¹": 2682,
      "ÐµÐ½Ð´": 2683,
      "ÑĥÑĤÑĮ": 2684,
      "ĠChe": 2685,
      "ÑĶÐ¼": 2686,
      "Ð¼Ñĸ": 2687,
      "infinitiv": 2688,
      "ÐºÐ°Ð²": 2689,
      "ÑĩÐ°ÑĤÐ¸": 2690,
      "Ð¾Ð²ÑĥÐ²Ð°ÑĤÐ¸": 2691,
      "ĠInvestor": 2692,
      "auber": 2693,
      "ĠÐ·Ð´": 2694,
      "ĠÐ·Ð±": 2695,
      "ĠÑģÐ²ÑĸÑĤ": 2696,
      "ĠÐ²Ð¸ÑĤ": 2697,
      "anden": 2698,
      "Ġgeb": 2699,
      "Ġget": 2700,
      "Ð²Ð¾Ñĩ": 2701,
      "Ð¾ÑĢÐ¸": 2702,
      "Ð¾Ð³Ð¾Ð´": 2703,
      "irma": 2704,
      "ÑĦÐ¾Ð½": 2705,
      "ĠSomm": 2706,
      "Ġnur": 2707,
      "eiten": 2708,
      "Ã¤u": 2709,
      "ÑĨÑĸÑİ": 2710,
      "ark": 2711,
      "ĠÑĩÐ¾Ð³Ð¾ÑģÑĮ": 2712,
      "ĠÑĩÐ¸Ð¼Ð¾ÑģÑĮ": 2713,
      "ĠFÃ¤": 2714,
      "ĠKar": 2715,
      "ĠÐ¾Ñĩ": 2716,
      "ĠÐ¾Ð¿": 2717,
      "ĠÐ¾Ñħ": 2718,
      "llen": 2719,
      "ĠÑĦÑĸÐ»ÑĮÐ¼": 2720,
      "ĠÐ¿Ð¾Ñģ": 2721,
      "ĠÐ¿Ð¾ÑĹ": 2722,
      "Ð±Ðµ": 2723,
      "usik": 2724,
      "ĠTre": 2725,
      "ĠTÃ¤": 2726,
      "ĠÐ±Ð°Ð½": 2727,
      "ĠÐ±ÑĢÐ°ÑĤÐ¸": 2728,
      "Ð°Ð½Ð¾": 2729,
      "Ð°Ð½ÑĤ": 2730,
      "pel": 2731,
      "Ġfin": 2732,
      "ĠÑĸÐ½ÑĤÐµÑĢ": 2733,
      "alen": 2734,
      "Ġzwei": 2735,
      "ĠUrlaub": 2736,
      "Ġverl": 2737,
      "ĠFreizeit": 2738,
      "Ġhinter": 2739,
      "att": 2740,
      "ĠÐľÐ¸": 2741,
      "igkeit": 2742,
      "Geld": 2743,
      "ĠLeben": 2744,
      "vers": 2745,
      "brauch": 2746,
      "Ġ18": 2747,
      "Ġverb": 2748,
      "Ġbekommen": 2749,
      "Ġbegin": 2750,
      "weiz": 2751,
      "ult": 2752,
      "ular": 2753,
      "Ð°Ð¹Ð±": 2754,
      "ĠSpiel": 2755,
      "stellt": 2756,
      "stellung": 2757,
      "ĠÑĢÐ¾Ð·Ð¿": 2758,
      "ÑĸÐ»ÑĮÑĪ": 2759,
      "ĠÐ¹Ð¾Ð³Ð¾": 2760,
      "ĠÐ¹Ð´Ðµ": 2761,
      "ĠJa": 2762,
      "Ġsollte": 2763,
      "ĠÐĽÐµÑģÑĸ": 2764,
      "laden": 2765,
      "boten": 2766,
      "rache": 2767,
      "ĠÑħÐ¾ÑĩÐµ": 2768,
      "Ġandere": 2769,
      "ĠStadt": 2770,
      "ĠÐ¯ÐºÑīÐ¾": 2771,
      "ziehen": 2772,
      "ĠÑĦÑĸÐ»Ð¾Ð»Ð¾Ð³ÑĸÑĹ": 2773,
      "bauen": 2774,
      "reiten": 2775,
      "emporale": 2776,
      "ĠÐ¿ÑĢÐ¾Ð¿Ð¾Ð·Ð¸": 2777,
      "ĠÐ¼ÑĥÐ·Ð¸Ðº": 2778,
      "ĠÐ³Ð¾Ð²Ð¾ÑĢÐ¸ÑĤÐ¸": 2779,
      "Ġjeden": 2780,
      "Ġrichti": 2781,
      "TEIL": 2782,
      "ĠÐ£ÐºÑĢÐ°ÑĹÐ½ÐºÐ¸": 2783,
      "ĠSommer": 2784,
      "07": 2785,
      "36": 2786,
      "50": 2787,
      "96": 2788,
      "Be": 2789,
      "Dat": 2790,
      "EF": 2791,
      "EM": 2792,
      "ERT": 2793,
      "HEM": 2794,
      "IK": 2795,
      "Im": 2796,
      "IEF": 2797,
      "MM": 2798,
      "Mit": 2799,
      "ORT": 2800,
      "STEIL": 2801,
      "THEM": 2802,
      "Wenn": 2803,
      "agen": 2804,
      "bar": 2805,
      "brechen": 2806,
      "ii": 2807,
      "itz": 2808,
      "jug": 2809,
      "kra": 2810,
      "nung": 2811,
      "ogen": 2812,
      "ossen": 2813,
      "ppe": 2814,
      "rund": 2815,
      "sa": 2816,
      "sam": 2817,
      "tschaft": 2818,
      "wo": 2819,
      "zug": 2820,
      "©Ð¾": 2821,
      "Ġa": 2822,
      "Ġind": 2823,
      "Ð½Ð¾Ð¼": 2824,
      "Ð½Ð¾Ð¼Ñĥ": 2825,
      "Ð½ÑĸÐ¹": 2826,
      "Ð¾Ñħ": 2827,
      "Ð¾Ñī": 2828,
      "ÐµÐ»ÑĮ": 2829,
      "ÐµÑĨÑĸ": 2830,
      "ÑıÐ²": 2831,
      "ÑıÐ·": 2832,
      "ÑģÑĥ": 2833,
      "ret": 2834,
      "Ð°Ð»Ð¸": 2835,
      "ÑĥÑĪ": 2836,
      "Ð¼Ð°ÑĤÐ¸": 2837,
      "innen": 2838,
      "stÃ¼r": 2839,
      "ÐºÐ»Ð°Ð´": 2840,
      "ÑĩÐ½Ð¾": 2841,
      "Ð¾Ð²Ð½Ð¸Ð¹": 2842,
      "ÑģÐ½Ð¸Ð¹": 2843,
      "ĠÐ¿Ð¾Ð¼": 2844,
      "ĠÐ¿Ð¾Ð¿": 2845,
      "ĠÐ´Ð¾Ð¼": 2846,
      "ĠÐ´ÑĸÑĶ": 2847,
      "ĠÐ´Ð¾Ð´": 2848,
      "asse": 2849,
      "ĠÐ¼Ð°ÑĤ": 2850,
      "ĠÐ½Ð¾Ð²": 2851,
      "ĠÑģÐ¼Ð°": 2852,
      "ĠÐ²Ð±": 2853,
      "Ġwann": 2854,
      "ange": 2855,
      "ÑĤÐ¸Ð¹": 2856,
      "hrung": 2857,
      "Ġmal": 2858,
      "ÑĸÐ´Ð¾Ð¼": 2859,
      "Ð²Ð¸Ð¹": 2860,
      "Ð²ÐµÑĢ": 2861,
      "ĠAuf": 2862,
      "ÑĨÑĤ": 2863,
      "ĠBl": 2864,
      "ĠÑĢÐµÐºÐ¾Ð¼": 2865,
      "ĠÑģÑĤÐ¾ÑĹ": 2866,
      "ĠÑģÑĤÑĢÐ°Ð²": 2867,
      "ĠÑĥÑĩ": 2868,
      "ĠÐ¿ÑĢÐ¾Ð±": 2869,
      "ĠHo": 2870,
      "ĠHer": 2871,
      "ĠHoch": 2872,
      "ĠFall": 2873,
      "ĠFirma": 2874,
      "ĠKre": 2875,
      "ĠÐºÐ¸Ð¼Ð¾ÑģÑĮ": 2876,
      "ĠÐ¾Ð²Ð¾Ñĩ": 2877,
      "Ð¾Ð»Ð¸Ð½": 2878,
      "ĠÐ·Ð°Ñħ": 2879,
      "Ð»ÑĮÐ½Ð¾Ð³Ð¾": 2880,
      "ĠMen": 2881,
      "ĠGarten": 2882,
      "ĠGRA": 2883,
      "Ġganz": 2884,
      "Ð°Ð²ÑģÑı": 2885,
      "ĠTag": 2886,
      "Ġaufge": 2887,
      "ĠSubjekt": 2888,
      "ĠÐ½Ð°ÑĢÐ¾Ð´": 2889,
      "ĠÐ½Ð°ÑĪ": 2890,
      "ĠZug": 2891,
      "ichten": 2892,
      "ĠÐ±Ð°Ð³Ð°ÑĤÐ¾": 2893,
      "Ð°Ð½Ñĸ": 2894,
      "ĠÑģÐ¿ÑĸÐ²": 2895,
      "best": 2896,
      "Ġtrennb": 2897,
      "Ã¶glich": 2898,
      "ÑĸÑģÑĤ": 2899,
      "ĠSchreiben": 2900,
      "ĠÐ±ÑĥÐ´Ð¸Ð½": 2901,
      "ĠWendungen": 2902,
      "ĠWORT": 2903,
      "one": 2904,
      "itten": 2905,
      "ĠÐ¶Ð¸ÑĤ": 2906,
      "erlativ": 2907,
      "etter": 2908,
      "ĠÐ¿Ð¾Ð²ÐµÑĢ": 2909,
      "ĠÐ¿Ð¾Ð²ÑĸÐ´Ð¾Ð¼": 2910,
      "ĠFreunde": 2911,
      "ĠVERT": 2912,
      "ĠReg": 2913,
      "ÑģÑĤÑĢÑĥ": 2914,
      "Ð»Ð°ÑĪÑĤ": 2915,
      "Ġviele": 2916,
      "hol": 2917,
      "hoch": 2918,
      "ĠâĢ¦.": 2919,
      "ĠEssen": 2920,
      "Ġ20": 2921,
      "mittel": 2922,
      "ĠNot": 2923,
      "ĠNatur": 2924,
      "ĠÑīÐµ": 2925,
      "ÑĢÐ°ÑĪ": 2926,
      "Ġ12": 2927,
      "ational": 2928,
      "ĠÃ¼bergeordneten": 2929,
      "ĠÐ²Ð¸Ð¿Ð°Ð´": 2930,
      "Ã¤ndern": 2931,
      "ĠÐ´Ð¾ÑħÑĸÐ´": 2932,
      "Ð¿ÑĢÐ¾": 2933,
      "ĠBeantworten": 2934,
      "stelle": 2935,
      "halt": 2936,
      "junktion": 2937,
      "rift": 2938,
      "Ġsollten": 2939,
      "klin": 2940,
      "ĠÑĤÐµÐ»ÐµÑĦÐ¾Ð½": 2941,
      "Ð²Ð°Ð¶Ð°Ñİ": 2942,
      "ĠOrd": 2943,
      "handel": 2944,
      "ĠÐ½Ð°Ð²Ñĩ": 2945,
      "zeug": 2946,
      "ATZ": 2947,
      "ATIK": 2948,
      "prÃ¤ch": 2949,
      "omparativ": 2950,
      "omparation": 2951,
      "ÑģÑĮÐºÐ¾Ð³Ð¾": 2952,
      "ĠÐºÐ°ÑĦ": 2953,
      "ĠStraÃŁen": 2954,
      "ĠÑĨÑĸÐºÐ°Ð²": 2955,
      "steig": 2956,
      "drÃ¼cken": 2957,
      "heim": 2958,
      "ĠÐ¼ÐµÐ½Ðµ": 2959,
      "ĠHauptsatz": 2960,
      "ĠWohnung": 2961,
      "Ġwichtig": 2962,
      "SCHATZ": 2963,
      "UNGSTEIL": 2964,
      "welt": 2965,
      "IEFUNGSTEIL": 2966,
      "MMATIK": 2967,
      "THEMA": 2968,
      "ĠÑģÑĤÐ¾ÑĹÑĤÑĮ": 2969,
      "ĠGRAMMATIK": 2970,
      "ĠWORTSCHATZ": 2971,
      "ĠVERTIEFUNGSTEIL": 2972,
      "37": 2973,
      "40": 2974,
      "79": 2975,
      "Ab": 2976,
      "Ap": 2977,
      "Aus": 2978,
      "Akk": 2979,
      "Auf": 2980,
      "Bahn": 2981,
      "Co": 2982,
      "Computer": 2983,
      "Ma": 2984,
      "Su": 2985,
      "Tisch": 2986,
      "eklin": 2987,
      "fragen": 2988,
      "finden": 2989,
      "gie": 2990,
      "io": 2991,
      "iÃŁ": 2992,
      "ion": 2993,
      "itze": 2994,
      "ivers": 2995,
      "punkt": 2996,
      "rÃ¼n": 2997,
      "so": 2998,
      "son": 2999,
      "tlich": 3000,
      "wa": 3001,
      "we": 3002,
      "zieren": 3003,
      "zent": 3004,
      "zogen": 3005,
      "ÐŁ": 3006,
      "ĠÃ¼b": 3007,
      "ĠÐĩ": 3008,
      "ĠÐĵ": 3009,
      "ĠÐ©Ð¾": 3010,
      "Ð½ÑĶ": 3011,
      "ÐµÐ»": 3012,
      "ÐµÑĢÑĸ": 3013,
      "ÐµÐ¶": 3014,
      "ÐµÑĢÑĥ": 3015,
      "ÑģÑĸÐ´": 3016,
      "reflexive": 3017,
      "Ð¸Ð±": 3018,
      "Ð¸ÑĪ": 3019,
      "ÑĤÑĤÑı": 3020,
      "ÑĢÐ¾Ð·": 3021,
      "ÑĥÐ»ÑĮÑĤ": 3022,
      "inen": 3023,
      "standen": 3024,
      "ÐºÑĢ": 3025,
      "iere": 3026,
      "ieder": 3027,
      "Ð¾Ð²ÐºÐ°": 3028,
      "ĠÐ¿ÑĢÐµ": 3029,
      "Ð´ÑĸÐ»": 3030,
      "asch": 3031,
      "ĠÐ¼Ñĸ": 3032,
      "ĠÐ¼Ð¾ÑĢ": 3033,
      "ĠÐ¼Ð¾Ð²Ð¸": 3034,
      "ÑĮÐ¾Ð³Ð¾Ð´": 3035,
      "geld": 3036,
      "ĠÑģÐ¼": 3037,
      "ÑĸÑĶÑİ": 3038,
      "ĠÐ²Ð¾Ð½Ð¸": 3039,
      "ander": 3040,
      "ĠDach": 3041,
      "eist": 3042,
      "eiger": 3043,
      "Ġgem": 3044,
      "Ġkenn": 3045,
      "aufgaben": 3046,
      "ĠAuss": 3047,
      "ĠAktiv": 3048,
      "ÑĨÐµÐ½ÑĤ": 3049,
      "irge": 3050,
      "ĠBo": 3051,
      "ĠBei": 3052,
      "ĠSing": 3053,
      "âĢĺ": 3054,
      "Ð¾Ð´Ð¸Ñĩ": 3055,
      "achsen": 3056,
      "ĠnÃ¤": 3057,
      "schrift": 3058,
      "ĠÐ·Ð°Ð³": 3059,
      "ĠHa": 3060,
      "genommen": 3061,
      "ĠÐºÑĢ": 3062,
      "ĠÐºÐ»": 3063,
      "ĠÐºÐ°Ð²": 3064,
      "ĠÐºÑĥÑĢ": 3065,
      "ÑİÑĤÑĮ": 3066,
      "llig": 3067,
      "ĠÐ·Ð°Ð¼Ð¾Ð²": 3068,
      "ĠÐ·Ð°ÑĢÐ¿": 3069,
      "feste": 3070,
      "ĠÑĦÑĸÑĢ": 3071,
      "ĠMeer": 3072,
      "ĠGer": 3073,
      "ĠGem": 3074,
      "Ð±Ð°": 3075,
      "ĠTur": 3076,
      "ÑĢÑĸÑĹ": 3077,
      "ĠÐ½Ð°ÑĥÐº": 3078,
      "ĠPo": 3079,
      "ĠPosition": 3080,
      "ĠPrÃ¼fung": 3081,
      "ĠPaul": 3082,
      "Ð½Ð°Ð»": 3083,
      "Ð²ÑĸÑģÑĤÑĮ": 3084,
      "Ð½ÑıÑĤÑĤÑı": 3085,
      "ĠÑģÐ¿ÐµÑĨÑĸ": 3086,
      "Ġersten": 3087,
      "beg": 3088,
      "isten": 3089,
      "Ġschw": 3090,
      "ĠSchweiz": 3091,
      "gesprÃ¤ch": 3092,
      "ĠWun": 3093,
      "alte": 3094,
      "ische": 3095,
      "ĠLie": 3096,
      "wort": 3097,
      "erman": 3098,
      "Ġsicher": 3099,
      "ĠÐľÐµÐ½Ñĸ": 3100,
      "ĠEn": 3101,
      "etzten": 3102,
      "ĠâĢ¦,": 3103,
      "ĠÑĢÐ¾Ðº": 3104,
      "SchlÃ¼ssel": 3105,
      "lasse": 3106,
      "ĠÐ¾ÑģÐ¾Ð±": 3107,
      "ĠKonjunktiv": 3108,
      "ĠOp": 3109,
      "ĠObjekt": 3110,
      "Ð¾Ð½Ð¾Ð¼": 3111,
      "ÑĢÐ°Ñħ": 3112,
      "ÑģÑĮÐºÐ°": 3113,
      "Ð¾ÑĩÐµ": 3114,
      "ĠÑħÐ¾ÑĤÑĸ": 3115,
      "ĠÐ²Ð¸Ð±": 3116,
      "ĠÐ¿ÑĢÐ¾ÑĦ": 3117,
      "ĠÐ´Ð¾ÑĨÐµÐ½ÑĤ": 3118,
      "gelmÃ¤ÃŁ": 3119,
      "ÐµÐºÑĤÐ¸": 3120,
      "egation": 3121,
      "matik": 3122,
      "Ġstatt": 3123,
      "Ġabge": 3124,
      "Ð¸ÑĩÐ°Ð¹": 3125,
      "ĠSatzende": 3126,
      "lang": 3127,
      "ĠÑĹÑĹ": 3128,
      "richten": 3129,
      "opf": 3130,
      "oppel": 3131,
      "ĠÐ²ÑĸÐ´Ð¿ÑĥÑģÑĤ": 3132,
      "ĠÐ²ÑĸÐ´Ð¿Ð¾Ð²ÑĸÐ´": 3133,
      "ĠÐºÑĥÐ¿Ð¸ÑĤÐ¸": 3134,
      "hÃ¶ren": 3135,
      "schieden": 3136,
      "ÑĥÑģÑĤÑĢÑĸ": 3137,
      "zeugen": 3138,
      "Ġdavon": 3139,
      "Ġanderen": 3140,
      "ĠÐ¿Ð°ÑĢÑĤ": 3141,
      "ĠÐ·Ð»Ð¾ÑĩÐ¸Ð½": 3142,
      "ĠAdjektive": 3143,
      "ĠÑĩÐ°ÑģÑĥ": 3144,
      "ĠFlug": 3145,
      "Ġgerne": 3146,
      "dium": 3147,
      "www": 3148,
      "ĠÐ¦Ðµ": 3149,
      "ĠGebÃ¤u": 3150,
      "ĠFinalsatz": 3151,
      "ĠÐ½Ð°ÑĨÑĸÐ¾Ð½Ð°Ð»ÑĮÐ½Ð¾Ð³Ð¾": 3152,
      "ico": 3153,
      "ĠFernsehen": 3154,
      "ĠFrage": 3155,
      "ĠÐ¿ÑĢÐ°ÑĨÑİ": 3156,
      "Arbeit": 3157,
      "ĠÐ¾Ð´ÑıÐ³": 3158,
      "Ġkonjug": 3159,
      "ograf": 3160,
      "hÃ¤ltnis": 3161,
      "ĠÑĢÑĸÐ·": 3162,
      "Ġfinde": 3163,
      "Ġbeginnt": 3164,
      "Ð°Ð¹Ð±ÑĥÑĤ": 3165,
      "ĠÐ²Ð±Ð¸Ð²": 3166,
      "ĠÐ¿ÑĢÐ¾Ð±Ð»Ðµ": 3167,
      "hochschule": 3168,
      "iversitÃ¤t": 3169,
      "ÑĮÐ¾Ð³Ð¾Ð´Ð½Ñĸ": 3170,
      "Ġkenne": 3171,
      "ĠÐ·Ð°ÑĢÐ¿Ð»": 3172,
      "!!": 3173,
      "34": 3174,
      "48": 3175,
      "Fach": 3176,
      "Hund": 3177,
      "SB": 3178,
      "Vater": 3179,
      "Wel": 3180,
      "__": 3181,
      "ati": 3182,
      "aden": 3183,
      "bÃ¼": 3184,
      "bahn": 3185,
      "bringen": 3186,
      "dir": 3187,
      "eter": 3188,
      "ehmen": 3189,
      "film": 3190,
      "go": 3191,
      "glei": 3192,
      "gab": 3193,
      "gang": 3194,
      "garten": 3195,
      "ick": 3196,
      "itzen": 3197,
      "itik": 3198,
      "jahr": 3199,
      "ker": 3200,
      "kehr": 3201,
      "komparation": 3202,
      "md": 3203,
      "mm": 3204,
      "modalverben": 3205,
      "oren": 3206,
      "passiv": 3207,
      "rag": 3208,
      "rim": 3209,
      "san": 3210,
      "sum": 3211,
      "siert": 3212,
      "smittel": 3213,
      "tre": 3214,
      "tag": 3215,
      "tieren": 3216,
      "trennb": 3217,
      "zei": 3218,
      "Ãĸ": 3219,
      "ÐĲ": 3220,
      "ÐĿ": 3221,
      "Ġ:": 3222,
      "Ġ=": 3223,
      "ĠNom": 3224,
      "ĠÑģÐ»Ñĥ": 3225,
      "Ð½Ð¸Ð¼": 3226,
      "ÑģÑĤÑĢ": 3227,
      "reis": 3228,
      "Ð°Ð»ÑĮ": 3229,
      "ches": 3230,
      "chmal": 3231,
      "ÐµÐ½Ð°": 3232,
      "ÐµÐ½ÑĨÑĸÑı": 3233,
      "Ð»Ð¾": 3234,
      "Ð»ÑİÐ±": 3235,
      "ÑĥÐ»Ñı": 3236,
      "stru": 3237,
      "stit": 3238,
      "stamm": 3239,
      "ĠIhre": 3240,
      "ÐºÑĤÐ¸": 3241,
      "ÐºÐ°ÑĤÐ¸": 3242,
      "ÐºÑĸÐ²": 3243,
      "ÐºÐ¾Ð²Ð¸Ð¹": 3244,
      "ief": 3245,
      "iesen": 3246,
      "ieÃŁen": 3247,
      "ÑĩÑĩ": 3248,
      "ÑĩÐ½Ð°": 3249,
      "Ð¾Ð²Ð°Ð½Ð¸Ð¹": 3250,
      "ĠÐ¿Ð¾Ð»": 3251,
      "ĠÐ¿Ð¸Ñģ": 3252,
      "ĠÐ¿Ð¾Ð±": 3253,
      "ĠInsel": 3254,
      "ĠÐ´Ð¸": 3255,
      "ĠÐ´ÐµÐ½ÑĮ": 3256,
      "Ð´Ð°ÑĤÐ¸": 3257,
      "aupt": 3258,
      "ĠÐ¼Ð¾Ð²": 3259,
      "ĠÐ¼Ð¾Ð³": 3260,
      "ĠÐ¼Ð°Ñİ": 3261,
      "ĠÐ¼Ð°Ð¹Ð±ÑĥÑĤ": 3262,
      "ĠÐ·Ð¼": 3263,
      "ĠÐ·Ð³": 3264,
      "ĠÐ·ÑĢÐ¾Ð±": 3265,
      "Ġihn": 3266,
      "ĠÐ½Ð°Ð¿": 3267,
      "ĠÑģÐ¾": 3268,
      "ĠÑģÐ²Ð°ÑĢ": 3269,
      "ĠÐ²Ñĩ": 3270,
      "ĠÐ²Ð¿": 3271,
      "ĠÐ²Ð·": 3272,
      "ĠÐ²ÑĸÐº": 3273,
      "ĠÐ²Ð¸Ð²": 3274,
      "ĠÐ²Ð°Ð¶": 3275,
      "ĠÐ²ÑĸÑĤ": 3276,
      "einer": 3277,
      "Ġweg": 3278,
      "Ġwissen": 3279,
      "anst": 3280,
      "anzen": 3281,
      "angebot": 3282,
      "Ġ(=": 3283,
      "Ġgeben": 3284,
      "ĠÐ½ÐµÐ²": 3285,
      "aufen": 3286,
      "Ð²ÑĢ": 3287,
      "Ð²Ð°Ð³": 3288,
      "Ġbere": 3289,
      "ĠÐ¿ÑĸÐ´Ð²Ð¸": 3290,
      "ess": 3291,
      "ĠBa": 3292,
      "ĠBÃ¼r": 3293,
      "ĠSelma": 3294,
      "Ð¾Ð´Ð°": 3295,
      "ĠÑģÑĤÑĢ": 3296,
      "ĠÑģÑĤÑĢÐ°Ñħ": 3297,
      "Ã¤d": 3298,
      "schn": 3299,
      "schutz": 3300,
      "ÑĨÑĸÐ¹": 3301,
      "ĠÐ¿ÑĢÐ¾Ð³": 3302,
      "ĠÑĩÐµÐº": 3303,
      "ĠHil": 3304,
      "erneinen": 3305,
      "ĠÑĤÐ¾Ñĩ": 3306,
      "ĠÑĤÑĥÑĢ": 3307,
      "ĠKann": 3308,
      "ÑģÑĸÐ±": 3309,
      "sekt": 3310,
      "ĠÐ¾ÑĦ": 3311,
      "ĠÐ¾Ð³": 3312,
      "Ð°Ð³Ð°ÑĤÐ¸": 3313,
      "Ð¾Ð»Ð°": 3314,
      "ĠMo": 3315,
      "ĠMon": 3316,
      "ĠMÃ¤r": 3317,
      "ĠMesse": 3318,
      "ĠGo": 3319,
      "ĠGegen": 3320,
      "Ġger": 3321,
      "ĠTeil": 3322,
      "ĠDeutschen": 3323,
      "Ð°Ð¼ÑĸÐ½": 3324,
      "Ð°Ð¼Ð°ÑĤÐ¸": 3325,
      "rochen": 3326,
      "Ð¶ÐµÐ½Ð½Ñı": 3327,
      "ĠPf": 3328,
      "ĠPol": 3329,
      "ĠPlatz": 3330,
      "Ð³Ð¾Ð²Ð¾ÑĢ": 3331,
      "Ġinteres": 3332,
      "ĠArbeits": 3333,
      "ĠÐ±Ð¸": 3334,
      "umen": 3335,
      "Ð°Ð½Ð´": 3336,
      "ĠÑģÐ¿ÑĸÐ»": 3337,
      "ĠÑģÐ¿Ð¾ÑĢÑĤ": 3338,
      "begin": 3339,
      "Ġfern": 3340,
      "ĠÐ·Ð°Ð¹Ð¼": 3341,
      "Ð¿ÐµÑĢ": 3342,
      "ĠÐ´ÑĢÑĥÐ·": 3343,
      "chten": 3344,
      "ĠPartner": 3345,
      "Ð°Ð»ÑĮÐ½Ð°": 3346,
      "gesatz": 3347,
      "ÑĨÑĮÐºÐ°": 3348,
      "ĠWald": 3349,
      "ĠWÃ¶rter": 3350,
      "ĠÐ²ÑĸÐ´Ð±": 3351,
      "ĠÐ·Ð°Ð¿ÑĢ": 3352,
      "ringt": 3353,
      "aler": 3354,
      "ĠUSB": 3355,
      "zig": 3356,
      "sicher": 3357,
      "Ġvom": 3358,
      "ierung": 3359,
      "Ġneuen": 3360,
      "Ð¾ÑĤÐµÑĢÐµ": 3361,
      "sprache": 3362,
      "Ġher": 3363,
      "ÑĥÐ²Ð°Ð»Ð°": 3364,
      "urs": 3365,
      "ÑģÑĤÑĢÑĸ": 3366,
      "ÑģÑĤÐ°Ð½": 3367,
      "ats": 3368,
      "ĠÐ³Ð¾ÑĢ": 3369,
      "ĠÐ³Ð¾ÑģÑĤÑĸ": 3370,
      "ĠText": 3371,
      "ĠStudium": 3372,
      "ĠÐ±ÐµÐ·Ð¿Ðµ": 3373,
      "zahlen": 3374,
      "ĠWohin": 3375,
      "schlag": 3376,
      "ĠÑĢÐ°Ñħ": 3377,
      "warten": 3378,
      "Ã¶ff": 3379,
      "ĠHausaufgaben": 3380,
      "ÑīÐ°": 3381,
      "ĠÐ¾ÑģÐ²Ñĸ": 3382,
      "Ġmeiner": 3383,
      "ĠVerw": 3384,
      "ĠKonjunktion": 3385,
      "Ð½Ð¾ÑĹ": 3386,
      "ĠOst": 3387,
      "ĠÐĴÐ°Ñģ": 3388,
      "ĠÐ»Ñİ": 3389,
      "ĠÐ»Ð¸ÑģÑĤ": 3390,
      "ĠÐ»ÐµÐº": 3391,
      "ĠÐ»Ð¾ÑĤÐµÑĢÐµ": 3392,
      "braucht": 3393,
      "Ġ11": 3394,
      "Ġ13": 3395,
      "Ġ15": 3396,
      "ĠÑħÐ²Ð¾ÑĢ": 3397,
      "Ð»Ð¸ÑĪ": 3398,
      "Ð»Ð¸Ð·": 3399,
      "ÐµÑĤÐ°": 3400,
      "ĠÐ¼Ð¾Ð¶Ñĥ": 3401,
      "adt": 3402,
      "adio": 3403,
      "Ð½Ð¸ÑĨÑĤ": 3404,
      "ĠVerbrecher": 3405,
      "ĠVerbstamm": 3406,
      "ÑĤÐ°ÑĢÑĸ": 3407,
      "ÑĸÐ»ÑĮÑĪÐµ": 3408,
      "ĠÐ´ÑĥÐ¼Ð°Ñİ": 3409,
      "halb": 3410,
      "fÃ¼hren": 3411,
      "ositiv": 3412,
      "Ã¤tte": 3413,
      "Ð»ÑıÑĤÐ¸ÑģÑı": 3414,
      "ĠRegel": 3415,
      "lungs": 3416,
      "ammel": 3417,
      "ĠÐ»ÑİÐ±Ð¸ÑĤÑĮ": 3418,
      "geschÃ¤ft": 3419,
      "lage": 3420,
      "ĠOrt": 3421,
      "ĠAusbildung": 3422,
      "Ġetw": 3423,
      "ÐµÐ´ÑĢÐ¸": 3424,
      "schied": 3425,
      "Ġalle": 3426,
      "ĠÐµÐºÑģ": 3427,
      "ĠÐµÐºÐ¾Ð½Ð¾Ð¼": 3428,
      "meer": 3429,
      "ĠÐ§Ð¸": 3430,
      "ĠÐºÐ¾Ð»ÑĮ": 3431,
      "ĠÐºÐ¾Ð»ÐµÐ³": 3432,
      "Ð±Ð¸ÑĢÐ°ÑĤÐ¸": 3433,
      "ĠStadtr": 3434,
      "konjunktiv": 3435,
      "ÑĥÐ½Ð¾Ðº": 3436,
      "ÑģÐ»ÑĥÐ³": 3437,
      "Ġverwenden": 3438,
      "ĠSofa": 3439,
      "ĠĠĠĠĠĠĠĠĠĠĠĠĠĠĠĠ": 3440,
      "ĠÐ¿Ð»Ð°Ð½": 3441,
      "dienen": 3442,
      "zÃ¤hlt": 3443,
      "ĠAls": 3444,
      "ĠÑģÑĤÑĥÐ´ÐµÐ½ÑĤÑĸÐ²": 3445,
      "ĠRelativpronomen": 3446,
      "ĠÐ»ÑĸÐºÐ°ÑĢ": 3447,
      "bieten": 3448,
      "besch": 3449,
      "folge": 3450,
      "Ġbestimm": 3451,
      "Ġdiesem": 3452,
      "ĠÑĢÐ¾Ð±Ð¾ÑĩÐ¸Ð¹": 3453,
      "ĠÐ²ÐµÑĩÑĸÑĢ": 3454,
      "ĠÑĥÐ½ÑĸÐ²ÐµÑĢÑģÐ¸ÑĤÐµÑĤÑĥ": 3455,
      "ĠÐ´Ð¸Ð²Ð¸ÑĤÐ¸ÑģÑı": 3456,
      "Ġfolgenden": 3457,
      "ĠQR": 3458,
      "ĠChef": 3459,
      "ĠÐ¾ÑħÐ¾ÑĩÐµ": 3460,
      "ultur": 3461,
      "ĠÐ¿ÑĢÐ¾Ð¿Ð¾Ð·Ð¸ÑĨÑĸÑı": 3462,
      "tschafts": 3463,
      "ĠÑĢÐµÐºÐ¾Ð¼ÐµÐ½Ð´Ð°": 3464,
      "Ð¾Ð»Ð¸Ð½ÑģÑĮÐºÐ¾Ð³Ð¾": 3465,
      "bestimm": 3466,
      "Ã¶glichkeit": 3467,
      "ĠÐ±ÑĥÐ´Ð¸Ð½Ð¾Ðº": 3468,
      "ĠÐ¶Ð¸ÑĤÑĤÑı": 3469,
      "ĠÐºÐ°ÑĦÐµÐ´ÑĢÐ¸": 3470,
      "Codes": 3471,
      "iederlan": 3472,
      "ĠSingular": 3473,
      "ĠPost": 3474,
      "Ġkonjugierte": 3475,
      "ĠÑģÐ»ÑĥÐ¶": 3476,
      "ĠÐ¿ÑĸÐ´Ð²Ð¸Ñī": 3477,
      ");": 3478,
      "33": 3479,
      "35": 3480,
      "45": 3481,
      "49": 3482,
      "57": 3483,
      "67": 3484,
      "Ber": 3485,
      "Deutsch": 3486,
      "LÃ¶ffel": 3487,
      "Men": 3488,
      "Par": 3489,
      "Pro": 3490,
      "aha": 3491,
      "aar": 3492,
      "abl": 3493,
      "com": 3494,
      "dung": 3495,
      "doppel": 3496,
      "ex": 3497,
      "for": 3498,
      "fach": 3499,
      "fft": 3500,
      "gst": 3501,
      "gern": 3502,
      "gation": 3503,
      "hein": 3504,
      "higkeit": 3505,
      "ium": 3506,
      "iff": 3507,
      "kurs": 3508,
      "lÃ¶": 3509,
      "los": 3510,
      "markt": 3511,
      "namen": 3512,
      "oten": 3513,
      "ole": 3514,
      "pas": 3515,
      "perfekt": 3516,
      "perlativ": 3517,
      "qu": 3518,
      "ras": 3519,
      "rieben": 3520,
      "ses": 3521,
      "swort": 3522,
      "ty": 3523,
      "tragen": 3524,
      "temporale": 3525,
      "uz": 3526,
      "uster": 3527,
      "voll": 3528,
      "verein": 3529,
      "wÃ¤": 3530,
      "weg": 3531,
      "zin": 3532,
      "zog": 3533,
      "zone": 3534,
      "Ð¢": 3535,
      "Ð£": 3536,
      "Ðł": 3537,
      "Ġeigen": 3538,
      "ĠÐ¥": 3539,
      "ĠÐł": 3540,
      "Ð¾ÑĢÐµ": 3541,
      "ÐµÑĦ": 3542,
      "ÑıÑĤÑĮ": 3543,
      "ÑĸÑĩÐ½Ð¸Ð¹": 3544,
      "ÑĸÑĤÐ°ÑĢÑĸ": 3545,
      "rer": 3546,
      "regelmÃ¤ÃŁ": 3547,
      "Ð¾Ð¹": 3548,
      "Ð°Ð´Ð°": 3549,
      "Ð¸Ð»Ð¸": 3550,
      "ÑĤÐµÐ½": 3551,
      "ÑĢÐ¸Ð¹": 3552,
      "ÑĢÐ¾Ð±Ñĸ": 3553,
      "ÑĢÐ°Ð·": 3554,
      "ÐµÐ½ÑĤÑĢ": 3555,
      "ÐµÐ½ÐµÑĢ": 3556,
      "Ð»ÐµÐ½": 3557,
      "Ð»Ð»Ñı": 3558,
      "ÑĥÑĢÐ°": 3559,
      "Ð¼Ð¸": 3560,
      "inge": 3561,
      "ingt": 3562,
      "stich": 3563,
      "stimmen": 3564,
      "stadt": 3565,
      "ÐºÑĤÐ¾ÑĢ": 3566,
      "ÐºÐ¾Ð³Ð¾ÑģÑĮ": 3567,
      "ÐºÐ¾Ð²Ð¾": 3568,
      "Ġdun": 3569,
      "Ġdeutsch": 3570,
      "Ġdann": 3571,
      "Ġdrei": 3572,
      "ieg": 3573,
      "iem": 3574,
      "iegen": 3575,
      "ÑĩÐ°": 3576,
      "ÑĩÐ½Ðµ": 3577,
      "ÑĩÐºÐ°": 3578,
      "ÑģÐ½Ð¸Ðº": 3579,
      "ĠÐ¿ÐµÑĢ": 3580,
      "ĠÐ¿ÑĸÑĪ": 3581,
      "ĠÐ¿Ð¾Ð»Ñĸ": 3582,
      "ĠInsekt": 3583,
      "Ð¾Ð¼Ð°": 3584,
      "Ð¾Ð¼Ð¸Ð¹": 3585,
      "Ð¾Ð¼Ð°ÑĤ": 3586,
      "ĠÐ´Ð¾ÑĢ": 3587,
      "ĠÐ´Ð²Ñĸ": 3588,
      "ĠÐ´Ð¾Ðº": 3589,
      "ĠÐ´Ð¾Ð±": 3590,
      "ĠÐ´ÐµÑĤ": 3591,
      "ĠÐ´Ð¸ÑĢ": 3592,
      "Ð¸ÐºÐ¸": 3593,
      "aschen": 3594,
      "ÑģÐ»ÑĸÐ²": 3595,
      "ĠÐ¼Ð¾ÑĹ": 3596,
      "ĠÐ¼Ð¾Ð²Ð°": 3597,
      "ĠÐ¼ÑĥÑģ": 3598,
      "ĠÐ¼ÑĢÑĸÑĹ": 3599,
      "Ð°ÑĶÑĪ": 3600,
      "Ð°ÑĶÐ¼Ð¾": 3601,
      "ĠÐ·Ð½Ð¸Ð¶": 3602,
      "ĠÐ·ÑĥÑģÑĤÑĢÑĸ": 3603,
      "gefÃ¼": 3604,
      "gesetz": 3605,
      "ĠÐ½Ð°Ð¼": 3606,
      "ĠÐ½Ð¾Ð²Ð¸Ð¹": 3607,
      "ĠÑģÑĮÐ¾Ð³Ð¾Ð´Ð½Ñĸ": 3608,
      "ÑĸÑĶÐ½ÑĤ": 3609,
      "ĠÐ²Ð¼": 3610,
      "ĠÐ²Ð°ÑĢ": 3611,
      "ĠÐ²Ð¿ÑĢÐ°Ð²": 3612,
      "einander": 3613,
      "Ġhal": 3614,
      "ÑĢÐµÑĤ": 3615,
      "Ġwo": 3616,
      "ĠDem": 3617,
      "ÑĤÐ¸Ð½Ð°": 3618,
      "ĠkÃ¤": 3619,
      "ĠÐ½ÐµÐ¿": 3620,
      "ĠÐ½ÐµÐ·": 3621,
      "Ġmei": 3622,
      "Ð²Ð°ÑĤÐ¸": 3623,
      "Ð²Ð½Ð¸Ð¹": 3624,
      "Ð¾ÑĢÐ°": 3625,
      "Ð¾ÑĢÐ¾Ð²": 3626,
      "Ð¾ÑĢÐ¾Ð½": 3627,
      "Ð¾ÑĢÐ¾ÑĪ": 3628,
      "Ð¼ÐµÑĢ": 3629,
      "Ġba": 3630,
      "Ã¼se": 3631,
      "Ã¼tzen": 3632,
      "Ð¹Ð¾Ð½": 3633,
      "ÑĦÐµÑĢ": 3634,
      "esung": 3635,
      "ĠBÃ¤": 3636,
      "ĠBrÃ¼": 3637,
      "ĠSon": 3638,
      "ĠSeite": 3639,
      "âĢĵ": 3640,
      "âĢŀ": 3641,
      "Ð¾Ð´ÐµÐ½": 3642,
      "Ð¾Ð´ÑĸÐ¹": 3643,
      "ĠÑģÑĤÑĢÐµ": 3644,
      "ache": 3645,
      "ĠÑĥÐºÑĥ": 3646,
      "ĠÑĥÑģÐ¿": 3647,
      "Ã¤f": 3648,
      "scheiden": 3649,
      "ĠÐ¿ÑĢÐ¸Ð½": 3650,
      "ĠÐ¿ÑĢÐ¾ÑĤ": 3651,
      "ĠÐ¿ÑĢÐ¸Ð³": 3652,
      "ĠÐ¿ÑĢÐ¸Ð²": 3653,
      "decken": 3654,
      "arage": 3655,
      "ĠÑĩÐ¸ÑĤ": 3656,
      "ĠÑĩÑĥÐ´": 3657,
      "ĠÑĩÐ¸ÑģÑĤÐ¸": 3658,
      "ĠÑĩÐµÑĢÐµÐ·": 3659,
      "unft": 3660,
      "Ġeines": 3661,
      "ĠÑĤÐ°Ð¼": 3662,
      "ĠFr": 3663,
      "ĠFor": 3664,
      "ĠKan": 3665,
      "ĠKrank": 3666,
      "ĠKunden": 3667,
      "ĠKopf": 3668,
      "ĠKultur": 3669,
      "ĠÐºÑĢÐ°": 3670,
      "ÑİÑĢ": 3671,
      "ĠÐ¾Ð¿Ðµ": 3672,
      "llt": 3673,
      "Ð¸Ð½Ñĸ": 3674,
      "Ð¾Ð»ÑĮ": 3675,
      "ĠÐ·Ð°Ð»Ð¸ÑĪ": 3676,
      "ĠÑĦÐ¾ÑĤ": 3677,
      "ĠÑĩÐ°ÑģÑĤ": 3678,
      "ĠMot": 3679,
      "ĠMusik": 3680,
      "ĠGast": 3681,
      "ĠGrund": 3682,
      "ĠÐ¿Ð¾ÑģÐ¸": 3683,
      "Ġgera": 3684,
      "ĠTrau": 3685,
      "ĠTal": 3686,
      "ĠTrink": 3687,
      "ĠTier": 3688,
      "ĠTour": 3689,
      "ÑĥÑĶÐ¼Ð¾": 3690,
      "ĠDeutschland": 3691,
      "annt": 3692,
      "ktur": 3693,
      "ĠPati": 3694,
      "ĠPreis": 3695,
      "ĠZu": 3696,
      "rennen": 3697,
      "Ð³Ð°": 3698,
      "Ð½Ð¸ÐºÐ¸": 3699,
      "ÑĢÑĥÐ´": 3700,
      "ĠÐ±Ð°Ñģ": 3701,
      "raut": 3702,
      "rauen": 3703,
      "ĠerhÃ¶": 3704,
      "ĠerzÃ¤hlt": 3705,
      "Ġteil": 3706,
      "Ġfliegen": 3707,
      "Ð½ÐµÑĤÑĸ": 3708,
      "Ð½ÐµÐ´ÑĸÐ»": 3709,
      "ĠÐ¼ÑĸÑģÑĤÐ¸": 3710,
      "ĠSchwar": 3711,
      "ĠSchuhe": 3712,
      "ennt": 3713,
      "dieren": 3714,
      "ĠWein": 3715,
      "ĠWenn": 3716,
      "telefon": 3717,
      "ÑĢÑıÑĤÐ¸": 3718,
      "itte": 3719,
      "itag": 3720,
      "ittel": 3721,
      "ĠÐ¶Ð¾Ð²": 3722,
      "ĠÐ¶Ð¸ÑĤÐ¸": 3723,
      "durch": 3724,
      "Ð»ÑİÐ²Ð°ÑĤÐ¸": 3725,
      "ĠausdrÃ¼cken": 3726,
      "Ġwohnen": 3727,
      "ÑĸÐ¹ÑģÐ½": 3728,
      "serv": 3729,
      "ĠÑĨÑĮÐ¾Ð¼Ñĥ": 3730,
      "Ã¼rfen": 3731,
      "Ð¾ÑĤÐ°": 3732,
      "ame": 3733,
      "spr": 3734,
      "ĠFreitag": 3735,
      "ĠÐ¢ÑĥÑĤ": 3736,
      "ĠhÃ¶": 3737,
      "ĠVoll": 3738,
      "ĠÑĤÐ°ÐºÐ¸Ð¹": 3739,
      "iss": 3740,
      "nee": 3741,
      "negation": 3742,
      "ĠRes": 3743,
      "ural": 3744,
      "ÑģÑĤÑĥÐ¿": 3745,
      "rak": 3746,
      "arbeiter": 3747,
      "ĠGew": 3748,
      "ĠEi": 3749,
      "ĠEl": 3750,
      "ĠEnt": 3751,
      "Ð»ÐµÐ¶": 3752,
      "ĠÐĹÐ°": 3753,
      "Ð´Ð°ÑĢ": 3754,
      "zahl": 3755,
      "schlossen": 3756,
      "ĠÑĢÐ¸Ð½": 3757,
      "Ġ22": 3758,
      "Ã¤rm": 3759,
      "schlagen": 3760,
      "Ġmeinem": 3761,
      "ĠVerkehr": 3762,
      "Ð¸Ð²ÑģÑı": 3763,
      "Ð¸Ð²Ð°Ð½Ð½Ñı": 3764,
      "ress": 3765,
      "ĠNein": 3766,
      "ĠNegation": 3767,
      "ĠNoten": 3768,
      "ĠÐĴÐ¾Ð½Ð¸": 3769,
      "ĠÐĴÐ°ÑĪ": 3770,
      "Ð¾Ð¶Ð½Ð°": 3771,
      "ĠÑĢÐ¾Ð±Ð¾ÑĤÐ¸": 3772,
      "Ġ10": 3773,
      "olz": 3774,
      "olks": 3775,
      "ationen": 3776,
      "Ġbeg": 3777,
      "Ġbeantworten": 3778,
      "ĠÐ°Ð²ÑĤ": 3779,
      "ĠÐ²Ð¸Ð´": 3780,
      "ÑĥÑĤÐ±": 3781,
      "ÑĥÑĤÑĤÑı": 3782,
      "othe": 3783,
      "Ġvorbei": 3784,
      "rÃ¼hst": 3785,
      "weise": 3786,
      "ulieren": 3787,
      "000": 3788,
      "ĠÑĪÐµÑĦ": 3789,
      "ĠSpei": 3790,
      "ĠÐ·Ð½Ð°Ñİ": 3791,
      "ĠÐ¿ÐµÑĢÐµÐ¼": 3792,
      "ĠÐ¿ÐµÑĢÐµÐ²Ñĸ": 3793,
      "hinter": 3794,
      "problem": 3795,
      "Ġstu": 3796,
      "Ð°ÑģÑĤÑĮ": 3797,
      "liegt": 3798,
      "ĠÐ²ÐµÐ»Ð¸Ðº": 3799,
      "wendig": 3800,
      "ÑĸÑĤÐ½Ð¸Ð¹": 3801,
      "ĠUniversitÃ¤t": 3802,
      "ÐµÐ¹Ð½": 3803,
      "ĠÐºÐ¾Ð¼Ð¿": 3804,
      "ĠÐºÐ¾Ð¼Ð°Ñħ": 3805,
      "ĠÑıÐºÑīÐ¾": 3806,
      "Ġpassen": 3807,
      "ĠÑĨÐ¸Ð¼": 3808,
      "ĠÑģÐ²Ð¾ÑĹ": 3809,
      "ĠReihen": 3810,
      "werden": 3811,
      "heits": 3812,
      "ÑģÐ¿Ð¾ÑĢÑĤ": 3813,
      "ÑĢÐ°Ð²Ð°ÑĤÐ¸": 3814,
      "ĠWelt": 3815,
      "ĠWelches": 3816,
      "Ð»Ð¸Ð²Ð¾": 3817,
      "Ð»Ð¸Ð²Ð¸Ð¹": 3818,
      "ĠÐ³ÑĢÐ¾ÑĪÐµÐ¹": 3819,
      "echseln": 3820,
      "ÐºÐ°ÑĢÐ¶": 3821,
      "ĠWiese": 3822,
      "ĠÐ§Ð¾Ð¼Ñĥ": 3823,
      "freund": 3824,
      "ÑĸÑĪÐ°ÑĤÐ¸": 3825,
      "ĠUnterricht": 3826,
      "Beispiele": 3827,
      "gewinnen": 3828,
      "ĠÐ²Ð¸Ð³ÑĢÐ°ÑĪ": 3829,
      "ĠStraÃŁe": 3830,
      "ÑĥÑİÑĤÑĮ": 3831,
      "Ġwelche": 3832,
      "Ġwelcher": 3833,
      "ĠGebirge": 3834,
      "eller": 3835,
      "zÃ¤hl": 3836,
      "ĠÐŀÐ±": 3837,
      "ĠÑģÐµÐ±Ðµ": 3838,
      "Ġgewonnen": 3839,
      "ĠAbsicht": 3840,
      "ĠAlpen": 3841,
      "ĠStelle": 3842,
      "ĠÐ½Ð°ÑĨÑĸÐ¾Ð½Ð°Ð»ÑĮÐ½Ð¸Ð¹": 3843,
      "ĠLandschaft": 3844,
      "ĠRelativsatz": 3845,
      "ĠÑĪÐºÐ¾Ð»Ð°": 3846,
      "flicht": 3847,
      "ĠÐºÐ¾Ð½ÑĤÐ°": 3848,
      "ĠPrÃ¤fixe": 3849,
      "rammatik": 3850,
      "ĠÑģÐµÑĢÐ²Ñĸ": 3851,
      "ĠÐ¿ÑĢÐ¾Ð´ÑĥÐº": 3852,
      "Stuhl": 3853,
      "fallen": 3854,
      "hÃ¶rt": 3855,
      "ĠKonto": 3856,
      "ĠMÃ¼cken": 3857,
      "ĠGeschÃ¤ft": 3858,
      "ĠÐ²Ð¸ÑĤÑĢÐ°ÑĤÐ¸": 3859,
      "Ġgetan": 3860,
      "ĠTÃ¤ter": 3861,
      "ĠÐ±Ð°Ð½ÐºÑĥ": 3862,
      "ĠSpieler": 3863,
      "Ġrichtige": 3864,
      "ÑıÐ²ÐºÑĥ": 3865,
      "ĠÑĥÑĩÐ°ÑģÑĤÑĮ": 3866,
      "ĠHochzeit": 3867,
      "ĠÐ¾Ð²Ð¾ÑĩÑĸ": 3868,
      "ĠMenschen": 3869,
      "ĠRegal": 3870,
      "ĠÑĤÐµÐ»ÐµÑĦÐ¾Ð½Ñĥ": 3871,
      "handeln": 3872,
      "Ausbildung": 3873,
      "Mail": 3874,
      "eklination": 3875,
      "ĠÐ¿ÑĢÐµÐ´": 3876,
      "ĠÐ¼Ð¾ÑĢÑĸ": 3877,
      "ĠGemÃ¼se": 3878,
      "ĠWunsch": 3879,
      "ĠÑħÐ¾ÑĤÑĸÐ»Ð°": 3880,
      "Ð¸ÑĩÐ°Ð¹Ð½Ð¾": 3881,
      "ĠÐ²ÑĸÐ´Ð¿ÑĥÑģÑĤÐºÑĥ": 3882,
      "ĠFlugzeug": 3883,
      "ĠÐ¿ÑĢÐ¾Ð±Ð»ÐµÐ¼Ð°": 3884,
      "Welche": 3885,
      "ĠNomen": 3886,
      "struktur": 3887,
      "stitut": 3888,
      "ĠÐ¼Ð¾Ð³Ð»Ð¸": 3889,
      "ĠÑģÐ²Ð°ÑĢÐ¸ÑĤÐ¸ÑģÑı": 3890,
      "ĠBÃ¼rger": 3891,
      "ĠÑĢÐ°ÑħÑĥÐ½Ð¾Ðº": 3892,
      "ĠÐ»ÑİÐ´": 3893,
      "ĠStadtrand": 3894,
      "ÑĢÐ¾Ð±ÑĸÑĤ": 3895,
      "ĠÐ´ÐµÑĤÐµÐºÑĤÐ¸": 3896,
      "ĠÐ´Ð¸ÑĢÐ¸Ð³": 3897,
      "ĠÑĥÐºÑĥÑģ": 3898,
      "ĠMotor": 3899,
      "ĠÐ±Ð°ÑģÐµÐ¹Ð½": 3900,
      ".,": 3901,
      "39": 3902,
      "97": 3903,
      "Fin": 3904,
      "Ges": 3905,
      "Komparativ": 3906,
      "Meinung": 3907,
      "Nicht": 3908,
      "Pol": 3909,
      "PrÃ¼fung": 3910,
      "Positiv": 3911,
      "Sti": 3912,
      "Satz": 3913,
      "Selma": 3914,
      "akt": 3915,
      "aten": 3916,
      "ahl": 3917,
      "bs": 3918,
      "baren": 3919,
      "bad": 3920,
      "brach": 3921,
      "dre": 3922,
      "dienst": 3923,
      "dgesch": 3924,
      "ehm": 3925,
      "fs": 3926,
      "fu": 3927,
      "fas": 3928,
      "fern": 3929,
      "fro": 3930,
      "fil": 3931,
      "gn": 3932,
      "gr": 3933,
      "gru": 3934,
      "gte": 3935,
      "glie": 3936,
      "german": 3937,
      "hor": 3938,
      "ift": 3939,
      "itet": 3940,
      "iÃ¤t": 3941,
      "kei": 3942,
      "kÃ¼": 3943,
      "kÃ¤": 3944,
      "kar": 3945,
      "kul": 3946,
      "legen": 3947,
      "lesung": 3948,
      "man": 3949,
      "meine": 3950,
      "mÃ¶": 3951,
      "mmer": 3952,
      "nas": 3953,
      "ndel": 3954,
      "national": 3955,
      "ock": 3956,
      "osten": 3957,
      "pp": 3958,
      "put": 3959,
      "prÃ¼": 3960,
      "plan": 3961,
      "ppen": 3962,
      "rut": 3963,
      "rom": 3964,
      "sÃ¤": 3965,
      "sÃ¤tze": 3966,
      "sgesprÃ¤ch": 3967,
      "ts": 3968,
      "ufe": 3969,
      "ufen": 3970,
      "viel": 3971,
      "wissen": 3972,
      "xi": 3973,
      "yern": 3974,
      "zwei": 3975,
      "Ðĳ": 3976,
      "Ðķ": 3977,
      "Ðŀ": 3978,
      "Ġ!": 3979,
      "ĠÑģÐ½": 3980,
      "ĠÃ¤": 3981,
      "Ġus": 3982,
      "Ġ..": 3983,
      "ĠÃĸ": 3984,
      "Ð½Ñİ": 3985,
      "Ð½Ð°Ð²": 3986,
      "Ð¾ÑĶÐ¼": 3987,
      "ÐµÑģ": 3988,
      "ÐµÑĤÑĢ": 3989,
      "ÐµÑĢÑĸÐ²": 3990,
      "ÑıÐ½": 3991,
      "ÑıÐ´": 3992,
      "ÑĸÑħ": 3993,
      "ÑĸÐ»Ðµ": 3994,
      "ÑģÐ¾Ð²Ð¸Ð¹": 3995,
      "reg": 3996,
      "reten": 3997,
      "Ð°ÑĦ": 3998,
      "Ð°ÑĤÑĮ": 3999,
      "Ð°ÑĢÑĥ": 4000,
      "rechn": 4001,
      "Ð¸Ð¶": 4002,
      "Ð¸Ñī": 4003,
      "Ð¸ÑĶÐ¼": 4004,
      "enut": 4005,
      "enden": 4006,
      "ÑĤÑĢÑĥ": 4007,
      "ÑĢÐ°Ð±": 4008,
      "ÑĢÐ°Ð¼Ð°": 4009,
      "ÑĢÐ¾Ñī": 4010,
      "ÐµÐ½Ð¾": 4011,
      "ÐµÐ½ÑĤÐ¸": 4012,
      "Ð»Ð¾Ð²": 4013,
      "ÑĥÑĤÐ¸": 4014,
      "erw": 4015,
      "erte": 4016,
      "Ð¼Ð¾Ñģ": 4017,
      "Ð¼Ð°ÑĤÐ¸ÑģÑı": 4018,
      "ina": 4019,
      "inken": 4020,
      "ÐµÐ½Ð½ÑıÐ¼": 4021,
      "stag": 4022,
      "stand": 4023,
      "ĠIran": 4024,
      "ÐºÐ¾Ð²Ð°": 4025,
      "Ġdre": 4026,
      "Ġdarf": 4027,
      "iete": 4028,
      "ÑĩÐµ": 4029,
      "ÑĩÑĸ": 4030,
      "ÑĩÐ¸": 4031,
      "ÑĩÐ½Ñĸ": 4032,
      "ÑĩÐµÑĢÐµÐ·": 4033,
      "Ð¾Ð²Ð°ÑĢ": 4034,
      "Ð¾Ð²Ð°Ð½Ñĸ": 4035,
      "ĠÐ¿Ð¾Ð²Ñĸ": 4036,
      "ĠÐ¿ÑĸÑĤÐ¸": 4037,
      "ĠÐ¿Ð¾Ð¶": 4038,
      "ĠÐ¿ÐµÑĢÑĪ": 4039,
      "ĠInteres": 4040,
      "ĠÐ´Ð¾Ð²": 4041,
      "ĠÐ´ÑĸÑĤ": 4042,
      "ĠÐ´ÑĸÑı": 4043,
      "ĠÐ´Ð·Ð²": 4044,
      "Ð´Ð¾": 4045,
      "Ð´Ñĥ": 4046,
      "Ð´Ð°ÑĤ": 4047,
      "Ð´ÐµÑĢ": 4048,
      "Ð´ÑĥÐ¼": 4049,
      "asus": 4050,
      "auer": 4051,
      "hafen": 4052,
      "ĠÐ¼Ð°Ð²": 4053,
      "ĠÐ¼ÑĸÐ¹": 4054,
      "Ð°ÑĶÐ¼": 4055,
      "Ð°ÑĶÑĤÐµ": 4056,
      "ĠÐ°ÑĤ": 4057,
      "ĠÐ·ÐµÐ¼": 4058,
      "gest": 4059,
      "gemein": 4060,
      "ĠÐ½Ð°Ð³": 4061,
      "ĠÐ½Ð°Ð·": 4062,
      "ĠÑģÐ²ÑĸÐ¹": 4063,
      "ĠÑģÐ¾Ð½": 4064,
      "ĠÑģÐ°Ð´": 4065,
      "ĠÑģÐ¸Ð´": 4066,
      "ĠÐ²ÑģÑĸ": 4067,
      "ĠÐ²Ð¸ÑģÑĤÐ°Ð²": 4068,
      "ĠÐ²Ð²Ð°Ð¶": 4069,
      "ĠÐ²ÐµÑĢÑĪ": 4070,
      "ĠÐ²ÑĸÐ»ÑĮÐ½": 4071,
      "einem": 4072,
      "Ġhandel": 4073,
      "ÑĢÐµÐºÑĤÐ¾ÑĢ": 4074,
      "ĠweiÃŁ": 4075,
      "Ġwechseln": 4076,
      "ans": 4077,
      "anlage": 4078,
      "ĠDeklination": 4079,
      "Ġseit": 4080,
      "Ġsauber": 4081,
      "Ġsagen": 4082,
      "Ġsitzen": 4083,
      "Ġgespielt": 4084,
      "Ġgestellt": 4085,
      "ĠgehÃ¶rt": 4086,
      "ĠÐ½ÐµÐ´": 4087,
      "ĠÐ½ÐµÐ¿ÑĢ": 4088,
      "ĠÐ½ÐµÐ¼Ð°": 4089,
      "tigen": 4090,
      "Ġmel": 4091,
      "ĠmiÃŁ": 4092,
      "ÑĸÐ´Ð½Ñı": 4093,
      "Ð²Ð½": 4094,
      "Ð²Ð¸ÑĤ": 4095,
      "Ð²Ð»Ð°ÑĪÑĤ": 4096,
      "ĠAber": 4097,
      "Ð¾ÑĢÑĥ": 4098,
      "Ð¾ÑĢÐ°Ð½": 4099,
      "Ð¾Ð³Ñĥ": 4100,
      "Ð¾Ð³ÑĤÐ¸": 4101,
      "Ð¾Ð³ÑĢÐ°": 4102,
      "ÑĨÑĸÐ½": 4103,
      "Ġbet": 4104,
      "Ġbilden": 4105,
      "Ġbringen": 4106,
      "Ġbildet": 4107,
      "Ð¼ÐµÑĤÐ¾Ð´Ð¸Ñĩ": 4108,
      "esuch": 4109,
      "eshalb": 4110,
      "ĠBas": 4111,
      "ĠBet": 4112,
      "ĠBord": 4113,
      "Ð¿ÑĤÐµ": 4114,
      "ĠSti": 4115,
      "ĠSand": 4116,
      "ĠSetz": 4117,
      "ĠSort": 4118,
      "icher": 4119,
      "Ð¾Ð´Ñĸ": 4120,
      "ĠÑĢÐµÐ¼Ð¾": 4121,
      "ĠÑģÑĤÐ¾Ð»": 4122,
      "ĠÑģÑĤÐ¾Ð¼Ð°ÑĤ": 4123,
      "Ġnie": 4124,
      "Ġnorm": 4125,
      "Ġneben": 4126,
      "ĠÑĥÑģÑĸ": 4127,
      "ĠÑĥÐ²Ð°Ð³": 4128,
      "eitet": 4129,
      "ÑĤÐ¸ÐºÐ°": 4130,
      "Ã¤he": 4131,
      "Ã¤che": 4132,
      "Ã¤uf": 4133,
      "scher": 4134,
      "schein": 4135,
      "ÑĨÑĸÐ²": 4136,
      "dete": 4137,
      "arke": 4138,
      "arzt": 4139,
      "ĠÑĩÐ°Ð¹": 4140,
      "under": 4141,
      "Ġeinmal": 4142,
      "ĠHalte": 4143,
      "ĠHex": 4144,
      "ĠÑĤÐ°Ð½": 4145,
      "ĠÑĤÐ¾Ð±Ñĸ": 4146,
      "ĠÑĤÐ¾ÑĢÑĤ": 4147,
      "ĠÑĤÐ²Ð°ÑĢ": 4148,
      "ĠÑĤÐ¾Ð¹": 4149,
      "ĠÑĤÐ¾Ð²Ð°ÑĢ": 4150,
      "ĠFe": 4151,
      "ĠFot": 4152,
      "ĠKlasse": 4153,
      "ĠKrim": 4154,
      "ĠÐºÐ¾Ð¼Ñĥ": 4155,
      "ĠÐºÐ»Ð°": 4156,
      "ĠÐºÐ°Ð¿": 4157,
      "ĠÐºÑĢÐ°ÑĹ": 4158,
      "ĠÐºÐ²Ð°ÑĢ": 4159,
      "ĠÐºÐ½Ð¸Ð¶": 4160,
      "ĠÐºÐ°Ð¼ÑĸÐ½": 4161,
      "ĠÐºÐµÑĢÑĸÐ²": 4162,
      "ÑİÑĤÐµÑĢ": 4163,
      "Ġlei": 4164,
      "Ġlange": 4165,
      "Ġletzten": 4166,
      "ĠÐ·Ð°Ð´": 4167,
      "ĠÐ·Ð°ÑħÑĸÐ´": 4168,
      "ĠÐ·Ð°ÑģÑĸÐ´": 4169,
      "ĠÐ·Ð°ÑģÑĸÐ±": 4170,
      "ĠÐ·Ð°ÑıÐ²ÐºÑĥ": 4171,
      "fehlen": 4172,
      "rum": 4173,
      "ÐµÑĢÐµÐ¶": 4174,
      "ĠMin": 4175,
      "ĠMeine": 4176,
      "ĠMat": 4177,
      "ĠÐ¿Ð¾ÑĪ": 4178,
      "ĠÐ¿Ð¾Ð½ÐµÐ´ÑĸÐ»": 4179,
      "Ð¸ÑģÐº": 4180,
      "Ġganzen": 4181,
      "indirekte": 4182,
      "Ð°Ð²ÐµÑĨÑĮ": 4183,
      "ĠTiere": 4184,
      "rocken": 4185,
      "chenke": 4186,
      "ĠÐ·Ð°ÐºÐ¾Ñħ": 4187,
      "eile": 4188,
      "derung": 4189,
      "Ð¶Ñĸ": 4190,
      "ĠPl": 4191,
      "ĠZusammen": 4192,
      "rennt": 4193,
      "Ð³ÑĢ": 4194,
      "ĠÐ±Ð¾Ð»": 4195,
      "ĠÐ±Ð°Ð³Ð°ÑĤ": 4196,
      "ĠÐ±ÑĸÐ»ÑĮÑĪ": 4197,
      "ĠÐ±ÐµÑĢÑĥ": 4198,
      "ĠZeitschrift": 4199,
      "ument": 4200,
      "Ð°Ð½ÑĤÐ¸": 4201,
      "Ð°Ð½ÑģÐ¿Ð¾ÑĢÑĤ": 4202,
      "Ð·ÑĮ": 4203,
      "Ð·Ð°ÑĤÐ¸": 4204,
      "Ð·Ð°Ð±": 4205,
      "Ġerlau": 4206,
      "bed": 4207,
      "bet": 4208,
      "bew": 4209,
      "bereit": 4210,
      "Ġfol": 4211,
      "ĠfrÃ¼": 4212,
      "Ġfliegt": 4213,
      "ÑħÐ°": 4214,
      "Ã¶l": 4215,
      "Ã¶s": 4216,
      "stet": 4217,
      "hnt": 4218,
      "Ð¿ÐµÑĤÐµÐ½": 4219,
      "Ð¿ÐµÐ²Ð½": 4220,
      "ĠSchl": 4221,
      "ĠSchla": 4222,
      "ĠSchiff": 4223,
      "Ð´Ð¸ÑĤÐ¸": 4224,
      "chtung": 4225,
      "ĠÑĸÐ½Ð¾Ð·": 4226,
      "ĠÑĸÐ½ÑģÑĤÑĢÑĥ": 4227,
      "fte": 4228,
      "ĠParty": 4229,
      "Ð°Ð»ÑĮÐ½Ð¸Ðº": 4230,
      "ĠErdgesch": 4231,
      "Ð´Ð½Ð¸Ð¹": 4232,
      "rÃ¤u": 4233,
      "ĠWe": 4234,
      "ĠWeg": 4235,
      "ĠWissen": 4236,
      "ĠWinter": 4237,
      "ĠWetter": 4238,
      "ĠÐ²Ð¸ÐºÐ¾ÑĢÐ¸ÑģÑĤÐ°Ð½Ð½Ñı": 4239,
      "ĠÐ²ÑĸÐ´Ð²ÑĸÐ´": 4240,
      "ĠÐ²ÑĸÐ´ÐºÑĢ": 4241,
      "undes": 4242,
      "ond": 4243,
      "onn": 4244,
      "ÑĢÑıÐ´Ð¶": 4245,
      "ĠWirtschafts": 4246,
      "alkon": 4247,
      "Ġzusammen": 4248,
      "ausgeben": 4249,
      "allen": 4250,
      "ientieren": 4251,
      "duzieren": 4252,
      "ĠUkra": 4253,
      "ĠApothe": 4254,
      "ĠLi": 4255,
      "eidung": 4256,
      "Ð¾Ð±Ð¾Ñİ": 4257,
      "gangenheit": 4258,
      "ĠÑĩÐ¾Ð»Ð¾Ð²ÑĸÐº": 4259,
      "Ġausge": 4260,
      "ÑĢÐµÐ±Ð°": 4261,
      "agt": 4262,
      "ilien": 4263,
      "Ð¾ÑĤÑĥ": 4264,
      "ÑĨÐµÐ²Ð»Ð°ÑĪÑĤ": 4265,
      "ĠÐ½ÑĸÑĩÐ¾Ð³Ð¾": 4266,
      "Ġunbestimm": 4267,
      "spitze": 4268,
      "Ð°ÑĤÐ¾ÑĢ": 4269,
      "Ð°ÑĤÐ¾Ðº": 4270,
      "ĠÐ¢Ð°Ðº": 4271,
      "ĠhÃ¤n": 4272,
      "ĠhÃ¤tte": 4273,
      "ĠFreundin": 4274,
      "ÑĥÐ²Ð°ÑĶÑĤÑĮÑģÑı": 4275,
      "ĠRiesen": 4276,
      "ĠRadio": 4277,
      "ĠRhein": 4278,
      "urz": 4279,
      "urfen": 4280,
      "ÑģÑĤÐ¾ÑĢÐ°Ð½": 4281,
      "Ð»Ð°Ð»Ð°": 4282,
      "rain": 4283,
      "rage": 4284,
      "ĠStau": 4285,
      "ĠStÃ¤d": 4286,
      "arbeiten": 4287,
      "ĠÐĨÐ½": 4288,
      "ĠÐ³ÑĥÐ±": 4289,
      "ĠÐ³ÑĸÑĤÐ°ÑĢÑĸ": 4290,
      "ĠÐ³ÑĢÑĥÐ´": 4291,
      "ĠTelefon": 4292,
      "Ð»ÑĸÑĤ": 4293,
      "Ġstellen": 4294,
      "leben": 4295,
      "selprÃ¤": 4296,
      "Ġbleiben": 4297,
      "Ġbleibt": 4298,
      "ÑģÑĤÐ°Ð²Ð»ÑıÑĤÐ¸": 4299,
      "schlieÃŁen": 4300,
      "ĠAmt": 4301,
      "Schule": 4302,
      "trag": 4303,
      "Ġ21": 4304,
      "Ġ25": 4305,
      "kannt": 4306,
      "Gebur": 4307,
      "berg": 4308,
      "berichten": 4309,
      "ÐµÑĢÑħ": 4310,
      "Ġbesuchen": 4311,
      "Ġmeinen": 4312,
      "Ð¸Ð²Ð°ÑĶ": 4313,
      "verbrauch": 4314,
      "verstanden": 4315,
      "tigkeit": 4316,
      "mittag": 4317,
      "Ð°ÑĢÑĩ": 4318,
      "ĠNational": 4319,
      "ĠNico": 4320,
      "ĠNÃ¤he": 4321,
      "ĠÐ»ÐµÐ³": 4322,
      "Ð¾Ð½ÑĥÐ²Ð°ÑĤÐ¸": 4323,
      "ĠÑīÐ°": 4324,
      "Ġ14": 4325,
      "Ġ16": 4326,
      "Ġ17": 4327,
      "Ġ19": 4328,
      "Ġvergessen": 4329,
      "Ġverschieden": 4330,
      "ĠÑħÐ¾ÑĢÐ¾ÑĪ": 4331,
      "ÑİÐ²Ð°ÑĤÐ¸ÑģÑı": 4332,
      "Ð»Ð¸Ð²ÑĸÑģÑĤÑĮ": 4333,
      "ÐºÑĥÑĢ": 4334,
      "ĠÐ²Ð¸ÑĢÑĸÑĪ": 4335,
      "bungsgesprÃ¤ch": 4336,
      "otter": 4337,
      "otto": 4338,
      "reise": 4339,
      "reibt": 4340,
      "ÐµÑĤÐµ": 4341,
      "ĠÐ¼Ð¾Ð¶Ð»Ð¸Ð²ÑĸÑģÑĤÑĮ": 4342,
      "weis": 4343,
      "weisen": 4344,
      "weihung": 4345,
      "Ð°Ð¹Ðº": 4346,
      "ĠÑĪÑĥÐº": 4347,
      "ĠSprach": 4348,
      "Ġpaar": 4349,
      "ĠBewer": 4350,
      "ĠBezug": 4351,
      "ĠÐ¿Ð¾Ð´ÑıÐº": 4352,
      "ĠÐ¿Ð¾Ð´Ð°ÑĢÑĥ": 4353,
      "stens": 4354,
      "ĠÐ¿ÐµÑĢÐµÐºÐ»Ð°Ð´": 4355,
      "ÐµÐºÑĢÐµÑĤ": 4356,
      "Ã¶rt": 4357,
      "ĠÐĿÐµ": 4358,
      "Ð°ÑģÐ¸Ðº": 4359,
      "ĠAngst": 4360,
      "liehen": 4361,
      "Ð¸ÑĩÐ°ÑĤÐ¸": 4362,
      "ĠÐ¿ÑĢÐ¸ÑĢÐ¾Ð´": 4363,
      "ĠÐ¿ÑĢÐ¸Ð±ÑĥÐ´": 4364,
      "fÃ¼llen": 4365,
      "fÃ¼hrung": 4366,
      "wendet": 4367,
      "Ġunterhalten": 4368,
      "nergie": 4369,
      "ĠÑıÐºÐ±Ð¸": 4370,
      "gebaut": 4371,
      "alsÃ¤tze": 4372,
      "ĠVorschlag": 4373,
      "ĠJahr": 4374,
      "ĠÑĨÑĸÐ½": 4375,
      "ĠÑĨÐµÐ½ÑĤÑĢ": 4376,
      "klÃ¤r": 4377,
      "ĠÐ¡Ðº": 4378,
      "ĠReisen": 4379,
      "ĠEinkommen": 4380,
      "Inseln": 4381,
      "Ġwieder": 4382,
      "ĠÐ¿ÑĢÐ°ÑĨÐµÐ²Ð»Ð°ÑĪÑĤ": 4383,
      "unterst": 4384,
      "ĠÐ²ÑĸÐ´Ð¿Ð¾Ñĩ": 4385,
      "boden": 4386,
      "ÐĴÐ¸": 4387,
      "Ġrepar": 4388,
      "ÐºÐ¾Ð¼Ð¿ÐµÑĤÐµÐ½": 4389,
      "ĠAusstellung": 4390,
      "Handlung": 4391,
      "echs": 4392,
      "echselprÃ¤": 4393,
      "igent": 4394,
      "ÐµÐ´ÐµÐ½Ð½Ñı": 4395,
      "ĠÑĤÑĢÐ°Ð¿": 4396,
      "ĠÑĤÑĢÐ°Ð½ÑģÐ¿Ð¾ÑĢÑĤ": 4397,
      "reichen": 4398,
      "ĠÑħÐ¾ÑĩÑĥ": 4399,
      "Ã¼bern": 4400,
      "ĠÐ¯ÐºÐ±Ð¸": 4401,
      "freu": 4402,
      "endung": 4403,
      "ĠAdjektivs": 4404,
      "ĠBerg": 4405,
      "ĠBeruf": 4406,
      "Ġzweiten": 4407,
      "ĠEuropÃ¤": 4408,
      "ĠEuropa": 4409,
      "Beispiel": 4410,
      "ÑıÐºÑĸ": 4411,
      "gewann": 4412,
      "ĠÐ²Ð¸Ð³Ð»ÑıÐ´": 4413,
      "ĠSozi": 4414,
      "ĠFlur": 4415,
      "Ð½ÑĥÑĤÐ¸": 4416,
      "Ġwelch": 4417,
      "ĠÐ½Ð°Ð´Ð·Ð²": 4418,
      "ĠKindergarten": 4419,
      "ĠPersonen": 4420,
      "258": 4421,
      "Rektion": 4422,
      "drÃ¼ckt": 4423,
      "flug": 4424,
      "ĠFernse": 4425,
      "Ġangefangen": 4426,
      "ĠzurÃ¼ck": 4427,
      "Ð¾ÑĩÐ¸Ð½Ð°ÑĤÐ¸": 4428,
      "ĠÐ¿ÑĢÐ°ÑĨÑİÐ²Ð°ÑĤÐ¸": 4429,
      "Konjunktiv": 4430,
      "Unter": 4431,
      "fÃ¤llig": 4432,
      "hÃ¤ngen": 4433,
      "ÑĸÐ»ÑĮÐ½Ð°": 4434,
      "haften": 4435,
      "ĠSee": 4436,
      "ĠÐ±ÑĸÐ»Ñı": 4437,
      "ĠÑĥÐ½ÑĸÐ²ÐµÑĢÑģÐ¸ÑĤÐµÑĤÑĸ": 4438,
      "innern": 4439,
      "ĠÐ·Ð½Ð°Ð¹": 4440,
      "ĠfÃ¼hren": 4441,
      "nahme": 4442,
      "Umwelt": 4443,
      "teilnehmen": 4444,
      "ymnas": 4445,
      "Ġfest": 4446,
      "Ð¸Ð»Ð°ÑģÑı": 4447,
      "Ġgebildet": 4448,
      "ĠFÃ¤higkeit": 4449,
      "ĠKarte": 4450,
      "ĠÐ¾ÑĩÑĸÐº": 4451,
      "ĠÐ¾Ð¿Ð¸ÑĤ": 4452,
      "ĠÐ¿Ð¾ÑĹÑħÐ°ÑĤÐ¸": 4453,
      "ĠTÃ¤tigkeit": 4454,
      "Ġverloren": 4455,
      "ĠÐ¹Ð´ÐµÐ¼Ð¾": 4456,
      "ĠJahre": 4457,
      "ĠÑħÐ¾ÑĩÐµÐ¼Ð¾": 4458,
      "ĠÐ¼ÑĥÐ·Ð¸ÐºÑĥ": 4459,
      "Ġrichtigen": 4460,
      "itzung": 4461,
      "sah": 4462,
      "Ġaber": 4463,
      "ĠÐ´Ð¾Ð¼Ð¾Ð²": 4464,
      "ĠÐ´ÑĸÑĶÑģÐ»ÑĸÐ²": 4465,
      "ĠÐ¼Ð°ÑĤÐµÑĢÑĸ": 4466,
      "ĠBlog": 4467,
      "ĠHof": 4468,
      "ĠHotel": 4469,
      "ĠHerz": 4470,
      "ĠKreuz": 4471,
      "ĠÐ½Ð°ÑĢÐ¾Ð´Ð¶ÐµÐ½Ð½Ñı": 4472,
      "Ġtrennbaren": 4473,
      "ĠÐ¿Ð¾Ð²ÐµÑĢÑģÑĸ": 4474,
      "holen": 4475,
      "ĠStraÃŁenbahn": 4476,
      "Apfel": 4477,
      "Superlativ": 4478,
      "ĠÐĩÐ¼": 4479,
      "ĠAussicht": 4480,
      "ĠBoden": 4481,
      "ĠnÃ¤chst": 4482,
      "ĠÐºÐ°Ð²Ñĥ": 4483,
      "ĠÐºÑĥÑĢÑģÑĥ": 4484,
      "ĠÑĦÑĸÑĢÐ¼Ñĸ": 4485,
      "ĠTurm": 4486,
      "ĠPauli": 4487,
      "begann": 4488,
      "ĠEnde": 4489,
      "ĠÐ¿ÑĢÐ¾ÑĦÐµÑģÑĸ": 4490,
      "ĠÐ²ÑĸÐ´Ð¿Ð¾Ð²ÑĸÐ´Ð°ÑĤÐ¸": 4491,
      "ĠÐ¿Ð°ÑĢÑĤÐ½ÐµÑĢ": 4492,
      "ĠGebÃ¤ude": 4493,
      "ĠÐ¿ÑĢÐ°ÑĨÑİÑĶ": 4494,
      "ĠÐ·Ð°ÑĢÐ¿Ð»Ð°ÑĤÐ°": 4495,
      "gleich": 4496,
      "ĠÐ¿Ð¸ÑģÑĮ": 4497,
      "ĠÐ´Ð¸ÑĢÐµÐºÑĤÐ¾ÑĢ": 4498,
      "ĠÐ·ÑĢÐ¾Ð±Ð¸Ð²": 4499,
      "Ð²ÑĢÐ¾Ð¿": 4500,
      "Ġbereitet": 4501,
      "ĠÑģÑĤÑĢÐ°Ð¶": 4502,
      "ĠÑģÑĤÑĢÐ°ÑħÐ¾Ð²ÐºÐ°": 4503,
      "ĠÑĩÐµÐºÐ°ÑĤÐ¸": 4504,
      "ĠHilfs": 4505,
      "ĠÑĤÑĥÑĢÐ¸ÑģÑĤÐ¸": 4506,
      "ĠÐ¾ÑĦÑĸÑģ": 4507,
      "ĠÐ¾Ð³Ð»ÑıÐ´": 4508,
      "ĠMÃ¤rz": 4509,
      "ĠÑģÐ¿ÑĸÐ»Ðº": 4510,
      "beginnen": 4511,
      "ĠÐ·Ð°Ð¹Ð¼Ð°ÑĶÑĤÑĮÑģÑı": 4512,
      "ĠÐ²ÑĸÐ´Ð±ÑĥÐ²Ð°ÑĶÑĤÑĮÑģÑı": 4513,
      "alerweise": 4514,
      "sicherung": 4515,
      "ĠÐ¾ÑģÐ²ÑĸÑĤÐ°": 4516,
      "ĠVerwaltung": 4517,
      "Ð½Ð¸ÑĨÑĤÐ²Ð¾": 4518,
      "ammeln": 4519,
      "ĠÐµÐºÑģÐºÑĥÑĢ": 4520,
      "ĠÐºÐ¾Ð»ÑĮÐ¾ÑĢ": 4521,
      "ĠÐºÐ¾Ð»ÐµÐ³Ð°Ð¼Ð¸": 4522,
      "ĠÑĢÐµÐºÐ¾Ð¼ÐµÐ½Ð´Ð°ÑĨÑĸÑĹ": 4523,
      "iederlande": 4524,
      "ĠÑģÐ»ÑĥÐ¶Ð±Ð°": 4525,
      "Ġdunkel": 4526,
      "ĠÐ´Ð¾Ð±ÑĢÐµ": 4527,
      "ĠÐ½Ð°Ð¼ÑĸÑĢ": 4528,
      "ĠBÃ¤cker": 4529,
      "ĠBrÃ¼cke": 4530,
      "ĠÑģÑĤÑĢÐµÑģÑĥ": 4531,
      "ĠÐ¿ÑĢÐ¸Ð²Ð°ÑĤ": 4532,
      "ĠÑĩÑĥÐ´Ð¾Ð²Ð¸Ð¹": 4533,
      "ĠÐ·Ð°Ð»Ð¸ÑĪÐ°ÑĤÐ¸": 4534,
      "ĠÑĩÐ°ÑģÑĤÐ¾": 4535,
      "ĠÐ¿Ð¾ÑģÐ¸Ð»": 4536,
      "Ġgerade": 4537,
      "ĠTrinkgeld": 4538,
      "ĠPatient": 4539,
      "telefonieren": 4540,
      "ĠÐ¶Ð¾Ð²ÑĤ": 4541,
      "ĠVerkehrsmittel": 4542,
      "olkshochschule": 4543,
      "Ġbegonnen": 4544,
      "ĠSpeicher": 4545,
      "ĠReihenfolge": 4546,
      "ĠÐºÐ¾Ð½ÑĤÐ°ÐºÑĤ": 4547,
      "Mails": 4548,
      "ĠMotorrad": 4549,
      "Stick": 4550,
      "glied": 4551,
      "horn": 4552,
      "rutto": 4553,
      "Ġusw": 4554,
      "Ð¾ÑĶÐ¼Ñĥ": 4555,
      "ĠInteresse": 4556,
      "ĠÑģÐ¸Ð´ÑĸÑĤÐ¸": 4557,
      "Ð¾Ð³ÑĢÐ°ÑĦ": 4558,
      "ĠSetzen": 4559,
      "ĠSortieren": 4560,
      "ĠÑĢÐµÐ¼Ð¾Ð½ÑĤ": 4561,
      "ĠÑģÑĤÐ¾Ð¼Ð°ÑĤÐ¾Ð»Ð¾Ð³": 4562,
      "ĠHaltestelle": 4563,
      "ĠFoto": 4564,
      "Ġfolgt": 4565,
      "ĠÑĸÐ½Ð¾Ð·ÐµÐ¼": 4566,
      "ĠErdgeschoss": 4567,
      "ĠApotheke": 4568,
      "ĠÐ³ÑĢÑĥÐ´Ð½Ñı": 4569,
      "ĠBewerbungsgesprÃ¤ch": 4570,
      "ĠÐ¿Ð¾Ð´ÑıÐºÑĥÐ²Ð°Ð»Ð°": 4571,
      "ÐµÐºÑĢÐµÑĤÐ°ÑĢ": 4572,
      "ymnasium": 4573,
      ".âĢľ": 4574,
      "/-": 4575,
      "/?": 4576,
      "01": 4577,
      "05": 4578,
      "09": 4579,
      "32": 4580,
      "38": 4581,
      "316": 4582,
      "41": 4583,
      "56": 4584,
      "62": 4585,
      "78": 4586,
      "Al": 4587,
      "Ant": 4588,
      "Bi": 4589,
      "BÃ¼": 4590,
      "Bundes": 4591,
      "Dinge": 4592,
      "EN": 4593,
      "ER": 4594,
      "En": 4595,
      "Gymnasium": 4596,
      "Hob": 4597,
      "Haupt": 4598,
      "Ihre": 4599,
      "Kar": 4600,
      "Li": 4601,
      "Lis": 4602,
      "Muster": 4603,
      "Netz": 4604,
      "Natur": 4605,
      "Nico": 4606,
      "Niederlande": 4607,
      "Ph": 4608,
      "Pers": 4609,
      "Rad": 4610,
      "Relativ": 4611,
      "Se": 4612,
      "Sp": 4613,
      "Ta": 4614,
      "Tour": 4615,
      "Urlaub": 4616,
      "Vor": 4617,
      "Wohn": 4618,
      "adie": 4619,
      "ahre": 4620,
      "ace": 4621,
      "by": 4622,
      "buch": 4623,
      "bot": 4624,
      "cen": 4625,
      "dan": 4626,
      "dativ": 4627,
      "dru": 4628,
      "dit": 4629,
      "drig": 4630,
      "diert": 4631,
      "ding": 4632,
      "direkte": 4633,
      "dÃ¼rfen": 4634,
      "ehen": 4635,
      "ete": 4636,
      "egt": 4637,
      "ecke": 4638,
      "gnet": 4639,
      "garage": 4640,
      "gress": 4641,
      "hÃ¼": 4642,
      "hÃ¤": 4643,
      "hiel": 4644,
      "heiÃŁ": 4645,
      "haupt": 4646,
      "hitzung": 4647,
      "ian": 4648,
      "ider": 4649,
      "iser": 4650,
      "ice": 4651,
      "itel": 4652,
      "ihm": 4653,
      "izig": 4654,
      "ka": 4655,
      "ki": 4656,
      "kor": 4657,
      "kat": 4658,
      "kale": 4659,
      "kret": 4660,
      "kasus": 4661,
      "ln": 4662,
      "lt": 4663,
      "lat": 4664,
      "leute": 4665,
      "mo": 4666,
      "mu": 4667,
      "mas": 4668,
      "mon": 4669,
      "met": 4670,
      "mma": 4671,
      "miÃŁ": 4672,
      "mÃ¶glichkeit": 4673,
      "nst": 4674,
      "nÃ¤": 4675,
      "nier": 4676,
      "nik": 4677,
      "ness": 4678,
      "ow": 4679,
      "ose": 4680,
      "oben": 4681,
      "oder": 4682,
      "ohlen": 4683,
      "ph": 4684,
      "pra": 4685,
      "pers": 4686,
      "passen": 4687,
      "platz": 4688,
      "rt": 4689,
      "rill": 4690,
      "racht": 4691,
      "rand": 4692,
      "ritt": 4693,
      "sf": 4694,
      "ss": 4695,
      "su": 4696,
      "seit": 4697,
      "sil": 4698,
      "soll": 4699,
      "szeit": 4700,
      "tter": 4701,
      "tage": 4702,
      "use": 4703,
      "ull": 4704,
      "ucht": 4705,
      "verm": 4706,
      "wit": 4707,
      "wÃ¼r": 4708,
      "wic": 4709,
      "wechs": 4710,
      "yp": 4711,
      "ylt": 4712,
      "ziel": 4713,
      "zte": 4714,
      "Â©": 4715,
      "ÃĦ": 4716,
      "Ð¡": 4717,
      "Ð¯": 4718,
      "ÐĹ": 4719,
      "Ġ>": 4720,
      "ĠÑģÐ»": 4721,
      "ĠÑĢÑĸÐ²": 4722,
      "ĦÐ²ÑĢÐ¾Ð¿": 4723,
      "ĠÐ¨": 4724,
      "ĠÐ®": 4725,
      "Ð½ÐµÐ½Ð½Ñı": 4726,
      "Ð½ÑĸÐº": 4727,
      "Ð¾ÑĦ": 4728,
      "Ð¾ÑģÑı": 4729,
      "Ð¾Ð½ÐµÑĢ": 4730,
      "ÐµÐ²": 4731,
      "ÐµÐ»ÑĮÐ½Ð¸Ð¹": 4732,
      "ÑıÑĤ": 4733,
      "ÑıÑĩÐ¸Ð¹": 4734,
      "ÑĸÑĩ": 4735,
      "ÑĸÐ¼Ðµ": 4736,
      "ÑģÐ¸Ñĩ": 4737,
      "ÑģÐ¿ÑĢÐ°Ð²": 4738,
      "ree": 4739,
      "reig": 4740,
      "reffen": 4741,
      "Ð¾Ð°": 4742,
      "Ð°Ð»Ðµ": 4743,
      "Ð°Ð»Ñĸ": 4744,
      "Ð°ÐµÑĢ": 4745,
      "Ð°ÐºÑĥ": 4746,
      "Ð°ÑĨÑĸÑı": 4747,
      "orf": 4748,
      "recht": 4749,
      "Ð¸Ð²Ñĸ": 4750,
      "ender": 4751,
      "enhaus": 4752,
      "enige": 4753,
      "enzin": 4754,
      "enstich": 4755,
      "chi": 4756,
      "chste": 4757,
      "chnet": 4758,
      "ÑĤÑĥ": 4759,
      "ÑĤÑĶ": 4760,
      "ÑĤÐ¾Ð²": 4761,
      "ÑĤÐ¾Ð¿": 4762,
      "ÑĤÑĥÐ²Ð°ÑĤÐ¸": 4763,
      "ÑĤÐ²ÐµÑĢ": 4764,
      "ÑĢÐ¸ÑĤÐ¸": 4765,
      "ÑĢÐ¾ÑĪ": 4766,
      "ÑĢÐ¸Ð²Ð°ÑĤÐ¸": 4767,
      "ÐµÐ½Ñİ": 4768,
      "ÐµÐ½Ð·": 4769,
      "ÐµÐ½Ð¾ÑģÐ¸ÑĤÐ¸": 4770,
      "Ð»ÐºÐ°": 4771,
      "Ð»ÐµÐ½Ð¸Ð¹": 4772,
      "ÑĥÐ»Ð¸": 4773,
      "ĠCD": 4774,
      "ĠChan": 4775,
      "ÑĶÐ´Ð½": 4776,
      "erk": 4777,
      "erhÃ¶": 4778,
      "erdig": 4779,
      "erinnen": 4780,
      "Ð¼Ð¸Ð½": 4781,
      "Ð¼Ð°Ð½": 4782,
      "Ð¼Ð¾Ð²Ð°": 4783,
      "inkt": 4784,
      "inne": 4785,
      "inner": 4786,
      "inform": 4787,
      "interes": 4788,
      "star": 4789,
      "station": 4790,
      "strei": 4791,
      "stÃ¼tz": 4792,
      "ĠIr": 4793,
      "ĠIhnen": 4794,
      "ÐºÐ¾Ð½Ð°": 4795,
      "ÐºÐ¾ÑĪ": 4796,
      "ÐºÑĨÑĸÑı": 4797,
      "Ġde": 4798,
      "Ġdau": 4799,
      "Ġdar": 4800,
      "Ġdam": 4801,
      "ĠdrÃ¼": 4802,
      "Ġdirekt": 4803,
      "iehen": 4804,
      "iebt": 4805,
      "ÑĩÐ½Ð¸Ðº": 4806,
      "ÑĩÑĥÐ²Ð°ÑĤÐ¸": 4807,
      "ÑĩÑĥÐº": 4808,
      "Ð¾Ð²Ð¾Ð»": 4809,
      "Ð¾Ð²Ð¸ÑĤÐ¸": 4810,
      "Ð¾Ð²ÐµÑĨÑĮ": 4811,
      "Ð¾Ð²Ð½Ð¸Ñħ": 4812,
      "ĠÐ¿Ð¾Ð·": 4813,
      "ĠÐ¿Ð¸ÑĤÐ¸": 4814,
      "ĠÐ¿Ð°Ð´": 4815,
      "ĠÐ¿Ð°Ð»": 4816,
      "ĠInten": 4817,
      "Ð¾Ð¼ÐµÑĢ": 4818,
      "Ð¾Ð¼ÐµÐ½ÑĤ": 4819,
      "ĠÐ´Ð¾Ð¿": 4820,
      "ĠÐ´Ð¸ÑĤ": 4821,
      "ĠÐ´ÐµÑĢ": 4822,
      "ĠÐ´ÑıÐº": 4823,
      "ĠÐ´Ð¾Ð²ÑĸÐ´": 4824,
      "ĠÐ´ÑĸÑİ": 4825,
      "Ð´Ñĸ": 4826,
      "Ð´Ð¸Ð¹": 4827,
      "Ð´Ð°Ð½Ð½Ñı": 4828,
      "Ð´Ð¾Ð¼Ð°": 4829,
      "asen": 4830,
      "aske": 4831,
      "auen": 4832,
      "auch": 4833,
      "auran": 4834,
      "aukasus": 4835,
      "ĠÐ¼Ðµ": 4836,
      "ĠÐ¼Ð°Ð¼": 4837,
      "ĠÐ¼ÑĸÐ»ÑĮ": 4838,
      "ĠÐ¼Ð°ÑĪ": 4839,
      "ĠÐ¼Ð°ÑİÑĤÑĮ": 4840,
      "ĠÐ¼Ð¾ÑĢÐµ": 4841,
      "ĠÐ¼Ð¾Ð¼ÐµÐ½ÑĤ": 4842,
      "ĠÐ°Ð½": 4843,
      "ĠÐ°Ð¿ÑĤÐµ": 4844,
      "ĠÐ·Ð½Ð¸Ðº": 4845,
      "ĠÐ·ÑĢÑĥ": 4846,
      "ĠÐ·Ð½Ñı": 4847,
      "ĠÐ·Ð¾ÑĢÑĥ": 4848,
      "geogra": 4849,
      "gezogen": 4850,
      "gebraucht": 4851,
      "gegn": 4852,
      "Ġihm": 4853,
      "ĠÐ½ÑĸÐº": 4854,
      "ĠÐ½Ð°Ð¼Ð¸": 4855,
      "ĠÐ½Ð¾Ð¼ÐµÑĢ": 4856,
      "ĠÑģÐ¸Ð¼": 4857,
      "ĠÑģÐ²Ñĸ": 4858,
      "ĠÐ²Ñĸ": 4859,
      "ĠÐ²Ðº": 4860,
      "ĠÐ²Ð¸Ñģ": 4861,
      "ĠÐ²Ð»Ð°": 4862,
      "ĠÐ²Ð²Ð°Ð¶Ð°Ñİ": 4863,
      "ĠÐ²ÑģÑĤÐ°Ð½": 4864,
      "ĠÐ²ÑĸÑĪÐ°ÑĤÐ¸": 4865,
      "ĠÐ²Ð¿ÐµÐ²Ð½": 4866,
      "ÑĸÐ½Ð°Ð½": 4867,
      "Ð»ÑıÑĶ": 4868,
      "Ð»ÑıÑİ": 4869,
      "Ð»ÑıÑİÑĤÑĮ": 4870,
      "Ġweit": 4871,
      "Ġwert": 4872,
      "ande": 4873,
      "andes": 4874,
      "anis": 4875,
      "anbie": 4876,
      "ĠDen": 4877,
      "ĠDiÃ¤t": 4878,
      "eim": 4879,
      "eich": 4880,
      "eigt": 4881,
      "Ġson": 4882,
      "Ġsollen": 4883,
      "Ġsingen": 4884,
      "Ġschenke": 4885,
      "Ġgeg": 4886,
      "Ġgewor": 4887,
      "Ġgebo": 4888,
      "Ġgesetz": 4889,
      "Ġgewaschen": 4890,
      "Ġgeboten": 4891,
      "Ġgeliehen": 4892,
      "ĠkÃ¶nn": 4893,
      "tis": 4894,
      "tier": 4895,
      "tige": 4896,
      "uten": 4897,
      "Ð²ÐµÑĢÑĤ": 4898,
      "ĠAt": 4899,
      "ĠAu": 4900,
      "ĠAut": 4901,
      "ĠAug": 4902,
      "Ð¾ÑĢÐ´": 4903,
      "Ð¾Ð³Ð°": 4904,
      "ÑĨÑİ": 4905,
      "Ð¼ÐµÑĢÐ°": 4906,
      "Ð»ÑĮÐ¿": 4907,
      "Ð»ÑĮÐ¹Ð¾Ð½": 4908,
      "Ġber": 4909,
      "Ġbel": 4910,
      "Ġbenut": 4911,
      "Ã¼cken": 4912,
      "Ã¼tlich": 4913,
      "ĠÐ¿ÑĸÐ´ÑĤÑĢÐ¸Ð¼": 4914,
      "ĠÐ¿ÑĸÐ´Ð¿ÑĢ": 4915,
      "Ð¹Ð½Ð°": 4916,
      "ÑĦÐ¾ÑĢÑĤ": 4917,
      "ĠBÃ¼": 4918,
      "ĠBil": 4919,
      "ĠBis": 4920,
      "ĠBesuch": 4921,
      "ĠBond": 4922,
      "ĠBalkon": 4923,
      "Ð¿Ð¾": 4924,
      "Ð¿Ñĸ": 4925,
      "Ð¿Ð°ÑĤÐ¸": 4926,
      "Ð¿Ð¾Ð·": 4927,
      "Ð¿ÑĥÑģ": 4928,
      "ĠSÃ¼": 4929,
      "ĠSÃ¤": 4930,
      "ĠSicher": 4931,
      "ĠSylt": 4932,
      "ĠSender": 4933,
      "Ð¾Ð´Ñĥ": 4934,
      "ĠÑĢÐµÑģÑĤÐ¾ÑĢÐ°Ð½": 4935,
      "ĠÑģÑĤÐ°Ð²": 4936,
      "ĠÑģÑĤÑĢÑĸ": 4937,
      "ĠÑģÑĤÐ¾Ñģ": 4938,
      "ĠÑģÑĤÐ¾Ð»Ñĸ": 4939,
      "achte": 4940,
      "ĠnÃ¼tz": 4941,
      "ĠÑĥÐºÑĢÐ°ÑĹÐ½": 4942,
      "Erd": 4943,
      "eiter": 4944,
      "Ã¤ren": 4945,
      "Ã¤rin": 4946,
      "Ã¤gt": 4947,
      "Ã¤dlich": 4948,
      "Ã¤llt": 4949,
      "schien": 4950,
      "schmer": 4951,
      "ÑĨÑĸÐ¾Ð½": 4952,
      "arum": 4953,
      "arken": 4954,
      "arischen": 4955,
      "artner": 4956,
      "heben": 4957,
      "ĠÑĩÐ¸ÑģÑĤ": 4958,
      "ĠÑĩÐµÑĢ": 4959,
      "untern": 4960,
      "unktion": 4961,
      "Ġeinige": 4962,
      "Ġeinfach": 4963,
      "Ġeinverstanden": 4964,
      "ĠHÃ¼": 4965,
      "ĠHier": 4966,
      "ernhof": 4967,
      "erneinung": 4968,
      "ĠÑĤÐ¾": 4969,
      "ĠÑĤÐ°ÑĶÐ¼": 4970,
      "ĠFC": 4971,
      "ĠFÃ¼": 4972,
      "ĠFrÃ¼hst": 4973,
      "ĠFace": 4974,
      "ĠFunktion": 4975,
      "ĠKn": 4976,
      "ĠKoll": 4977,
      "ĠKomp": 4978,
      "ĠKlo": 4979,
      "ĠKomparativ": 4980,
      "ĠKeller": 4981,
      "genehm": 4982,
      "ÑģÑĸÐ»Ð»Ñı": 4983,
      "ĠÐºÑĥ": 4984,
      "ĠÐºÐ¾Ð³Ð¾": 4985,
      "ĠÐºÐ°Ð¶": 4986,
      "ĠÐºÑĸÐ»ÑĮ": 4987,
      "ĠÐºÐ°Ñģ": 4988,
      "ĠÐºÑĢÐ¸": 4989,
      "ĠÐºÑĸÐ¼": 4990,
      "ĠÐºÐ°Ð½Ð´": 4991,
      "ĠÐºÐ²Ð¸ÑĤ": 4992,
      "ÑİÑģ": 4993,
      "ÑİÐºÐ°": 4994,
      "Ġlau": 4995,
      "Ġlang": 4996,
      "Ġlaufen": 4997,
      "ĠÐ¾ÑĨÑĸÐ½": 4998,
      "Ð¸Ð½Ð¾Ñİ": 4999,
      "Ð¸Ð½Ð°Ð¼Ð¸": 5000,
      "Ð¾Ð»Ð¾Ð²": 5001,
      "ĠÐ·Ð°ÑĢÐ¾Ð±": 5002,
      "Ġdenn": 5003,
      "ĠÑĦÐ°ÑĢ": 5004,
      "ĠÑĦÑĥÑĤÐ±": 5005,
      "ĠÑĦÑĸÐ½Ð°Ð½": 5006,
      "ÑģÑıÑĨÑĮ": 5007,
      "ĠMar": 5008,
      "ĠMaus": 5009,
      "ĠMetz": 5010,
      "ĠMasch": 5011,
      "Ġdiesen": 5012,
      "Ġdieser": 5013,
      "ĠGÃ¤": 5014,
      "ĠGlei": 5015,
      "ĠGasse": 5016,
      "ĠGrÃ¼n": 5017,
      "ĠGerman": 5018,
      "ĠGrammatik": 5019,
      "ĠÐ¿Ð¾ÑģÐ»ÑĸÐ´": 5020,
      "ĠÐ¿Ð¾ÑģÐ»Ñĥ": 5021,
      "inder": 5022,
      "Ð±ÑĥÐ²Ð°ÑĤÐ¸ÑģÑı": 5023,
      "teratur": 5024,
      "terhorn": 5025,
      "Ð°Ð²Ð°": 5026,
      "ĠTo": 5027,
      "ĠTim": 5028,
      "ĠTrÃ¶": 5029,
      "ĠTief": 5030,
      "ĠTaschen": 5031,
      "ĠDeutschkurs": 5032,
      "Ð°Ð¼Ð¿": 5033,
      "annte": 5034,
      "rop": 5035,
      "chenk": 5036,
      "ÑĢÑĸÐ°Ð»": 5037,
      "eilen": 5038,
      "ĠSuche": 5039,
      "ĠArt": 5040,
      "ĠSuperlativ": 5041,
      "ĠÐ½Ð°Ñģ": 5042,
      "ĠÐ½Ð°ÑģÑĤÑĢÑĸ": 5043,
      "ĠÐ½Ð°Ð»ÐµÐ¶": 5044,
      "Ð¶Ð°Ð²": 5045,
      "Ð¶ÑĥÐ²Ð°ÑĤÐ¸": 5046,
      "Ð¶ÐµÐ½Ð¸Ð¹": 5047,
      "Ð¶Ð´Ð¶": 5048,
      "ĠPeter": 5049,
      "ĠZeu": 5050,
      "ĠZust": 5051,
      "kaufs": 5052,
      "ichte": 5053,
      "rend": 5054,
      "Ð³Ð°Ð½": 5055,
      "ÑĢÑĥÑĩÐ½Ð¸Ðº": 5056,
      "ĠÐ±ÑĸÐ´": 5057,
      "ĠÐ±Ð¾ÑĢ": 5058,
      "ĠÐ±Ð°ÑĢ": 5059,
      "ĠÐ±Ð°Ð»": 5060,
      "ĠÐ±ÑĸÐ·": 5061,
      "ĠÐ±Ð°Ñĩ": 5062,
      "ĠÐ±Ð°Ð³Ð°ÑĤÐ¸": 5063,
      "ĠÐ±ÑĸÐ»ÑĮÑĪÐµ": 5064,
      "ummer": 5065,
      "ummel": 5066,
      "ÑĪÐºÐ°": 5067,
      "Ð°Ð½Ð´Ð¸": 5068,
      "pekt": 5069,
      "pektiv": 5070,
      "Ð·Ð´": 5071,
      "ĠÑģÐ¿Ð°": 5072,
      "ĠÑģÐ¿Ð¾Ðº": 5073,
      "ĠÑģÐ¿ÑĢÐ°Ð²": 5074,
      "Ġerk": 5075,
      "beantworten": 5076,
      "becken": 5077,
      "bekl": 5078,
      "bereiten": 5079,
      "Ġteu": 5080,
      "Ġtri": 5081,
      "Ġtreffen": 5082,
      "Ġfr": 5083,
      "Ġfot": 5084,
      "Ġfaul": 5085,
      "ÑħÐ¾": 5086,
      "Ã¶hnen": 5087,
      "Ã¶llig": 5088,
      "Ã¶hnt": 5089,
      "ĠÑĤÐµÐ¶": 5090,
      "ĠÑĤÐµÑģÑĤ": 5091,
      "ĠÑĤÐµÐ±Ðµ": 5092,
      "hne": 5093,
      "hnung": 5094,
      "Ġspricht": 5095,
      "esten": 5096,
      "estauran": 5097,
      "Ð½ÐµÑĤ": 5098,
      "Ð½ÐµÑĢÐ°": 5099,
      "ĠschÃ¤dlich": 5100,
      "ĠÐ¼ÑĸÑģÑĤÐ¾": 5101,
      "ĠÐ¼ÑĸÑģÑĤÐ°": 5102,
      "Ġanal": 5103,
      "Ġanfangen": 5104,
      "Ġangenehm": 5105,
      "ĠÐ±ÑĥÐ²": 5106,
      "ĠÐ±ÑĥÐ»ÑĮÐ¹Ð¾Ð½": 5107,
      "hte": 5108,
      "ĠÐŁÑĢÐ¾": 5109,
      "Ð´Ð¸Ð²": 5110,
      "denken": 5111,
      "Ð°ÑĤÐ¸Ð²": 5112,
      "Ð°Ð»ÑĮÐ½Ð¾": 5113,
      "ĠErho": 5114,
      "ĠErzÃ¤hl": 5115,
      "ĠErnÃ¤": 5116,
      "Ð´Ð½Ð¾": 5117,
      "Ð¾Ð¿ÑĸÐ¹": 5118,
      "Ð¸ÑĤÐ°ÑĤÐ¸": 5119,
      "Ð¸ÑĤÐµÐ»ÑĮ": 5120,
      "Ð°Ð²Ð¸Ð»ÑĮÐ½Ð¸Ñħ": 5121,
      "ennen": 5122,
      "ĠWes": 5123,
      "ÑĸÐ²ÐºÐ°": 5124,
      "ĠÐ²ÑĸÐ´Ñĩ": 5125,
      "ĠÐ²ÑĸÐ´ÑĮ": 5126,
      "ĠÐ²ÑĸÐ´ÑĢÑıÐ´Ð¶": 5127,
      "ĠÐ·Ð°Ð¿Ð¸Ñģ": 5128,
      "PrÃ¤positionen": 5129,
      "Ã¶nliche": 5130,
      "ÑĥÑĩÐ°ÑĤÐ¸": 5131,
      "ĠÑĢÐµÑĩÑĸ": 5132,
      "ĠÐ¶ÑĥÑĢ": 5133,
      "ĠÐ¶Ð°Ð»ÑĮ": 5134,
      "ĠÐ·Ð°Ð²ÐµÑĢÑĪ": 5135,
      "ĠÐ·Ð°Ð²Ð´Ð°Ð½Ð½Ñı": 5136,
      "ĠÐ¶ÑĸÐ½ÐºÐ°": 5137,
      "alz": 5138,
      "demittel": 5139,
      "Ġzwar": 5140,
      "Ġzeigt": 5141,
      "ĠÐ´Ð¾Ð¿Ð¾Ð¼Ð¾Ð³ÑĤÐ¸": 5142,
      "dukt": 5143,
      "ziert": 5144,
      "ĠLÃ¤ndern": 5145,
      "ĠLotto": 5146,
      "ermine": 5147,
      "ĠUhrzeit": 5148,
      "ĠÐļÐ°ÑĢ": 5149,
      "uÃŁern": 5150,
      "ĠFuÃŁgÃ¤n": 5151,
      "sichtig": 5152,
      "Ġverm": 5153,
      "Ġvier": 5154,
      "Ġvert": 5155,
      "Ġverneinen": 5156,
      "Ġausgeben": 5157,
      "ierig": 5158,
      "kosten": 5159,
      "ĠBuchladen": 5160,
      "erleben": 5161,
      "erlegt": 5162,
      "ÑĸÐ¹Ð½Ð¸Ð¹": 5163,
      "ethe": 5164,
      "ette": 5165,
      "ĠÐ¾Ð·ÐµÑĢ": 5166,
      "Ġliegen": 5167,
      "Ã¼ritz": 5168,
      "ilft": 5169,
      "dessen": 5170,
      "ÑĨÐµÑĢ": 5171,
      "ames": 5172,
      "amil": 5173,
      "Ð¼Ð¾Ð½": 5174,
      ".....": 5175,
      "ĠÐ½ÑĸÐ¼ÐµÑĨÑĮÐºÑĥ": 5176,
      "ĠGeschenk": 5177,
      "mpfen": 5178,
      "spro": 5179,
      "spunkt": 5180,
      "Ð¾Ð·Ð²Ñĸ": 5181,
      "ĠFreunden": 5182,
      "ĠFremd": 5183,
      "ĠhÃ¼b": 5184,
      "Ġhilft": 5185,
      "ĠVerneinen": 5186,
      "ĠVerneinung": 5187,
      "ĠParkhaus": 5188,
      "isÃ¶r": 5189,
      "andt": 5190,
      "andte": 5191,
      "neben": 5192,
      "ÑĥÐ²Ð°Ð½": 5193,
      "ĠRuhe": 5194,
      "ĠRasen": 5195,
      "ĠRestauran": 5196,
      "urde": 5197,
      "ÑģÑĤÐµÑĢ": 5198,
      "rafen": 5199,
      "ration": 5200,
      "ĠStamm": 5201,
      "ĠSteiger": 5202,
      "ĠStock": 5203,
      "ĠTaxi": 5204,
      "ator": 5205,
      "ĠÐľÐ¾Ñı": 5206,
      "ĠÐľÑĸÐ¹": 5207,
      "ĠÐľÐ°Ð¼Ð°": 5208,
      "imal": 5209,
      "ĠEx": 5210,
      "ĠEnergie": 5211,
      "ĠEtage": 5212,
      "ĠEreig": 5213,
      "bteil": 5214,
      "ĠProfil": 5215,
      "Ã¼nsche": 5216,
      "ĠProbleme": 5217,
      "ÐºÐ¸Ñħ": 5218,
      "sterben": 5219,
      "ĠÐ³Ð°Ð·": 5220,
      "ĠÐ³ÑĢÐ°": 5221,
      "ĠÐ³Ð°Ð»": 5222,
      "ĠÐ³ÑĥÑģ": 5223,
      "ĠÐ³ÑĸÐ³": 5224,
      "leiden": 5225,
      "Ġleben": 5226,
      "kenland": 5227,
      "ĠÐ¾Ð±Ð¾Ð²": 5228,
      "ĠÐ¾Ð±Ð»Ð°ÑĪÑĤ": 5229,
      "ĠÐ¾Ð±ÑģÐ»ÑĥÐ³": 5230,
      "ĠÐ¾Ð±ÐµÑĢÐµÐ¶": 5231,
      "ĠWochen": 5232,
      "Ã¤len": 5233,
      "schloss": 5234,
      "ĠÑĢÑĸÐ´": 5235,
      "ĠÑĢÐ¸Ð±": 5236,
      "ĠBahnsteig": 5237,
      "Schwar": 5238,
      "Schul": 5239,
      "Schreiben": 5240,
      "ldberg": 5241,
      "lichen": 5242,
      "Ġ23": 5243,
      "Ġ24": 5244,
      "Ð²Ð°ÑĢÑĸ": 5245,
      "Ð²Ð°Ð»Ð°": 5246,
      "ĠBildung": 5247,
      "ÑĹÑħ": 5248,
      "ÑĹÐ¶Ð´Ð¶": 5249,
      "ÑīÐµ": 5250,
      "ÑīÐ¸Ð½Ð°": 5251,
      "ĠÐ¾ÑģÐ²ÑĸÑĤ": 5252,
      "ÐµÑĢÐ»": 5253,
      "ÐµÑĢÑİ": 5254,
      "Ã¤rgern": 5255,
      "Ġseiner": 5256,
      "ĠÐ³Ð¾Ð»Ð¾Ð²Ð½Ð¸Ð¹": 5257,
      "gerzone": 5258,
      "Ġdeinen": 5259,
      "ĠVerhÃ¤ltnis": 5260,
      "ĠVergangenheit": 5261,
      "ÃŁerdem": 5262,
      "verw": 5263,
      "verhÃ¤ltnis": 5264,
      "versicherung": 5265,
      "iesland": 5266,
      "sitzen": 5267,
      "ĠKomma": 5268,
      "ĠKongress": 5269,
      "ĠNe": 5270,
      "ĠNacht": 5271,
      "ĠNamen": 5272,
      "ĠÐĴÑĸÐ´": 5273,
      "ĠÐĴÐ°Ð¼": 5274,
      "ĠÐĴÐ¾Ð»Ð¸Ð½ÑģÑĮÐºÐ¾Ð³Ð¾": 5275,
      "ĠÐ»ÑĸÐº": 5276,
      "ĠÐ»ÑĸÑĤ": 5277,
      "ĠÐ»ÐµÐ¶": 5278,
      "Ð¾Ð½Ð´Ð°ÑĢ": 5279,
      "Ð¾Ð¶Ð¸Ð²Ð°Ð½Ð½Ñı": 5280,
      "Ãľb": 5281,
      "ĠÑĢÐ¾Ð±Ð¸ÑĤÐ¸": 5282,
      "ĠÑĢÐ¾Ð±Ð¾ÑĤÑĥ": 5283,
      "Ð¾ÑĩÐºÐ°": 5284,
      "Ġverboten": 5285,
      "Ġverdoppel": 5286,
      "ĠNachrichten": 5287,
      "ĠMorgeng": 5288,
      "âĢ¦);": 5289,
      "ĠPrÃ¤sens": 5290,
      "âĢľ.": 5291,
      "âĢľ:": 5292,
      "ĠÑħÐ¾ÑĤ": 5293,
      "ĠÑħÐ¾Ð»Ð¾Ð´": 5294,
      "ĠÑħÐ²Ð¸": 5295,
      "ĠÑħÐ°ÑĢÑĩ": 5296,
      "Ġmachte": 5297,
      "abonn": 5298,
      "Ð»Ð¸Ð²Ñĸ": 5299,
      "Ð»Ð¸Ð²Ð°": 5300,
      "Ð°Ð´ÑĥÐ²Ð°ÑĤÐ¸": 5301,
      "ĠÐ²Ð¸ÑģÐ»Ð¾Ð²": 5302,
      "ĠÐ²Ð¸Ð·": 5303,
      "ĠÐ²Ð¸Ñī": 5304,
      "ĠÐ²Ð¸ÑĢÐ¾Ð±": 5305,
      "ĠÐ¿ÑĢÐ¾ÑĤÐ¸": 5306,
      "keln": 5307,
      "satzes": 5308,
      "Ð°ÑĤÐ¸ÐºÐ¸": 5309,
      "ÐµÑĤÐ¾Ð´Ð¸Ñĩ": 5310,
      "Ð¿ÑĢÐ¾Ð¿": 5311,
      "adjektiv": 5312,
      "ĠÑĪÐ°Ð½": 5313,
      "ĠSport": 5314,
      "ĠSprache": 5315,
      "ĠSpitze": 5316,
      "ĠSpree": 5317,
      "Ġplan": 5318,
      "ĠBedeut": 5319,
      "ĠBezie": 5320,
      "ĠBestellung": 5321,
      "ĠBeding": 5322,
      "ĠBeerdig": 5323,
      "zentr": 5324,
      "Ð½Ð¸ÑĨÑı": 5325,
      "ÑĤÐ°Ð»": 5326,
      "ÑĤÐ°ÑĪ": 5327,
      "ĠÐ¿Ð¾Ð´Ð°ÑĤÐ¾Ðº": 5328,
      "ĠÐ³ÑĢÐ°ÑĤÐ¸": 5329,
      "ĠÐ³ÑĢÐ°Ð¼Ð°ÑĤÐ¸": 5330,
      "ĠÑĢÐ¾Ð·ÐµÑĤ": 5331,
      "ÑĸÐ»ÑĮÐºÐ¸": 5332,
      "ĠÐ¿ÐµÑĢÐµÑĢ": 5333,
      "ĠÐ¿ÐµÑĢÐµÐ±": 5334,
      "ĠÐ¿ÐµÑĢÐµÐ±ÑĥÐ´": 5335,
      "ÐµÐºÐ¾Ð¼": 5336,
      "Ð°Ð»ÑĸÑģÑĤ": 5337,
      "ÑĥÐ´ÑĮ": 5338,
      "Ġstreiten": 5339,
      "Ġstarke": 5340,
      "ĠAntwor": 5341,
      "ĠAngebot": 5342,
      "ĠAnzahl": 5343,
      "fing": 5344,
      "findet": 5345,
      "lieÃŁ": 5346,
      "iven": 5347,
      "ĠÐ¿ÑĢÐ¸Ñħ": 5348,
      "ĠÐ¿ÑĢÐ¸Ð²ÑĸÑĤ": 5349,
      "gabe": 5350,
      "ika": 5351,
      "ogle": 5352,
      "ÑĸÑĤÑĤÑı": 5353,
      "ÑĥÑģÐºÐ°ÑĤÐ¸": 5354,
      "sivstation": 5355,
      "ntag": 5356,
      "ĠÐºÐ¾Ð¼ÑĦÐ¾ÑĢÑĤ": 5357,
      "ĠRepar": 5358,
      "ĠÑıÐºÑĸ": 5359,
      "ĠÑıÐºÐ¾Ñİ": 5360,
      "ĠManchmal": 5361,
      "flexiven": 5362,
      "ĠÑĹÐ¹": 5363,
      "ĠÑĹÐ´Ðµ": 5364,
      "ĠÑĹÑģÑĤÐ¸": 5365,
      "ĠVorort": 5366,
      "ĠVorlesung": 5367,
      "ĠVortrag": 5368,
      "Ġpassiert": 5369,
      "riffen": 5370,
      "ĠJames": 5371,
      "ĠÑĨÑİ": 5372,
      "ĠÑĨÑĥÐº": 5373,
      "ĠÐĳÐ°Ð³Ð°ÑĤÐ¾": 5374,
      "ĠÐĳÐ°ÑĤÑĮ": 5375,
      "Ġsolltest": 5376,
      "ĠÐ¡ÐµÐºÑĢÐµÑĤÐ°ÑĢ": 5377,
      "ĠÑģÐ²ÑĸÐ´": 5378,
      "ĠÑģÐ²ÐµÑĤÑĢ": 5379,
      "ĠÑģÐ²Ð¾ÑĶÐ¼Ñĥ": 5380,
      "ĠEinkaufen": 5381,
      "ĠEinweihung": 5382,
      "ÑĸÐ·Ð¸Ðº": 5383,
      "ÑĸÐ·Ð½Ð°": 5384,
      "Infinitiv": 5385,
      "Institut": 5386,
      "haushalt": 5387,
      "Ð¾Ð²Ð¾ÑĢÐ¸ÑĤÐ¸": 5388,
      "geschaut": 5389,
      "geschehen": 5390,
      "Ð²Ð¸Ð´": 5391,
      "Ð²Ð¸Ð´Ð½Ð¾": 5392,
      "ÑģÐ¿ÑĸÐ²": 5393,
      "Ð°ÑĩÐ°": 5394,
      "ÑĤÐµÑĢÐ½ÐµÑĤÑĸ": 5395,
      "Ð²Ð°Ð¶Ð»Ð¸Ð²": 5396,
      "ĠÐ²ÑĸÐ´Ð¿Ð¾Ð²Ñĸ": 5397,
      "ĠOrte": 5398,
      "135": 5399,
      "Verb": 5400,
      "Verbst": 5401,
      "Veranst": 5402,
      "book": 5403,
      "nahmen": 5404,
      "ÐĴÑĸÐ½": 5405,
      "ÐĴÐ¾Ð½Ð°": 5406,
      "ÐĴÐ¾Ð»Ð¸Ð½ÑģÑĮÐºÐ¾Ð³Ð¾": 5407,
      "Ġreflexiven": 5408,
      "ÑĥÐ¼ÐµÐ½ÑĤ": 5409,
      "ÑĥÐ¼ÐµÐ½ÑĤÐ¸": 5410,
      "hand": 5411,
      "ĠAusdru": 5412,
      "Ġenthalten": 5413,
      "ĠFormular": 5414,
      "ĠFormulieren": 5415,
      "ÐµÐ¼ÐµÐ½Ñİ": 5416,
      "reichbar": 5417,
      "ÑĥÐ·ÑĮ": 5418,
      "ĠÐ½Ð°Ð²Ðº": 5419,
      "ĠÑħÐ¾ÑĩÐµÑĤÐµ": 5420,
      "Ð¿ÑĢÐ°Ð²Ð»ÑıÑĤÐ¸": 5421,
      "ĠÐĿÐ°ÑĪ": 5422,
      "low": 5423,
      "lokale": 5424,
      "meckt": 5425,
      "ukunft": 5426,
      "Ġdabei": 5427,
      "ĠdafÃ¼r": 5428,
      "ĠÐ¿Ð¾Ð³ÑĢÐ°Ð±": 5429,
      "ĠÐ¿Ð¾Ð³Ð¾Ð²Ð¾ÑĢÐ¸ÑĤÐ¸": 5430,
      "ĠÐ´ÐµÑıÐºÑĸ": 5431,
      "delmarkt": 5432,
      "rennbare": 5433,
      "freut": 5434,
      "rief": 5435,
      "riere": 5436,
      "ÑĸÑĪÐ½Ð¸Ð¹": 5437,
      "ÑĥÐ½ÐºÐ¸": 5438,
      "ĠÐ·Ð»Ð¸ÑĤÐ¸ÑģÑı": 5439,
      "ĠÐ·Ð»Ð¾Ð´ÑĸÐ¹": 5440,
      "ĠBerge": 5441,
      "ĠBergen": 5442,
      "ĠÑĦÑĸÐ»Ð¾Ð»": 5443,
      "ĠÑĩÐ°ÑģÑĤÐ¸Ð½Ð°": 5444,
      "ĠUnterstÃ¼tz": 5445,
      "baute": 5446,
      "ĠÐ²Ð¸Ð³ÑĢÐ°Ð²Ð°ÑĤÐ¸": 5447,
      "ĠwÃ¼rden": 5448,
      "Ġgesund": 5449,
      "Ġgesagt": 5450,
      "ungsfor": 5451,
      "Ð¾Ð·Ð¸ÑĨÑĮÐºÐ°": 5452,
      "emporalsatz": 5453,
      "dition": 5454,
      "ĠÐ¦ÐµÐ¹": 5455,
      "Ġgeflo": 5456,
      "Ġgefallen": 5457,
      "ĠÐ¿ÑĢÐ¾Ð¿Ð¾Ð½ÑĥÐ²Ð°ÑĤÐ¸": 5458,
      "ĠÐ½Ð°Ð´ÑĤÐ¾": 5459,
      "ĠPersonal": 5460,
      "Redemittel": 5461,
      "ffpunkt": 5462,
      "paten": 5463,
      "ĠÑĨÑĸÐ»": 5464,
      "steigen": 5465,
      "ĠÑģÐµÑĢÑĸÐ°Ð»": 5466,
      "ĠAbschied": 5467,
      "ĠÑĢÐ°Ð´ÑĸÑĤÐ¸": 5468,
      "ĠÑĢÐ°Ð´ÑĸÑİ": 5469,
      "ĠÐ»ÑĸÐºÐ°": 5470,
      "ĠReflexive": 5471,
      "folg": 5472,
      "ÐľÐµÑĤÐ¾Ð´Ð¸Ñĩ": 5473,
      "Ġbesten": 5474,
      "ĠÐ¿ÑĢÐ¸Ð¹Ð¾Ð¼": 5475,
      "ĠÐ¿ÑĢÐ¸Ð¹ÑĪ": 5476,
      "ĠÐ¿ÑĢÐ¸Ð¹Ð¼Ð°ÑĤÐ¸": 5477,
      "ĠFragesatz": 5478,
      "ĠÐ¾ÑĢÐ³Ð°Ð½": 5479,
      "ĠUmwelt": 5480,
      "ÐµÑĢÑĤÐ°ÑĤÐ¸": 5481,
      "605": 5482,
      "frieren": 5483,
      "friesland": 5484,
      "hÃ¤ng": 5485,
      "ĠÐ¿ÑĢÐ¾Ð´Ð°Ð¶": 5486,
      "ĠKleid": 5487,
      "ĠÐ³Ð°ÑĢÐ½Ð¾": 5488,
      "ĠÐ³Ð°ÑĢÐ½Ñĸ": 5489,
      "ĠÐ´ÑĥÐ¼ÐºÐ°": 5490,
      "ĠÐ²ÐµÑĩÐµÑĢÑİ": 5491,
      "289": 5492,
      "verlor": 5493,
      "verlieren": 5494,
      "Ġendet": 5495,
      "Ġgenannt": 5496,
      "ĠÐ¿Ð¾ÐºÑĥÐ¿": 5497,
      "ĠÐ¿Ð¾ÐºÐ»Ð°Ð»Ð°": 5498,
      "ĠÐ·Ð½Ð°ÑĶÑĤÐµ": 5499,
      "Ġgeschrieben": 5500,
      "Ð»ÑĮÑĤÐµÑĤ": 5501,
      "ĠBaum": 5502,
      "ĠBaustelle": 5503,
      "ĠBauernhof": 5504,
      "ĠÐ¿ÑĢÐ¾Ð²Ð¾Ð´Ð¸ÑĤÐ¸": 5505,
      "ĠÐ¿ÑĢÐ¾Ð²ÐµÐ´ÐµÐ½Ð½Ñı": 5506,
      "ĠMÃ¼ll": 5507,
      "ÑħÐ¾Ð´Ð¸": 5508,
      "ĠSchulhof": 5509,
      "ĠSchuljahr": 5510,
      "ĠbeschÃ¤f": 5511,
      "Ġ...................................................................................": 5512,
      "Ansicht": 5513,
      "melden": 5514,
      "zwischen": 5515,
      "zwald": 5516,
      "Ġempf": 5517,
      "ÐµÐ½Ð´Ð¾Ð²": 5518,
      "ĠChefin": 5519,
      "ĠÐ·Ð´ÑĸÐ¹ÑģÐ½": 5520,
      "ĠÐ·Ð±ÑĢ": 5521,
      "ĠÐ·Ð±ÑĸÐ»ÑĮÑĪ": 5522,
      "ĠÐ²Ð¸ÑĤÑĢÐ°": 5523,
      "Ð¾ÑĢÐ¸ÑģÐ½": 5524,
      "ĠFÃ¤hre": 5525,
      "ĠÐ¿Ð¾ÑģÐºÐ°ÑĢÐ¶": 5526,
      "ĠTreppe": 5527,
      "ĠTreppen": 5528,
      "ĠTreffpunkt": 5529,
      "ĠÑĸÐ½ÑĤÐµÑĢÐ½ÐµÑĤ": 5530,
      "ĠLebens": 5531,
      "Ġverbunden": 5532,
      "Ġverbringt": 5533,
      "ĠÑĢÐ¾Ð·Ð¿Ð¾ÑĩÐ¸Ð½Ð°ÑĤÐ¸": 5534,
      "ĠJahren": 5535,
      "ĠÐ¼ÑĥÐ·Ð¸ÐºÐ°": 5536,
      "966": 5537,
      "Beantworten": 5538,
      "Ġindirekt": 5539,
      "Ġindirekte": 5540,
      "Ð¾ÑīÐ°Ð´": 5541,
      "stÃ¼rzen": 5542,
      "ĠÐ¿Ð¾Ð¼Ð¸": 5543,
      "ĠÐ¿Ð¾Ð¿ÑĢÐ¾Ñī": 5544,
      "ĠÐ´Ð¾Ð¼Ð°ÑĪ": 5545,
      "ĠÐ´Ð¾Ð´Ð¾Ð¼Ñĥ": 5546,
      "ĠÐ¼Ð°ÑĤÐµÐ¼": 5547,
      "ĠÑģÑĤÑĢÐ°Ð²Ñĥ": 5548,
      "ĠKredit": 5549,
      "ĠÐ·Ð°ÑħÐ¸ÑģÑĤ": 5550,
      "ĠMensch": 5551,
      "ĠTagung": 5552,
      "ĠZugspitze": 5553,
      "ettert": 5554,
      "ĠÐ¿Ð¾Ð²ÐµÑĢÑħ": 5555,
      "ĠÐ¿Ð¾Ð²ÑĸÐ´Ð¾Ð¼Ð»ÑıÑĤÐ¸": 5556,
      "ĠÐ¿Ð¾Ð²ÑĸÐ´Ð¾Ð¼Ð»ÐµÐ½Ð½Ñı": 5557,
      "Ġ2022": 5558,
      "ĠNotar": 5559,
      "ĠNotwendig": 5560,
      "ĠÐ²Ð¸Ð¿Ð°Ð´Ð¾Ðº": 5561,
      "ĠOrdner": 5562,
      "ĠOrdnung": 5563,
      "ĠÐ½Ð°Ð²ÑĩÐ°Ð½Ð½Ñı": 5564,
      "ĠStraÃŁenecke": 5565,
      "ĠÑĨÑĸÐºÐ°Ð²Ð¸ÑĤÐ¸ÑģÑı": 5566,
      "sow": 5567,
      "sondern": 5568,
      "zentrum": 5569,
      "ĠÃ¼berlegt": 5570,
      "ĠÐ¼ÑĸÑģÑıÑĨÑĮ": 5571,
      "ĠDachboden": 5572,
      "Ġgemalt": 5573,
      "ĠBoot": 5574,
      "ĠBeispiel": 5575,
      "ĠÐºÐ»ÑĸÑĶÐ½ÑĤ": 5576,
      "ĠÐ·Ð°Ð¼Ð¾Ð²Ð»ÐµÐ½Ð½Ñı": 5577,
      "ĠÑĦÑĸÑĢÐ¼Ð°": 5578,
      "ĠGericht": 5579,
      "ĠGerÃ¤t": 5580,
      "ĠTurnier": 5581,
      "ĠÑģÐ¿ÐµÑĨÑĸÐ°Ð»ÑĮÐ½Ð¸Ð¹": 5582,
      "isteninform": 5583,
      "Ġschwimmen": 5584,
      "ĠLiefer": 5585,
      "ĠEndung": 5586,
      "ĠÑĢÐ¾ÐºÑĸÐ²": 5587,
      "ĠÐ¾ÑģÐ¾Ð±Ð»Ð¸Ð²Ð¾": 5588,
      "ĠÐ²Ð¸Ð±Ð°Ñĩ": 5589,
      "Ġabgeschlossen": 5590,
      "ĠÐ¿Ð°ÑĢÑĤÐ½ÐµÑĢÐ°": 5591,
      "ĠÐ·Ð»Ð¾ÑĩÐ¸Ð½ÐµÑĨÑĮ": 5592,
      "ĠGebÃ¤uden": 5593,
      "ĠÐ¿ÑĢÐ°ÑĨÑİÑİ": 5594,
      "ĠÐ²Ð±Ð¸Ð²ÑĨÑı": 5595,
      "ĠÐ²Ð±Ð¸Ð²ÑģÑĤÐ²Ð¾": 5596,
      "!!!": 5597,
      "Fachhochschule": 5598,
      "bÃ¼ro": 5599,
      "mmt": 5600,
      "zeichen": 5601,
      "zeichnet": 5602,
      "ÑĥÐ»ÑıÑĢÐ½Ð¸Ð¹": 5603,
      "ĠÐ¼Ð¾Ð²Ñĥ": 5604,
      "ĠÐ¼Ð°Ð¹Ð±ÑĥÑĤÐ½ÑĮÐ¾Ð¼Ñĥ": 5605,
      "ĠÐ¼Ð°Ð¹Ð±ÑĥÑĤÐ½ÑĶ": 5606,
      "ĠÐ·Ð³Ð¾Ð´ÐµÐ½": 5607,
      "ĠÑģÐ¾Ð½Ñı": 5608,
      "ĠÐ²Ð¿Ð»Ð¸Ð²": 5609,
      "ĠÐ²Ð¸Ð²Ñĩ": 5610,
      "ĠÐ²Ð¸Ð²ÑĩÐ°ÑĤÐ¸": 5611,
      "ĠÐ½ÐµÐ²Ð´Ð°": 5612,
      "ĠBayern": 5613,
      "schnitt": 5614,
      "ĠÐ¿ÑĢÐ¾Ð³ÑĢÐ°Ð¼Ð°": 5615,
      "ĠÑĤÐ¾ÑĩÐ½Ð¾": 5616,
      "ĠMosel": 5617,
      "ĠGoethe": 5618,
      "ĠGoogle": 5619,
      "ĠGegend": 5620,
      "ĠPfosten": 5621,
      "ĠPoliz": 5622,
      "Ð³Ð¾Ð²Ð¾ÑĢÐµÐ½Ð½Ñı": 5623,
      "ĠÐ´ÑĢÑĥÐ·Ñĸ": 5624,
      "ĠÐ·Ð°Ð¿ÑĢÐ¾Ñģ": 5625,
      "ĠÐ±ÐµÐ·Ð¿ÐµÐºÐ¸": 5626,
      "Ã¶ffnung": 5627,
      "ĠOstfriesland": 5628,
      "ĠÐ»Ð¾ÑĤÐµÑĢÐµÑİ": 5629,
      "lungsreich": 5630,
      "ĠÐ¿Ð»Ð°Ð½ÑĥÐ²Ð°ÑĤÐ¸": 5631,
      "ĠÐ²ÐµÑĩÑĸÑĢÐºÑĥ": 5632,
      "ĠÐ¿ÑĸÐ´Ð²Ð¸ÑīÐµÐ½Ð½ÑıÐ¼": 5633,
      "Partizip": 5634,
      "rasilien": 5635,
      "ĠÐ¥ÑĤÐ¾": 5636,
      "regelmÃ¤ÃŁigen": 5637,
      "iemand": 5638,
      "ĠÐ¿ÑĸÑĪÐ¾Ð²": 5639,
      "ĠÐ²Ð¼ÑĸÑĶ": 5640,
      "ĠÐ²Ð¿ÑĢÐ°Ð²Ð¸": 5641,
      "Ġhalten": 5642,
      "Ġwohl": 5643,
      "ĠkÃ¤mmt": 5644,
      "Ġmeistens": 5645,
      "ÑĦÐµÑĢÐ°": 5646,
      "ĠSonntag": 5647,
      "ĠÐ¿ÑĢÐ¸Ð½ÑĤÐµÑĢ": 5648,
      "ĠÐ¿ÑĢÐ¸Ð³Ð°Ð´ÑĥÐ²Ð°ÑĤÐ¸": 5649,
      "ĠFrisÃ¶r": 5650,
      "ĠKanarischen": 5651,
      "ĠKulturangebot": 5652,
      "ÑİÑĢÐ¸ÑģÑĤ": 5653,
      "ĠÑĦÐ¾ÑĤÐ¾": 5654,
      "ĠTournee": 5655,
      "ĠerhÃ¶hen": 5656,
      "ĠSchwarzwald": 5657,
      "durcheinander": 5658,
      "service": 5659,
      "ĠGewinn": 5660,
      "ĠEifel": 5661,
      "ĠEltern": 5662,
      "ĠÑĢÐ¸Ð½Ð¾Ðº": 5663,
      "ĠÐĴÐ°ÑĪÑĥ": 5664,
      "ĠBÃ¼rgersteig": 5665,
      "ĠÐ´Ð¸ÑĢÐ¸Ð³ÐµÐ½ÑĤ": 5666,
      "Politik": 5667,
      "bseite": 5668,
      "frosch": 5669,
      "gramm": 5670,
      "kÃ¼ste": 5671,
      "karte": 5672,
      "nationalit": 5673,
      "romiss": 5674,
      "zweig": 5675,
      "ĠÃ¤uÃŁern": 5676,
      "ÑıÐ´Ð¾Ðº": 5677,
      "Ð¼Ð¾ÑģÑĦÐµÑĢÐ°": 5678,
      "Ġdrehen": 5679,
      "ĠÐ´ÑĸÑĤÐµÐ¹": 5680,
      "ĠÐ´Ð·Ð²Ð¾Ð½": 5681,
      "ĠÐ°ÑĤÐ¼Ð¾ÑģÑĦÐµÑĢÐ°": 5682,
      "ĠÐ²ÐµÑĢÑĪÐ¸Ð½Ð°": 5683,
      "ĠÐ²ÑĸÐ»ÑĮÐ½Ð¾Ð³Ð¾": 5684,
      "Ġhandeln": 5685,
      "ĠÐ½ÐµÐ¿ÑĢÐ°Ð²Ð¸Ð»ÑĮÐ½Ð¸Ñħ": 5686,
      "ĠBaskenland": 5687,
      "ĠBetrag": 5688,
      "Ġnormalerweise": 5689,
      "ĠÑĤÐ¾Ð²Ð°ÑĢÐ¸": 5690,
      "ĠFeldberg": 5691,
      "ĠÐºÐ°Ð¿ÑĥÑģÑĤ": 5692,
      "ĠÐºÐ²Ð°ÑĢÑĤÐ¸": 5693,
      "ĠÐºÐ°Ð¼ÑĸÐ½ÑĮ": 5694,
      "ĠÐºÐµÑĢÑĸÐ²Ð½Ð¸ÑĨÑĤÐ²Ð¾": 5695,
      "ĠÐ·Ð°ÑģÑĸÐ´Ð°Ð½Ð½Ñı": 5696,
      "ĠMatterhorn": 5697,
      "ĠÐ¿Ð¾Ð½ÐµÐ´ÑĸÐ»Ð¾Ðº": 5698,
      "ĠPlural": 5699,
      "Ġerlaubt": 5700,
      "ĠWebseite": 5701,
      "ĠWirtschaftszweig": 5702,
      "ĠUkraine": 5703,
      "Ġunbestimmten": 5704,
      "ĠhÃ¤ngt": 5705,
      "rainieren": 5706,
      "ĠStÃ¤dte": 5707,
      "ĠÐĨÐ½ÑĤÐµÑĢÐ½ÐµÑĤÑĸ": 5708,
      "ĠÐ³ÑĥÐ±Ð¸ÑĤÐ¸": 5709,
      "Geburts": 5710,
      "ĠSprachschule": 5711,
      "ÐºÐ¾Ð¼Ð¿ÐµÑĤÐµÐ½ÑĨÑĸÑĹ": 5712,
      "echselprÃ¤positionen": 5713,
      "freudig": 5714,
      "ĠSozialen": 5715,
      "Ġwelchem": 5716,
      "ĠÐ½Ð°Ð´Ð·Ð²Ð¸ÑĩÐ°Ð¹Ð½Ð¾": 5717,
      "ĠFernseh": 5718,
      "ĠTÃ¤tigkeiten": 5719,
      "ĠÐ¼Ð°ÑĤÐµÑĢÑĸÐ°Ð»": 5720,
      "ĠAussichtspunkt": 5721,
      "ĠÐ´Ð¸ÑĢÐµÐºÑĤÐ¾ÑĢÐ¾Ð¼": 5722,
      "ĠÑģÑĤÑĢÐ°Ð¶Ð´Ð°ÑĤÐ¸": 5723,
      "ĠHilfsverb": 5724,
      "ĠÑģÐ¿ÑĸÐ»ÐºÑĥÐ²Ð°ÑĤÐ¸ÑģÑı": 5725,
      "ĠÐµÐºÑģÐºÑĥÑĢÑģÑĸ": 5726,
      "ĠÐ¿ÑĢÐ¸Ð²Ð°ÑĤÐ½Ð¸Ð¹": 5727,
      "ĠÐ¿Ð¾ÑģÐ¸Ð»Ð°Ð½Ð½Ñı": 5728,
      "ĠÐ¶Ð¾Ð²ÑĤÐ½Ñı": 5729,
      "ĠÑĸÐ½Ð¾Ð·ÐµÐ¼Ð½Ð¾ÑĹ": 5730,
      "Hobby": 5731,
      "Lisa": 5732,
      "Touristeninform": 5733,
      "Wohnen": 5734,
      "hielt": 5735,
      "kretÃ¤rin": 5736,
      "nstration": 5737,
      "persÃ¶nliche": 5738,
      "rille": 5739,
      "wechslungsreich": 5740,
      "Ð°ÐµÑĢÐ¾Ð¿": 5741,
      "Ð°ÐºÑĥÐ»ÑĮÑĤÐµÑĤ": 5742,
      "ÑĤÐ²ÐµÑĢÐ´Ð¶": 5743,
      "ĠChancen": 5744,
      "Ġdamit": 5745,
      "ĠdrÃ¼cken": 5746,
      "ĠIntensivstation": 5747,
      "ĠÐ´Ð¾Ð¿Ð¸ÑĤ": 5748,
      "ĠÐ´Ð¸ÑĤÑıÑĩÐ¸Ð¹": 5749,
      "ĠÐ´ÐµÑĢÐ¶Ð°Ð²": 5750,
      "ĠÐ¼Ð°Ð¼Ñĸ": 5751,
      "ĠÐ¼ÑĸÐ»ÑĮÐ¹": 5752,
      "geograph": 5753,
      "gegnungen": 5754,
      "ĠÐ²ÑģÑĤÐ°Ð½Ð¾Ð²": 5755,
      "anbieter": 5756,
      "ĠÐ¿ÑĸÐ´Ð¿ÑĢÐ¸ÑĶÐ¼": 5757,
      "ĠBilder": 5758,
      "ĠSÃ¤tzen": 5759,
      "ĠÑģÑĤÐ¾ÑģÑĥÐ½ÐºÐ¸": 5760,
      "ĠnÃ¼tzlich": 5761,
      "ĠFrÃ¼hstÃ¼ck": 5762,
      "ĠFacebook": 5763,
      "ĠÐºÑĸÐ¼Ð½Ð°": 5764,
      "ĠÑĦÑĥÑĤÐ±Ð¾Ð»": 5765,
      "ĠMetzger": 5766,
      "ĠGleis": 5767,
      "ĠÐ¿Ð¾ÑģÐ»ÑĥÑħÐ°ÑĤÐ¸": 5768,
      "ĠTrÃ¶delmarkt": 5769,
      "ĠTiefgarage": 5770,
      "ĠÐ½Ð°ÑģÑĤÑĢÑĸÐ¹": 5771,
      "ĠÐ±ÑĸÐ·Ð½Ðµ": 5772,
      "pektive": 5773,
      "ĠÑģÐ¿Ð¾ÐºÑĸÐ¹": 5774,
      "bekleidung": 5775,
      "Ġtrifft": 5776,
      "ĠErnÃ¤hrung": 5777,
      "ĠÐ²ÑĸÐ´ÑĢÑıÐ´Ð¶ÐµÐ½Ð½Ñı": 5778,
      "ĠÐ¶ÑĥÑĢÐ½Ð°Ð»": 5779,
      "ĠFuÃŁgÃ¤ngerzone": 5780,
      "ĠRestaurant": 5781,
      "ĠEreignis": 5782,
      "ĠÐ³Ð°Ð»ÑĥÐ·ÑĮ": 5783,
      "ĠÐ³ÑĥÑģÑĤÐ¸Ð¹": 5784,
      "ĠÐ³ÑĸÐ³Ð°Ð½ÑĤ": 5785,
      "Ð¾Ð½Ð´Ð°ÑĢÑĩÑĥÐº": 5786,
      "ĠBeerdigung": 5787,
      "ĠReparatur": 5788,
      "ĠÐĳÐ°ÑĤÑĮÐºÑĸÐ²": 5789,
      "Ð²Ð°Ð¶Ð»Ð¸Ð²Ð¸Ð¼": 5790,
      "Verbstamm": 5791,
      "ĠAusdruck": 5792,
      "ÐµÐ¼ÐµÐ½ÑİÐº": 5793,
      "ĠUnterstÃ¼tzung": 5794,
      "ungsformen": 5795,
      "ÐľÐµÑĤÐ¾Ð´Ð¸ÑĩÐ½Ñĸ": 5796,
      "ĠÐ¾ÑĢÐ³Ð°Ð½ÑĸÐ·": 5797,
      "ĠTreppenhaus": 5798,
      "ĠNotwendigkeit": 5799,
      "Touristeninformation": 5800,
      ")/": 5801,
      "-/": 5802,
      "02": 5803,
      "03": 5804,
      "04": 5805,
      "06": 5806,
      "08": 5807,
      "216": 5808,
      "350": 5809,
      "44": 5810,
      "46": 5811,
      "488": 5812,
      "51": 5813,
      "58": 5814,
      "69": 5815,
      "737": 5816,
      "87": 5817,
      "99": 5818,
      "Ad": 5819,
      "Auss": 5820,
      "Achtung": 5821,
      "Abteil": 5822,
      "BC": 5823,
      "BE": 5824,
      "Ba": 5825,
      "Bes": 5826,
      "Bill": 5827,
      "Baha": 5828,
      "Brasilien": 5829,
      "Che": 5830,
      "Drei": 5831,
      "ES": 5832,
      "Eis": 5833,
      "Eins": 5834,
      "Euro": 5835,
      "Emma": 5836,
      "Fl": 5837,
      "Fahr": 5838,
      "FÃ¼n": 5839,
      "GÃ¤n": 5840,
      "Gri": 5841,
      "Grund": 5842,
      "Jahre": 5843,
      "Kan": 5844,
      "Krank": 5845,
      "Kaus": 5846,
      "Kont": 5847,
      "Koch": 5848,
      "Kaukasus": 5849,
      "Leben": 5850,
      "Links": 5851,
      "Leist": 5852,
      "Landes": 5853,
      "MW": 5854,
      "MÃ¼": 5855,
      "Meine": 5856,
      "Mon": 5857,
      "Mat": 5858,
      "Meer": 5859,
      "MÃ¼ritz": 5860,
      "Nor": 5861,
      "Neben": 5862,
      "Nord": 5863,
      "Negation": 5864,
      "Niemand": 5865,
      "Ost": 5866,
      "Position": 5867,
      "Peter": 5868,
      "Reg": 5869,
      "Radio": 5870,
      "Si": 5871,
      "Sein": 5872,
      "Slo": 5873,
      "Singap": 5874,
      "Tsch": 5875,
      "Temporale": 5876,
      "Tiere": 5877,
      "Trennbare": 5878,
      "Volkshochschule": 5879,
      "WechselprÃ¤positionen": 5880,
      "Zwei": 5881,
      "Zust": 5882,
      "Zukunft": 5883,
      "az": 5884,
      "ape": 5885,
      "aal": 5886,
      "abend": 5887,
      "acken": 5888,
      "ahm": 5889,
      "agesatz": 5890,
      "aats": 5891,
      "bc": 5892,
      "bf": 5893,
      "bem": 5894,
      "beu": 5895,
      "brot": 5896,
      "bieren": 5897,
      "bast": 5898,
      "btisch": 5899,
      "bringt": 5900,
      "ca": 5901,
      "cc": 5902,
      "dau": 5903,
      "dun": 5904,
      "dki": 5905,
      "dose": 5906,
      "diven": 5907,
      "echt": 5908,
      "eden": 5909,
      "ehnen": 5910,
      "elefon": 5911,
      "fein": 5912,
      "fand": 5913,
      "fort": 5914,
      "frei": 5915,
      "flie": 5916,
      "fri": 5917,
      "fang": 5918,
      "frie": 5919,
      "fassen": 5920,
      "fliegen": 5921,
      "frÃ¼hst": 5922,
      "frage": 5923,
      "grei": 5924,
      "ggel": 5925,
      "glan": 5926,
      "garn": 5927,
      "grammatik": 5928,
      "gift": 5929,
      "ganis": 5930,
      "hle": 5931,
      "hig": 5932,
      "hungen": 5933,
      "iw": 5934,
      "ide": 5935,
      "icken": 5936,
      "jas": 5937,
      "jem": 5938,
      "jiw": 5939,
      "kan": 5940,
      "kom": 5941,
      "kter": 5942,
      "kung": 5943,
      "kam": 5944,
      "kont": 5945,
      "komp": 5946,
      "kri": 5947,
      "karten": 5948,
      "klasse": 5949,
      "kunft": 5950,
      "lu": 5951,
      "lag": 5952,
      "lett": 5953,
      "lungen": 5954,
      "line": 5955,
      "lingen": 5956,
      "leitung": 5957,
      "mus": 5958,
      "mann": 5959,
      "maus": 5960,
      "mÃ¤n": 5961,
      "mord": 5962,
      "musik": 5963,
      "minken": 5964,
      "marken": 5965,
      "nie": 5966,
      "nte": 5967,
      "nal": 5968,
      "nisch": 5969,
      "nig": 5970,
      "nland": 5971,
      "nsche": 5972,
      "nungs": 5973,
      "neiden": 5974,
      "nutz": 5975,
      "nÃ¼tz": 5976,
      "nitten": 5977,
      "name": 5978,
      "njem": 5979,
      "oo": 5980,
      "ore": 5981,
      "ochen": 5982,
      "offe": 5983,
      "oko": 5984,
      "obt": 5985,
      "prec": 5986,
      "pier": 5987,
      "ption": 5988,
      "port": 5989,
      "pfle": 5990,
      "pflicht": 5991,
      "perte": 5992,
      "pitel": 5993,
      "plat": 5994,
      "romm": 5995,
      "rren": 5996,
      "ritten": 5997,
      "ritte": 5998,
      "rzte": 5999,
      "rannte": 6000,
      "sw": 6001,
      "saus": 6002,
      "such": 6003,
      "sollen": 6004,
      "sra": 6005,
      "sig": 6006,
      "sol": 6007,
      "singen": 6008,
      "sfÃ¤": 6009,
      "ssprache": 6010,
      "sinken": 6011,
      "surfen": 6012,
      "sammeln": 6013,
      "sandte": 6014,
      "slow": 6015,
      "tÃ¤": 6016,
      "tÃ¶": 6017,
      "tÃ¶n": 6018,
      "tra": 6019,
      "ttern": 6020,
      "treiben": 6021,
      "uh": 6022,
      "usch": 6023,
      "ude": 6024,
      "ubl": 6025,
      "vieren": 6026,
      "vÃ¶llig": 6027,
      "wie": 6028,
      "wehr": 6029,
      "wahr": 6030,
      "wachsen": 6031,
      "wiegen": 6032,
      "wunder": 6033,
      "wurde": 6034,
      "wusch": 6035,
      "xten": 6036,
      "yst": 6037,
      "ysi": 6038,
      "yjiw": 6039,
      "zes": 6040,
      "zung": 6041,
      "zusammen": 6042,
      "zess": 6043,
      "Ð¨": 6044,
      "âĨĴ": 6045,
      "Ġor": 6046,
      "Ġern": 6047,
      "ĠÑĢÐ¾Ð´": 6048,
      "Ġro": 6049,
      "ĠÑĸÑģ": 6050,
      "Ġat": 6051,
      "Ġrei": 6052,
      "ĠÃ¤ndern": 6053,
      "Ġalte": 6054,
      "ĠÃľb": 6055,
      "ĠÑİÑĢÐ¸ÑģÑĤ": 6056,
      "ĠÐĦÐ²ÑĢÐ¾Ð¿": 6057,
      "Ð½ÐºÐ°": 6058,
      "Ð½Ð¾Ðº": 6059,
      "Ð½Ð°Ð·": 6060,
      "Ð½ÐºÐ¸": 6061,
      "Ð½Ð¸Ð³": 6062,
      "Ð½ÑİÐ²Ð°ÑĤÐ¸": 6063,
      "Ð½ÑĥÑĤ": 6064,
      "Ð½Ð°Ð¹": 6065,
      "Ð½Ð¾ÑģÐ¸ÑĤÐ¸": 6066,
      "Ð½Ð¾ÑģÑĤÑĸ": 6067,
      "Ð½ÑĸÑģÑĤ": 6068,
      "Ð¾ÑĶ": 6069,
      "Ð¾ÑģÐ»": 6070,
      "Ð¾Ð½Ðµ": 6071,
      "Ð¾ÑģÐ½Ð¾Ð²": 6072,
      "Ð¾ÑĥÑĤÐ±": 6073,
      "ÐµÑı": 6074,
      "ÐµÐ»Ð°": 6075,
      "ÐµÐ»Ñĸ": 6076,
      "ÐµÐºÐ°ÑĢ": 6077,
      "ÐµÐ»Ð¸Ðº": 6078,
      "ÐµÑĨÑĤ": 6079,
      "ÐµÐ²Ð¸Ð´Ð½Ð¾": 6080,
      "ÑıÑĢ": 6081,
      "ÑıÐ¼": 6082,
      "ÑıÑģÐ½": 6083,
      "ÑıÐ½Ð°": 6084,
      "ÑıÑĤÐ°": 6085,
      "ÑĸÑĨÑĸ": 6086,
      "ÑĸÐ±": 6087,
      "ÑĸÑĤÑĮ": 6088,
      "ÑĸÐºÐ°": 6089,
      "ÑģÐ¾": 6090,
      "ÑģÐ°": 6091,
      "ÑģÐº": 6092,
      "ÑģÐ¸Ðº": 6093,
      "ÑģÐµÑĢÐµÐ´": 6094,
      "ÑģÑĥÐ²Ð°ÑĤÐ¸": 6095,
      "ÑģÐµÐ»": 6096,
      "rein": 6097,
      "reden": 6098,
      "repar": 6099,
      "reduzieren": 6100,
      "Ð°ÑĢÐµ": 6101,
      "Ð°Ð½ÑĮ": 6102,
      "Ð°ÑİÑĤÑĮÑģÑı": 6103,
      "Ð°ÑĢÑĸÐ²": 6104,
      "Ð°Ð¾ÑĤÐ¸": 6105,
      "orge": 6106,
      "orben": 6107,
      "ordent": 6108,
      "orca": 6109,
      "Ð¸ÑĨÑı": 6110,
      "Ð¸Ð·ÑĮ": 6111,
      "enten": 6112,
      "enseit": 6113,
      "chs": 6114,
      "ÑĤÐ½Ð¸Ð¹": 6115,
      "ÑĤÐºÐ¸": 6116,
      "ÑĤÑĸÑģÑĤÑĮ": 6117,
      "ÑĤÑĢÐµÐ±Ð°": 6118,
      "ÑĢÐ³": 6119,
      "ÑĢÐ°Ð½": 6120,
      "ÑĢÐ¸ÑĤ": 6121,
      "ÑĢÐ¾Ð¶": 6122,
      "ÑĢÐ¸Ñĩ": 6123,
      "ÑĢÐ°Ð¼Ð¸": 6124,
      "ÑĢÐ¸ÑģÑĤÐ¸": 6125,
      "ÐµÐ½Ðµ": 6126,
      "ÐµÐ½Ñģ": 6127,
      "ÐµÐ½Ð¸Ð¼": 6128,
      "ÐµÐ½ÑģÑĸ": 6129,
      "ÐµÐ½Ð°Ð³": 6130,
      "ÐµÐ½ÑĪ": 6131,
      "Ð»Ð¸Ð½": 6132,
      "Ð»Ð¸Ð¹": 6133,
      "Ð»Ð°Ð¼": 6134,
      "Ð»Ð°Ð½": 6135,
      "Ð»Ð¾Ð¿": 6136,
      "Ð»ÑĥÑĩ": 6137,
      "Ð»ÑĸÐ¹": 6138,
      "ÑĥÑĢÐµ": 6139,
      "ÑĥÑģÑı": 6140,
      "ÑĥÑĨÑĮÐº": 6141,
      "ÑĥÐ±Ð¸": 6142,
      "ÐµÐ½Ð½Ð¾": 6143,
      "ÑĶÑĢ": 6144,
      "ÑĶÑĢÐ°": 6145,
      "ÑĶÐºÑĤ": 6146,
      "erie": 6147,
      "erren": 6148,
      "ersten": 6149,
      "erinnern": 6150,
      "erfolg": 6151,
      "Ð¼Ñĥ": 6152,
      "Ð¼Ð¾Ð²Ñĸ": 6153,
      "Ð¼Ð¾Ðº": 6154,
      "Ð¼Ð°ÑĢ": 6155,
      "Ð¼ÐºÑĥ": 6156,
      "Ð¼Ð°Ð¹": 6157,
      "Ð¼ÐµÐ½ÑĤ": 6158,
      "Ð¼Ð¾Ð²Ð¸Ð¹": 6159,
      "Ð¼ÑĸÑĹ": 6160,
      "inar": 6161,
      "insen": 6162,
      "inal": 6163,
      "stu": 6164,
      "stein": 6165,
      "stÃ¤r": 6166,
      "stÃ¤n": 6167,
      "streiten": 6168,
      "stieg": 6169,
      "stolz": 6170,
      "ĠIma": 6171,
      "ÐºÑĸ": 6172,
      "ÐºÐ¾Ð¼Ñĥ": 6173,
      "ÐºÐ¾Ð´": 6174,
      "ÐºÑĥÐ¿": 6175,
      "ÐºÑģÑĤ": 6176,
      "ÐºÑĥÐ²Ð°ÑĤÐ¸": 6177,
      "ÐºÐ»Ðµ": 6178,
      "ÐºÐ¾Ð½": 6179,
      "ÐºÐ°ÑĤÐ¸ÑģÑı": 6180,
      "ÐºÑĸÑģÑĤÑĮ": 6181,
      "ÐºÑĸÑĤ": 6182,
      "Ġdeut": 6183,
      "Ġdeklin": 6184,
      "ĠdÃ¼rfen": 6185,
      "ieden": 6186,
      "ieÃŁ": 6187,
      "ieur": 6188,
      "iegel": 6189,
      "ÑĩÑĥ": 6190,
      "ÑĩÐ¸Ðº": 6191,
      "ÑĩÐ½Ð¾Ð¼Ñĥ": 6192,
      "ÑĩÐ°ÑĶÐ¼Ð¾": 6193,
      "ÑĩÐ°Ð»ÑĮÐ½Ð¾": 6194,
      "ĠÐŁÐ¾Ð´": 6195,
      "ĠÐŁÐ°ÑģÐ¸Ðº": 6196,
      "Ð¾Ð²Ñĥ": 6197,
      "Ð¾Ð²Ð¾Ð³Ð¾": 6198,
      "Ð¾Ð²Ð¾Ð´": 6199,
      "Ð¾Ð²Ð·": 6200,
      "Ð¾Ð²Ð¸ÑĤ": 6201,
      "Ð¾Ð²Ð°Ð¹": 6202,
      "Ð¾Ð²Ð°Ð¼Ð¸": 6203,
      "Ð¾Ð²Ð¸Ñħ": 6204,
      "Ð¾Ð²ÑĥÐ²Ð°Ð½Ð½Ñı": 6205,
      "Ð¾Ð²ÐµÑĢÑħ": 6206,
      "Ð¾Ð²Ð½ÑİÐ²Ð°ÑĤÐ¸": 6207,
      "ĠÐ¿Ñĸ": 6208,
      "ĠÐ¿ÑĸÐ½": 6209,
      "ĠÐ¿Ð°Ð½": 6210,
      "ĠÐ¿ÑĸÑģ": 6211,
      "ĠÐ¿ÑĸÐ²": 6212,
      "ĠÐ¿Ð¾Ð»Ð¸": 6213,
      "ĠÐ¿Ð»Ð°": 6214,
      "ĠÐ¿Ð°Ð¿": 6215,
      "ĠÐ¿ÐµÑĤ": 6216,
      "ĠÐ¿ÑĥÐ±": 6217,
      "ĠÐ¿ÐµÐºÐ°ÑĢ": 6218,
      "ĠÐ¿ÐµÐ½ÑģÑĸ": 6219,
      "ĠInge": 6220,
      "ĠInter": 6221,
      "ĠInnen": 6222,
      "ĠInform": 6223,
      "ĠInseln": 6224,
      "Ð¾Ð¼ÑĸÑģ": 6225,
      "Ð¾Ð¼Ð°Ð´": 6226,
      "Ð¾Ð¼Ð°Ð½ÑĤÐ¸": 6227,
      "Ð¾Ð¼Ð¾Ð²Ð½Ð¸Ñħ": 6228,
      "ĠÐ´ÐµÐ½Ð½": 6229,
      "ĠÐ´Ð¸ÑģÑĤ": 6230,
      "ĠÐ´Ð½Ñı": 6231,
      "ĠÐ´ÑĸÑĤÐ¸": 6232,
      "ĠÐ´ÑĸÐ²": 6233,
      "ĠÐ´Ð°Ð½Ñĸ": 6234,
      "ĠÐ´ÑĸÐ¹ÑģÐ½": 6235,
      "ĠÐ´Ð¸ÑģÐº": 6236,
      "ĠÐ´Ð¾Ð·Ð²Ñĸ": 6237,
      "ĠÐ´Ð¾ÑĩÐºÐ°": 6238,
      "Ð¸ÐºÐ°ÑĤÐ¸": 6239,
      "Ð´ÑĮ": 6240,
      "Ð´Ð»Ñı": 6241,
      "Ð´Ð°Ð²": 6242,
      "Ð´ÑĸÐ¶": 6243,
      "Ð´ÐµÐ½ÑĮ": 6244,
      "aue": 6245,
      "ause": 6246,
      "auben": 6247,
      "aune": 6248,
      "halle": 6249,
      "ÑģÐ»Ð¸Ð²": 6250,
      "ĠÐ¼Ñĥ": 6251,
      "ĠÐ¼Ð¾Ñı": 6252,
      "ĠÐ¼ÑĸÐ½": 6253,
      "ĠÐ¼Ð¸ÑģÑĤ": 6254,
      "ĠÐ¼ÑĸÐ¶": 6255,
      "ĠÐ¼Ð¸ÑĤÐ¸": 6256,
      "ĠÐ¼Ð°Ð»": 6257,
      "ĠÐ¼Ð°Ñģ": 6258,
      "ĠÐ¼Ð°Ð»Ð°": 6259,
      "ĠÐ¼Ð¾ÑĤÐ¸": 6260,
      "ĠÐ¼ÑĸÐ³": 6261,
      "ĠÐ¼ÐµÑĤÐ°": 6262,
      "ÑĮÐ¾Ð¼Ñĥ": 6263,
      "ÑĮÐ¾Ñħ": 6264,
      "ÑĮÐ¹Ð¾Ð½": 6265,
      "ĠÐ°Ð´": 6266,
      "ĠÐ°Ð¿Ðµ": 6267,
      "ĠÐ°ÑĥÐº": 6268,
      "ĠÐ°Ð½Ð°Ð»": 6269,
      "ĠÐ·Ð¸Ð¼": 6270,
      "ĠÐ·ÑĥÐ¿": 6271,
      "ĠÐ·Ð½Ñĸ": 6272,
      "ĠÐ·Ð¾Ð½Ð°": 6273,
      "ĠÐ·Ð¾ÑĪ": 6274,
      "ĠÐ·ÐµÐ»": 6275,
      "ĠÐ·Ð±Ð¸ÑĢÐ°ÑĤÐ¸": 6276,
      "ĠÐ·ÑĥÐ±Ð¸": 6277,
      "gekommen": 6278,
      "gearbeit": 6279,
      "gewohn": 6280,
      "gehÃ¶r": 6281,
      "gelassen": 6282,
      "gestellt": 6283,
      "geizig": 6284,
      "Ġihren": 6285,
      "Ġirren": 6286,
      "ĠÐ½Ñİ": 6287,
      "ĠÐ½Ð¾Ñģ": 6288,
      "ĠÐ½ÑĸÐ¶": 6289,
      "ĠÐ½Ð¸Ð¼Ð¸": 6290,
      "ĠÐ½Ð°Ð¹Ð±": 6291,
      "ĠÐ½Ð¾ÑĥÑĤÐ±": 6292,
      "ĠÐ½Ð¸Ð·ÑĮ": 6293,
      "ĠÐ½ÑĮÐ¾Ð¼Ñĥ": 6294,
      "ĠÑģÑı": 6295,
      "ĠÑģÐ°": 6296,
      "ĠÑģÑĤÐ¸": 6297,
      "ĠÑģÐ¾Ð»": 6298,
      "ĠÑģÑĢÑĸÐ±": 6299,
      "ĠÑģÐ²Ð°": 6300,
      "ĠÑģÐ¸ÑĢ": 6301,
      "ĠÑģÑĸÐ¼": 6302,
      "ĠÑģÐ¸Ð»": 6303,
      "ĠÑģÐ¼ÐµÑĢ": 6304,
      "ĠÑģÐºÐ°ÑĢÐ¶": 6305,
      "ĠÑģÐ¾Ð±Ð¾Ñİ": 6306,
      "ÑĸÑĶÑĪ": 6307,
      "ĠÐ²Ð²": 6308,
      "ĠÐ²Ð¾Ð´": 6309,
      "ĠÐ²Ð¸Ð½": 6310,
      "ĠÐ²ÑĤÑĢ": 6311,
      "ĠÐ²ÐºÐ°Ð·": 6312,
      "ĠÐ²Ð¾ÑģÑĮ": 6313,
      "ĠÐ²ÑĸÑĢ": 6314,
      "ĠÐ²ÑĸÐ·": 6315,
      "ĠÐ²ÑħÑĸÐ´": 6316,
      "ĠÐ²ÑħÐ¾Ð´": 6317,
      "ĠÐ²ÑģÑĤÐ°Ð²Ð»ÑıÑĤÐ¸": 6318,
      "ĠÐ²ÐµÑĢÑħ": 6319,
      "ĠÐ²ÑĥÐ»Ð¸": 6320,
      "ĠÐ²Ð´Ð¾Ð¼Ð°": 6321,
      "ĠÐ²Ð½ÑĥÑĤ": 6322,
      "ÑĸÐ½Ñĸ": 6323,
      "einkommen": 6324,
      "einnehmen": 6325,
      "einbauen": 6326,
      "einrichten": 6327,
      "einsammeln": 6328,
      "Ð»ÑıÑĢ": 6329,
      "ÑĢÐµÐ¹": 6330,
      "ÑĢÐµÑĤÐ°": 6331,
      "ÑĢÐµÐºÐ¾Ð¼": 6332,
      "Ġwachsen": 6333,
      "Ġwider": 6334,
      "Ġwenige": 6335,
      "antiv": 6336,
      "anem": 6337,
      "anon": 6338,
      "anfangen": 6339,
      "anerinnen": 6340,
      "anmelden": 6341,
      "ĠDir": 6342,
      "ĠDru": 6343,
      "ĠDok": 6344,
      "ĠDingen": 6345,
      "ĠDamen": 6346,
      "ĠDram": 6347,
      "ĠDeshalb": 6348,
      "ĠDorf": 6349,
      "eichen": 6350,
      "eihn": 6351,
      "eister": 6352,
      "eiera": 6353,
      "eignet": 6354,
      "Ġsen": 6355,
      "Ġsau": 6356,
      "Ġsan": 6357,
      "Ġsurfen": 6358,
      "Ġsammeln": 6359,
      "ÑĤÐ¸ÑĤÐ¸": 6360,
      "Ġgebe": 6361,
      "Ġgesp": 6362,
      "Ġgeho": 6363,
      "Ġgescha": 6364,
      "ĠgefÃ¼": 6365,
      "Ġgegeben": 6366,
      "Ġgehan": 6367,
      "Ġgesche": 6368,
      "Ġgeschw": 6369,
      "Ġgezogen": 6370,
      "ĠgehÃ¶ren": 6371,
      "Ġgebraucht": 6372,
      "Ġgespr": 6373,
      "Ġgeschlagen": 6374,
      "Ġgefreut": 6375,
      "Ġke": 6376,
      "Ġkam": 6377,
      "ĠÐ½ÐµÐ³": 6378,
      "ĠÐ½ÐµÐ¾Ð±": 6379,
      "tigt": 6380,
      "tisieren": 6381,
      "aufgeben": 6382,
      "aufhaus": 6383,
      "Ġmalt": 6384,
      "Ġmeist": 6385,
      "ÑĸÐ´Ð½Ð¾": 6386,
      "Ð²Ð¾Ð¼": 6387,
      "Ð²Ð¸Ðº": 6388,
      "Ð²Ð¾Ð»": 6389,
      "Ð²Ð°Ð½Ð½Ñı": 6390,
      "Ð²ÐµÐ¹": 6391,
      "Ð²Ð¿ÑĢÐ°Ð²": 6392,
      "Ð²Ð²Ð°Ð¶Ð°Ñİ": 6393,
      "Ð²ÑģÑĤÑĢÑĸ": 6394,
      "ĠÐĶÐ¾": 6395,
      "ĠÐĶÑıÐº": 6396,
      "ĠAll": 6397,
      "ĠAuft": 6398,
      "ĠAfr": 6399,
      "ĠAhnung": 6400,
      "Ð¾ÑĢÐ¾ÑĤ": 6401,
      "Ð¾ÑĢÑĥÑĪ": 6402,
      "ÑĨÑĸÑĶÑİ": 6403,
      "ĠbÃ¼": 6404,
      "Ġbitte": 6405,
      "irr": 6406,
      "irgen": 6407,
      "Ð¼ÐµÑĤÐ¾Ð´": 6408,
      "Ã¼hr": 6409,
      "Ã¼be": 6410,
      "ĠÐ¿ÑĸÐ´ÑĸÐ¹": 6411,
      "ĠÐ¿ÑĸÐ´ÑģÐ¸": 6412,
      "ĠÐ¿ÑĸÐ´ÑĢÑĥÑĩÐ½Ð¸Ðº": 6413,
      "Ð¸Ð¼Ð¾ÑģÑı": 6414,
      "Ð¹Ð¾Ð¼": 6415,
      "Ð¹Ð½Ð¸Ð¹": 6416,
      "Ð¹ÑģÑĮÐºÐ¸Ð¹": 6417,
      "ÑĦÐ¾ÑĢÐ¼": 6418,
      "ÑĦÑĸÐ»": 6419,
      "ÑĦÑĸÑĢ": 6420,
      "ÑĦÑĸÐ»ÑĮÐ¼": 6421,
      "essiv": 6422,
      "ĠBom": 6423,
      "ĠBrau": 6424,
      "ĠBist": 6425,
      "ĠBran": 6426,
      "ĠBraut": 6427,
      "ĠBrutto": 6428,
      "ĠBenzin": 6429,
      "ĠBrille": 6430,
      "ĠBMW": 6431,
      "Ð¿Ð¾ÑĢ": 6432,
      "Ð¿Ð¾Ð»": 6433,
      "Ð¿Ð¾Ñģ": 6434,
      "Ð¿Ð¾ÑĢÑĤ": 6435,
      "Ð¿Ð°Ð»Ð°": 6436,
      "Ð¿Ð¾Ð»Ñĸ": 6437,
      "Ð¿Ð¾Ð³Ð¾Ð´": 6438,
      "ĠSeit": 6439,
      "ĠSind": 6440,
      "ĠSohn": 6441,
      "ĠSachen": 6442,
      "ĠSonnen": 6443,
      "ĠSera": 6444,
      "ĠSauber": 6445,
      "ĠSalz": 6446,
      "ĠSaal": 6447,
      "ichtig": 6448,
      "omat": 6449,
      "oment": 6450,
      "Ð¾Ð´Ð½Ñı": 6451,
      "Ð¾Ð´Ð¾Ð±": 6452,
      "Ð¾Ð´Ð¸ÑĤÐ¸ÑģÑı": 6453,
      "Ð¾Ð´Ð¸ÑĤÑĮ": 6454,
      "Ð¾Ð´ÐµÐ½Ð½Ð¾": 6455,
      "ĠÑĢÐµÐº": 6456,
      "ĠÑĢÐµÐ·": 6457,
      "ĠÑģÑĤÐ°ÑĤÐ¸": 6458,
      "ĠÑģÑĤÐ°ÑĢ": 6459,
      "ĠÑģÑĤÑĸÐ»": 6460,
      "ĠÑģÑĤÐ°Ð»": 6461,
      "ĠÑģÑĤÑĸÐ»Ðµ": 6462,
      "Ġnennt": 6463,
      "ĠÑĥÑĢÑı": 6464,
      "ĠÑĥÐ¶Ðµ": 6465,
      "ĠÑĥÐ»ÑİÐ±": 6466,
      "ErgÃ¤nzen": 6467,
      "ErÃ¶ffnung": 6468,
      "ÑĤÐ¸ÐºÐ¸": 6469,
      "ĠÐ°ÑĢÐ³": 6470,
      "ĠÐ°ÑĢÑħ": 6471,
      "Ã¤ge": 6472,
      "Ã¤se": 6473,
      "Ã¤hlen": 6474,
      "scheine": 6475,
      "schal": 6476,
      "schieben": 6477,
      "scheinen": 6478,
      "schwei": 6479,
      "schrie": 6480,
      "schoss": 6481,
      "schuhe": 6482,
      "schauer": 6483,
      "schritte": 6484,
      "ĠÐ¿ÑĢÐ¾Ð¼": 6485,
      "ĠÐ¿ÑĢÐ¾ÑıÑģÐ½": 6486,
      "ĠÐ¿ÑĢÐ°Ð²": 6487,
      "ĠÐ¿ÑĢÐ°Ð¿": 6488,
      "ĠÐ¿ÑĢÐ¾Ñĩ": 6489,
      "ĠÐ¿ÑĢÐ°Ñģ": 6490,
      "ĠÐ¿ÑĢÐ¾Ð¶Ð¸Ð²Ð°Ð½Ð½Ñı": 6491,
      "deute": 6492,
      "deckt": 6493,
      "ari": 6494,
      "arm": 6495,
      "arz": 6496,
      "artig": 6497,
      "here": 6498,
      "hematik": 6499,
      "ĠÑĩÐµÑĢÐµ": 6500,
      "ĠÑĩÑĥÐ²": 6501,
      "ungel": 6502,
      "ungest": 6503,
      "unregelmÃ¤ÃŁigen": 6504,
      "Ġeins": 6505,
      "Ġeingekauft": 6506,
      "Ġeinschlafen": 6507,
      "Ġeingesetz": 6508,
      "ĠHu": 6509,
      "ĠHem": 6510,
      "ĠHÃ¶": 6511,
      "ĠHolz": 6512,
      "ĠÑĤÑĸ": 6513,
      "ĠÑĤÐ¾ÑĢ": 6514,
      "ĠÑĤÐ¾Ð³Ð¾": 6515,
      "ĠÑĤÐ¾Ð¿": 6516,
      "ĠÑĤÐ²Ð¾ÑĢ": 6517,
      "ĠÑĤÑĢÐ¸": 6518,
      "ĠÑĤÑĢÐ°Ð²": 6519,
      "ĠÑĤÐ²ÐµÑĢ": 6520,
      "ĠFas": 6521,
      "ĠFahr": 6522,
      "ĠFlÃ¼s": 6523,
      "ĠFÃ¤hrst": 6524,
      "ĠKir": 6525,
      "ĠKÃ¼": 6526,
      "ĠKenn": 6527,
      "ĠKil": 6528,
      "ĠKra": 6529,
      "ĠKoch": 6530,
      "ĠKyjiw": 6531,
      "ĠKaufhaus": 6532,
      "genieur": 6533,
      "ÑģÑĸÑĤÐ¸": 6534,
      "seren": 6535,
      "setze": 6536,
      "ĠÐºÑĢÑĸ": 6537,
      "ĠÐºÐ¾ÑĢÐ¸ÑģÑĤ": 6538,
      "ĠÐºÐ¾Ñģ": 6539,
      "ĠÐºÐ°Ð±": 6540,
      "ĠÐºÐ°ÑĤ": 6541,
      "ĠÐºÐ½Ð¸Ð³Ñĥ": 6542,
      "ĠÐºÐ¾ÑĪ": 6543,
      "ĠÐºÑĥÑģ": 6544,
      "ĠÐºÐ²ÑĸÑĤ": 6545,
      "ĠÐºÐ¾Ð¼ÑĥÑģÑĮ": 6546,
      "ĠÐºÐµÑĢÑĥ": 6547,
      "ĠÐºÑĥÐ»ÑĮÑĤ": 6548,
      "ĠÐºÐ°Ð½Ð´Ð¸": 6549,
      "ĠÐºÐ½Ð¸Ð³": 6550,
      "ÑİÐ´Ð¸": 6551,
      "ÑİÐ´Ð¶": 6552,
      "Ġlas": 6553,
      "ĠlÃ¶": 6554,
      "Ġlassen": 6555,
      "Ġleiden": 6556,
      "Ġlobt": 6557,
      "ĠÐ¾Ð»Ñĸ": 6558,
      "ĠÐ¾ÐºÑĢÐ°ÑĹ": 6559,
      "ĠÐ¾ÑģÑĤÐ°Ð½": 6560,
      "ĠÐ¾ÑĤÑĢÑĥ": 6561,
      "Ð¸Ð½ÐºÐ°": 6562,
      "Ð¸Ð½ÑıÑĤÐ¸": 6563,
      "Ð¾Ð»ÑĸÐº": 6564,
      "Ð¾Ð»Ð¾ÑĪ": 6565,
      "ĠÐ·Ð°Ð»": 6566,
      "ĠÐ·Ð°Ñĩ": 6567,
      "ĠÐ·Ð°ÑĤÑĢÐ¸Ð¼": 6568,
      "ĠÐ·Ð°Ð»Ñĸ": 6569,
      "ĠÐ·Ð°Ð½ÑıÑĤÑĤÑı": 6570,
      "ĠÐ·Ð°Ð¾ÑīÐ°Ð´": 6571,
      "ĠÐ·Ð°Ð°ÑĢÐµ": 6572,
      "ĠÐ·Ð°Ð¼Ð¾Ðº": 6573,
      "fehl": 6574,
      "ĠÑĦÑĢÑĥ": 6575,
      "ĠÑĦÐ»Ðµ": 6576,
      "ĠÑĦÐµÐ´": 6577,
      "ĠÑĦÑĸÐ·Ð¸Ðº": 6578,
      "ĠÑĦÐ°ÐºÑĥÐ»ÑĮÑĤÐµÑĤ": 6579,
      "rug": 6580,
      "ĠÑĦÐ¾ÑĢÐ¼Ð°": 6581,
      "senden": 6582,
      "sentieren": 6583,
      "ĠÑĩÐ°ÑĢÑĸÐ²": 6584,
      "ÐµÑĢÐµÐºÐ»Ð°Ð´": 6585,
      "Ð»ÑĮÐ½Ð¾": 6586,
      "ĠMe": 6587,
      "ĠMein": 6588,
      "ĠMÃ¶": 6589,
      "ĠMund": 6590,
      "ĠMal": 6591,
      "ĠMall": 6592,
      "ĠMill": 6593,
      "ĠMord": 6594,
      "ĠMitt": 6595,
      "ĠMeiner": 6596,
      "ĠMÃ¶glichkeit": 6597,
      "ĠMuster": 6598,
      "ĠMiete": 6599,
      "ĠMaske": 6600,
      "ĠMoment": 6601,
      "Ġdieses": 6602,
      "ĠGl": 6603,
      "ĠGÃ¶": 6604,
      "ĠGrad": 6605,
      "ĠGrÃ¶": 6606,
      "ĠGol": 6607,
      "ĠGarage": 6608,
      "ĠGift": 6609,
      "ĠÐ¿Ð¾ÑĨÑĸ": 6610,
      "ĠÐ¿Ð¾Ñħ": 6611,
      "ĠÐ¿Ð¾ÑģÐ¿": 6612,
      "ĠÐ¿Ð¾Ð½ÑıÑĤÑĤÑı": 6613,
      "ĠÐ¿Ð¾ÑģÐ»ÑĥÐ³": 6614,
      "Ġgram": 6615,
      "ĠgrÃ¼n": 6616,
      "indern": 6617,
      "Ð±ÑĥÑĢ": 6618,
      "Ð±ÑĸÐ³": 6619,
      "Ð±Ð°Ð³Ð°ÑĤÐ¾": 6620,
      "Ð±ÑĸÐ»ÑĮÑĪ": 6621,
      "Ð±ÑĥÑĤÐ¸": 6622,
      "Ð°Ð²ÐºÑĥ": 6623,
      "ĠTenn": 6624,
      "ĠTrend": 6625,
      "ĠTermine": 6626,
      "ÑĥÑĶÑĤÑĮÑģÑı": 6627,
      "Ð°Ð¼Ð°ÑĤÐ¸ÐºÐ¸": 6628,
      "ĠÐºÑĸÐ½ÐµÑĨÑĮ": 6629,
      "roch": 6630,
      "rohen": 6631,
      "rogen": 6632,
      "roren": 6633,
      "ronik": 6634,
      "ĠÐ·Ð°ÐºÐ¾ÑĢÐ´": 6635,
      "ÑĢÑĸÐ¹": 6636,
      "ÑĢÑĸÑıÑĤÐ¸": 6637,
      "kte": 6638,
      "ktin": 6639,
      "beitreten": 6640,
      "ĠSubst": 6641,
      "ĠArchi": 6642,
      "ĠÐ½Ð°ÑĦ": 6643,
      "ders": 6644,
      "Ð¶Ð°": 6645,
      "Ð¶ÐµÑĢ": 6646,
      "Ð¶ÐµÐ½ÐµÑĢ": 6647,
      "Ð¶Ð¸Ð²Ð°Ð½Ð½Ñı": 6648,
      "Ð¶Ð´ÐµÐ½ÑĮ": 6649,
      "ĠPist": 6650,
      "ĠPort": 6651,
      "ĠPlan": 6652,
      "ĠPech": 6653,
      "ĠPoss": 6654,
      "ĠPflicht": 6655,
      "ĠZwei": 6656,
      "Ð³Ð¾ÑĢ": 6657,
      "Ð³ÑĢÐ°ÑĪ": 6658,
      "Ð³Ð»ÑĸÐ¹": 6659,
      "Ð½Ð°Ð»ÑĮÐ½": 6660,
      "Ð½Ð°Ñħ": 6661,
      "Ġinform": 6662,
      "Ð½Ð¸ÐºÑĸÐ²": 6663,
      "ÑĢÑĥÐ³Ð°": 6664,
      "ÑĢÑĥÐ¶ÐµÐ½Ð¸Ð¹": 6665,
      "ĠÐ±Ð¾": 6666,
      "ĠÐ±Ð»": 6667,
      "ĠÐ±Ð°Ð²": 6668,
      "ĠÐ±Ð°Ð·": 6669,
      "ĠÐ±Ð°Ð±": 6670,
      "ĠÐ±Ð°Ð¶": 6671,
      "ĠÐ±ÑĸÐ»": 6672,
      "ĠÐ±Ð¾Ð»Ñĸ": 6673,
      "ĠÐ±ÑİÑĢ": 6674,
      "ĠÐ±ÐµÐ½Ð·": 6675,
      "ĠÐ±ÑİÐ´Ð¶": 6676,
      "iele": 6677,
      "ĠZeitungen": 6678,
      "ĠZeitpunkt": 6679,
      "ume": 6680,
      "umm": 6681,
      "umziehen": 6682,
      "ÑĪÐ°": 6683,
      "ÑĪÐº": 6684,
      "ÑĪÐ½ÑĮÐ¾Ð³Ð¾": 6685,
      "tzt": 6686,
      "tzlich": 6687,
      "Ð°Ð½Ðµ": 6688,
      "Ð°Ð½ÐµÑĨÑĮ": 6689,
      "Ð°Ð½ÑĸÑĤÐ½Ð¸Ð¹": 6690,
      "euern": 6691,
      "eucht": 6692,
      "Ð¾Ð²ÑĸÐ»ÑĮÐ½Ð¾": 6693,
      "Ð·Ð¸Ðº": 6694,
      "Ð·Ð°Ð¹": 6695,
      "Ð·ÐµÐ½ÑĤ": 6696,
      "Ð·ÑĸÑĢ": 6697,
      "Ð·Ð°Ð»": 6698,
      "Ð·ÐµÐ¼": 6699,
      "Ð·Ð´Ð¸ÑĤÐ¸": 6700,
      "ĠÑģÐ¿ÑĢÐ¸": 6701,
      "ĠÑģÐ¿ÑĸÐ»ÑĮÐ½": 6702,
      "ĠÑģÐ¿ÑĢÐ¸Ð¹": 6703,
      "ĠÑģÐ¿ÑĢÐµÐ¹": 6704,
      "Ġerw": 6705,
      "Ġerste": 6706,
      "Ġerle": 6707,
      "Ġerwarten": 6708,
      "Ġerinnern": 6709,
      "Ġerinne": 6710,
      "Ġerreichbar": 6711,
      "ĠertÃ¶n": 6712,
      "berei": 6713,
      "bedeut": 6714,
      "bewer": 6715,
      "bedien": 6716,
      "begl": 6717,
      "bezahlen": 6718,
      "bedienen": 6719,
      "behandeln": 6720,
      "Ġtut": 6721,
      "Ġtun": 6722,
      "Ġtragen": 6723,
      "Ġtanzen": 6724,
      "Ġtrocken": 6725,
      "Ġtrennt": 6726,
      "Ġtrainieren": 6727,
      "Ġform": 6728,
      "Ġfragen": 6729,
      "Ġfinden": 6730,
      "ĠfÃ¤llt": 6731,
      "ÑħÐ°Ð²": 6732,
      "ÑħÑĤÐ¾": 6733,
      "ÑħÐ½Ñĸ": 6734,
      "ÑħÐ°ÑĤÐ¸ÑģÑı": 6735,
      "Ã¶st": 6736,
      "Ã¶gel": 6737,
      "ÑĸÑģÐ°ÑĢ": 6738,
      "stechen": 6739,
      "ĠÑĤÐµÐ¼": 6740,
      "ĠÑĤÐµÐ¿": 6741,
      "ĠÑĤÐµÑĢÐ¿": 6742,
      "ĠÑĤÐµÐºÑģÑĤ": 6743,
      "hner": 6744,
      "Ġsparen": 6745,
      "ÑĢÑĸÑĪÐ½Ñı": 6746,
      "Ġschwer": 6747,
      "Ġschreiben": 6748,
      "Ġschneiden": 6749,
      "ĠÐ¼ÑĸÑģÑĤÑı": 6750,
      "ĠÐ¼ÑĸÑģÑĤÑĸ": 6751,
      "ĠÐ¼ÑĸÑģÑĤÑĥ": 6752,
      "ĠÑĦÐ¾ÑĢÐ¼ÑĥÐ»ÑıÑĢ": 6753,
      "Ġangeln": 6754,
      "Ġanziehen": 6755,
      "Ġanbauen": 6756,
      "Ġangeschaut": 6757,
      "ĠSchn": 6758,
      "ĠSchmer": 6759,
      "ĠSchmu": 6760,
      "ĠÐ´ÑĢÑĥÐ³Ð¾Ð²Ñĸ": 6761,
      "ĠÐ±ÑĥÐ»Ð°": 6762,
      "ĠÐ±ÑĥÐ»Ð¸": 6763,
      "ĠÐ±ÑĥÐ´Ðµ": 6764,
      "ĠÐ±ÑĥÐ´ÑĮ": 6765,
      "ĠÐŁÑĢÐ¸": 6766,
      "ĠÑĸÐ³ÑĢÐ°ÑĪ": 6767,
      "Ð¸Ð»ÑĮÐ½Ð¸Ðº": 6768,
      "Ð´Ð¸ÑĤÐ¸ÑģÑı": 6769,
      "ungsp": 6770,
      "ungsst": 6771,
      "ĠÑĸÐ½ÑĤÐµ": 6772,
      "ĠÑĸÐ½Ð°Ðº": 6773,
      "ĠÑĸÐ½Ð¾Ð´Ñĸ": 6774,
      "ĠÑĸÐ½Ð¶ÐµÐ½ÐµÑĢ": 6775,
      "denz": 6776,
      "denten": 6777,
      "Ð°ÑĤÐ¸Ð²Ð½Ð¸Ð¹": 6778,
      "ĠÑĸÐ½ÑĦÐ¾ÑĢÐ¼": 6779,
      "Ð°Ð»ÑĮÐ½ÑĸÑģÑĤÑĮ": 6780,
      "Ð°Ð»ÑĮÐ½Ð¸Ñħ": 6781,
      "gespro": 6782,
      "gesucht": 6783,
      "ĠErlaub": 6784,
      "ĠErinner": 6785,
      "Ð¸ÑĤÐµ": 6786,
      "Ġkostet": 6787,
      "rÃ¤umen": 6788,
      "ĠÐ¾ÑģÐ½Ð¾Ð²Ð½Ð¸Ñħ": 6789,
      "ÃŁnahme": 6790,
      "ĠWer": 6791,
      "ĠWien": 6792,
      "ĠWaren": 6793,
      "ĠWell": 6794,
      "ĠWare": 6795,
      "ĠWahl": 6796,
      "ĠWeile": 6797,
      "ĠWurz": 6798,
      "ĠWÃ¼nsche": 6799,
      "ĠWeihn": 6800,
      "ĠWÃ¤hlen": 6801,
      "ĠÐ²Ð¸ÐºÐ¾Ð½Ð°": 6802,
      "ĠÐ¿Ð¾ÑĩÑĥÐ²Ð°ÑĤÐ¸ÑģÑı": 6803,
      "ĠÐ²ÑĸÐ´Ð¼ÑĸÐ½": 6804,
      "ĠÐ²ÑĸÐ´Ð´Ð°ÑĤÐ¸": 6805,
      "ĠÐ·Ð°Ð¿ÑĸÐ·": 6806,
      "undfahrt": 6807,
      "tell": 6808,
      "tete": 6809,
      "tektin": 6810,
      "onas": 6811,
      "onummer": 6812,
      "onders": 6813,
      "ĠKamp": 6814,
      "ĠKamer": 6815,
      "ĠKatzen": 6816,
      "ĠKaiser": 6817,
      "ÑĥÑĩÐ¸Ð¹": 6818,
      "ÑĥÑĩÐ½Ð¾Ð¼": 6819,
      "ĠÐ·ÑĸÐ¿": 6820,
      "its": 6821,
      "itam": 6822,
      "itur": 6823,
      "ĠÐ¶Ð°Ñħ": 6824,
      "ĠÐ¶ÐµÑĢÑĤ": 6825,
      "ringer": 6826,
      "altet": 6827,
      "alitÃ¤t": 6828,
      "Ġzer": 6829,
      "Ġzeigen": 6830,
      "ĠÐ´Ð¾Ð¿Ð¾Ð¼Ð°Ð³Ð°ÑĤÐ¸": 6831,
      "ausdrÃ¼cken": 6832,
      "alls": 6833,
      "blÃ¤t": 6834,
      "blick": 6835,
      "Ð¾ÐºÐ°": 6836,
      "Ð¾ÐºÐ¾Ð»": 6837,
      "Ġsechs": 6838,
      "Ġsetzt": 6839,
      "dur": 6840,
      "zik": 6841,
      "zimmer": 6842,
      "ĠLei": 6843,
      "ĠLicht": 6844,
      "ĠLag": 6845,
      "ĠLesen": 6846,
      "ĠLang": 6847,
      "ĠLeitung": 6848,
      "ĠLaut": 6849,
      "ĠLaden": 6850,
      "ĠLÃ¤rm": 6851,
      "ĠLÃ¼cken": 6852,
      "ĠLaune": 6853,
      "Ġumstruktur": 6854,
      "Ġumgezogen": 6855,
      "worben": 6856,
      "ermÃ¶glich": 6857,
      "Ð¾Ð±Ð¸": 6858,
      "Ð¾Ð±ÑĥÐ²Ð°ÑĤÐ¸": 6859,
      "Ð¾Ð±ÑĥÑģ": 6860,
      "ĠKindern": 6861,
      "kommt": 6862,
      "ĠÐ·Ð¼ÑĸÐ½ÑİÐ²Ð°ÑĤÐ¸ÑģÑı": 6863,
      "ĠÐļÐ¾Ð»ÑĮ": 6864,
      "Ð¾Ð»Ð¸ÑĪÐ½ÑĮÐ¾Ð³Ð¾": 6865,
      "ĠÐ¿ÑĢÐ¸ÐºÑĢÐ¸Ð²Ð°ÑĤÐ¸": 6866,
      "ĠÐ¿Ð¾ÑĩÐ¸Ð½Ð°ÑĤÐ¸": 6867,
      "ĠÑģÐµÑĢÐµÐ´Ð¾Ð²Ð¸": 6868,
      "Ġverein": 6869,
      "Ġwarten": 6870,
      "ierungen": 6871,
      "iertel": 6872,
      "kohol": 6873,
      "Ġgleich": 6874,
      "Ġglauben": 6875,
      "erleiten": 6876,
      "Ð¾ÑģÐ¸": 6877,
      "Ð¾ÑģÑĤÐ¸": 6878,
      "Ð¾ÑģÐµÑĢ": 6879,
      "Ð¾ÑģÐ¾ÑĦ": 6880,
      "agd": 6881,
      "ager": 6882,
      "agsp": 6883,
      "etten": 6884,
      "ÑĸÐ¶Ð½Ð¸Ðº": 6885,
      "Ġmehrmal": 6886,
      "ilette": 6887,
      "ĠÐ¿Ð¾Ð²Ð½Ð¸Ð¹": 6888,
      "ĠÐ¿Ð¾Ð²Ð°ÑĢ": 6889,
      "ĠÐ¿Ð¾Ð²ÐµÑĢÑĤÐ°ÑĤÐ¸": 6890,
      "ĠÐ¿Ð¾Ð²Ð½ÑĸÑģÑĤ": 6891,
      "olle": 6892,
      "ÑĨÐµÐ¼": 6893,
      "ÑĨÐµÐ¿": 6894,
      "ÑĨÐµÐ¹ÑģÑĮÐºÐ¸Ð¹": 6895,
      "amt": 6896,
      "amir": 6897,
      "ÑĤÑĢÐ°": 6898,
      "ÑĤÑĢÐ¾Ð²Ð°Ð¼Ð¸": 6899,
      "ÐµÐ·Ð¿Ðµ": 6900,
      "Ð°Ð±Ð°": 6901,
      "Ð°Ð±Ð°Ð½": 6902,
      "Ð°Ð±Ð»Ð¸": 6903,
      "Ð°Ð±ÑĥÑģ": 6904,
      "Ð°Ð±ÐµÐ»ÑĮÐ½Ð¸Ð¹": 6905,
      "Ð°Ð±ÑĸÐ¶Ð½Ð¸Ðº": 6906,
      "altungen": 6907,
      "weilig": 6908,
      "ĠÑģÑĥÑħ": 6909,
      "ĠÑģÑĥÑģÑĸÐ´": 6910,
      "ĠÑģÑĥÐ¼ÐºÑĥ": 6911,
      "ĠÐ¿Ð¾ÑĢÐ°": 6912,
      "ĠÐ¿Ð¾ÑĢÑıÐ´Ð¾Ðº": 6913,
      "Ð¿ÑĸÐ´ÑĤÐ²ÐµÑĢÐ´Ð¶": 6914,
      "Ġzustimmen": 6915,
      "Ġuntrennb": 6916,
      "ĠunpersÃ¶nliche": 6917,
      "Ġunseren": 6918,
      "ĠGesund": 6919,
      "ĠGesprÃ¤": 6920,
      "ĠGesell": 6921,
      "mpartner": 6922,
      "mpfehl": 6923,
      "spar": 6924,
      "spur": 6925,
      "spra": 6926,
      "sparen": 6927,
      "spassiv": 6928,
      "sprach": 6929,
      "springen": 6930,
      "sprecher": 6931,
      "Ð°ÑĤÐ¾": 6932,
      "Ð°ÑĤÑĥ": 6933,
      "Ð°ÑĤÑĤÑı": 6934,
      "Ð°ÑĤÑĥÑĢÐ°": 6935,
      "fahl": 6936,
      "ĠFreien": 6937,
      "ĠFreude": 6938,
      "ĠÐ¢Ð¾Ð±Ñĸ": 6939,
      "ĠÐ¢ÑĥÐ´Ð¸": 6940,
      "ĠÐ¢ÑĢÐµÐ±Ð°": 6941,
      "ĠÐ¢ÑĥÑĢÐµ": 6942,
      "ĠÐ¢Ð°ÑĤÐ¾": 6943,
      "Ġhin": 6944,
      "ĠhÃ¤lt": 6945,
      "Ġhole": 6946,
      "ĠhÃ¤uf": 6947,
      "ĠhÃ¶rt": 6948,
      "ĠVill": 6949,
      "ĠVerl": 6950,
      "ĠVerein": 6951,
      "ĠVolkshochschule": 6952,
      "ĠVÃ¶gel": 6953,
      "ĠVitam": 6954,
      "ĠBankmit": 6955,
      "ÑĥÐ²Ð°Ð½Ð¸Ð¹": 6956,
      "ĠRinder": 6957,
      "ĠWasch": 6958,
      "urm": 6959,
      "urt": 6960,
      "ÑģÑĤÑı": 6961,
      "ÑģÑĤÐ²Ð°": 6962,
      "ÑģÑĤÑĥÐ´ÐµÐ½ÑĤ": 6963,
      "raten": 6964,
      "Ð°ÑĤÐºÐ¸": 6965,
      "Ð°ÑĤÐºÑĥ": 6966,
      "ĠÐ´ÑĸÑĶÑģÐ»Ð¾Ð²Ð°": 6967,
      "ĠÑĢÑĥÐº": 6968,
      "ĠStein": 6969,
      "ĠStÃ¼": 6970,
      "ĠSteuer": 6971,
      "ĠStunde": 6972,
      "ĠStress": 6973,
      "ĠSteuern": 6974,
      "ĠTagen": 6975,
      "ĠTaste": 6976,
      "ĠTabl": 6977,
      "atland": 6978,
      "ĠÐľÐ¾Ð¶": 6979,
      "ĠÐľÐ¾ÑĹ": 6980,
      "ĠGeben": 6981,
      "ĠÐĨÑĢÐ°": 6982,
      "ima": 6983,
      "ĠEigen": 6984,
      "ÐļÐ¾ÑĢÐ¸ÑģÐ½": 6985,
      "etzig": 6986,
      "Ð»ÐµÐº": 6987,
      "fstÃ¶r": 6988,
      "ĠProdukt": 6989,
      "ĠAbendsonnen": 6990,
      "Wasser": 6991,
      "onto": 6992,
      "sterreich": 6993,
      "ĠÐ³Ðµ": 6994,
      "ĠÐ³Ð°": 6995,
      "ĠÐ³ÐµÑĢ": 6996,
      "ĠÐ³Ð°Ð´": 6997,
      "ĠÐ³ÑĥÑĩÐ½Ð¾Ð¼": 6998,
      "ĠTexten": 6999,
      "leihen": 7000,
      "leisch": 7001,
      "Ð°Ð¿ÑĤ": 7002,
      "Ð»ÑĸÐºÐ°": 7003,
      "Ġgestanden": 7004,
      "Ġgestiegen": 7005,
      "Ġgestorben": 7006,
      "Ġbeide": 7007,
      "ĠÐĹÐ²ÐµÑĢÑĤ": 7008,
      "leer": 7009,
      "lecht": 7010,
      "lektion": 7011,
      "lecker": 7012,
      "ĠStufe": 7013,
      "ĠStudenten": 7014,
      "Ġlehren": 7015,
      "Ġlecker": 7016,
      "ĠÐ±ÐµÐ·ÑģÐ»ÑĸÐ´": 7017,
      "ĠÐ±ÐµÐ·ÐºÐ¾ÑĪ": 7018,
      "ĠÐ¾Ð±ÑĢÐ°Ð·": 7019,
      ".........": 7020,
      "hopp": 7021,
      "ĠWol": 7022,
      "ĠWohl": 7023,
      "ÑģÑĤÐ°Ð²Ð°ÑĤÐ¸": 7024,
      "wohnen": 7025,
      "wohner": 7026,
      "wohnung": 7027,
      "Ã¤lde": 7028,
      "ahne": 7029,
      "schluss": 7030,
      "schlug": 7031,
      "schlÃ¤ge": 7032,
      "ĠâĢ¦?": 7033,
      "Ð¾Ð´Ð¶ÐµÐ½Ð½Ñı": 7034,
      "ĠÑĢÐ¾Ð³": 7035,
      "ĠÑĢÐ°Ð½Ñĸ": 7036,
      "ĠÑĢÐ°Ð¿ÑĤ": 7037,
      "Schweiz": 7038,
      "wartet": 7039,
      "ÐĶÐļ": 7040,
      "ÐĶÐľ": 7041,
      "tri": 7042,
      "Ã¶flich": 7043,
      "ĠDiese": 7044,
      "beln": 7045,
      "beliebt": 7046,
      "alaton": 7047,
      "wird": 7048,
      "Ġklettert": 7049,
      "Ġgetrieben": 7050,
      "ĠFahrradladen": 7051,
      "lichkeit": 7052,
      "Ġjem": 7053,
      "Ġjetzig": 7054,
      "ĠComputerproblem": 7055,
      "testen": 7056,
      "ĠHaushalt": 7057,
      "Ġteuersten": 7058,
      "ckdose": 7059,
      "igung": 7060,
      "igit": 7061,
      "igieren": 7062,
      "bert": 7063,
      "ÑīÐ°Ð½Ð½Ñı": 7064,
      "ÑīÐ¾ÑģÑĮ": 7065,
      "ÑīÐ¾Ð´Ð½Ñı": 7066,
      "ÐµÑĢÐ°ÑĤÐ¸Ð²Ð½Ð¸Ð¹": 7067,
      "Ã¤rmen": 7068,
      "ĠÐ³Ð¾Ð»ÑĥÐ±": 7069,
      "ĠÑģÐ¸Ð»ÑĮÐ½Ð¸Ñħ": 7070,
      "Ġbesonders": 7071,
      "Ġdeiner": 7072,
      "ĠVerwen": 7073,
      "Ð¸Ð³ÑĸÐ½": 7074,
      "ĠLebt": 7075,
      "Ð¸Ð²Ð°ÑĤÐ¸ÑģÑı": 7076,
      "vert": 7077,
      "vergessen": 7078,
      "verfÃ¼": 7079,
      "verga": 7080,
      "verhalten": 7081,
      "verschw": 7082,
      "verboten": 7083,
      "verheim": 7084,
      "verdoppel": 7085,
      "verhaften": 7086,
      "usstsein": 7087,
      "Ġfast": 7088,
      "Ġunserem": 7089,
      "sion": 7090,
      "ĠKonsum": 7091,
      "ĠKonserv": 7092,
      "tigung": 7093,
      "tigte": 7094,
      "Ð°ÑĢÐ°": 7095,
      "ertÃ¶n": 7096,
      "Ð½Ð¾Ñİ": 7097,
      "ĠOl": 7098,
      "ĠOrig": 7099,
      "ĠOsten": 7100,
      "ĠOze": 7101,
      "ĠNicht": 7102,
      "ĠNiederlan": 7103,
      "ĠName": 7104,
      "ĠNina": 7105,
      "ĠÐĴÐ°Ð¼Ð¸": 7106,
      "ĠÐ»Ð°Ð·": 7107,
      "ĠÐ»Ð¸Ð¶": 7108,
      "Ð¾Ð½ÑĤ": 7109,
      "Ð¾Ð½Ð´": 7110,
      "Ð¾Ð¶Ð½ÑĸÐ¹": 7111,
      "ĠÑīÐ¸ÑĢ": 7112,
      "ĠÑīÐ¾Ð´ÐµÐ½Ð½Ð¾": 7113,
      "ÑĢÐ°Ð´": 7114,
      "ÑĢÐ°Ñī": 7115,
      "Ã¼bergeordneten": 7116,
      "ĠÑĢÐ¾Ð±Ð¸ÑĤÑĮ": 7117,
      "ĠÑĢÐ¾Ð±Ð¾ÑĤÐ°": 7118,
      "Ġ117": 7119,
      "Ġ124": 7120,
      "Ġverkaufen": 7121,
      "Ġverab": 7122,
      "Ġverschw": 7123,
      "ĠverÃ¤ndern": 7124,
      "Ġverheim": 7125,
      "Ġverglei": 7126,
      "Ġverhaften": 7127,
      "oline": 7128,
      "ĠNachbar": 7129,
      "ÑĤÐ¾Ñİ": 7130,
      "Ġbewer": 7131,
      "Ġbezie": 7132,
      "Ġbegl": 7133,
      "Ġbestellen": 7134,
      "Ġbedienen": 7135,
      "Ġberechn": 7136,
      "Ġbekannt": 7137,
      "Ġbeeilen": 7138,
      "Ġbezeichnet": 7139,
      "Ġbedeute": 7140,
      "sprechenden": 7141,
      "ĠÑıÐ»Ð¾Ð²": 7142,
      "ĠÑħÐ»Ñĸ": 7143,
      "ĠÑħÑĤÐ¾": 7144,
      "ĠÑħÐ°Ð¾ÑĤÐ¸": 7145,
      "Â».": 7146,
      "Ð¾ÑģÑĤÐ°ÑĤÐ¸": 7147,
      "abhÃ¤ng": 7148,
      "abstÃ¼rzen": 7149,
      "abwechslungsreich": 7150,
      "ĠÃ¼berzeu": 7151,
      "ĠÃ¼berzeugen": 7152,
      "ĠÃ¼berfallen": 7153,
      "ĠÃ¼berhaupt": 7154,
      "ÑĤÐ¾ÑĢÑĸÑı": 7155,
      "ĠÐ²Ð¸ÑĪ": 7156,
      "ĠÐ²Ð¸Ð»ÐºÐ°": 7157,
      "ĠÐ²Ð¸Ð¶Ð¸Ð²Ð°Ð½Ð½Ñı": 7158,
      "ĠÐ¿ÑĢÐ¾ÑĶÐºÑĤ": 7159,
      "ĠÐ¿ÑĢÐ¾ÑīÐ°Ð½Ð½Ñı": 7160,
      "Ð½ÑĸÐ¼": 7161,
      "enthalten": 7162,
      "Ã¤nder": 7163,
      "Ã¤nderung": 7164,
      "otal": 7165,
      "reibung": 7166,
      "reibtisch": 7167,
      "ĠÐ´Ð¾ÑģÐ»ÑĸÐ´": 7168,
      "rÃ¼fen": 7169,
      "rÃ¼ÃŁen": 7170,
      "Ð°Ð¶Ð°ÑĤÐ¸": 7171,
      "Ð°Ð¶Ð¸ÑĤÐ¸": 7172,
      "Steiger": 7173,
      "ÐµÑĤÑĸÑĤÐ¸": 7174,
      "ĠÐ¼Ð¾Ð¶ÑĥÑĤÑĮ": 7175,
      "weiÃŁ": 7176,
      "gelten": 7177,
      "geleitet": 7178,
      "Ð¿ÑĢÐ¾Ð²Ð°Ð¹": 7179,
      "Ð¿ÑĢÐ¾Ð¼ÑĸÑģ": 7180,
      "ughafen": 7181,
      "Ð°Ð¹Ð½Ð¸Ð¹": 7182,
      "ĠÑĢÐ°Ð·Ð¾Ð¼": 7183,
      "ada": 7184,
      "jezik": 7185,
      "ĠÑĪÑĥÐ¼": 7186,
      "ĠÑĪÐ°ÑĦ": 7187,
      "ĠÐĶÐ¾ÑģÑĤÐ°Ð²ÐºÑĥ": 7188,
      "ĠSpar": 7189,
      "ĠSprich": 7190,
      "ĠSpiegel": 7191,
      "herausgeben": 7192,
      "Ġput": 7193,
      "Ġpro": 7194,
      "ĠprÃ¼fen": 7195,
      "ÑĸÐ»ÐºÐ°": 7196,
      "steller": 7197,
      "stellte": 7198,
      "Ð½Ð¸ÑĩÐºÐ°": 7199,
      "ĠVerbs": 7200,
      "ĠVerbes": 7201,
      "ĠVerbrechen": 7202,
      "ĠVerbinden": 7203,
      "ĠÐ¿Ð¾Ð´Ð°Ð²": 7204,
      "ĠÐ¿Ð¾Ð´Ð²Ð¾": 7205,
      "ĠÐ¿Ð¾Ð´Ð°Ð²Ð°ÑĤÐ¸": 7206,
      "ĠÐ¿Ð¾Ð´Ð°Ð½Ð¾": 7207,
      "ĠÐ·Ð½Ð°Ð½Ð½Ñı": 7208,
      "ĠÐ³ÑĢÐ¸Ð²": 7209,
      "ĠÐ³ÑĢÐ°Ð²ÐµÑĨÑĮ": 7210,
      "ĠÐ³ÑĢÐ¾Ð¼Ð°Ð´": 7211,
      "ĠÐ³ÑĢÐ°Ð¼Ð°ÑĤÐ¸ÐºÐ¸": 7212,
      "ĠÐ³ÑĢÐ°Ð±ÑĸÐ¶Ð½Ð¸Ðº": 7213,
      "ĠÑĢÐ¾Ð·Ð¼": 7214,
      "ĠÑĢÐ¾Ð·Ð±": 7215,
      "ĠÑĢÐ¾Ð·ÑģÐ»ÑĸÐ´": 7216,
      "ĠÑĢÐ¾Ð·ÑĥÐ¼": 7217,
      "ĠÑĢÐ¾Ð·Ð¼Ð¾Ð²": 7218,
      "ĠÑĢÐ¾Ð·Ð»ÑĥÑĩ": 7219,
      "ĠÐ¿ÐµÑĢÐµÐ²Ð°Ð¶": 7220,
      "ĠÐ¿ÐµÑĢÐµÐºÐ¾Ð½Ð°": 7221,
      "ĠÐ¿ÐµÑĢÐµÑĹÐ¶Ð´Ð¶": 7222,
      "hing": 7223,
      "zufÃ¤llig": 7224,
      "zubereiten": 7225,
      "ÐµÐºÐ»ÐµÐ½": 7226,
      "Ð°Ð»ÐµÐ½Ð½Ñı": 7227,
      "Ã¶rder": 7228,
      "egin": 7229,
      "ĠÐ´ÑĥÑħ": 7230,
      "ĠstÃ¤r": 7231,
      "Ġsteigen": 7232,
      "Ġstark": 7233,
      "ĠAnna": 7234,
      "ĠAndenken": 7235,
      "finalsatz": 7236,
      "lieh": 7237,
      "empfehlen": 7238,
      "empfahl": 7239,
      "schafts": 7240,
      "109": 7241,
      "Ġabwaschen": 7242,
      "Ð¸ÑĩÐºÐ°": 7243,
      "Ð¸ÑĩÐ¾Ðº": 7244,
      "ĠSatzes": 7245,
      "ĠSatzglied": 7246,
      "ĠÐ¿ÑĢÐ¸Ð±": 7247,
      "ĠÐ¿ÑĢÐ¸Ð¿ÑĢÐ°Ð²": 7248,
      "ĠÐ¿ÑĢÐ¸Ð±Ð¸ÑĢÐ°ÑĤÐ¸": 7249,
      "ĠÐ¿ÑĢÐ¸ÑĹÑħ": 7250,
      "fÃ¼hlen": 7251,
      "fÃ¼llt": 7252,
      "iker": 7253,
      "ikum": 7254,
      "ikal": 7255,
      "ikanerinnen": 7256,
      "ĠÐ²ÐµÐ»": 7257,
      "ĠÐ²ÐµÐ´": 7258,
      "ĠÐ²ÐµÐ´Ðµ": 7259,
      "ĠÐ²ÐµÑģÑĸÐ»Ð»Ñı": 7260,
      "ĠÐ²ÐµÑģÐµÐ»": 7261,
      "ogie": 7262,
      "ÑĸÑĤÐºÐ°": 7263,
      "112": 7264,
      "lange": 7265,
      "ĠÃľberzeug": 7266,
      "Ġunterst": 7267,
      "Ġunterbrechen": 7268,
      "zurÃ¼ck": 7269,
      "ĠÐºÐ¾Ð¼ÐµÐ´": 7270,
      "ĠÐºÐ¾Ð¼Ð°ÑĢÑĸÐ²": 7271,
      "ĠÐºÐ¾Ð¼Ð¿ÑĢÐ¾Ð¼ÑĸÑģ": 7272,
      "telmeer": 7273,
      "ĠReze": 7274,
      "ĠÐ¹Ð¾Ð³": 7275,
      "ĠÐ¹Ð´Ñĥ": 7276,
      "gebildet": 7277,
      "TÃ¼rkei": 7278,
      "ĠÑĹÑħÐ°ÑĤÐ¸": 7279,
      "ĠÑĹÐ¶Ñĸ": 7280,
      "Ð´ÐµÑĩÐ½Ð¾": 7281,
      "ĠVorgang": 7282,
      "ĠVorbereit": 7283,
      "Ġpassieren": 7284,
      "zeitschrift": 7285,
      "ĠJagd": 7286,
      "ĠÑĨÐ²ÑĸÑĤ": 7287,
      "ĠÑĨÐ¸Ð±": 7288,
      "ĠÐĳÐ¾Ð³": 7289,
      "ĠÐĳÐ¾Ð´ÐµÐ½": 7290,
      "ĠÐĳÐµÑĢÐ»": 7291,
      "ĠÐĳÑĥÐ´ÑĮ": 7292,
      "ĠÐĳÐ¾Ð½Ð´Ð°ÑĢÑĩÑĥÐº": 7293,
      "ÑĢÐ¸Ð»Ð¸": 7294,
      "Ġsolltet": 7295,
      "klÃ¤ren": 7296,
      "laut": 7297,
      "wasser": 7298,
      "ĠÐ¡ÑĸÐ¼": 7299,
      "ĠÐ¡ÑĮÐ¾Ð³Ð¾Ð´Ð½Ñĸ": 7300,
      "ĠÐ¡ÐµÐ¼ÐµÐ½ÑİÐº": 7301,
      "ĠÐµÐ½ÐµÑĢ": 7302,
      "ĠÐĽÐ¾Ð·Ð¸ÑĨÑĮÐºÐ°": 7303,
      "ĠÐĽÑĥÑĨÑĮÐº": 7304,
      "ĠÑģÐ²ÐµÐº": 7305,
      "ĠEinb": 7306,
      "ĠEinkaufs": 7307,
      "ksam": 7308,
      "vorbei": 7309,
      "vorsichtig": 7310,
      "werk": 7311,
      "werfen": 7312,
      "werken": 7313,
      "ĠÑĤÐ¸ÑħÐ¾": 7314,
      "ĠÑĤÐ¸Ð¶Ð´ÐµÐ½ÑĮ": 7315,
      "ÑĸÐ·Ð½Ð¾": 7316,
      "ÑĥÑĢÑĤ": 7317,
      "ÑĥÑĢÐ½Ð°": 7318,
      "Indirekte": 7319,
      "irekter": 7320,
      "prache": 7321,
      "Ð»ÑİÑĩ": 7322,
      "anzÃ¶s": 7323,
      "anziehen": 7324,
      "anzhaushalt": 7325,
      "ĠÐ¿ÑĢÐ°Ðº": 7326,
      "ĠÐ¿ÑĢÐ°ÑĨÑĸ": 7327,
      "untersuchen": 7328,
      "unterbieten": 7329,
      "unterhielt": 7330,
      "Ð¶ÐµÐ»ÑİÐ±": 7331,
      "immbad": 7332,
      "ĠauÃŁerdem": 7333,
      "Ġalso": 7334,
      "Ð°ÑĩÐ°ÑĤÐ¸": 7335,
      "Ð°ÑĩÐ¸ÑĤÐ¸": 7336,
      "Ð²Ð°Ð¶Ð°ÑĤÐ¸ÑģÑı": 7337,
      "schenken": 7338,
      "ÑħÑĸÐ´Ð½Ð¸Ñħ": 7339,
      "ĠOrientieren": 7340,
      "168": 7341,
      "223": 7342,
      "Verben": 7343,
      "Verbrechen": 7344,
      "ktionen": 7345,
      "naie": 7346,
      "ÐĴÐĲ": 7347,
      "Ġ,-": 7348,
      "Ġ811": 7349,
      "Ġreist": 7350,
      "Ġreden": 7351,
      "hang": 7352,
      "ĠAusnahmen": 7353,
      "ĠÐºÑĥÐ¿ÑĥÐ²Ð°ÑĤÐ¸": 7354,
      "ĠÐºÑĥÐ¿Ð¸Ð»Ð°": 7355,
      "ĠÐºÑĥÐ¿Ð»ÑıÑİ": 7356,
      "Ð¾Ð»Ð¾Ð³ÑĸÑı": 7357,
      "Ð¾Ð»Ð¾Ð³ÑĸÑĩ": 7358,
      "...?": 7359,
      "irektor": 7360,
      "hÃ¶rer": 7361,
      "Ġentwe": 7362,
      "Ġentscheiden": 7363,
      "Ġentwic": 7364,
      "schieÃŁen": 7365,
      "ĠÑĤÑĢÐµÐ½": 7366,
      "ĠÑĤÑĢÐ¸Ð²Ð°ÑĶ": 7367,
      "ĠÑĤÑĢÑĮÐ¾Ñħ": 7368,
      "alediven": 7369,
      "ĠPrÃ¤teritumform": 7370,
      "Ġ50": 7371,
      "Ġallen": 7372,
      "Ġallein": 7373,
      "Ġallem": 7374,
      "Ġalleine": 7375,
      "ĠÐ½Ð°Ð²ÑĥÑĪ": 7376,
      "ĠÐ½Ð°Ð²Ð¸ÑĩÐ¾Ðº": 7377,
      "ĠdurchgefÃ¼": 7378,
      "ĠÐµÐºÑģÐ¿": 7379,
      "ĠÐ§Ð¸Ð¼": 7380,
      "ingu": 7381,
      "ĠÐ¿Ð¾Ð³Ð¾Ð´Ð¶ÑĥÐ²Ð°ÑĤÐ¸ÑģÑı": 7382,
      "ĠÐ¿Ð¾Ð³Ð¾Ð´Ð¸ÑĤÐ¸ÑģÑı": 7383,
      "ĠÐ´ÐµÑģÑĮ": 7384,
      "ĠÐ´ÐµÑĪÐµ": 7385,
      "ĠÐ´ÐµÐ¿Ð¾Ð·": 7386,
      "ĠÐ´ÐµÐ¼Ð¾Ð½": 7387,
      "ĠPerspektive": 7388,
      "prÃ¤sentieren": 7389,
      "riechen": 7390,
      "zehn": 7391,
      "Ġ63": 7392,
      "ÑĥÐ½ÑĸÐ²ÐµÑĢÑģÐ¸ÑĤÐµÑĤ": 7393,
      "ĠÐ¿Ð°ÑĢÐº": 7394,
      "ĠmÃ¶gen": 7395,
      "ĠmÃ¶glich": 7396,
      "ĠÑĦÑĸÐ»Ð¾ÑģÐ¾ÑĦ": 7397,
      "ĠÑĦÑĸÐ»Ð¾Ð»Ð¾Ð³ÑĸÑĩ": 7398,
      "ĠEurozone": 7399,
      "ÑģÑĮÐºÐ¾Ð¼Ñĥ": 7400,
      "ÑģÑĮÐºÐ¾ÑĹ": 7401,
      "ÑģÑĮÐºÐ¸Ð¼Ð¸": 7402,
      "ĠUntersuch": 7403,
      "Beim": 7404,
      "ĠÐ²Ð¸Ð³ÑĢÐ°Ð²": 7405,
      "Ġgesessen": 7406,
      "Ġgesunken": 7407,
      "Ġgesungen": 7408,
      "Ġgesandt": 7409,
      "ĠSoÃŁe": 7410,
      "ĠÐºÐ°Ð½Ð°Ð»": 7411,
      "ĠÐºÐ°Ð¼ÐµÑĢÐ°": 7412,
      "Ð¸ÑģÑĤÐ¸Ð¹": 7413,
      "ungskra": 7414,
      "Ð¾Ð·Ð¸ÑĨÑĸÑİ": 7415,
      "ĠÑĤÐ°ÐºÑģÑĸ": 7416,
      "ĠÑĤÐ°ÐºÐ¾Ð¶": 7417,
      "187": 7418,
      "okabel": 7419,
      "okale": 7420,
      "ÑģÐ¸ÑĩÐ½Ð¸Ð¹": 7421,
      "ÑĥÑİÑģÑı": 7422,
      "ÑĥÑİÑĩÐ¸": 7423,
      "ĠÐ¿Ð»Ð°ÑĤÐ°": 7424,
      "ĠÐ¿Ð»Ð°ÑĤÑĤÑı": 7425,
      "ĠInternetanbieter": 7426,
      "ĠÐ·Ð²Ð¸ÑĩÐ°Ð¹Ð½Ð¾": 7427,
      "ĠÐ·Ð²ÑĥÑĩÐ°ÑĤÐ¸": 7428,
      "ĠÐ·Ð²Ð¸ÑĩÐºÐ°": 7429,
      "ĠwÃ¤ren": 7430,
      "Ġgefangen": 7431,
      "Ġgefunden": 7432,
      "Ġgefroren": 7433,
      "Ð²ÑĸÐ´Ð¿": 7434,
      "Ð²ÑĸÐ´Ð¾Ð¼Ð¸Ð¹": 7435,
      "ĠÐ½Ð°Ð´Ð°Ð²Ð°ÑĤÐ¸": 7436,
      "ĠÐ½Ð°Ð´ÑĸÐ¹Ð½Ð¸Ð¹": 7437,
      "256": 7438,
      "Reflexive": 7439,
      "ellner": 7440,
      "zÃ¤hlen": 7441,
      "ĠÐ¼ÑĥÐ·Ð¸Ñĩ": 7442,
      "ĠÑģÐµÐ»Ðµ": 7443,
      "Ġgewesen": 7444,
      "Ġgewachsen": 7445,
      "ĠAlkohol": 7446,
      "ĠSteht": 7447,
      "ĠSteckdose": 7448,
      "ĠÑģÑĤÑĥÐ´ÐµÐ½ÑĤÐºÐ°": 7449,
      "schwimmen": 7450,
      "ĠFinnland": 7451,
      "seekÃ¼ste": 7452,
      "setzung": 7453,
      "setzte": 7454,
      "ĠRelativsÃ¤tze": 7455,
      "ĠÐ³Ð¾Ð²Ð¾ÑĢÑıÑĤÑĮ": 7456,
      "ĠÑĢÐ°Ð´ÑĸÑĶÑĪ": 7457,
      "Ġjedem": 7458,
      "verbi": 7459,
      "ĠÐ»ÑĸÑĤÐ°": 7460,
      "ĠÑĪÐºÐ¾Ð´Ð°": 7461,
      "ĠÑĪÐºÑĸÐ»ÑĮÐ½Ð°": 7462,
      "ĠReisebÃ¼ro": 7463,
      "astrop": 7464,
      "bietet": 7465,
      "besetzt": 7466,
      "folgt": 7467,
      "ÐľÐ¾Ð¶Ð½Ð°": 7468,
      "Ġex": 7469,
      "Ġedel": 7470,
      "ĠÐ¼ÐµÐ½ÑĪÐµ": 7471,
      "ĠÑģÐºÐ¾ÑĢ": 7472,
      "ĠÑģÐºÑĥÐ¿": 7473,
      "ĠÑģÐºÐ»Ð°Ð´": 7474,
      "ĠDaten": 7475,
      "Ġbestrafen": 7476,
      "Ð¿Ð°Ð´Ð°ÑĤÐ¸": 7477,
      "ĠÐ¿ÑĢÐ¸Ð¹ÑĤÐ¸": 7478,
      "ĠÐºÐ°ÑĢÑĤÐ¾Ð¿": 7479,
      "ĠÐºÐ¾Ð½ÑĦÐµÑĢ": 7480,
      "ĠÐºÐ¾Ð½ÑĨÐµÑĢ": 7481,
      "ĠÐ¾ÑĢÐµÐ½Ð´Ð°": 7482,
      "ĠÐ¾ÑĢÑĸÑĶÐ½ÑĤ": 7483,
      "ĠÐ¾ÑĢÐ¸Ð³ÑĸÐ½": 7484,
      "ĠHauptstadt": 7485,
      "Ġangegeben": 7486,
      "Ġangezogen": 7487,
      "ĠWortfolge": 7488,
      "ĠUmsatz": 7489,
      "ĠUmgang": 7490,
      "ÐµÑĢÑĤÐ²": 7491,
      "Konzert": 7492,
      "Konsum": 7493,
      "Kondition": 7494,
      "Manchmal": 7495,
      "Plural": 7496,
      "UniversitÃ¤t": 7497,
      "hÃ¤ngt": 7498,
      "Ġrichtig": 7499,
      "ÐºÑĤÑĥ": 7500,
      "ĠÑģÐµÑĢÑĨÐµ": 7501,
      "Ð»ÑıÐ´Ñĥ": 7502,
      "Ġwichtige": 7503,
      "Ġbisschen": 7504,
      "ĠSekretÃ¤rin": 7505,
      "ĠÐ·Ð°Ð±ÑĢÐ°ÑĤÐ¸": 7506,
      "ĠÐ·Ð°Ð±Ð¾ÑĢÐ¾Ð½": 7507,
      "ĠÐ·Ð°Ð±ÐµÐ·Ð¿Ðµ": 7508,
      "ĠKlein": 7509,
      "ĠÐ±ÑĸÐ»Ð¸Ð·": 7510,
      "ĠÐ±ÑĸÐ¾Ð³ÑĢÐ°ÑĦ": 7511,
      "ĠÐ¼ÑĸÑģÑĨÐµÐ²ÑĸÑģÑĤÑĮ": 7512,
      "ĠÐ³Ð°ÑĢÐ½Ð¸Ð¹": 7513,
      "ĠÑĢÐ¾Ð±Ð¾ÑĩÑĸ": 7514,
      "ĠÑĢÐ¾Ð±Ð¾ÑĩÐ¾Ð¼Ñĥ": 7515,
      "Studieren": 7516,
      "ĠÐ´ÑĥÐ¼Ð°ÑĶ": 7517,
      "ĠÐ´ÑĥÐ¼ÐºÐ¸": 7518,
      "ĠÐ´ÑĥÐ¼Ð°ÑĶÑĪ": 7519,
      "ĠÐ²ÐµÑĩÐµ": 7520,
      "Einkaufen": 7521,
      "Einige": 7522,
      "EinfÃ¼hrung": 7523,
      "glaube": 7524,
      "glÃ¼cklich": 7525,
      "xtra": 7526,
      "Ġgenug": 7527,
      "Ġgenommen": 7528,
      "Ġ...):": 7529,
      "ĠÐĲÐ²ÑģÑĤÑĢÑĸ": 7530,
      "ÑıÐ³Ð½ÑĥÑĤÐ¸": 7531,
      "ĠÐ¿Ð¾ÐºÐ°Ð·": 7532,
      "ĠÐ·Ð½Ð¾Ð²Ñĥ": 7533,
      "Ġsofern": 7534,
      "Ġgelegen": 7535,
      "Ġgelungen": 7536,
      "Ġgeschossen": 7537,
      "Ġgeschnitten": 7538,
      "ĠÐ¿ÑĢÐ¾Ð²ÐµÐ»Ð°": 7539,
      "ĠKontakt": 7540,
      "ĠMitarbeiter": 7541,
      "ĠfÃ¼hlen": 7542,
      "Ġfolgende": 7543,
      "Ġfolgendem": 7544,
      "ÑħÐ¾Ð´Ð¸Ð²": 7545,
      "ÑħÐ¾Ð´Ð¸ÑĤÐ¸ÑģÑı": 7546,
      "ĠSchwimmbad": 7547,
      "ĠSchulzeit": 7548,
      "ĠÑĸÐ½ÑĪÐ°": 7549,
      "ĠÑĸÐ½ÑĪÐ¸Ð¼": 7550,
      "ĠÑĸÐ½ÑĪÐ¾Ð¼Ð¾Ð²Ð½Ð¸Ñħ": 7551,
      "Ġkonzentr": 7552,
      "ĠGeschichten": 7553,
      "ĠGeschirr": 7554,
      "ĠÐ³Ð¾Ð´Ð¸Ð½Ð¸": 7555,
      "ĠÐ³Ð¾Ð´Ð¸Ð½Ð°": 7556,
      "ĠÐ³Ð¾Ð´Ð¸Ð½Ð°Ð¼Ð¸": 7557,
      "ĠÐ³Ð¾ÑĤÑĥÐ²Ð°ÑĤÐ¸": 7558,
      "ĠÐ³Ð¾ÑĤÐµÐ»ÑĮ": 7559,
      "ĠÐ³Ð¾ÑĤÐµÐ»Ñĸ": 7560,
      "Ġbeschreiben": 7561,
      "ĠÐ¿Ð¾Ð´Ð¾ÑĢÐ¾Ð¶ÑĥÐ²Ð°ÑĤÐ¸": 7562,
      "ĠwÃ¼rdest": 7563,
      "mÃ¤ÃŁig": 7564,
      "Ġ....................................................................................": 7565,
      "ferd": 7566,
      "obachten": 7567,
      "ĠQu": 7568,
      "Ġfesten": 7569,
      "Ġempfehlen": 7570,
      "Ð¸Ð»Ð°ÑĤÐ¸": 7571,
      "Ð¸Ð´ÐµÐ½ÑĨÑĸÑı": 7572,
      "ÐµÐ½Ð´ÑĥÐ²Ð°ÑĤÐ¸": 7573,
      "Ð¼ÑĸÑħÐ°ÑĤÐ¸ÑģÑı": 7574,
      "ĠÐ·Ð´Ð¾ÑĢÐ¾Ð²": 7575,
      "ĠÐ·Ð´Ð¾Ð±ÑĥÐ²Ð°ÑĤÐ¸": 7576,
      "ĠÐ·Ð±ÑĸÑĢ": 7577,
      "ĠÑģÐ²ÑĸÑĤÑĥ": 7578,
      "ĠÑģÐ²ÑĸÑĤÐ¾Ð²Ð°": 7579,
      "arktis": 7580,
      "ĠFÃ¤llen": 7581,
      "ĠKarriere": 7582,
      "ĠÐ¾ÑĩÐ¸Ñī": 7583,
      "ĠÐ¾ÑĩÐµÐ²Ð¸Ð´Ð½Ð¾": 7584,
      "ĠÐ¿Ð¾ÑģÐ°Ð´Ð°": 7585,
      "ĠÐ¿Ð¾ÑģÐ¼ÑĸÑħÐ°ÑĤÐ¸ÑģÑı": 7586,
      "ĠÐ¿Ð¾ÑĹÐ´Ðµ": 7587,
      "ĠÐ¿Ð¾ÑĹÑħÐ°Ð²": 7588,
      "ĠÐ±Ð°Ð½Ðº": 7589,
      "Ġfindet": 7590,
      "ĠÑĸÐ½ÑĤÐµÑĢÐ½ÐµÑĤÑĸ": 7591,
      "Ġverlassen": 7592,
      "ĠLebensmittel": 7593,
      "versorgen": 7594,
      "brauchsfÃ¤": 7595,
      "Ġbeginnen": 7596,
      "ultat": 7597,
      "ĠÑĢÐ¾Ð·Ð¿Ð¾ÑĢ": 7598,
      "Ġanderer": 7599,
      "ĠÐ¿ÑĢÐ¾Ð¿Ð¾Ð·Ð¸ÑĨÑĸÑİ": 7600,
      "072": 7601,
      "367": 7602,
      "501": 7603,
      "Begegnungen": 7604,
      "Ġindirekter": 7605,
      "Ð½Ð¾Ð¼Ð°Ð½ÑĸÑĤÐ½Ð¸Ð¹": 7606,
      "ÑıÐ·ÐºÐ¾Ð²Ð¾": 7607,
      "Ð°Ð»Ð¸ÑģÑı": 7608,
      "stÃ¼rzt": 7609,
      "ĠÐ¿Ð¾Ð¼ÑĢÑĸÑıÑĤÐ¸": 7610,
      "ĠÐ¿Ð¾Ð¿ÑĥÐ»ÑıÑĢÐ½Ð¸Ð¹": 7611,
      "ĠÐ´ÑĸÑĶÑĤÐ°": 7612,
      "ĠÐ´Ð¾Ð´Ð°ÑĤÐºÐ¾Ð²Ñĸ": 7613,
      "ĠÐ½Ð¾Ð²Ð¸Ñħ": 7614,
      "ĠÐ½Ð¾Ð²Ð¸Ð¼Ð¸": 7615,
      "ĠÑģÐ¼Ð°ÑĩÐ½Ð¸Ð¹": 7616,
      "ĠÑģÐ¼Ð°ÑĩÐ½Ð¾": 7617,
      "ĠAufklÃ¤r": 7618,
      "ĠBlumen": 7619,
      "ĠÑģÑĤÑĢÐ°Ð²Ð°": 7620,
      "ĠÑĥÑĩÐ¾ÑĢÐ°": 7621,
      "ĠHerr": 7622,
      "ĠHerren": 7623,
      "ĠÐ¾Ð²Ð¾ÑĩÑĸÐ²": 7624,
      "Ð¾Ð»Ð¸Ð½ÑģÑĮÐºÐ¸Ð¹": 7625,
      "ĠÐ·Ð°ÑħÐ¸Ñī": 7626,
      "Ġaufgestanden": 7627,
      "ĠSubjekts": 7628,
      "ĠÐ½Ð°ÑĢÐ¾Ð´Ð½Ð°": 7629,
      "ĠÐ½Ð°ÑĪÐ¾Ð³Ð¾": 7630,
      "ĠÐ½Ð°ÑĪÐ¸Ð¼Ð¸": 7631,
      "ĠÑģÐ¿ÑĸÐ²Ð°ÑİÑĤÑĮ": 7632,
      "Ġtrennbar": 7633,
      "ĠÐ²Ð¸Ð¿Ð°Ð´ÐºÐ¾Ð²Ð¾": 7634,
      "junktionen": 7635,
      "Ð²Ð°Ð¶Ð°ÑİÑĩÐ¸": 7636,
      "ĠOrdnen": 7637,
      "handelte": 7638,
      "ĠÐºÐ°ÑĦÐµ": 7639,
      "steigern": 7640,
      "ĠWohnungstÃ¼r": 7641,
      "373": 7642,
      "4060": 7643,
      "Sudan": 7644,
      "ionen": 7645,
      "sonst": 7646,
      "waii": 7647,
      "wakei": 7648,
      "weren": 7649,
      "ÐŁÐķ": 7650,
      "ÐŁÐ°ÑģÐ¸Ðº": 7651,
      "ĠÃ¼bern": 7652,
      "ĠÃ¼brig": 7653,
      "ĠÐĩÐ¹": 7654,
      "ĠÐĵÑĢÐ¾ÑĪ": 7655,
      "ÑĢÐ¾Ð·ÑĥÐ¼": 7656,
      "ÑĢÐ¾Ð·Ð²Ð°Ð¶Ð°ÑĤÐ¸ÑģÑı": 7657,
      "ÑĥÐ»ÑĮÑĤÐ°ÑĤ": 7658,
      "ÐºÑĢÐ¸ÑĩÐ°ÑĤÐ¸": 7659,
      "ĠÐ¿ÑĢÐµÐ·ÐµÐ½ÑĤ": 7660,
      "aschinen": 7661,
      "ĠÑģÐ¼ÑĸÑĤÑĤÑı": 7662,
      "ĠgemÃ¼tlich": 7663,
      "ĠAktivsatzes": 7664,
      "ĠÐ·Ð°Ð³Ð°Ð´": 7665,
      "ĠÐ·Ð°Ð³Ð¾Ð»Ð¾Ð²": 7666,
      "ĠHaben": 7667,
      "ĠHawaii": 7668,
      "ĠÐºÐ»Ð°Ð²": 7669,
      "ĠÐºÐ°Ð²Ð¸": 7670,
      "ĠÐ·Ð°Ð¼Ð¾Ð²Ð¸ÑĤÐ¸": 7671,
      "ĠGemÃ¤lde": 7672,
      "ĠÑģÐ¿ÐµÑĨÑĸÐ°Ð»ÑĸÑģÑĤ": 7673,
      "begriffen": 7674,
      "istenz": 7675,
      "ĠWunder": 7676,
      "ĠLiebes": 7677,
      "ĠÑĢÐ¾ÐºÑĥ": 7678,
      "ĠÐ¾ÑģÐ¾Ð±Ð¸ÑģÑĤ": 7679,
      "ĠOper": 7680,
      "ĠOpern": 7681,
      "ĠOpfer": 7682,
      "ĠÑħÐ¾ÑĤÑĸÐ»Ð¸": 7683,
      "ĠÐ²Ð¸Ð±ÑĸÑĢ": 7684,
      "ĠÐ²Ð¸Ð±ÑĢÐ°ÑĤÐ¸": 7685,
      "ĠÐ¿ÑĢÐ¾ÑĦÐµÑģ": 7686,
      "ĠabgestÃ¼rzt": 7687,
      "langsam": 7688,
      "ĠFlughafen": 7689,
      "ĠÐ¾Ð´ÑıÐ³Ð°ÑĤÐ¸ÑģÑı": 7690,
      "ografisch": 7691,
      "ografieren": 7692,
      "ĠÑĢÑĸÐ·Ð½Ñĸ": 7693,
      "ĠÑĢÑĸÐ·Ð½Ð¾Ð¼Ð°Ð½ÑĸÑĤÐ½Ð¸Ð¹": 7694,
      "ĠÐ·Ð°ÑĢÐ¿Ð»Ð°ÑĤÐ¸": 7695,
      "Fachzeitschrift": 7696,
      "____": 7697,
      "dirigent": 7698,
      "icky": 7699,
      "itzenklasse": 7700,
      "mmung": 7701,
      "sant": 7702,
      "treten": 7703,
      "trennbare": 7704,
      "ÐĿÑĸÐ¼Ðµ": 7705,
      "Ġ=>": 7706,
      "ÑĩÑĩÐ¸Ð½Ð¾Ñİ": 7707,
      "ĠÐ¿Ð¸ÑģÐ°ÑĤÐ¸": 7708,
      "ĠÐ¿Ð¾Ð±Ð»Ð¸Ð·": 7709,
      "ĠÐ¿Ð¾Ð±Ð°ÑĩÐ¸ÑĤÐ¸": 7710,
      "ĠÐ·Ð¼ÑĸÑı": 7711,
      "ĠÐ·Ð¼ÐµÐ½ÑĪ": 7712,
      "ĠÐ·Ð³ÑĸÐ´Ð½Ð¾": 7713,
      "ĠÐ·ÑĢÐ¾Ð±Ð¸ÑĤÐ¸": 7714,
      "ĠÐ½Ð°Ð¿Ð°Ð´": 7715,
      "ĠÑģÐ¾ÑĨÑĸ": 7716,
      "ĠÐ²ÑĩÐ¾ÑĢÐ°": 7717,
      "ĠÐ²ÑĩÐ¸ÑĤÐµÐ»ÑĮ": 7718,
      "ĠÐ²Ð¿ÑĸÐ·Ð½Ð°": 7719,
      "ĠÐ²Ð·ÑĥÑĤÑĤÑı": 7720,
      "ĠÐ²ÑĸÐºÐ½Ð¾": 7721,
      "ĠÐ²ÑĸÐºÐ½Ð¾Ð¼": 7722,
      "ĠÐ²Ð°Ð¶Ð»Ð¸Ð²Ñĸ": 7723,
      "ĠÐ²ÑĸÑĤÐ°ÑĤÐ¸": 7724,
      "ĠÐ²ÑĸÑĤÐ°Ñİ": 7725,
      "ĠÐ²ÑĸÑĤÐ°Ð¼ÑĸÐ½": 7726,
      "Ġweggenommen": 7727,
      "ĠÐ½ÐµÐ²ÐµÐ»Ð¸Ðº": 7728,
      "Ġbereits": 7729,
      "ĠBade": 7730,
      "schneiden": 7731,
      "ÑĨÑĸÐ¹Ð½Ð°": 7732,
      "ĠHilfe": 7733,
      "ĠKannst": 7734,
      "ĠÐ¾ÑĦÑĸÑĨÑĸ": 7735,
      "ĠMonat": 7736,
      "ĠMonats": 7737,
      "ĠMÃ¤rchen": 7738,
      "ĠGegenwart": 7739,
      "Ġgerufen": 7740,
      "ĠTeilzeit": 7741,
      "ĠPfeil": 7742,
      "ĠPolitik": 7743,
      "Ġinteressieren": 7744,
      "Ġinteressiert": 7745,
      "Ġinteressant": 7746,
      "ĠArbeitsverhÃ¤ltnis": 7747,
      "ĠÑģÐ¿ÑĸÐ»ÐºÐ°": 7748,
      "ĠÑģÐ¿Ð¾ÑĢÑĤÑĥ": 7749,
      "ĠÑģÐ¿Ð¾ÑĢÑĤÐ·Ð°Ð»": 7750,
      "beginnt": 7751,
      "Ġferngesehen": 7752,
      "Ð¿ÐµÑĢÑĤ": 7753,
      "ĠÐ´ÑĢÑĥÐ·ÑĸÐ²": 7754,
      "ĠPartnerschaft": 7755,
      "ĠÐ·Ð°Ð¿ÑĢÐ¾ÑĪ": 7756,
      "Ġherr": 7757,
      "Ġheraus": 7758,
      "ĠÐ³Ð¾ÑĢÐ´Ð¸ÑĤÐ¸ÑģÑı": 7759,
      "ĠÐ±ÐµÐ·Ð¿ÐµÐºÐ°": 7760,
      "Ã¶ffnen": 7761,
      "ĠVerwand": 7762,
      "ĠÐ»ÐµÐºÑģÐ¸ÑĩÐ½Ð¸Ð¹": 7763,
      "ĠÐ»Ð¾ÑĤÐµÑĢÐµÑĹ": 7764,
      "ĠÑħÐ²Ð¾ÑĢÐ¸Ð¹": 7765,
      "ĠÑħÐ²Ð¾ÑĢÐ¾Ð±Ð¸": 7766,
      "ĠÐ´ÑĥÐ¼Ð°ÑİÑĤÑĮ": 7767,
      "ĠÐµÐºÑģÐ¿ÐµÑĢÑĤ": 7768,
      "ĠÐµÐºÐ¾Ð½Ð¾Ð¼ÑĸÐºÐ°": 7769,
      "ĠÐºÐ¾Ð»ÐµÐ³Ð¸": 7770,
      "ĠĠĠĠĠĠĠĠĠĠĠĠĠĠĠĠĠĠĠĠĠĠĠĠĠĠĠĠĠĠĠĠ": 7771,
      "Ġbestimmt": 7772,
      "Ġbestimmten": 7773,
      "ĠÑģÐ»ÑĥÐ¶Ð±": 7774,
      "Deutschland": 7775,
      "MenÃ¼": 7776,
      "ahara": 7777,
      "ablauf": 7778,
      "ablesen": 7779,
      "lÃ¶sen": 7780,
      "lÃ¶tzlich": 7781,
      "pass": 7782,
      "passieren": 7783,
      "qualitÃ¤t": 7784,
      "vereinbaren": 7785,
      "wÃ¤hlen": 7786,
      "weglassen": 7787,
      "Ð¢Ð¾Ð±Ñĸ": 7788,
      "Ð¢Ð°Ð±Ð»Ð¸": 7789,
      "Ð£ÐĶÐļ": 7790,
      "ÐłÐķ": 7791,
      "Ġeigenen": 7792,
      "Ġeigenes": 7793,
      "ĠÐłÐµÐºÐ¾Ð¼": 7794,
      "ĠÐ¿ÐµÑĢÐµÐ½Ð¾ÑģÐ¸ÑĤÐ¸": 7795,
      "ĠÐ¿Ð¾Ð»ÑĸÑĤÐ¸Ðº": 7796,
      "ĠInsekten": 7797,
      "ĠÐ´Ð²ÑĸÑĩÑĸ": 7798,
      "ĠÐ´Ð¾ÐºÑĥÐ¼ÐµÐ½ÑĤ": 7799,
      "aschengeld": 7800,
      "ĠÐ¼Ð¾ÑĹÐ¹": 7801,
      "ĠÐ¼ÑĥÑģÐ¸ÑĪ": 7802,
      "ĠÐ·Ð½Ð¸Ð¶ÐºÐ¸": 7803,
      "ĠÐ·ÑĥÑģÑĤÑĢÑĸÑĩÑĸ": 7804,
      "ĠÐ·ÑĥÑģÑĤÑĢÑĸÑĩÐ°ÑĶÐ¼Ð¾": 7805,
      "ĠÐ²Ð¼ÑĸÑİ": 7806,
      "ĠÐ²Ð°ÑĢÑĤÐ¾": 7807,
      "ĠÐ²Ð°ÑĢÑĤÑĸÑģÑĤÑĮ": 7808,
      "ĠDemo": 7809,
      "ĠÐ½ÐµÐ¿Ð¾ÑĢÑĥÑĪ": 7810,
      "ĠÐ½ÐµÐ·Ð²Ð°Ð¶Ð°ÑİÑĩÐ¸": 7811,
      "Ð¼ÐµÑĢÐ·Ð°ÑĤÐ¸": 7812,
      "Ġbadet": 7813,
      "Ġbackt": 7814,
      "ĠSonne": 7815,
      "ĠÑĥÑģÐ¿ÑĸÑĪ": 7816,
      "ĠÑĥÑģÐ¿ÑĸÑħ": 7817,
      "ĠÐ¿ÑĢÐ¸Ð½Ð¾ÑģÐ¸ÑĤÐ¸": 7818,
      "ĠÐ¿ÑĢÐ¾ÑĤÐµ": 7819,
      "ĠÑĩÐ¸ÑĤÐ°ÑĤÐ¸": 7820,
      "ĠÑĩÐ¸ÑģÑĤÐ¸ÑĤÐ¸": 7821,
      "ĠÑĩÐ¸ÑģÑĤÐ¸Ð¹": 7822,
      "ĠFranzÃ¶s": 7823,
      "ĠFormen": 7824,
      "ĠKranken": 7825,
      "ĠKrankheit": 7826,
      "ĠKopfhÃ¶rer": 7827,
      "ĠÐºÑĢÐ°ÑīÐµ": 7828,
      "ĠÐºÑĢÐ°Ð´ÑĸÐ¶": 7829,
      "ĠGastfreund": 7830,
      "ĠTraum": 7831,
      "ĠTraumpartner": 7832,
      "ĠTouristen": 7833,
      "ĠerhÃ¶ht": 7834,
      "Ġteilnehmen": 7835,
      "ĠÐ¼ÑĸÑģÑĤÐ¸ÑĤÐ¸ÑģÑı": 7836,
      "itteln": 7837,
      "sprang": 7838,
      "ĠVollzeit": 7839,
      "ĠVollverb": 7840,
      "ĠRespekt": 7841,
      "ĠResultat": 7842,
      "raktik": 7843,
      "ĠElbe": 7844,
      "ĠEntfÃ¼hrung": 7845,
      "ĠÑĢÐ¸Ð½ÐºÑĥ": 7846,
      "ĠÐ°Ð²ÑĤÐ¾Ð±ÑĥÑģ": 7847,
      "ĠÐ¿ÐµÑĢÐµÐ¼Ð¾Ð¶": 7848,
      "ĠÐ¿ÐµÑĢÐµÐ²ÑĸÑĢÑıÑĤÐ¸": 7849,
      "ĠÐ¿ÐµÑĢÐµÐ²ÑĸÑĢÐ¸Ð»Ð¸": 7850,
      "hinterlassen": 7851,
      "Ġstudieren": 7852,
      "Ġstudiert": 7853,
      "ĠÐ²ÐµÐ»Ð¸ÐºÐ¸Ð¹": 7854,
      "ĠÐºÐ¾Ð¼Ð°ÑħÐ¸": 7855,
      "Ġpassende": 7856,
      "ĠÑģÐ²Ð¾ÑĹÐ¼Ð¸": 7857,
      "freundlich": 7858,
      "ĠUnterrichtsst": 7859,
      "ĠÐŀÐ±Ð³Ð¾Ð²Ð¾ÑĢÐµÐ½Ð½Ñı": 7860,
      "ĠÑģÐµÑĢÐ²ÑĸÑģ": 7861,
      "ĠÐ¿ÑĢÐ¾Ð´ÑĥÐºÑĤ": 7862,
      "ĠÐ¿ÑĢÐ¾Ð´ÑĥÐºÑĤÐ¸": 7863,
      "ĠÐ¿ÑĢÐµÐ´ÑģÑĤÐ°Ð²Ð»ÑıÑĤÐ¸": 7864,
      "ĠÐ»ÑİÐ´ÐµÐ¹": 7865,
      "ÑĢÐ¾Ð±ÑĸÑĤÐ½Ð¸ÐºÐ¸": 7866,
      "ĠÐ´ÐµÑĤÐµÐºÑĤÐ¸Ð²": 7867,
      "ĠÐ´Ð¸ÑĢÐ¸Ð³ÑĥÐ²Ð°ÑĤÐ¸": 7868,
      "aktfreudig": 7869,
      "brachte": 7870,
      "fuer": 7871,
      "fuhr": 7872,
      "fernsehen": 7873,
      "gruppe": 7874,
      "kÃ¤mpfen": 7875,
      "mÃ¶bel": 7876,
      "mÃ¶chten": 7877,
      "putt": 7878,
      "prÃ¼fen": 7879,
      "plant": 7880,
      "wissenschaft": 7881,
      "ÐŀÐĴÐĲ": 7882,
      "Ġ...:": 7883,
      "ÑıÐ½ÑģÑĮÐºÐ¸Ð¹": 7884,
      "regierung": 7885,
      "rechner": 7886,
      "ĠÐ¿Ð¾Ð¶ÐµÑĢÑĤÐ²": 7887,
      "ĠÐ¿ÐµÑĢÑĪÐ¾Ð¼Ñĥ": 7888,
      "ĠÐ¿ÐµÑĢÑĪÐ¸Ð¹": 7889,
      "ĠÐ´Ð¾Ð²Ð³": 7890,
      "ĠÐ·ÐµÐ¼Ð»Ðµ": 7891,
      "gestaltung": 7892,
      "ĠÐ½Ð°Ð³ÑĢÑĸÐ²": 7893,
      "ĠÐ½Ð°Ð·Ð²Ð°": 7894,
      "ĠÐ½Ð°Ð·Ð°Ð´": 7895,
      "ĠÑģÐ¾Ð½ÑĨÐµ": 7896,
      "ĠÐ²Ð¸ÑģÑĤÐ°Ð²ÐºÐ¸": 7897,
      "ĠÐ²Ð²Ð°Ð¶Ð°ÑĤÐ¸ÑģÑı": 7898,
      "ĠÐ²Ð²Ð°Ð¶Ð°ÑİÑĤÑĮÑģÑı": 7899,
      "ĠÐ½ÐµÐ´Ð¾Ð»ÑĸÐº": 7900,
      "Ġmelden": 7901,
      "Ġmeldet": 7902,
      "Ð¼ÐµÑĤÐ¾Ð´Ð¸ÑĩÐ½Ð¸Ñħ": 7903,
      "ĠStimmung": 7904,
      "ĠÑģÑĤÐ¾Ð»Ð¾Ð²Ð°": 7905,
      "ĠÑĥÑģÑĸÑħ": 7906,
      "ĠÑĥÐ²Ð°Ð³Ñĥ": 7907,
      "Ã¤cheln": 7908,
      "scheinlich": 7909,
      "ĠÑĩÐ°Ð¹Ð½Ð¸Ðº": 7910,
      "Ġeinmaligen": 7911,
      "ĠHexen": 7912,
      "ĠÑĤÐ°Ð½ÑĨ": 7913,
      "ĠÑĤÐ²Ð°ÑĢÐ¸Ð½Ð¸": 7914,
      "ĠÑĤÐ²Ð°ÑĢÐ¸Ð½Ð°": 7915,
      "ĠÐºÐ¾Ð¼ÑĥÐ½ÑĸÐº": 7916,
      "ĠÐºÐ»Ð°ÑģÑĤÐ¸": 7917,
      "ĠÐºÑĢÐ°ÑĹÐ½Ð¸": 7918,
      "ĠÐºÐ½Ð¸Ð¶ÐºÐ¾Ð²Ð¸Ð¹": 7919,
      "Ġleicht": 7920,
      "ĠÐ·Ð°Ð´Ð¾Ð²Ð¾Ð»": 7921,
      "ĠMinuten": 7922,
      "ĠÐ¿Ð¾ÑĪÑĥÐº": 7923,
      "ĠÐ·Ð°ÐºÐ¾ÑħÐ°ÑĤÐ¸ÑģÑı": 7924,
      "ĠÐ·Ð°ÐºÐ¾ÑħÐ°Ð²ÑģÑı": 7925,
      "ĠZusammenleben": 7926,
      "ĠZusammenhang": 7927,
      "Ð³ÑĢÐ°Ð¼Ð°ÑĤÐ¸": 7928,
      "ĠÐ±Ð¾Ð»Ñı": 7929,
      "ĠÐ±ÐµÑĢÑĥÑĤÑĮ": 7930,
      "Ð·Ð°Ð±Ð¾ÑĢÐ¾Ð½": 7931,
      "bedingt": 7932,
      "bewusstsein": 7933,
      "ĠfrÃ¼h": 7934,
      "ĠfrÃ¼her": 7935,
      "ÑħÐ°ÑĥÑģ": 7936,
      "ĠSchlaf": 7937,
      "ĠSchlafstÃ¶r": 7938,
      "ĠÑĸÐ½ÑģÑĤÑĢÑĥÐºÑĨÑĸÑı": 7939,
      "ĠÑĸÐ½ÑģÑĤÑĢÑĥÐ¼ÐµÐ½ÑĤ": 7940,
      "rÃ¤uber": 7941,
      "ĠWissenschaft": 7942,
      "ĠÐ²ÑĸÐ´ÐºÑĢÐ¸ÑĤÐ¸": 7943,
      "Ġzusammengearbeit": 7944,
      "ĠLiteratur": 7945,
      "Ġausgegeben": 7946,
      "ĠausgedrÃ¼ckt": 7947,
      "ĠStaub": 7948,
      "ĠÐ»ÐµÐ³ÐºÐ¾": 7949,
      "ĠÑīÐ°ÑģÐ»Ð¸Ð²": 7950,
      "ĠÑīÐ°ÑģÑĤÑı": 7951,
      "Ġverschiedene": 7952,
      "ĠÐ²Ð¸ÑĢÑĸÑĪÑĥÐ²Ð°ÑĤÐ¸": 7953,
      "otterie": 7954,
      "Ð°Ð¹ÐºÑĢÐ°Ñī": 7955,
      "ĠÑĪÑĥÐºÐ°ÑĤÐ¸": 7956,
      "ĠBezugswort": 7957,
      "ĠÐ¿ÐµÑĢÐµÐºÐ»Ð°Ð´Ñĥ": 7958,
      "ĠÐ¿ÑĢÐ¸Ð±ÑĥÐ´Ðµ": 7959,
      "ĠÐ¿ÑĢÐ¸Ð±ÑĥÐ´ÑĥÑĤÑĮ": 7960,
      "ĠÑĨÑĸÐ½Ð°": 7961,
      "ĠÐ¡ÐºÐ°Ð¶": 7962,
      "ĠÐ¡ÐºÑĸÐ»ÑĮÐºÐ¸": 7963,
      "ĠÐ¿ÑĢÐ°ÑĨÐµÐ²Ð»Ð°ÑĪÑĤÑĥÐ²Ð°Ð½Ð½Ñı": 7964,
      "unterstreichen": 7965,
      "ĠÐ²ÑĸÐ´Ð¿Ð¾ÑĩÐ¸Ð²Ð°ÑĶ": 7966,
      "Ġreparieren": 7967,
      "ĠÑĤÑĢÐ°Ð¿Ð¸Ð»": 7968,
      "ĠÑĤÑĢÐ°Ð¿Ð»ÑıÑĤÐ¸ÑģÑı": 7969,
      "ĠÑĤÑĢÐ°Ð½ÑģÐ¿Ð¾ÑĢÑĤÐ½Ð¸Ð¹": 7970,
      "Ã¼bernehmen": 7971,
      "ĠEuropÃ¤ischen": 7972,
      "ĠÐ²Ð¸Ð³Ð»ÑıÐ´Ð°ÑĶ": 7973,
      "Unterricht": 7974,
      "ĠÐ·Ð½Ð°Ð¹Ð¾Ð¼Ð¸Ð¹": 7975,
      "Umweltschutz": 7976,
      "ĠÐ¾ÑĩÑĸÐºÑĥÑĶÐ¼Ð¾": 7977,
      "ĠÐ¾Ð¿Ð¸ÑĤÑĥÐ²Ð°Ð½Ð½Ñı": 7978,
      "ĠÐ¾Ð¿Ð¸ÑĤÑĥÐ²Ð°Ð½": 7979,
      "ĠÐ´Ð¾Ð¼Ð¾Ð²Ð»ÑıÑĤÐ¸ÑģÑı": 7980,
      "ĠKreuzung": 7981,
      "ĠnÃ¤chsten": 7982,
      "ĠÐ¿ÑĢÐ¾ÑĦÐµÑģÑĸÐ¹Ð½Ð°": 7983,
      "ĠÐ¿Ð¸ÑģÑĮÐ¼Ð¾Ð²Ð¸Ð¹": 7984,
      "ĠÑĤÑĥÑĢÐ¸ÑģÑĤÐ¸ÑĩÐ½Ð°": 7985,
      "ĠÑĤÑĥÑĢÐ¸ÑģÑĤÐ¸ÑĩÐ½Ðµ": 7986,
      "ĠÐºÐ¾Ð»ÑĮÐ¾ÑĢÐ¾Ð²Ð¸Ð¹": 7987,
      "ĠÐºÐ¾Ð½ÑĤÐ°ÐºÑĤÐ½Ð¸Ð¹": 7988,
      "ĠÑģÑĤÐ¾Ð¼Ð°ÑĤÐ¾Ð»Ð¾Ð³Ð°": 7989,
      "Antarktis": 7990,
      "BÃ¼ro": 7991,
      "Hauptsatz": 7992,
      "Karpaten": 7993,
      "Physi": 7994,
      "Person": 7995,
      "Tages": 7996,
      "adies": 7997,
      "hÃ¼ringer": 7998,
      "heiÃŁen": 7999
    },
    "merges": [
      [
        "Ġ",
        "Ð"
      ],
      [
        "Ð",
        "½"
      ],
      [
        "Ð",
        "¾"
      ],
      [
        "Ð",
        "µ"
      ],
      [
        "Ñ",
        "ı"
      ],
      [
        "Ñ",
        "ĸ"
      ],
      [
        "Ñ",
        "ģ"
      ],
      [
        "r",
        "e"
      ],
      [
        "Ð¾",
        "Ð"
      ],
      [
        "Ð",
        "°"
      ],
      [
        "o",
        "r"
      ],
      [
        "re",
        "c"
      ],
      [
        "or",
        "rec"
      ],
      [
        "orrec",
        "t"
      ],
      [
        "Ð",
        "¸"
      ],
      [
        "Ġ",
        "'"
      ],
      [
        "e",
        "n"
      ],
      [
        "c",
        "h"
      ],
      [
        "Ñ",
        "Ĥ"
      ],
      [
        "Ñ",
        "Ģ"
      ],
      [
        "Ðµ",
        "Ð½"
      ],
      [
        "Ð",
        "»"
      ],
      [
        "Ñ",
        "ĥ"
      ],
      [
        "Ġ",
        "C"
      ],
      [
        "â",
        "ľ"
      ],
      [
        "ĠC",
        "orrect"
      ],
      [
        "âľ",
        "ħ"
      ],
      [
        "ÐµÐ½",
        "Ð½"
      ],
      [
        "Ñ",
        "Ķ"
      ],
      [
        "e",
        "r"
      ],
      [
        "Ð",
        "¼"
      ],
      [
        "i",
        "n"
      ],
      [
        "ÐµÐ½Ð½",
        "Ñı"
      ],
      [
        "s",
        "t"
      ],
      [
        "Ġ",
        "I"
      ],
      [
        "Ð",
        "º"
      ],
      [
        "Ð¾",
        "Ñı"
      ],
      [
        "Ġ",
        "d"
      ],
      [
        "i",
        "e"
      ],
      [
        "Ñ",
        "ĩ"
      ],
      [
        "ĠÐ",
        "Ł"
      ],
      [
        "Ð¾Ð",
        "²"
      ],
      [
        "Ñģ",
        "Ð½"
      ],
      [
        "ĠÐ",
        "¿"
      ],
      [
        "ĠI",
        "n"
      ],
      [
        "Ð¾Ð",
        "¼"
      ],
      [
        "Ð¾Ñı",
        "ÑģÐ½"
      ],
      [
        "Ð¾ÑıÑģÐ½",
        "ÐµÐ½Ð½Ñı"
      ],
      [
        "c",
        "orrect"
      ],
      [
        "â",
        "Ŀ"
      ],
      [
        "ð",
        "Ł"
      ],
      [
        "ĵ",
        "Ŀ"
      ],
      [
        "ĠÐŁ",
        "Ð¾ÑıÑģÐ½ÐµÐ½Ð½Ñı"
      ],
      [
        "ĠIn",
        "correct"
      ],
      [
        "âĿ",
        "Į"
      ],
      [
        "ðŁ",
        "ĵĿ"
      ],
      [
        "ĠÐ",
        "´"
      ],
      [
        "Ð¸",
        "Ðº"
      ],
      [
        "Ð",
        "´"
      ],
      [
        "a",
        "s"
      ],
      [
        "a",
        "u"
      ],
      [
        "h",
        "a"
      ],
      [
        "Ñģ",
        "Ð»"
      ],
      [
        "ĠÐ",
        "¼"
      ],
      [
        "Ñ",
        "Į"
      ],
      [
        "Ð°",
        "ÑĶ"
      ],
      [
        "ĠÐ",
        "°"
      ],
      [
        "ĠÐ",
        "·"
      ],
      [
        "g",
        "e"
      ],
      [
        "Ġ",
        "i"
      ],
      [
        "ÑģÐ»",
        "Ð¾Ð²"
      ],
      [
        "Ð°",
        "Ð"
      ],
      [
        "ĠÐ",
        "½"
      ],
      [
        "'",
        "."
      ],
      [
        "Ġ",
        "Ñģ"
      ],
      [
        "Ñĸ",
        "ÑĶ"
      ],
      [
        "Ð¾Ð¼",
        "Ñĥ"
      ],
      [
        "ÑĸÑĶ",
        "ÑģÐ»Ð¾Ð²"
      ],
      [
        "ĠÐ",
        "²"
      ],
      [
        "ÑĸÑĶÑģÐ»Ð¾Ð²",
        "Ð¾"
      ],
      [
        "Ñĸ",
        "Ð½"
      ],
      [
        "e",
        "in"
      ],
      [
        "Ġ",
        "ha"
      ],
      [
        "Ð»",
        "Ñı"
      ],
      [
        "ÑĢ",
        "Ðµ"
      ],
      [
        "Ġ",
        "w"
      ],
      [
        "a",
        "n"
      ],
      [
        "Ġ",
        "D"
      ],
      [
        "e",
        "i"
      ],
      [
        "Ġ",
        "("
      ],
      [
        "Ġ",
        "s"
      ],
      [
        "ÑĤ",
        "Ð¸"
      ],
      [
        "h",
        "r"
      ],
      [
        "S",
        "ie"
      ],
      [
        "Ġ",
        "ge"
      ],
      [
        "Ġ",
        "k"
      ],
      [
        "ĠÐ½",
        "Ðµ"
      ],
      [
        "I",
        "ch"
      ],
      [
        "t",
        "i"
      ],
      [
        "Ġi",
        "st"
      ],
      [
        "ĠÐ¼",
        "Ð°ÑĶ"
      ],
      [
        "u",
        "t"
      ],
      [
        "ĠÐ",
        "£"
      ],
      [
        "'",
        ","
      ],
      [
        "au",
        "f"
      ],
      [
        "Ġ",
        "m"
      ],
      [
        "Ñĸ",
        "Ð´"
      ],
      [
        "Ð",
        "²"
      ],
      [
        "ĠÐ",
        "Ķ"
      ],
      [
        "Ġ",
        "A"
      ],
      [
        "ti",
        "v"
      ],
      [
        "Ð¾",
        "ÑĢ"
      ],
      [
        "Ñĩ",
        "ÐµÐ½Ð½Ñı"
      ],
      [
        "Ð¾Ð",
        "³"
      ],
      [
        "Ð¾Ð³",
        "Ð¾"
      ],
      [
        "Ñ",
        "Ĩ"
      ],
      [
        "Ð¼",
        "Ðµ"
      ],
      [
        "Ð»",
        "ÑĮ"
      ],
      [
        "ĠÐ´",
        "ÑĸÑĶÑģÐ»Ð¾Ð²Ð¾"
      ],
      [
        "Ġ",
        "b"
      ],
      [
        "Ġha",
        "b"
      ],
      [
        "i",
        "r"
      ],
      [
        "a",
        "tiv"
      ],
      [
        "Ð¼Ðµ",
        "ÑĤ"
      ],
      [
        "ĠÐ´",
        "Ð»Ñı"
      ],
      [
        "Ã",
        "¼"
      ],
      [
        "ĠÐ¿",
        "ÑĸÐ´"
      ],
      [
        "Ð¸",
        "Ð¼"
      ],
      [
        "Ð",
        "¹"
      ],
      [
        "ÐµÐ½Ð½",
        "Ð¸Ðº"
      ],
      [
        "Ð¼",
        "ÐµÐ½Ð½Ð¸Ðº"
      ],
      [
        "Ñ",
        "Ħ"
      ],
      [
        "e",
        "s"
      ],
      [
        "Ġ",
        "B"
      ],
      [
        "Ð",
        "¿"
      ],
      [
        "Ġ",
        "S"
      ],
      [
        "i",
        "ch"
      ],
      [
        "â",
        "Ģ"
      ],
      [
        "o",
        "m"
      ],
      [
        "Ð¾Ð",
        "´"
      ],
      [
        "Ġ",
        "ÑĢÐµ"
      ],
      [
        "ĠÑģ",
        "ÑĤ"
      ],
      [
        "a",
        "ch"
      ],
      [
        "Ġ",
        "n"
      ],
      [
        "Ġ",
        "âĢ"
      ],
      [
        "Ġ",
        "Ñĥ"
      ],
      [
        "E",
        "r"
      ],
      [
        "ei",
        "t"
      ],
      [
        "h",
        "en"
      ],
      [
        "ÑĤ",
        "Ð¸Ðº"
      ],
      [
        "ĠI",
        "ch"
      ],
      [
        "ĠÐ°",
        "ÑĢ"
      ],
      [
        "ĠÐ°ÑĢ",
        "ÑĤÐ¸Ðº"
      ],
      [
        "Ã",
        "¤"
      ],
      [
        "D",
        "as"
      ],
      [
        "s",
        "ch"
      ],
      [
        "ĠÐĶ",
        "ÑĸÑĶÑģÐ»Ð¾Ð²Ð¾"
      ],
      [
        "ÑĨ",
        "Ñĸ"
      ],
      [
        "ĠÐ¿ÑĸÐ´",
        "Ð¼ÐµÑĤ"
      ],
      [
        "ĠÐ¿",
        "ÑĢ"
      ],
      [
        "d",
        "e"
      ],
      [
        "ĠÐ·",
        "Ð°Ð"
      ],
      [
        "Ð¾Ñı",
        "ÑĤÐ¸"
      ],
      [
        "ĠÑģÑĤ",
        "Ð¾ÑıÑĤÐ¸"
      ],
      [
        "a",
        "r"
      ],
      [
        "W",
        "ir"
      ],
      [
        "h",
        "e"
      ],
      [
        "Ġ",
        "Ñĩ"
      ],
      [
        "u",
        "n"
      ],
      [
        "Ġ",
        "ein"
      ],
      [
        "Ġ",
        "H"
      ],
      [
        "er",
        "n"
      ],
      [
        "Ġ",
        "ÑĤ"
      ],
      [
        "Ġ",
        "F"
      ],
      [
        "Ġb",
        "in"
      ],
      [
        "Ġ",
        "K"
      ],
      [
        "ĠÑĢÐµ",
        "ÑĩÐµÐ½Ð½Ñı"
      ],
      [
        "g",
        "en"
      ],
      [
        "ÑĢ",
        "Ð¾Ð´"
      ],
      [
        "Ñģ",
        "Ñĸ"
      ],
      [
        "s",
        "e"
      ],
      [
        "ÑĢÐ¾Ð´",
        "Ñĥ"
      ],
      [
        "ĠÐ",
        "º"
      ],
      [
        "Ñ",
        "İ"
      ],
      [
        "Ġ",
        "l"
      ],
      [
        "'",
        ")"
      ],
      [
        "ĠÐ",
        "¾"
      ],
      [
        "Ð°Ð",
        "³"
      ],
      [
        "l",
        "l"
      ],
      [
        "Ð¸",
        "Ð½"
      ],
      [
        "ĠÐ²",
        "Ð¸Ð¼"
      ],
      [
        "Ð°Ð³",
        "Ð°ÑĶ"
      ],
      [
        "ĠÐ²Ð¸Ð¼",
        "Ð°Ð³Ð°ÑĶ"
      ],
      [
        "Ġd",
        "as"
      ],
      [
        "Ð¾Ð",
        "»"
      ],
      [
        "ĠÐ·",
        "Ð°"
      ],
      [
        "ĠÐ°ÑĢÑĤÐ¸Ðº",
        "Ð»ÑĮ"
      ],
      [
        "Ġd",
        "er"
      ],
      [
        "b",
        "en"
      ],
      [
        "f",
        "e"
      ],
      [
        "Ġ(",
        "'"
      ],
      [
        "Ġm",
        "Ã¼"
      ],
      [
        "Ġd",
        "en"
      ],
      [
        "Ð¸",
        "Ð¹"
      ],
      [
        "Ġ",
        "ÑĦ"
      ],
      [
        "I",
        "hr"
      ],
      [
        "Ñģ",
        "Ñı"
      ],
      [
        "Ð¾ÑĢ",
        "Ð¼"
      ],
      [
        "r",
        "u"
      ],
      [
        "ĠÑĦ",
        "Ð¾ÑĢÐ¼"
      ],
      [
        "s",
        "en"
      ],
      [
        "ĠÑĩ",
        "Ð°"
      ],
      [
        "Ðµ",
        "ÑĢÐµ"
      ],
      [
        "ĠÑĩÐ°",
        "ÑģÑĸ"
      ],
      [
        "om",
        "m"
      ],
      [
        "Ð»ÑĮ",
        "Ð½"
      ],
      [
        "e",
        "m"
      ],
      [
        "D",
        "u"
      ],
      [
        "Ġ",
        "M"
      ],
      [
        "Ġd",
        "ie"
      ],
      [
        "Ġ",
        "G"
      ],
      [
        "Ġ",
        "Sie"
      ],
      [
        "e",
        "ut"
      ],
      [
        "ĠmÃ¼",
        "de"
      ],
      [
        "ĠÐ¿",
        "Ð¾"
      ],
      [
        "Ð¸",
        "Ñģ"
      ],
      [
        "Ġ",
        "g"
      ],
      [
        "in",
        "d"
      ],
      [
        "Ð",
        "±"
      ],
      [
        "u",
        "s"
      ],
      [
        "ÑĤ",
        "ÑĮ"
      ],
      [
        "Ġ",
        "ÑĢÐ¾Ð´Ñĥ"
      ],
      [
        "ĠÐĶ",
        "Ð»Ñı"
      ],
      [
        "Ġn",
        "ach"
      ],
      [
        "t",
        "er"
      ],
      [
        "Ð°Ð",
        "²"
      ],
      [
        "Ġ",
        "T"
      ],
      [
        "Ñĥ",
        "ÑĶ"
      ],
      [
        "ÑĤÑĮ",
        "ÑģÑı"
      ],
      [
        "eut",
        "sch"
      ],
      [
        "Ġhab",
        "e"
      ],
      [
        "ĠD",
        "eutsch"
      ],
      [
        "Ġ",
        "auf"
      ],
      [
        "Ð°",
        "Ð¼"
      ],
      [
        "ĠÐº",
        "ÑĸÐ½"
      ],
      [
        "ĠÐºÑĸÐ½",
        "ÑĨÑĸ"
      ],
      [
        "an",
        "n"
      ],
      [
        "r",
        "o"
      ],
      [
        "Ð½",
        "ÑĮ"
      ],
      [
        "ĠÐ¿ÑĸÐ´Ð¼ÐµÑĤ",
        "Ð°"
      ],
      [
        "ĠâĢ",
        "Ķ"
      ],
      [
        "ch",
        "en"
      ],
      [
        "ĠÐ·Ð°",
        "Ðº"
      ],
      [
        "ÑĢ",
        "Ñĸ"
      ],
      [
        "k",
        "t"
      ],
      [
        "ĠÐ·Ð°Ðº",
        "ÑĸÐ½"
      ],
      [
        "ĠÐ·Ð°ÐºÑĸÐ½",
        "ÑĩÐµÐ½Ð½Ñı"
      ],
      [
        "Ġha",
        "t"
      ],
      [
        "Ġ'",
        "-"
      ],
      [
        "ĠÑģ",
        "Ð°Ð¼"
      ],
      [
        "ĠÑģÐ°Ð¼",
        "Ð¾Ð¼Ñĥ"
      ],
      [
        "b",
        "eit"
      ],
      [
        "ei",
        "l"
      ],
      [
        "ĠS",
        "u"
      ],
      [
        "ĠA",
        "r"
      ],
      [
        "ĠSu",
        "p"
      ],
      [
        "Ġl",
        "ern"
      ],
      [
        "ĠÐ½",
        "Ð°"
      ],
      [
        "d",
        "er"
      ],
      [
        "ÐµÑĢÐµ",
        "Ð´"
      ],
      [
        "Ð",
        "¶"
      ],
      [
        "Ġ",
        "P"
      ],
      [
        "Ġ",
        "Z"
      ],
      [
        "Ġd",
        "em"
      ],
      [
        "k",
        "auf"
      ],
      [
        "an",
        "k"
      ],
      [
        "Ð¸Ñģ",
        "ÑĤ"
      ],
      [
        "ich",
        "t"
      ],
      [
        "Ġhab",
        "en"
      ],
      [
        "ĠD",
        "as"
      ],
      [
        "re",
        "n"
      ],
      [
        "Ð",
        "³"
      ],
      [
        "Ð½",
        "Ð°"
      ],
      [
        "Ð²",
        "Ñĸ"
      ],
      [
        "Ġ",
        "in"
      ],
      [
        "Ð½",
        "Ð¸Ðº"
      ],
      [
        "ÑĢ",
        "Ñĥ"
      ],
      [
        "ĠAr",
        "beit"
      ],
      [
        "ĠÐ",
        "±"
      ],
      [
        "ie",
        "l"
      ],
      [
        "Ð½",
        "Ñı"
      ],
      [
        "ĠZ",
        "eit"
      ],
      [
        "Ġk",
        "auf"
      ],
      [
        "r",
        "au"
      ],
      [
        "u",
        "m"
      ],
      [
        "Ġge",
        "he"
      ],
      [
        "Ñ",
        "Ī"
      ],
      [
        "Ñĩ",
        "Ð¾Ð³Ð¾"
      ],
      [
        "t",
        "z"
      ],
      [
        "k",
        "k"
      ],
      [
        "Ġd",
        "u"
      ],
      [
        "ĠâĢ",
        "ĵ"
      ],
      [
        "Ð°",
        "Ð½"
      ],
      [
        "ĠA",
        "kk"
      ],
      [
        "e",
        "u"
      ],
      [
        "p",
        "e"
      ],
      [
        "Ð¾Ð²",
        "Ñĸ"
      ],
      [
        "ein",
        "e"
      ],
      [
        "ĠH",
        "au"
      ],
      [
        "Ð",
        "·"
      ],
      [
        "Ð¸Ð¹",
        "Ð¼ÐµÐ½Ð½Ð¸Ðº"
      ],
      [
        "us",
        "ativ"
      ],
      [
        "ĠAkk",
        "usativ"
      ],
      [
        "ĠÑģ",
        "Ð¿"
      ],
      [
        "Ġ",
        "er"
      ],
      [
        "b",
        "e"
      ],
      [
        "Ġ",
        "t"
      ],
      [
        "Ġk",
        "omm"
      ],
      [
        "Ġ",
        "f"
      ],
      [
        "Ġw",
        "eil"
      ],
      [
        "Ð½Ð°",
        "Ñĩ"
      ],
      [
        "ÐµÐ½Ð½",
        "Ñĸ"
      ],
      [
        "ĠD",
        "u"
      ],
      [
        "Ñ",
        "ħ"
      ],
      [
        "Ã",
        "¶"
      ],
      [
        "ĠÐ¿ÑĸÐ´Ð¼ÐµÑĤ",
        "Ð¾Ð¼"
      ],
      [
        "ĠD",
        "ativ"
      ],
      [
        "ĠÐ·Ð°Ð",
        "¹"
      ],
      [
        "Ñĸ",
        "Ñģ"
      ],
      [
        "ĠÐ·Ð°Ð¹",
        "Ð¼ÐµÐ½Ð½Ð¸Ðº"
      ],
      [
        "st",
        "e"
      ],
      [
        "ĠÑĤ",
        "Ðµ"
      ],
      [
        "h",
        "n"
      ],
      [
        "Ð¿",
        "Ðµ"
      ],
      [
        "i",
        "st"
      ],
      [
        "Ġs",
        "p"
      ],
      [
        "e",
        "st"
      ],
      [
        "Ð½",
        "Ðµ"
      ],
      [
        "ĠHau",
        "se"
      ],
[...]
