{
  "version": "1.0",
  "truncation": null,
  "padding": null,
  "added_tokens": [
    {
      "id": 0,
      "content": "<PAD>",
      "single_word": false,
      "lstrip": false,
      "rstrip": false,
      "normalized": false,
      "special": true
    },
    {
      "id": 1,
      "content": "<BOS>",
      "single_word": false,
      "lstrip": false,
      "rstrip": false,
      "normalized": false,
      "special": true
    },
    {
      "id": 2,
      "content": "<EOS>",
      "single_word": false,
      "lstrip": false,
      "rstrip": false,
      "normalized": false,
      "special": true
    },
    {
      "id": 3,
      "content": "<UNK>",
      "single_word": false,
      "lstrip": false,
      "rstrip": false,
      "normalized": false,
      "special": true
    }
  ],
  "normalizer": null,
  "pre_tokenizer": {
    "type": "ByteLevel",
    "add_prefix_space": false,
    "trim_offsets": true,
    "use_regex": true
  },
  "post_processor": {
    "type": "TemplateProcessing",
    "single": [
      {
        "Sequence": {
          "id": "A",
          "type_id": 0
        }
      }
    ],
    "pair": [
      {
        "Sequence": {
          "id": "A",
          "type_id": 0
        }
      },
      {
        "Sequence": {
          "id": "B",
          "type_id": 1
        }
      }
    ],
    "special_tokens": {}
  },
  "decoder": {
    "type": "ByteLevel",
    "add_prefix_space": true,
    "trim_offsets": true,
    "use_regex": true
  },
  "model": {
    "type": "BPE",
    "dropout": null,
    "unk_token": "<UNK>",
    "continuing_subword_prefix": null,
    "end_of_word_suffix": null,
    "fuse_unk": false,
    "byte_fallback": false,
    "ignore_merges": false,
    "vocab": {
      "<PAD>": 0,
      "<BOS>": 1,
      "<EOS>": 2,
      "<UNK>": 3,
      "!": 4,
      "%": 5,
      "'": 6,
      "(": 7,
      ")": 8,
      "*": 9,
      "+": 10,
      ",": 11,
      "-": 12,
      ".": 13,
      "/": 14,
      "0": 15,
      "1": 16,
      "2": 17,
      "3": 18,
      "4": 19,
      "5": 20,
      "6": 21,
      "7": 22,
      "8": 23,
      "9": 24,
      ":": 25,
      ";": 26,
      "=": 27,
      ">": 28,
      "?": 29,
      "A": 30,
      "B": 31,
      "C": 32,
      "D": 33,
      "E": 34,
      "F": 35,
      "G": 36,
      "H": 37,
      "I": 38,
      "J": 39,
      "K": 40,
      "L": 41,
      "M": 42,
      "N": 43,
      "O": 44,
      "P": 45,
      "Q": 46,
      "R": 47,
      "S": 48,
      "T": 49,
      "U": 50,
      "V": 51,
      "W": 52,
      "X": 53,
      "Y": 54,
      "Z": 55,
      "[": 56,
      "]": 57,
      "_": 58,
      "`": 59,
      "a": 60,
      "b": 61,
      "c": 62,
      "d": 63,
      "e": 64,
      "f": 65,
      "g": 66,
      "h": 67,
      "i": 68,
      "j": 69,
      "k": 70,
      "l": 71,
      "m": 72,
      "n": 73,
      "o": 74,
      "p": 75,
      "q": 76,
      "r": 77,
      "s": 78,
      "t": 79,
      "u": 80,
      "v": 81,
      "w": 82,
      "x": 83,
      "y": 84,
      "z": 85,
      "¡": 86,
      "¢": 87,
      "£": 88,
      "¤": 89,
      "¥": 90,
      "¦": 91,
      "§": 92,
      "¨": 93,
      "©": 94,
      "«": 95,
      "®": 96,
      "¯": 97,
      "°": 98,
      "±": 99,
      "²": 100,
      "³": 101,
      "´": 102,
      "µ": 103,
      "¶": 104,
      "·": 105,
      "¸": 106,
      "¹": 107,
      "º": 108,
      "»": 109,
      "¼": 110,
      "½": 111,
      "¾": 112,
      "¿": 113,
      "Â": 114,
      "Ã": 115,
      "Ð": 116,
      "Ñ": 117,
      "Ò": 118,
      "â": 119,
      "ï": 120,
      "ð": 121,
      "Ċ": 122,
      "Ġ": 123,
      "Ģ": 124,
      "ģ": 125,
      "Ĥ": 126,
      "ĥ": 127,
      "Ħ": 128,
      "ħ": 129,
      "Ĩ": 130,
      "ĩ": 131,
      "Ī": 132,
      "ī": 133,
      "Į": 134,
      "İ": 135,
      "ı": 136,
      "Ĳ": 137,
      "ĳ": 138,
      "Ĵ": 139,
      "ĵ": 140,
      "Ķ": 141,
      "ķ": 142,
      "ĸ": 143,
      "Ĺ": 144,
      "ĺ": 145,
      "Ļ": 146,
      "ļ": 147,
      "Ľ": 148,
      "ľ": 149,
      "Ŀ": 150,
      "ŀ": 151,
      "Ł": 152,
      "ł": 153,
      "ĠÐ": 154,
      "Ð½": 155,
      "Ð¾": 156,
      "Ðµ": 157,
      "Ñı": 158,
      "Ñĸ": 159,
      "Ñģ": 160,
      "Ð¾Ð": 161,
      "re": 162,
      "Ð°": 163,
      "or": 164,
      "rec": 165,
      "orrec": 166,
      "orrect": 167,
      "Ð¸": 168,
      "ch": 169,
      "Ġ'": 170,
      "en": 171,
      "ÑĤ": 172,
      "ÑĢ": 173,
      "ÐµÐ½": 174,
      "Ð»": 175,
      "Ñĥ": 176,
      "ĠC": 177,
      "âľ": 178,
      "ĠCorrect": 179,
      "âľħ": 180,
      "ÐµÐ½Ð½": 181,
      "ÑĶ": 182,
      "er": 183,
      "Ð¼": 184,
      "in": 185,
      "ÐµÐ½Ð½Ñı": 186,
      "st": 187,
      "ĠI": 188,
      "Ðº": 189,
      "Ð¾Ñı": 190,
      "Ñĩ": 191,
      "Ġd": 192,
      "ie": 193,
      "ĠÐŁ": 194,
      "Ð¾Ð²": 195,
      "ÑģÐ½": 196,
      "ĠÐ¿": 197,
      "Ð¾Ð¼": 198,
      "ĠIn": 199,
      "Ð¾ÑıÑģÐ½": 200,
      "Ð¾ÑıÑģÐ½ÐµÐ½Ð½Ñı": 201,
      "correct": 202,
      "âĿ": 203,
      "ðŁ": 204,
      "ĵĿ": 205,
      "ĠÐŁÐ¾ÑıÑģÐ½ÐµÐ½Ð½Ñı": 206,
      "ĠIncorrect": 207,
      "âĿĮ": 208,
      "ðŁĵĿ": 209,
      "ĠÐ´": 210,
      "Ð¸Ðº": 211,
      "as": 212,
      "Ð´": 213,
      "au": 214,
      "ÑģÐ»": 215,
      "ĠÐ¼": 216,
      "Ð°ÑĶ": 217,
      "ÑĮ": 218,
      "ha": 219,
      "ĠÐ°": 220,
      "ĠÐ·": 221,
      "Ġi": 222,
      "ÑģÐ»Ð¾Ð²": 223,
      "ge": 224,
      "Ð°Ð": 225,
      "ĠÐ½": 226,
      "'.": 227,
      "ĠÑģ": 228,
      "ÑĸÑĶ": 229,
      "Ð¾Ð¼Ñĥ": 230,
      "ÑĸÑĶÑģÐ»Ð¾Ð²": 231,
      "ĠÐ²": 232,
      "ÑĸÑĶÑģÐ»Ð¾Ð²Ð¾": 233,
      "ÑĸÐ½": 234,
      "ein": 235,
      "an": 236,
      "ÑĢÐµ": 237,
      "Ð»Ñı": 238,
      "Ġw": 239,
      "ĠD": 240,
      "Ġha": 241,
      "Ġs": 242,
      "ei": 243,
      "Ġ(": 244,
      "hr": 245,
      "ÑĤÐ¸": 246,
      "Ich": 247,
      "Ġge": 248,
      "Ġist": 249,
      "ti": 250,
      "Ġk": 251,
      "ĠÐ½Ðµ": 252,
      "Sie": 253,
      "ĠÐ¼Ð°ÑĶ": 254,
      "ut": 255,
      "ĠÐ£": 256,
      "',": 257,
      "Ġm": 258,
      "auf": 259,
      "ÑĸÐ´": 260,
      "Ð²": 261,
      "ĠÐĶ": 262,
      "tiv": 263,
      "ĠA": 264,
      "Ð¾ÑĢ": 265,
      "ÑĩÐµÐ½Ð½Ñı": 266,
      "Ð¾Ð³": 267,
      "Ð¾Ð³Ð¾": 268,
      "Ð¼Ðµ": 269,
      "ÑĨ": 270,
      "ĠÐ´ÑĸÑĶÑģÐ»Ð¾Ð²Ð¾": 271,
      "Ð»ÑĮ": 272,
      "Ġb": 273,
      "ir": 274,
      "Ð¼ÐµÑĤ": 275,
      "ativ": 276,
      "Ġhab": 277,
      "Ã¼": 278,
      "ĠÐ´Ð»Ñı": 279,
      "ĠÐ¿ÑĸÐ´": 280,
      "Ð¸Ð¼": 281,
      "Ð¹": 282,
      "ĠB": 283,
      "es": 284,
      "ÑĦ": 285,
      "ÐµÐ½Ð½Ð¸Ðº": 286,
      "Ð¼ÐµÐ½Ð½Ð¸Ðº": 287,
      "Ð¿": 288,
      "ĠÑĢÐµ": 289,
      "ĠS": 290,
      "ich": 291,
      "Ð¾Ð´": 292,
      "ĠÑģÑĤ": 293,
      "om": 294,
      "ach": 295,
      "âĢ": 296,
      "ĠÑĥ": 297,
      "Ġn": 298,
      "hen": 299,
      "eit": 300,
      "ĠâĢ": 301,
      "Er": 302,
      "sch": 303,
      "Ã¤": 304,
      "Das": 305,
      "ĠIch": 306,
      "ÑĤÐ¸Ðº": 307,
      "ÑĨÑĸ": 308,
      "ĠÐ¿ÑĢ": 309,
      "ĠÐ¿ÑĸÐ´Ð¼ÐµÑĤ": 310,
      "ĠÐĶÑĸÑĶÑģÐ»Ð¾Ð²Ð¾": 311,
      "de": 312,
      "ĠÐ°ÑĢ": 313,
      "ĠÐ°ÑĢÑĤÐ¸Ðº": 314,
      "ar": 315,
      "Ð¾ÑıÑĤÐ¸": 316,
      "ĠÑģÑĤÐ¾ÑıÑĤÐ¸": 317,
      "ern": 318,
      "ĠÐ·Ð°Ð": 319,
      "ĠÑĩ": 320,
      "Wir": 321,
      "ĠÑĤ": 322,
      "he": 323,
      "Ġein": 324,
      "ĠÑĢÐµÑĩÐµÐ½Ð½Ñı": 325,
      "ĠH": 326,
      "Ġbin": 327,
      "un": 328,
      "ÑģÑĸ": 329,
      "gen": 330,
      "ĠK": 331,
      "ĠF": 332,
      "se": 333,
      "ÑĢÐ¾Ð´": 334,
      "ĠÐº": 335,
      "ÑĢÐ¾Ð´Ñĥ": 336,
      "Ġl": 337,
      "Ñİ": 338,
      "ll": 339,
      "Ð¸Ð½": 340,
      "ĠÐ¾": 341,
      "Ð°Ð³": 342,
      "')": 343,
      "ĠÐ²Ð¸Ð¼": 344,
      "Ð°Ð³Ð°ÑĶ": 345,
      "ĠÐ²Ð¸Ð¼Ð°Ð³Ð°ÑĶ": 346,
      "Ð¾Ð»": 347,
      "Ġder": 348,
      "Ġdas": 349,
      "ĠÐ·Ð°": 350,
      "ĠmÃ¼": 351,
      "Ġ('": 352,
      "fe": 353,
      "Ġden": 354,
      "ÑģÑı": 355,
      "ru": 356,
      "Ihr": 357,
      "ĠÐ°ÑĢÑĤÐ¸ÐºÐ»ÑĮ": 358,
      "ben": 359,
      "eut": 360,
      "ĠÑĩÐ°": 361,
      "ĠÑĩÐ°ÑģÑĸ": 362,
      "Ð¸Ð¹": 363,
      "ÐµÑĢÐµ": 364,
      "ĠÑĦ": 365,
      "sen": 366,
      "Ð»ÑĮÐ½": 367,
      "Du": 368,
      "ĠG": 369,
      "Ð¾ÑĢÐ¼": 370,
      "ĠÑĦÐ¾ÑĢÐ¼": 371,
      "Ġdie": 372,
      "ĠmÃ¼de": 373,
      "omm": 374,
      "em": 375,
      "ĠM": 376,
      "ind": 377,
      "ĠÐ¿Ð¾": 378,
      "ÑģÑĤ": 379,
      "Ġg": 380,
      "ÑĤÑĮ": 381,
      "ĠSie": 382,
      "Ð±": 383,
      "Ð°Ð²": 384,
      "ĠÐĶÐ»Ñı": 385,
      "ĠÑĢÐ¾Ð´Ñĥ": 386,
      "ter": 387,
      "eutsch": 388,
      "ĠDeutsch": 389,
      "us": 390,
      "ÑĤÑĮÑģÑı": 391,
      "Ġnach": 392,
      "ĠT": 393,
      "ann": 394,
      "ÑĥÑĶ": 395,
      "Ð°Ð¼": 396,
      "beit": 397,
      "ĠÐºÑĸÐ½": 398,
      "ĠÐºÑĸÐ½ÑĨÑĸ": 399,
      "Ð½ÑĮ": 400,
      "ĠÐ·Ð°Ðº": 401,
      "ĠÐ·Ð°ÐºÑĸÐ½": 402,
      "Ġauf": 403,
      "ĠÐ·Ð°ÐºÑĸÐ½ÑĩÐµÐ½Ð½Ñı": 404,
      "Ġ'-": 405,
      "ÑĢÑĸ": 406,
      "ĠÑģÐ°Ð¼": 407,
      "ĠÑģÐ°Ð¼Ð¾Ð¼Ñĥ": 408,
      "Ġlern": 409,
      "ĠÐ¿ÑĸÐ´Ð¼ÐµÑĤÐ°": 410,
      "Ġhabe": 411,
      "ĠAr": 412,
      "kt": 413,
      "ĠâĢĶ": 414,
      "chen": 415,
      "ro": 416,
      "Ġhat": 417,
      "ĠÐ½Ð°": 418,
      "eil": 419,
      "ÐµÑĢÐµÐ´": 420,
      "ĠSu": 421,
      "ĠSup": 422,
      "Ð¶": 423,
      "ĠP": 424,
      "der": 425,
      "Ð¸ÑģÑĤ": 426,
      "Ġdem": 427,
      "ĠDas": 428,
      "Ð³": 429,
      "icht": 430,
      "ank": 431,
      "ĠArbeit": 432,
      "ÑĢÑĥ": 433,
      "Ð½Ð°": 434,
      "kauf": 435,
      "Ð½Ð¸Ðº": 436,
      "Ð²Ñĸ": 437,
      "ĠZ": 438,
      "ren": 439,
      "Ġin": 440,
      "Ġhaben": 441,
      "iel": 442,
      "um": 443,
      "ÑĪ": 444,
      "Ð½Ñı": 445,
      "ĠÐ±": 446,
      "rau": 447,
      "Ġkauf": 448,
      "ÑĩÐ¾Ð³Ð¾": 449,
      "Ð°Ð½": 450,
      "ĠHau": 451,
      "Ġgehe": 452,
      "ĠZeit": 453,
      "kk": 454,
      "Ġer": 455,
      "ĠâĢĵ": 456,
      "Ð¾Ð²Ñĸ": 457,
      "ĠDu": 458,
      "ĠAkk": 459,
      "be": 460,
      "eine": 461,
      "Ġt": 462,
      "rot": 463,
      "ĠÑģÐ¿": 464,
      "pe": 465,
      "usativ": 466,
      "ĠAkkusativ": 467,
      "Ã¶": 468,
      "ĠÐ¿ÑĸÐ´Ð¼ÐµÑĤÐ¾Ð¼": 469,
      "Ġf": 470,
      "Ñħ": 471,
      "Ð¸Ð¹Ð¼ÐµÐ½Ð½Ð¸Ðº": 472,
      "Ð½Ð°Ñĩ": 473,
      "Ġkomm": 474,
      "eu": 475,
      "ÐµÐ½Ð½Ñĸ": 476,
      "Ġdu": 477,
      "ĠÐ·Ð°Ð¹": 478,
      "Ġweil": 479,
      "Ð·": 480,
      "ĠÐ·Ð°Ð¹Ð¼ÐµÐ½Ð½Ð¸Ðº": 481,
      "est": 482,
      "ĠÑĤÐµ": 483,
      "ĠDativ": 484,
      "Ð¿Ðµ": 485,
      "Ġsch": 486,
      "Ð½Ðµ": 487,
      "Ġsp": 488,
      "che": 489,
      "Ġgut": 490,
      "ÑĢÑĸÑĪ": 491,
      "ste": 492,
      "Ð½ÑĮÐ¾Ð¼Ñĥ": 493,
      "ĠÑĤÐµÐ¿Ðµ": 494,
      "ÑĢÑĸÑĪÐ½ÑĮÐ¾Ð¼Ñĥ": 495,
      "ĠÑĤÐµÐ¿ÐµÑĢÑĸÑĪÐ½ÑĮÐ¾Ð¼Ñĥ": 496,
      "ĠÐ¼Ñĸ": 497,
      "ĠHause": 498,
      "hn": 499,
      "Ġan": 500,
      "ĠSch": 501,
      "ĠÐ¼ÑĸÑģ": 502,
      "ĠÐ´ÑĢÑĥ": 503,
      "cht": 504,
      "ĠÐ´ÑĢÑĥÐ³": 505,
      "Nom": 506,
      "ĠÐ¼ÑĸÑģÑĨÑĸ": 507,
      "ist": 508,
      "ĠÐ´ÑĢÑĥÐ³Ð¾Ð¼Ñĥ": 509,
      "inativ": 510,
      "Nominativ": 511,
      "Ġlernen": 512,
      "ĠÑĦÐ¾ÑĢÐ¼Ñĥ": 513,
      "Ð¸Ð»ÑĮÐ½": 514,
      "ĠÐ¿ÐµÑĢÐµÐ´": 515,
      "Ġwir": 516,
      "ĠÐŁÑĢ": 517,
      "ht": 518,
      "ĠÑĤÐ¾Ð¼Ñĥ": 519,
      "haben": 520,
      "ft": 521,
      "ĠÐ±Ñĥ": 522,
      "hren": 523,
      "ehr": 524,
      "et": 525,
      "ĠSuppe": 526,
      "Ð´Ð¸": 527,
      "den": 528,
      "ĠÐ±ÑĥÑĤÐ¸": 529,
      "Ð°ÑĤÐ¸": 530,
      "ĠÐ¿Ð¾ÑĤ": 531,
      "ĠÑĸÐ½": 532,
      "ĠEr": 533,
      "ÑĸÑĤÐ¸": 534,
      "ĠPar": 535,
      "Ġich": 536,
      "ĠÑĸÐ½ÑĦ": 537,
      "ÑĸÐ½ÑĸÑĤÐ¸": 538,
      "ĠÑĸÐ½ÑĦÑĸÐ½ÑĸÑĤÐ¸": 539,
      "ĠÑĸÐ½ÑĦÑĸÐ½ÑĸÑĤÐ¸Ð²Ñĸ": 540,
      "Ð¸Ð½Ñĥ": 541,
      "Ð°Ð»ÑĮÐ½": 542,
      "ĠÐ¼Ð¸Ð½Ñĥ": 543,
      "Ð»Ð¾Ð¼Ñĥ": 544,
      "ĠÐ¼Ð¸Ð½ÑĥÐ»Ð¾Ð¼Ñĥ": 545,
      "Ġhe": 546,
      "Ð¾Ð¿": 547,
      "itiv": 548,
      "Ð´Ð½": 549,
      "ĠÑĦÐ¾ÑĢÐ¼Ñĸ": 550,
      "ung": 551,
      "rÃ¤": 552,
      "Ġko": 553,
      "Ð°Ð²Ð¸Ð»ÑĮÐ½": 554,
      "ĠGen": 555,
      "ĠÑĸ": 556,
      "ÑģÐ½Ð¾Ð²": 557,
      "ĠGenitiv": 558,
      "ĠÐ¾ÑģÐ½Ð¾Ð²": 559,
      "ĠÐ¾ÑģÐ½Ð¾Ð²Ð½Ðµ": 560,
      "das": 561,
      "ĠÑĨ": 562,
      "ssen": 563,
      "ĠÐ¿Ð¾Ñĩ": 564,
      "egen": 565,
      "Ð¾Ð¿Ð¾Ð¼": 566,
      "Ð¸ÑĤ": 567,
      "ohn": 568,
      "Ð°Ð²Ð¸Ð»ÑĮÐ½Ð¾": 569,
      "ÑĸÑģÐ»": 570,
      "ÑĸÑģÐ»Ñı": 571,
      "ĠÐ²ÑĸÐ´": 572,
      "..": 573,
      "ĠW": 574,
      "die": 575,
      "enn": 576,
      "ÃŁ": 577,
      "ĠÐ²Ð¸Ðº": 578,
      "Ð¾ÑĢÐ¸ÑģÑĤ": 579,
      "PrÃ¤": 580,
      "Ã¶n": 581,
      "ĠÐ²Ð¸ÐºÐ¾ÑĢÐ¸ÑģÑĤ": 582,
      "Ð¾Ð²ÑĥÑĶ": 583,
      "ĠÐ²Ð¸ÐºÐ¾ÑĢÐ¸ÑģÑĤÐ¾Ð²ÑĥÑĶ": 584,
      "ÑĸÐ²": 585,
      "Ġhast": 586,
      "ĠÑĸÐ¼ÐµÐ½Ð½Ð¸Ðº": 587,
      "it": 588,
      "ĠNominativ": 589,
      "ĠÑģÐ»Ð¾Ð²": 590,
      "Ġz": 591,
      "').": 592,
      "ÑĢÑı": 593,
      "Ð²Ð¾ÑĢ": 594,
      "ĠÐ·Ð°Ð¿": 595,
      "rank": 596,
      "ÑĥÑĩ": 597,
      "ĠWir": 598,
      "rin": 599,
      "Ġsind": 600,
      "ĠÐ·Ñĸ": 601,
      "Ġdes": 602,
      "ĠÑĢÐµÑĩ": 603,
      "Ð½Ð¸ÐºÐ¾Ð¼": 604,
      "ĠÐ¿ÑĸÐ´ÑĢÑı": 605,
      "Ð¾Ð»ÑĥÑĩ": 606,
      "ĠÑģÐ¿Ð¾Ð»ÑĥÑĩ": 607,
      "Ð´Ð½Ð¾Ð¼Ñĥ": 608,
      "ĠÑĢÐµÑĩÐµÐ½Ð½Ñĸ": 609,
      "ĠÐ¿ÑĸÐ´ÑĢÑıÐ´Ð½Ð¾Ð¼Ñĥ": 610,
      "ĠÑģÐ¿Ð¾Ð»ÑĥÑĩÐ½Ð¸ÐºÐ¾Ð¼": 611,
      "Ġspiel": 612,
      "kauft": 613,
      "on": 614,
      "ĠKa": 615,
      "ĠIhr": 616,
      "utter": 617,
      "und": 618,
      "ĠÐ°ÑĢÑĤÐ¸ÐºÐ»Ñı": 619,
      "fen": 620,
      "ĠMutter": 621,
      "ĠÐ¶": 622,
      "ĠÐ·Ð°Ð²": 623,
      "Ġhabt": 624,
      "aus": 625,
      "Ġsie": 626,
      "Ð¶Ð´Ð¸": 627,
      "ĠÐ·Ð°Ð²Ð¶Ð´Ð¸": 628,
      "fel": 629,
      "al": 630,
      "ĠÐŁÑĢÐ¸Ð¹Ð¼ÐµÐ½Ð½Ð¸Ðº": 631,
      "ruder": 632,
      "Ġ-": 633,
      "dem": 634,
      "Ġgehen": 635,
      "ill": 636,
      "ĠÐ¶ÑĸÐ½": 637,
      "ÐºÐ°": 638,
      "Ð½Ð¾Ð³Ð¾": 639,
      "ĠÐ¶ÑĸÐ½Ð¾": 640,
      "Ġes": 641,
      "ĠÐ¶ÑĸÐ½Ð¾ÑĩÐ¾Ð³Ð¾": 642,
      "bl": 643,
      "ĠÐ´Ð¾Ð¿Ð¾Ð¼": 644,
      "ĠÐ¿ÑĢÐ°Ð²Ð¸Ð»ÑĮÐ½Ð¾": 645,
      "ester": 646,
      "wester": 647,
      "ĠFrau": 648,
      "all": 649,
      "Ð¾Ðº": 650,
      "du": 651,
      "sein": 652,
      "sehen": 653,
      "isch": 654,
      "ort": 655,
      "Ġim": 656,
      "Ð½Ð¸Ð¹": 657,
      "ÑİÐ²": 658,
      "'),": 659,
      "ĠU": 660,
      "Ġmeine": 661,
      "angen": 662,
      "Ġse": 663,
      "ĠBrot": 664,
      "Ð°ÑĶÑĤÑĮÑģÑı": 665,
      "uch": 666,
      "zi": 667,
      "Ġste": 668,
      "Ã¤hren": 669,
      "gangen": 670,
      "Ã¤hrend": 671,
      "ien": 672,
      "ĠÐļ": 673,
      "Ð¾Ð»Ð¸": 674,
      "ĠII": 675,
      "Ġkrank": 676,
      "Ġum": 677,
      "erfe": 678,
      "Ġnicht": 679,
      "erfekt": 680,
      "zip": 681,
      "tizip": 682,
      "Ð¾Ð±": 683,
      "ĠPartizip": 684,
      "acht": 685,
      "ĠÐļÐ¾Ð»Ð¸": 686,
      "Ġwenn": 687,
      "ĠÐ¿Ð¾ÑĩÐ¸Ð½": 688,
      "gessen": 689,
      "ĠAp": 690,
      "ĠTisch": 691,
      "ĠÐ¿Ð¾ÑĩÐ¸Ð½Ð°ÑĶÑĤÑĮÑģÑı": 692,
      "sich": 693,
      "Perfekt": 694,
      "ĠÐ¿ÑĢÐ¸Ðº": 695,
      "ĠÑĶ": 696,
      "Ð¼ÐµÑĤÐ½Ð¸Ðº": 697,
      "Ġ7": 698,
      "ĠÐ¿ÑĢÐ¸ÐºÐ¼ÐµÑĤÐ½Ð¸Ðº": 699,
      "Ð»ÑİÐ²": 700,
      "ĠUhr": 701,
      "ĠKind": 702,
      "erm": 703,
      "Ð¸ÑģÑĤÐ°Ð²": 704,
      "ÑĢÐµÐ¼": 705,
      "Ð°Ð½Ð¸Ð¼": 706,
      "ĠÐ¿ÑĢÐ¸ÑģÑĤÐ°Ð²": 707,
      "ĠÐ¿ÑĢÐ¸ÑģÑĤÐ°Ð²ÐºÐ°": 708,
      "ĠÐ²ÑĸÐ´Ð¾Ðº": 709,
      "Ð»ÑİÐ²Ð°Ð½Ð¸Ð¼": 710,
      "ÑĢÐµÐ¼Ð»ÑİÐ²Ð°Ð½Ð¸Ð¼": 711,
      "ĠÐ²ÑĸÐ´Ð¾ÐºÑĢÐµÐ¼Ð»ÑİÐ²Ð°Ð½Ð¸Ð¼": 712,
      "Ð¼ÑĸÐ½": 713,
      "Ġaus": 714,
      "ĠÐ·Ð¼ÑĸÐ½": 715,
      "ÑİÑĤÑĮÑģÑı": 716,
      "arkt": 717,
      "rink": 718,
      "Ġdass": 719,
      "ĠSuperm": 720,
      "ĠSupermarkt": 721,
      "uÃŁ": 722,
      "ĠBruder": 723,
      "ĠFuÃŁ": 724,
      "ĠL": 725,
      "ball": 726,
      "ĠÐ·Ð°Ð¹Ð¼ÐµÐ½Ð½Ð¸ÐºÐ°": 727,
      "ĠFuÃŁball": 728,
      "tw": 729,
      "hat": 730,
      "komm": 731,
      "ĠÑĩÐ¾Ð»": 732,
      "Ġsich": 733,
      "ĠÑĩÐ¾Ð»Ð¾Ð²Ñĸ": 734,
      "eid": 735,
      "twort": 736,
      "ihr": 737,
      "Ġwar": 738,
      "ffe": 739,
      "ĠÑĩÐ¾Ð»Ð¾Ð²ÑĸÑĩÐ¾Ð³Ð¾": 740,
      "Ð½ÑĮÐ¾Ð³Ð¾": 741,
      "ĠÑģÐµÑĢÐµÐ´": 742,
      "ĠKaffe": 743,
      "Ġausru": 744,
      "ĠBuch": 745,
      "ĠÑģÐµÑĢÐµÐ´Ð½ÑĮÐ¾Ð³Ð¾": 746,
      "ĠKaffee": 747,
      "ĠApfel": 748,
      "ĠSchwester": 749,
      "ier": 750,
      "rotz": 751,
      "ko": 752,
      "kaufen": 753,
      "Ġv": 754,
      "uto": 755,
      "ute": 756,
      "Ġgl": 757,
      "Ġheute": 758,
      "ĠAuto": 759,
      "Ġkochen": 760,
      "lern": 761,
      "Ġwas": 762,
      "sens": 763,
      "Ġfre": 764,
      "Ġwill": 765,
      "Ð¾Ð´Ð°Ð»ÑĮÐ½": 766,
      "PrÃ¤sens": 767,
      "Ð¾Ð±Ñĸ": 768,
      "ÑĸÐ¶": 769,
      "Ġkaufen": 770,
      "ĠÐºÐ¾ÑĢ": 771,
      "ÑĢÑĸÐ±": 772,
      "Ð½Ð°ÑĩÐµÐ½": 773,
      "erl": 774,
      "Ð½Ð°ÑĩÐµÐ½Ð¾Ð³Ð¾": 775,
      "ĠÐ¿Ð¾ÑĤÑĢÑĸÐ±": 776,
      "ĠÐºÐ¾ÑĢÐµÐ½": 777,
      "orgen": 778,
      "Ð¾ÑĤ": 779,
      "ÑģÐ¾Ð±Ñĸ": 780,
      "ÑĢÐµÐ±": 781,
      "kommen": 782,
      "Ġwegen": 783,
      "Ġgegangen": 784,
      "Ġkauft": 785,
      "Wo": 786,
      "ĠHung": 787,
      "ĠÐ¿Ð¾ÑĤÑĢÐµÐ±": 788,
      "ĠHunger": 789,
      "ag": 790,
      "ĠÐ¿Ð¾ÑĤÑĢÐµÐ±ÑĥÑĶ": 791,
      "Ð°Ð·": 792,
      "Ġmehr": 793,
      "Wann": 794,
      "ĠwÃ¤hrend": 795,
      "ĠÐ¿ÑĢÐ¸Ð¹Ð¼ÐµÐ½Ð½Ð¸Ðº": 796,
      ").": 797,
      "aube": 798,
      "Ġglaube": 799,
      "Ġzu": 800,
      "ĠÐ¾Ð·": 801,
      "ÑĸÐ¹": 802,
      "Ġgekauft": 803,
      "Ġbrau": 804,
      "ĠBerl": 805,
      "ĠBerlin": 806,
      "ĠÑĨÑĮ": 807,
      "Ð°Ð½Ð½Ñı": 808,
      "Ġwohn": 809,
      "ser": 810,
      "Ġihr": 811,
      "ĠÑĸÐ¼ÐµÐ½Ð½Ð¸ÐºÐ°": 812,
      "ĠÐ¿Ð¾ÑĤÑĢÑĸÐ±ÐµÐ½": 813,
      "ĠÑĨÑĮÐ¾Ð³Ð¾": 814,
      "rst": 815,
      "Ġlie": 816,
      "Am": 817,
      "asche": 818,
      "ĠDurst": 819,
      "Ġkein": 820,
      "uss": 821,
      "des": 822,
      "ĠÐ¿Ð¾Ð²": 823,
      "Ġgegessen": 824,
      "Ã¼r": 825,
      "zt": 826,
      "ĠÐ²Ð¸ÐºÐ¾ÑĢÐ¸ÑģÑĤÐ¾Ð²ÑĥÑĶÑĤÑĮÑģÑı": 827,
      "Ġtrink": 828,
      "te": 829,
      "ĠTasche": 830,
      "Ġschl": 831,
      "Ġneu": 832,
      "Ġspielt": 833,
      "ÑĮÐº": 834,
      "ÑĤÑĢ": 835,
      "Ð¼Ð¾": 836,
      "Ġkomme": 837,
      "Ġtrotz": 838,
      "Ġeine": 839,
      "bend": 840,
      "ÐºÐ°Ð·": 841,
      "ĠÑĨÐµ": 842,
      "am": 843,
      "ÑĥÐ¿": 844,
      "Ð¸Ñģ": 845,
      "ĠAbend": 846,
      "ĠÐ¿ÑĸÑģÐ»Ñı": 847,
      "ÑĤÑĢÐ¸Ð¼": 848,
      "ÐµÐ½Ñĸ": 849,
      "ĠÐ¿Ð¸ÑĤ": 850,
      "Ð¸ÑĤÐ°Ð½Ð½Ñı": 851,
      "Ġhel": 852,
      "Es": 853,
      "ÑĸÐº": 854,
      "Ð°Ð»ÑĮÐ½Ð¾Ð³Ð¾": 855,
      "ĠÑģÐ»Ð¾Ð²Ð°": 856,
      "ĠÐ·Ð°Ð¿Ð¸ÑĤÐ°Ð½Ð½Ñı": 857,
      "ĠÐ¿Ð¸ÑĤÐ°Ð»ÑĮÐ½Ð¾Ð³Ð¾": 858,
      "ĠÐ·Ð°Ð¿Ð¸ÑĤÐ°Ð½Ð½ÑıÑħ": 859,
      "sp": 860,
      "ĠÐŁÑĸÑģÐ»Ñı": 861,
      "ĠÐ¾ÑĤÑĢÐ¸Ð¼": 862,
      "ĠÐ¾ÑĤÑĢÐ¸Ð¼ÑĥÑĶ": 863,
      "Ġantwort": 864,
      "ĠÐ½Ñĸ": 865,
      "....": 866,
      "Ð°Ð±": 867,
      "ĠÐ·Ð½Ð°Ñĩ": 868,
      "ĠÐ·Ð½Ð°ÑĩÐµÐ½Ð½Ñĸ": 869,
      "il": 870,
      "rechen": 871,
      "ÑĨÑĮÐº": 872,
      "ĠÐ²Ð¸ÐºÐ¾ÑĢÐ¸ÑģÑĤÐ¾Ð²ÑĥÑĶÐ¼Ð¾": 873,
      "Ð¼ÐµÑĨÑĮÐº": 874,
      "ĠÐ·Ð²Ð¾ÑĢ": 875,
      "alt": 876,
      "Ð¾ÑĤÐ½Ð¾Ð³Ð¾": 877,
      "ĠÐ½ÑĸÐ¼ÐµÑĨÑĮÐº": 878,
      "ĠÐ·Ð²Ð¾ÑĢÐ¾ÑĤÐ½Ð¾Ð³Ð¾": 879,
      "ĠÑģÑĥ": 880,
      "ĠGes": 881,
      "),": 882,
      "mp": 883,
      "ĠÐ¿Ð¾ÑĢ": 884,
      "ĠÐ¼Ð°ÑĤÐ¸": 885,
      "Ð¿ÑĸÐ´": 886,
      "weil": 887,
      "Ð²ÑĸÐ¹": 888,
      "Ð½Ð½Ñı": 889,
      "Ð¿ÑĸÐ´Ð¼ÐµÑĤ": 890,
      "Ð¾Ð³Ð¾Ñİ": 891,
      "ÑģÑĸÐ²": 892,
      "ĠÑģÐ¿Ð¾": 893,
      "ĠÐ´Ð¾Ð¿Ð¾Ð¼Ð¾Ð³Ð¾Ñİ": 894,
      "mehr": 895,
      "Ð¾Ð·": 896,
      "ÑĤÐ²Ð¾ÑĢ": 897,
      "ÑĦÑĸÐº": 898,
      "ĠÑģÑĤÑĥÐ¿": 899,
      "ĠÐ¿Ð¾Ð²Ð¸Ð½": 900,
      "at": 901,
      "ĠÐ¼Ð¾Ð²Ñĸ": 902,
      "ĠÑĥÑĤÐ²Ð¾ÑĢ": 903,
      "ÑİÑİÑĤÑĮÑģÑı": 904,
      "Ð½ÑıÐ½Ð½Ñı": 905,
      "ÑĸÐ²Ð½ÑıÐ½Ð½Ñı": 906,
      "ĠÑģÐ»Ð¾Ð²Ð¾Ð¼": 907,
      "ĠÐ·Ð¼ÑĸÐ½Ð¸": 908,
      "ĠÐºÐ¾ÑĢÐµÐ½Ñı": 909,
      "Ð¸ÑģÐ²ÑĸÐ¹": 910,
      "Ð°Ð±Ð¾": 911,
      "ĠÐ½ÑĸÐ¼ÐµÑĨÑĮÐºÑĸÐ¹": 912,
      "ĠÑģÑĥÑĦÑĸÐº": 913,
      "ĠÐ¿Ð¾ÑĢÑĸÐ²Ð½ÑıÐ½Ð½Ñı": 914,
      "ĠÑģÑĤÑĥÐ¿ÐµÐ½Ñĸ": 915,
      "ĠÐ¿Ð¾Ð²Ð¸Ð½ÐµÐ½": 916,
      "ĠÑĥÑĤÐ²Ð¾ÑĢÑİÑİÑĤÑĮÑģÑı": 917,
      "Ð¸ÑģÐ²ÑĸÐ¹Ð½Ð¸Ð¹": 918,
      "ĠÑģÑĥÑĦÑĸÐºÑģÑĸÐ²": 919,
      "Imp": 920,
      "erativ": 921,
      "Ð¾Ð²Ð¾Ð¼Ñĥ": 922,
      "ĠÐ½Ð°ÐºÐ°Ð·": 923,
      "ĠÑģÐ¿Ð¾ÑģÐ¾Ð±Ñĸ": 924,
      "Imperativ": 925,
      "ĠÐ½Ð°ÐºÐ°Ð·Ð¾Ð²Ð¾Ð¼Ñĥ": 926,
      "oll": 927,
      "nicht": 928,
      "Ġun": 929,
      "erien": 930,
      "ĠFerien": 931,
      "Ð°ÑĤ": 932,
      "Ġseid": 933,
      "ĠGesicht": 934,
      "rufen": 935,
      "ĠschÃ¶n": 936,
      "ÐµÑĢÐµÑĩÐµÐ½Ð½Ñı": 937,
      "ĠÐ·Ð°Ð¿ÐµÑĢÐµÑĩÐµÐ½Ð½Ñı": 938,
      "ĠMann": 939,
      "Ã¶nn": 940,
      "ÐµÐ·": 941,
      "ieben": 942,
      "fa": 943,
      "Der": 944,
      "Die": 945,
      "ĠÐ¢": 946,
      "Ġgebl": 947,
      "Ġkann": 948,
      "Ġgeblieben": 949,
      "sind": 950,
      "Ġbist": 951,
      "and": 952,
      "Ã¼che": 953,
      "terit": 954,
      "teritum": 955,
      "ĠHund": 956,
      "ĠÑĤÐ°": 957,
      "Ġfreu": 958,
      "ino": 959,
      "ĠKÃ¼che": 960,
      "ĠKino": 961,
      "ĠV": 962,
      "Ġsprechen": 963,
      "?'": 964,
      "PrÃ¤teritum": 965,
      "ĠÐ°Ð±": 966,
      "ĠPark": 967,
      "ĠÐ°Ð±Ð¾": 968,
      "ne": 969,
      "Ġkalt": 970,
      "habe": 971,
      "uchen": 972,
      "ĠÐ½ÐµÐ¾Ð·": 973,
      "ĠÐ½ÐµÐ¾Ð·Ð½Ð°ÑĩÐµÐ½Ð¾Ð³Ð¾": 974,
      "ĠWas": 975,
      "lernen": 976,
      "ĠÐ¢Ð¾Ð¼Ñĥ": 977,
      "gehen": 978,
      "gt": 979,
      "ÑĥÐ²": 980,
      "Ġmuss": 981,
      "ĠFre": 982,
      "ke": 983,
      "ur": 984,
      "kein": 985,
      "Ġh": 986,
      "Ġeu": 987,
      "Ã¤ft": 988,
      "Ġsehen": 989,
      "ĠR": 990,
      "ĠBank": 991,
      "ĠÐ´Ð¾Ð¿Ð¾Ð¼ÑĸÐ¶": 992,
      "ĠÐ´Ð¾Ð¿Ð¾Ð¼ÑĸÐ¶Ð½Ð¾Ð³Ð¾": 993,
      "Ġgekommen": 994,
      "fahren": 995,
      "spiel": 996,
      "Ġschne": 997,
      "Ġschnell": 998,
      "is": 999,
      "ĠÑĢÑĥ": 1000,
      "Ġmorgen": 1001,
      "arbeit": 1002,
      "ĠÐ´ÑĸÑĶÑģÐ»Ð¾Ð²": 1003,
      "ĠÐ¼Ð¾Ð´Ð°Ð»ÑĮÐ½": 1004,
      "ĠÑĢÐµÑĩÐµÐ½Ð½ÑıÑħ": 1005,
      "ĠÐ¾Ð·Ð½Ð°Ñĩ": 1006,
      "ĠÑĢÑĥÑħ": 1007,
      "ĠÐ´ÑĸÑĶÑģÐ»Ð¾Ð²Ð¾Ð¼": 1008,
      "ĠÐ¼Ð¾Ð´Ð°Ð»ÑĮÐ½Ð¸Ð¼": 1009,
      "ĠÐ¾Ð·Ð½Ð°ÑĩÐ°ÑĶ": 1010,
      "ĠFreund": 1011,
      "Ġlerne": 1012,
      "Ã¶nnen": 1013,
      "Ġarbeit": 1014,
      "Ġkommen": 1015,
      "hst": 1016,
      "ÑĥÐ²Ð°ÑĤÐ¸": 1017,
      "Ġgesehen": 1018,
      "Ġkommst": 1019,
      "Ġzum": 1020,
      "hre": 1021,
      "ra": 1022,
      "hast": 1023,
      "Ġessen": 1024,
      "Ð°ÑĤÐº": 1025,
      "tz": 1026,
      "Ġausruhen": 1027,
      "kocht": 1028,
      "Ġru": 1029,
      "ahr": 1030,
      "Ġviel": 1031,
      "Ð°ÑĤÐºÐ¾Ð²Ñĸ": 1032,
      "ollen": 1033,
      "ĠÐ¿ÑĢÐ¸ÑģÐ²ÑĸÐ¹Ð½Ð¸Ð¹": 1034,
      "ĠÐ¿Ð¾ÑĩÐ°ÑĤÐºÐ¾Ð²Ñĸ": 1035,
      "ĠÐ¿Ð¾ÑĩÐ°ÑĤÐºÐ¾Ð²ÑĸÐ¹": 1036,
      "Ġmit": 1037,
      "essen": 1038,
      "aren": 1039,
      "Ð»Ð°": 1040,
      "ĠschlÃ¤ft": 1041,
      "ĠSt": 1042,
      "Ġliest": 1043,
      "Ġmacht": 1044,
      "stehen": 1045,
      "age": 1046,
      "Ġeinen": 1047,
      "Was": 1048,
      "Ġhier": 1049,
      "macht": 1050,
      "eute": 1051,
      "ten": 1052,
      "ĠE": 1053,
      "ĠÐľ": 1054,
      "Ġlernt": 1055,
      "ÐºÐ¸": 1056,
      "Nach": 1057,
      "mer": 1058,
      "ĠAbends": 1059,
      "anken": 1060,
      "pÃ¤": 1061,
      "ages": 1062,
      "chst": 1063,
      "ÑĥÐ´Ð¸": 1064,
      "Ðļ": 1065,
      "ohne": 1066,
      "ont": 1067,
      "ĠTages": 1068,
      "Ġwohnt": 1069,
      "pÃ¤ter": 1070,
      "Ġtrinke": 1071,
      "anach": 1072,
      "Ã¼s": 1073,
      "ĠBier": 1074,
      "ĠGe": 1075,
      "Ġwaschen": 1076,
      "estern": 1077,
      "ÐļÑĥÐ´Ð¸": 1078,
      "lei": 1079,
      "ĠÐĨ": 1080,
      "Ġkocht": 1081,
      "tze": 1082,
      "Ð´Ð°": 1083,
      "bt": 1084,
      "Ġfreuen": 1085,
      "Ð»Ðµ": 1086,
      "ĠÐ³": 1087,
      "ken": 1088,
      "Ġgeht": 1089,
      "Ġsu": 1090,
      "sel": 1091,
      "etzt": 1092,
      "ĠÐĨÐ¼ÐµÐ½Ð½Ð¸Ðº": 1093,
      "ĠMont": 1094,
      "ĠMontag": 1095,
      "ĠÐ¾Ð±": 1096,
      "ĠTe": 1097,
      "ienst": 1098,
      "Ġdenke": 1099,
      "ĠPro": 1100,
      "Ġbei": 1101,
      "blem": 1102,
      "ĠWasser": 1103,
      "Ð¾Ð´Ð°Ð»ÑĮÐ½Ðµ": 1104,
      "ĠÐľÐ¾Ð´Ð°Ð»ÑĮÐ½Ðµ": 1105,
      "ĠDienst": 1106,
      "Ã¼n": 1107,
      "ĠDienstag": 1108,
      "Jetzt": 1109,
      "Ġwohnst": 1110,
      "Ġblei": 1111,
      "ĠProblem": 1112,
      "ÑģÑĤÐ°Ð²": 1113,
      "andy": 1114,
      "Ġstell": 1115,
      "ĠRegen": 1116,
      "anrufen": 1117,
      "Ġgest": 1118,
      "ĠRegens": 1119,
      "im": 1120,
      "ĠProblems": 1121,
      "wenn": 1122,
      "ĠTee": 1123,
      "Ġesse": 1124,
      "euer": 1125,
      "Ġbleibe": 1126,
      "fst": 1127,
      "ĠÐ²ÑĸÐ´ÐºÐ¸": 1128,
      "Ð´Ð°ÑİÑĤÑĮÑģÑı": 1129,
      "ĠÐ²ÑĸÐ´ÐºÐ¸Ð´Ð°ÑİÑĤÑĮÑģÑı": 1130,
      "le": 1131,
      "Ð»Ñĸ": 1132,
      "ÑĥÐ²Ð°ÑĤÐ¸ÑģÑı": 1133,
      "ĠÐ¾Ð±ÑģÑĤÐ°Ð²": 1134,
      "ĠÐ¾Ð±ÑģÑĤÐ°Ð²Ð¸Ð½": 1135,
      "ĠÐ¿ÑĢÐ¸ÐºÐ¼ÐµÑĤÐ½Ð¸ÐºÑĸÐ²": 1136,
      "Ġgestern": 1137,
      "bin": 1138,
      "lÃ¼s": 1139,
      "aufstehen": 1140,
      "Ġarbeitet": 1141,
      "ĠStu": 1142,
      "Ð°Ð¿": 1143,
      "Ġwaren": 1144,
      "schl": 1145,
      "ĠKatze": 1146,
      "lÃ¼ssel": 1147,
      "ho": 1148,
      "ster": 1149,
      "Ġgefahren": 1150,
      "ĠArzt": 1151,
      "ÑĩÐ½Ð¸Ð¹": 1152,
      "Ġmich": 1153,
      "Ġle": 1154,
      "........": 1155,
      "ater": 1156,
      "habt": 1157,
      "ĠÐ±ÐµÐ·": 1158,
      "ĠÐĹ": 1159,
      "ĠSchlÃ¼ssel": 1160,
      "einkaufen": 1161,
      "ĠHandy": 1162,
      "Ġbraucht": 1163,
      "iz": 1164,
      "will": 1165,
      "Ð¾Ð´Ð¶": 1166,
      "Ġkommt": 1167,
      "Ð»Ð°Ð´": 1168,
      "za": 1169,
      "ĠfÃ¼r": 1170,
      "sie": 1171,
      "hl": 1172,
      "las": 1173,
      "enster": 1174,
      "dass": 1175,
      "Ġliegt": 1176,
      "Ġuns": 1177,
      "Ð¾Ð´Ð¶ÑĥÐ²Ð°ÑĤÐ¸ÑģÑı": 1178,
      "ahn": 1179,
      "tr": 1180,
      "war": 1181,
      "ĠÐĶÐ¾Ð¿Ð¾Ð¼": 1182,
      "ĠÑĥÐ·": 1183,
      "Ð³Ð¾Ð´Ð¶ÑĥÐ²Ð°ÑĤÐ¸ÑģÑı": 1184,
      "ÑĸÐ¶Ð½Ðµ": 1185,
      "ĠVater": 1186,
      "ĠÐĶÐ¾Ð¿Ð¾Ð¼ÑĸÐ¶Ð½Ðµ": 1187,
      "ĠÑĥÐ·Ð³Ð¾Ð´Ð¶ÑĥÐ²Ð°ÑĤÐ¸ÑģÑı": 1188,
      "wir": 1189,
      "ÑĢÐ¸Ðº": 1190,
      "ĠÐ°Ð»Ðµ": 1191,
      "Ġhelft": 1192,
      "sst": 1193,
      "Ġseht": 1194,
      "Heute": 1195,
      "seid": 1196,
      "ĠÑĢ": 1197,
      "Ð°Ð¿ÑĢÐ¸Ðº": 1198,
      "Ð°Ð¿ÑĢÐ¸ÐºÐ»Ð°Ð´": 1199,
      "Ð½Ð°Ð¿ÑĢÐ¸ÐºÐ»Ð°Ð´": 1200,
      "Ð»ÑĸÑĩÐ½Ð¸Ð¹": 1201,
      "ĠÐĹÐ»ÑĸÑĩÐ½Ð¸Ð¹": 1202,
      "ĠPiz": 1203,
      "kochen": 1204,
      "rad": 1205,
      "ĠPizza": 1206,
      "Ġohne": 1207,
      "ÐĶ": 1208,
      "Ġsteht": 1209,
      "hof": 1210,
      "Des": 1211,
      "SpÃ¤ter": 1212,
      "ĠâĢ¦": 1213,
      "ĠÐŁÑĢÐ°Ð²Ð¸Ð»ÑĮÐ½Ð¾": 1214,
      "ĠschÃ¶ne": 1215,
      "ĠEis": 1216,
      "Gestern": 1217,
      "omp": 1218,
      "Ġhatte": 1219,
      "Ġeuch": 1220,
      "Ġgetr": 1221,
      "ĠBahn": 1222,
      "unken": 1223,
      "Ġruft": 1224,
      "gut": 1225,
      "ĠFenster": 1226,
      "Ġspielen": 1227,
      "ahrrad": 1228,
      "Danach": 1229,
      "Ã¤l": 1230,
      "ĠWo": 1231,
      "Ġausruht": 1232,
      "Ġgetrunken": 1233,
      "bist": 1234,
      "rinkt": 1235,
      "Ġtrinken": 1236,
      "ÐĶÐµ": 1237,
      "ĠBahnhof": 1238,
      "Ã¤hr": 1239,
      "Ġwascht": 1240,
      "wegen": 1241,
      "ĠMil": 1242,
      "Ð±ÐµÐ·": 1243,
      "ĠMilch": 1244,
      "ĠÑĸÐ¼ÐµÐ½Ð½Ð¸ÐºÑĸÐ²": 1245,
      "ĠÐ¾Ð·Ð½Ð°ÑĩÐµÐ½Ð¾Ð³Ð¾": 1246,
      "Ã¶f": 1247,
      "alat": 1248,
      "wohn": 1249,
      "Ġfreut": 1250,
      "Ġsucht": 1251,
      "Sch": 1252,
      "Ġgemacht": 1253,
      "ĠSalat": 1254,
      "ankt": 1255,
      "ĠWann": 1256,
      "Ġdankt": 1257,
      "gegessen": 1258,
      "Ġgegen": 1259,
      "ĠkÃ¶nnen": 1260,
      "Dem": 1261,
      "ĠKuchen": 1262,
      "wÃ¤hrend": 1263,
      "ild": 1264,
      "Ã¶ffel": 1265,
      "achen": 1266,
      "Ġteuer": 1267,
      "Ġantwortet": 1268,
      "gesehen": 1269,
      "Ġgekocht": 1270,
      "uter": 1271,
      "ĠAm": 1272,
      "Ġihre": 1273,
      "omputer": 1274,
      "antwort": 1275,
      "ĠLÃ¶ffel": 1276,
      "Dann": 1277,
      "ĠEs": 1278,
      "Ã¤lter": 1279,
      "Kind": 1280,
      "ĠGlas": 1281,
      "Ġins": 1282,
      "Ġkaufst": 1283,
      "antworten": 1284,
      "bel": 1285,
      "gekauft": 1286,
      "Ġkaufe": 1287,
      "ett": 1288,
      "Ġdich": 1289,
      "ĠFahrrad": 1290,
      "Ġaufste": 1291,
      "Ġwillst": 1292,
      "ĠComputer": 1293,
      "Ġj": 1294,
      "Ġ2": 1295,
      "ĠHaus": 1296,
      "Ġschla": 1297,
      "bur": 1298,
      "Den": 1299,
      "gegangen": 1300,
      "Ġanru": 1301,
      "Ġbrauchen": 1302,
      "ampe": 1303,
      "trink": 1304,
      "ĠDer": 1305,
      "Ġgute": 1306,
      "ĠSchrank": 1307,
      "burg": 1308,
      "abel": 1309,
      "ĠDie": 1310,
      "Morgen": 1311,
      "lfen": 1312,
      "amburg": 1313,
      "ĠHamburg": 1314,
      "ĠÐ¾Ð´Ð½": 1315,
      "neu": 1316,
      "Ġkl": 1317,
      "helfen": 1318,
      "ĠTÃ¼r": 1319,
      "Ð²Ð°": 1320,
      "Ġkeine": 1321,
      "Ġvon": 1322,
      "Ġklein": 1323,
      "ule": 1324,
      "Ġwollen": 1325,
      "ĠBett": 1326,
      "Bruder": 1327,
      "tion": 1328,
      "Ġantworten": 1329,
      "Ġneue": 1330,
      "Schwester": 1331,
      "mÃ¼": 1332,
      "Ġsein": 1333,
      "danken": 1334,
      "trotz": 1335,
      "ĠZeitung": 1336,
      "mÃ¼ssen": 1337,
      "kann": 1338,
      "ĠBild": 1339,
      "ĠStuhl": 1340,
      "wollen": 1341,
      "ĠGabel": 1342,
      "immer": 1343,
      "ÑĹ": 1344,
      "ĠLampe": 1345,
      "ig": 1346,
      "kÃ¶nnen": 1347,
      "Ġ3": 1348,
      "ld": 1349,
      "ĠSchule": 1350,
      "ĠMÃ¼n": 1351,
      "ĠMÃ¼nchen": 1352,
      "ĠmÃ¼ssen": 1353,
      "bei": 1354,
      "ÐµÑĢ": 1355,
      "schla": 1356,
      "ber": 1357,
      "lich": 1358,
      "Ñī": 1359,
      "ĠÐŁÑĢÐ¸ÑģÐ²ÑĸÐ¹Ð½Ð¸Ð¹": 1360,
      "muss": 1361,
      "lernt": 1362,
      "Ð¸ÑĤÐ¸": 1363,
      "Ġstehen": 1364,
      "Ã¤r": 1365,
      "Ġhatten": 1366,
      "Ge": 1367,
      "spielt": 1368,
      "Ġhatt": 1369,
      "ĠfÃ¤hr": 1370,
      "Ð¸Ð½Ð¸": 1371,
      "ĠÐ³Ð¾Ð»": 1372,
      "Ġkeinen": 1373,
      "Ġdanken": 1374,
      "ĠZimmer": 1375,
      "ÑĶÑĤÑĮÑģÑı": 1376,
      "Ġisst": 1377,
      "Ġsehr": 1378,
      "ger": 1379,
      "ĠÑģÐ¸Ð»ÑĮÐ½": 1380,
      "Ġstelle": 1381,
      "Ð¸Ð³": 1382,
      "blei": 1383,
      "Ð¾ÑģÐ½": 1384,
      "ÑİÑĶÑĤÑĮÑģÑı": 1385,
      "Ġtrinkt": 1386,
      "ĠGeld": 1387,
      "bleiben": 1388,
      "ÐµÐ²Ð°": 1389,
      "ĠÐ·Ð¼ÑĸÐ½ÑİÑĶÑĤÑĮÑģÑı": 1390,
      "Ġmein": 1391,
      "ĠÐ¾ÑģÐ¾Ð±Ñĸ": 1392,
      "Ġwart": 1393,
      "Ġwarst": 1394,
      "ĠÐºÐ¾ÑĢÐµÐ½ÐµÐ²Ð°": 1395,
      "ĠÐ¾Ð´Ð½Ð¸Ð½Ð¸": 1396,
      "ĠÐ³Ð¾Ð»Ð¾ÑģÐ½": 1397,
      "ĠÑģÐ¸Ð»ÑĮÐ½Ðµ": 1398,
      "ĠÐ³Ð¾Ð»Ð¾ÑģÐ½Ð°": 1399,
      "Ġhelfen": 1400,
      "Ġdein": 1401,
      "ĠÑģÑĤÐ°Ð½": 1402,
      "Ġrufen": 1403,
      "Ġbes": 1404,
      "roÃŁ": 1405,
      "ĠÐ·Ð¼ÑĸÐ½Ñĥ": 1406,
      "Ġstellt": 1407,
      "ĠÑģÑĤÐ°Ð½Ñĥ": 1408,
      "ĠgroÃŁ": 1409,
      "trinken": 1410,
      "schÃ¶n": 1411,
      "atz": 1412,
      "Ġdank": 1413,
      "ĠVer": 1414,
      "Ð¸Ð²": 1415,
      "ck": 1416,
      "Ġlegt": 1417,
      "Ġkleiner": 1418,
      "ies": 1419,
      "Ġschneller": 1420,
      "rÃ¶": 1421,
      "ĠO": 1422,
      "Ġseine": 1423,
      "Ġlege": 1424,
      "Ġspielst": 1425,
      "ps": 1426,
      "Ġanruft": 1427,
      "................": 1428,
      "ĠwÃ¤r": 1429,
      "Ġguter": 1430,
      "ÃŁer": 1431,
      "ĠwÃ¤rmer": 1432,
      "Komm": 1433,
      "el": 1434,
      "ver": 1435,
      "ÑģÑĮ": 1436,
      "Ġsuchen": 1437,
      "ĠgrÃ¶": 1438,
      "Ġaufsteht": 1439,
      "ĠkÃ¤lter": 1440,
      "ĠgrÃ¶ÃŁer": 1441,
      "Ġund": 1442,
      "tig": 1443,
      "ĠKomm": 1444,
      "Ġfahr": 1445,
      "Ġarbeiten": 1446,
      "wohnt": 1447,
      "Ð¸Ð³Ñĥ": 1448,
      "Ġbesser": 1449,
      "ollt": 1450,
      "Ġgutes": 1451,
      "Ã¼nger": 1452,
      "ĠÐ¯": 1453,
      "ĠLe": 1454,
      "ĠjÃ¼nger": 1455,
      "//": 1456,
      "://": 1457,
      "tps": 1458,
      "Ð½Ð¾": 1459,
      "res": 1460,
      "https": 1461,
      "ord": 1462,
      "Ð¼Ð°": 1463,
      "esen": 1464,
      "Ġeinkauft": 1465,
      "si": 1466,
      "von": 1467,
      "sere": 1468,
      "Ġkochst": 1469,
      "Ġneuer": 1470,
      "Ġunser": 1471,
      "spielen": 1472,
      "Ġspiele": 1473,
      "Ġunsere": 1474,
      "Ġsehst": 1475,
      "Ã¶nnt": 1476,
      "ere": 1477,
      "net": 1478,
      "kommst": 1479,
      "Ġeuer": 1480,
      "Ġkoche": 1481,
      "Ġdeine": 1482,
      "wohnst": 1483,
      "Ð¾Ð¶": 1484,
      "brau": 1485,
      "Ð°ÑĢ": 1486,
      "Ġfa": 1487,
      "hrer": 1488,
      "Ġschlaft": 1489,
      "ĠĠ": 1490,
      "Ġmachen": 1491,
      "Ġneues": 1492,
      "ĠfÃ¤hrt": 1493,
      ")'": 1494,
      "ĠN": 1495,
      "ĠÐĴ": 1496,
      "isst": 1497,
      "our": 1498,
      "suchen": 1499,
      "ĠÐ»": 1500,
      "ĠLehrer": 1501,
      "Ġlernst": 1502,
      "ĠÃ¤lter": 1503,
      "Ð¾Ð½": 1504,
      "usst": 1505,
      "Ġstehst": 1506,
      "ÑīÐ¾": 1507,
      "ce": 1508,
      "ĠNach": 1509,
      "ÑĢÐ°": 1510,
      "ĠmÃ¼sst": 1511,
      "ĠÑĢÐ¾Ð±": 1512,
      "Ġsehe": 1513,
      "Ġausruhe": 1514,
      "Ãľ": 1515,
      "ĠHeute": 1516,
      "dent": 1517,
      "Ġstehe": 1518,
      "Ġbrauche": 1519,
      "mit": 1520,
      "rig": 1521,
      "Ã¼ck": 1522,
      "kel": 1523,
      "trinkt": 1524,
      "Ġ+": 1525,
      "ÑĤÐ¾": 1526,
      "Ã¼ber": 1527,
      "Ġanrufen": 1528,
      "Ġver": 1529,
      "Ġhelfst": 1530,
      "Ġantworte": 1531,
      "ĠStudent": 1532,
      "Ġfahrt": 1533,
      "keine": 1534,
      "wall": 1535,
      "word": 1536,
      "Ġ1": 1537,
      "ĠWand": 1538,
      "Ġeuere": 1539,
      "resour": 1540,
      "wordwall": 1541,
      "resource": 1542,
      "Ð¾Ñĩ": 1543,
      "ĠDanach": 1544,
      "Ġkannst": 1545,
      "Ġfreue": 1546,
      "fÃ¼r": 1547,
      "ertig": 1548,
      "Ġdort": 1549,
      "gegen": 1550,
      "Ġsuch": 1551,
      "ĠSpÃ¤ter": 1552,
      "Ġfertig": 1553,
      "brauchen": 1554,
      "Ġsuchst": 1555,
      "ĠKon": 1556,
      "Ġbrauchst": 1557,
      "Ġhattet": 1558,
      "mein": 1559,
      "ol": 1560,
      "uft": 1561,
      "ĠJetzt": 1562,
      "Ġsuche": 1563,
      "schlafen": 1564,
      "mich": 1565,
      "ĠGestern": 1566,
      "Ġtrau": 1567,
      "euch": 1568,
      "sprechen": 1569,
      "dein": 1570,
      "Ð½Ñĸ": 1571,
      "ĠDann": 1572,
      "Ġhabst": 1573,
      "âĢ¦": 1574,
      "Ġtraurig": 1575,
      "ation": 1576,
      "Ġeinkaufen": 1577,
      "ĠPrÃ¤": 1578,
      "ĠLuft": 1579,
      "Ġhelfe": 1580,
      "Â«": 1581,
      "ĠGeh": 1582,
      "willst": 1583,
      "Â»": 1584,
      "ĠÂ«": 1585,
      "ĠÐ°Ð²": 1586,
      "Ġwollt": 1587,
      "tit": 1588,
      "ĠkÃ¶nnt": 1589,
      "unser": 1590,
      "petit": 1591,
      "ĠÑı": 1592,
      "ĠÑīÐ¾": 1593,
      "Ġgehst": 1594,
      "uns": 1595,
      "ĠAppetit": 1596,
      "Ġwaschst": 1597,
      "fahr": 1598,
      "Ġrufe": 1599,
      "Ġhattest": 1600,
      "Ð¼Ð°Ñİ": 1601,
      "Ã¼cklich": 1602,
      "osi": 1603,
      "ert": 1604,
      "einen": 1605,
      "Ġbe": 1606,
      "âĢľ": 1607,
      "Ġeinkauf": 1608,
      "ĠschÃ¶nes": 1609,
      "osition": 1610,
      "dich": 1611,
      "waren": 1612,
      "ĠÑħ": 1613,
      "ieren": 1614,
      "ĠLies": 1615,
      "Ð¾ÑĤÑĸ": 1616,
      "ÑĸÐ½Ð½Ñı": 1617,
      "Ð¾Ð»Ð¾Ð´": 1618,
      "ĠMacht": 1619,
      "ÑİÐ²Ð°ÑĤÐ¸": 1620,
      "ĠglÃ¼cklich": 1621,
      "Ġfreust": 1622,
      "Ġdankst": 1623,
      "fÃ¤hr": 1624,
      "Ð¾ÑģÑĤ": 1625,
      "Ġmach": 1626,
      "ĠMach": 1627,
      "Ġwasche": 1628,
      "Ġantwortest": 1629,
      "Ġmachst": 1630,
      "Ð½Ð¸Ð³Ñĥ": 1631,
      "Ġmusst": 1632,
      "hatte": 1633,
      "ÑĥÑĤ": 1634,
      "ĠMorgen": 1635,
      "Ġaufstehen": 1636,
      "ĠGeht": 1637,
      "ĠÐ°Ð²ÑĤÐ¾": 1638,
      "zen": 1639,
      "ÐºÐ½Ð¸Ð³Ñĥ": 1640,
      "ĠÐ²Ð¾Ð»Ð¾Ð´": 1641,
      "keinen": 1642,
      "spiele": 1643,
      "ĠOn": 1644,
      "ĠÐ²Ð¾Ð»Ð¾Ð´ÑĸÐ½Ð½Ñı": 1645,
      "ab": 1646,
      "Ġo": 1647,
      "Ð»Ð¸": 1648,
      "ÐºÑĥ": 1649,
      "ĠOnkel": 1650,
      "machen": 1651,
      "ÑĤÐ¾ÑĢ": 1652,
      "Ġjung": 1653,
      "ĠÑĢÐ¾Ð±Ð¾ÑĤÑĸ": 1654,
      "position": 1655,
      "ĠÃ¼ber": 1656,
      "spielst": 1657,
      "men": 1658,
      "vom": 1659,
      "Ð¿ÑĸÑģÐ»Ñı": 1660,
      "ĠÐ¿ÑĢÐ°Ð²Ð¸Ð»ÑĮÐ½": 1661,
      "Ġrufst": 1662,
      "ĠÐ¿ÑĢÐ°Ð²Ð¸Ð»ÑĮÐ½ÑĸÐ¹": 1663,
      "Ġalt": 1664,
      "Ð°Ð´": 1665,
      "ĠÐ²Ð¸": 1666,
      "ĠÐ¿ÑĢÐ¾": 1667,
      "Ġwarm": 1668,
      "Ġdanke": 1669,
      "bung": 1670,
      "nach": 1671,
      "ĠÐ¼Ð¾Ð¶": 1672,
      "Ã¤n": 1673,
      "Ġausruhst": 1674,
      "Mach": 1675,
      "satz": 1676,
      "ĠÐ´Ð¾": 1677,
      "Ġlesen": 1678,
      "ÑģÑĤÐ°": 1679,
      "ÑĤÐ¸ÐºÐ°": 1680,
      "ĠLest": 1681,
      "Ġvor": 1682,
      "ĠschÃ¶ner": 1683,
      "schlÃ¤ft": 1684,
      "ĠfÃ¤hrst": 1685,
      "ĠVerben": 1686,
      "zert": 1687,
      "schlaft": 1688,
      "Gehen": 1689,
      "ot": 1690,
      "rÃ¼": 1691,
      "rei": 1692,
      "ÑĢÐ¾": 1693,
      "Ð¾Ð½Ð°": 1694,
      "Ð°Ð¶": 1695,
      "kochst": 1696,
      "ĠKonzert": 1697,
      "St": 1698,
      "ktiv": 1699,
      "ante": 1700,
      "lerne": 1701,
      "lernst": 1702,
      "ĠÑĢÐ°Ð·": 1703,
      "Ġfahren": 1704,
      "nen": 1705,
      "ÐµÑĤ": 1706,
      "................................": 1707,
      "Ãľbung": 1708,
      "ÑģÑĤÐ°ÑĤÐ¸ÐºÐ°": 1709,
      "wei": 1710,
      "gel": 1711,
      "ÑģÑĤÑĮ": 1712,
      "ĠTante": 1713,
      "ĠKommt": 1714,
      "Ġoder": 1715,
      "Lies": 1716,
      "Ð½ÑĮÐ¾": 1717,
      "Ġesst": 1718,
      "ĠÐ¾Ð´Ð½Ð¾Ð³Ð¾": 1719,
      "positionen": 1720,
      "ug": 1721,
      "ul": 1722,
      "ent": 1723,
      "Ð°Ð¹": 1724,
      "ĠÐ²Ð¶": 1725,
      "ĠÐĶÐ¾ÑģÑĤ": 1726,
      "Ã¤fst": 1727,
      "ungen": 1728,
      "koche": 1729,
      "ĠÐ¿Ð¾ÑĤÑĢÑĸÐ±Ð½Ð¾": 1730,
      "ĠÐ¿Ð¾Ð²ÑĤÐ¾ÑĢ": 1731,
      "Ð°ÑĤÐ½ÑĮÐ¾": 1732,
      "ĠÑĢÐ°Ð·Ñĥ": 1733,
      "ĠÐĶÐ¾ÑģÑĤÐ°ÑĤÐ½ÑĮÐ¾": 1734,
      "ĠÐ¿Ð¾Ð²ÑĤÐ¾ÑĢÑİÐ²Ð°ÑĤÐ¸": 1735,
      "00": 1736,
      "ad": 1737,
      "Ð´Ð²": 1738,
      "wart": 1739,
      "Ġaufstehst": 1740,
      "Lest": 1741,
      "je": 1742,
      "Ġ/": 1743,
      "Ġâ": 1744,
      "ĠÑĪ": 1745,
      "orm": 1746,
      "ĠSp": 1747,
      "det": 1748,
      "warst": 1749,
      "Ġschlafen": 1750,
      "her": 1751,
      "Ġp": 1752,
      "ÑĸÐ»": 1753,
      "hatten": 1754,
      "Ġtrinkst": 1755,
      "ragen": 1756,
      "Ð¸Ð³ÑĥÐ½": 1757,
      "Ð´Ð²Ð¸Ð³ÑĥÐ½": 1758,
      "Wie": 1759,
      "Ð½Ð¸": 1760,
      "ÑĢÐ°Ð²": 1761,
      "ÐµÐ½ÑĤ": 1762,
      "Ġ-âĢľ": 1763,
      "ĠVerb": 1764,
      "Ġfahre": 1765,
      "fahrt": 1766,
      "ĠÐ¼Ð¾Ð¶Ð½Ð°": 1767,
      "Machen": 1768,
      "Ġ*": 1769,
      "ÑĤÐ°": 1770,
      "ĠÐ¿Ð¾Ð´": 1771,
      "âĢĻ": 1772,
      "tzen": 1773,
      "mÃ¼s": 1774,
      "sten": 1775,
      "scha": 1776,
      "ĠÑĢÐ¾Ð·": 1777,
      "mÃ¼sst": 1778,
      "Macht": 1779,
      "cken": 1780,
      "ĠÐ¿ÐµÑĢÐµ": 1781,
      "ĠÐ·Ð½Ð°": 1782,
      "Ġwird": 1783,
      "Ġanrufe": 1784,
      "Ð¾ÑĹ": 1785,
      "ĠÑģÐºÐ°Ð·": 1786,
      "ĠBe": 1787,
      "hatt": 1788,
      "Ġaufstehe": 1789,
      "Geht": 1790,
      "Kommen": 1791,
      "Lesen": 1792,
      "hin": 1793,
      "zu": 1794,
      "ÐµÐº": 1795,
      "ÑĸÑĢ": 1796,
      "Ã¶r": 1797,
      "Ð°ÑĤÐ¸ÑģÑı": 1798,
      "Geh": 1799,
      "fÃ¤hrt": 1800,
      "ĠÑģÐºÐ°Ð·Ð°ÑĤÐ¸": 1801,
      "eg": 1802,
      "ÑĸÐ»ÑĮ": 1803,
      "ÑĥÐ´": 1804,
      "ĠÐ´Ñĥ": 1805,
      "Ã¤tze": 1806,
      "ĠÑĤÑĥÑĤ": 1807,
      "Ġst": 1808,
      "ĠÐĿ": 1809,
      "ÑĢÐ¸": 1810,
      "ĠAn": 1811,
      "Ð¸ÑĤÐ¸ÑģÑı": 1812,
      "Ġeinkaufe": 1813,
      "fin": 1814,
      "ÑĥÐº": 1815,
      "Ġmir": 1816,
      "Ġschlafe": 1817,
      "kannst": 1818,
      "Kommt": 1819,
      "ĠÑīÐ¾ÑģÑĮ": 1820,
      "Ġeinkaufst": 1821,
      "lie": 1822,
      "ma": 1823,
      "pro": 1824,
      "Ð°Ð»": 1825,
      "Ġdir": 1826,
      "ĠDat": 1827,
      "ĠBus": 1828,
      "emp": 1829,
      "Ġanrufst": 1830,
      "ĠĠĠĠ": 1831,
      "Ãľber": 1832,
      "schaft": 1833,
      "';": 1834,
      "10": 1835,
      "iv": 1836,
      "Ġab": 1837,
      "ÑģÑĮÐº": 1838,
      "ÑĢÐ°ÑĤÐ¸": 1839,
      "Ð¾Ð²Ð¸Ð¹": 1840,
      "hal": 1841,
      "Ð²Ð¸": 1842,
      "ĠSatz": 1843,
      "ĠÐ¿ÑĢÐ¸": 1844,
      "trinkst": 1845,
      "Ð¸Ð²Ð°ÑĶÑĤÑĮÑģÑı": 1846,
      "ĠÐ²Ð¶Ð¸Ð²Ð°ÑĶÑĤÑĮÑģÑı": 1847,
      "):": 1848,
      "fÃ¼": 1849,
      "ga": 1850,
      "ik": 1851,
      "os": 1852,
      "¸ļ": 1853,
      "ĠÐ²Ðµ": 1854,
      "eiÃŁ": 1855,
      "ÑĨÑĮ": 1856,
      "ÑİÐ±": 1857,
      "stell": 1858,
      "og": 1859,
      "tern": 1860,
      "wollt": 1861,
      "ÐµÐ¹": 1862,
      "Ð¾Ð²Ð°": 1863,
      "esse": 1864,
      "Ġeinem": 1865,
      "setzen": 1866,
      "Ġâ¸ļ": 1867,
      "-,": 1868,
      "11": 1869,
      "fle": 1870,
      "keit": 1871,
      "lan": 1872,
      "och": 1873,
      "ĠÃľber": 1874,
      "Ð°Ñģ": 1875,
      "ÑĥÑģ": 1876,
      "esst": 1877,
      "Ã¤t": 1878,
      "kaufst": 1879,
      "ĠUn": 1880,
      "iert": 1881,
      "Ġunter": 1882,
      "trinke": 1883,
      "siv": 1884,
      "ĠÑıÐº": 1885,
      "kÃ¶nnt": 1886,
      "ner": 1887,
      "zur": 1888,
      "Ð¾Ñģ": 1889,
      "ÑĸÑĤ": 1890,
      "ork": 1891,
      "ins": 1892,
      "Ð»ÑıÑĤÐ¸": 1893,
      "Ġman": 1894,
      "ĠÐºÐ¾Ð¼": 1895,
      "kaufe": 1896,
      "ĠRe": 1897,
      "verben": 1898,
      "Fahrrad": 1899,
      "Handy": 1900,
      "eben": 1901,
      "nt": 1902,
      "xiv": 1903,
      "Ġhttps": 1904,
      "ĠÐ¹": 1905,
      "Ð°Ñİ": 1906,
      "geb": 1907,
      "Ġwork": 1908,
      "Ð¾Ð³Ð¾ÑģÑĮ": 1909,
      "ĠMan": 1910,
      "als": 1911,
      "ĠschlÃ¤fst": 1912,
      "Ġfahrst": 1913,
      "fahrst": 1914,
      "fÃ¤hrst": 1915,
      "ĠÐ·Ð½Ð°ÑĩÐµÐ½Ð½Ñı": 1916,
      "flexiv": 1917,
      "nom": 1918,
      "uf": 1919,
      "wen": 1920,
      "Ġam": 1921,
      "ĠÑĹ": 1922,
      "Ð°Ñħ": 1923,
      "ÑĤÑı": 1924,
      "Ð´Ðµ": 1925,
      "ĠSÃ¤tze": 1926,
      "deut": 1927,
      "Ð°Ð¼Ð¸": 1928,
      "hlen": 1929,
      "olgen": 1930,
      "ĠPrÃ¤positionen": 1931,
      "Ġpas": 1932,
      "nomen": 1933,
      "ell": 1934,
      "hm": 1935,
      "hmen": 1936,
      "jun": 1937,
      "lung": 1938,
      "ri": 1939,
      "ze": 1940,
      "zeit": 1941,
      "ïĥ": 1942,
      "ĠJ": 1943,
      "ĠÐĳ": 1944,
      "Ð¾Ñİ": 1945,
      "ÑĨÐµ": 1946,
      "ÑĨÑĸÑı": 1947,
      "tel": 1948,
      "ÑĢÐ¾ÑĪ": 1949,
      "ïĥĺ": 1950,
      ".:": 1951,
      "Bild": 1952,
      "Haus": 1953,
      "Lampe": 1954,
      "TÃ¼r": 1955,
      "kl": 1956,
      "lau": 1957,
      "rch": 1958,
      "was": 1959,
      "ĠÐ¡": 1960,
      "ĠÐµ": 1961,
      "ĠÐĽ": 1962,
      "Ð¾ÑģÑĮ": 1963,
      "ÑģÐ¿": 1964,
      "ers": 1965,
      "assiv": 1966,
      "geben": 1967,
      "ĠÑģÐ²": 1968,
      "ĠDeutsche": 1969,
      "ischen": 1970,
      "ĠRei": 1971,
      "ĠEin": 1972,
      "Station": 1973,
      "pronomen": 1974,
      "ĠÃľbersetzen": 1975,
      "Glas": 1976,
      "ks": 1977,
      "richt": 1978,
      "vor": 1979,
      "wer": 1980,
      "ĠÑĤÐ¸": 1981,
      "ÑĸÑı": 1982,
      "ÑĸÐ·": 1983,
      "Ð¸Ñħ": 1984,
      "ÑĥÑĢ": 1985,
      "ĠÐ¼Ð¸": 1986,
      "Ð¾ÑĢÑĤ": 1987,
      "ĠFragen": 1988,
      "Ð¸Ð½Ð°": 1989,
      "ĠÐ²ÑĸÐ´Ð¿": 1990,
      "amm": 1991,
      "ĠVor": 1992,
      "ĠheiÃŁ": 1993,
      "ĠÐ»ÑİÐ±": 1994,
      "finitiv": 1995,
      "15": 1996,
      "In": 1997,
      "haus": 1998,
      "ire": 1999,
      "land": 2000,
      "pr": 2001,
      "pt": 2002,
      "zum": 2003,
      "Ð»Ñİ": 2004,
      "Ð¾Ð²Ð¾ÑĢ": 2005,
      "ÑģÐ»ÑĸÐ´": 2006,
      "gesch": 2007,
      "Ġwie": 2008,
      "ĠÐ¿ÑĢÐ°": 2009,
      "unter": 2010,
      "Ð¶Ðµ": 2011,
      "ÑħÑĸÐ´": 2012,
      "ĠÑĤÐµÐ»Ðµ": 2013,
      "ÃŁen": 2014,
      "ÑĥÐ²Ð°Ð½Ð½Ñı": 2015,
      "imm": 2016,
      "heit": 2017,
      "musst": 2018,
      "op": 2019,
      "Ġau": 2020,
      "Ġals": 2021,
      "einung": 2022,
      "Ð²Ð°Ð¶": 2023,
      "ĠâĢŀ": 2024,
      "schen": 2025,
      "Ġeiner": 2026,
      "unden": 2027,
      "ÑĪÐµ": 2028,
      "ĠWel": 2029,
      "Wohin": 2030,
      "ĠOr": 2031,
      "ÑĢÐ°ÑĹ": 2032,
      "jekt": 2033,
      "ĠheiÃŁt": 2034,
      "13": 2035,
      "16": 2036,
      "22": 2037,
      "Buch": 2038,
      "Ver": 2039,
      "Zimmer": 2040,
      "bo": 2041,
      "gÃ¤n": 2042,
      "ktion": 2043,
      "na": 2044,
      "od": 2045,
      "ÐĴ": 2046,
      "Ġ,": 2047,
      "Ġ8": 2048,
      "Ġre": 2049,
      "ÑģÐ¸": 2050,
      "end": 2051,
      "ÑĤÐµ": 2052,
      "ÑĤÐµÑĢ": 2053,
      "Ð»Ð¸Ð²": 2054,
      "ÑĥÐ¼": 2055,
      "ÐºÐ¾Ð¼": 2056,
      "han": 2057,
      "anz": 2058,
      "Ġsoll": 2059,
      "Ð²Ð¾": 2060,
      "ĠAus": 2061,
      "Ð¸Ð¼Ð¾ÑģÑĮ": 2062,
      "ĠÐºÑĥÐ¿": 2063,
      "Ð¾Ð»Ð¾Ð³": 2064,
      "...": 2065,
      "Woher": 2066,
      "ĠÑĤÐ°Ðº": 2067,
      "ĠÐ³ÑĢÐ¾ÑĪ": 2068,
      "jektiv": 2069,
      "hattest": 2070,
      "irekt": 2071,
      "12": 2072,
      "14": 2073,
      "Frau": 2074,
      "Katz": 2075,
      "Mutter": 2076,
      "Tasche": 2077,
      "bst": 2078,
      "ech": 2079,
      "hÃ¶": 2080,
      "igen": 2081,
      "uro": 2082,
      "Ġet": 2083,
      "ÐµÐ´": 2084,
      "reit": 2085,
      "Ð°Ð»Ð°": 2086,
      "Ġwer": 2087,
      "eitung": 2088,
      "ĠâĢľ": 2089,
      "schie": 2090,
      "ĠÑĤÑĢ": 2091,
      "ĠForm": 2092,
      "Ġgi": 2093,
      "Ð²ÑĸÑĤ": 2094,
      "ale": 2095,
      "ÐºÐ°ÑĢ": 2096,
      "atur": 2097,
      "schlÃ¤fst": 2098,
      "Ġschlafst": 2099,
      "schlafst": 2100,
      "ĠPrÃ¤teritum": 2101,
      "reiben": 2102,
      "Katze": 2103,
      "17": 2104,
      "30": 2105,
      "Fenster": 2106,
      "Gabel": 2107,
      "bjekt": 2108,
      "gin": 2109,
      "Ġ5": 2110,
      "Ġall": 2111,
      "reich": 2112,
      "Ð°Ñĩ": 2113,
      "Ð¸ÑĤÑĮ": 2114,
      "ÑĥÐ·": 2115,
      "ĠÐ½Ð°Ð²": 2116,
      "ang": 2117,
      "tik": 2118,
      "ĠÐ¾Ñģ": 2119,
      "Ð°Ð³Ð°ÑĤ": 2120,
      "renn": 2121,
      "Ġdurch": 2122,
      "chte": 2123,
      "ĠWie": 2124,
      "ilden": 2125,
      "ĠÐ¯Ðº": 2126,
      "ĠÑħÐ¾Ñĩ": 2127,
      "hattet": 2128,
      "ĠÐĿÐ°": 2129,
      "ĠÐµÐº": 2130,
      "odal": 2131,
      "Ġgibt": 2132,
      ".)": 2133,
      "djektiv": 2134,
      "form": 2135,
      "ige": 2136,
      "lo": 2137,
      "me": 2138,
      "rach": 2139,
      "uk": 2140,
      "zeu": 2141,
      "ĠÑī": 2142,
      "ĠÐ§": 2143,
      "ÐµÑĨÑĮ": 2144,
      "ÑĸÑĹ": 2145,
      "ÑĸÑģÑĤÑĮ": 2146,
      "ing": 2147,
      "ÐºÑĢÐ°ÑĹ": 2148,
      "ĠÐ¿Ð¾Ð³": 2149,
      "ĠÐ´Ðµ": 2150,
      "Ã¼b": 2151,
      "âĢĿ": 2152,
      "del": 2153,
      "unde": 2154,
      "ĠÐºÐ¾Ð»": 2155,
      "Ð±Ð¸": 2156,
      "ĠPers": 2157,
      "Ġande": 2158,
      "ilm": 2159,
      "Ð¾Ð·Ð¸": 2160,
      "ĠÐ¢Ð¸": 2161,
      "rage": 2162,
      "ĠStad": 2163,
      "ĠÐĴÑĸÐ½": 2164,
      "deutsch": 2165,
      "junktiv": 2166,
      "Ġauch": 2167,
      "rennb": 2168,
      "odalverben": 2169,
      "AT": 2170,
      "RT": 2171,
      "fre": 2172,
      "issen": 2173,
      "kon": 2174,
      "nis": 2175,
      "rie": 2176,
      "to": 2177,
      "zie": 2178,
      "Ġ4": 2179,
      "Ġ6": 2180,
      "ÑĸÑĪ": 2181,
      "ÑģÑĥ": 2182,
      "ÑģÑĤÐ¸": 2183,
      "ÑĥÐ½": 2184,
      "ÑĥÑģÑĤ": 2185,
      "Ġda": 2186,
      "ĠÐ¿Ð°ÑĢ": 2187,
      "ÑģÐ»Ñĥ": 2188,
      "Ġ(-": 2189,
      "Ġgew": 2190,
      "ĠmÃ¶": 2191,
      "aufs": 2192,
      "ĠAdjektiv": 2193,
      "ÑĨÑı": 2194,
      "Ġbest": 2195,
      "ĠBer": 2196,
      "Ð¿ÑĢ": 2197,
      "arten": 2198,
      "ĠFl": 2199,
      "ĠÑĦÑĸÐ»": 2200,
      "ÑĢÑĸÐ²": 2201,
      "Ð°Ð½Ð¸Ð¹": 2202,
      "Ġzw": 2203,
      "alsatz": 2204,
      "Ġimmer": 2205,
      "nehmen": 2206,
      "ĠEuro": 2207,
      "ompar": 2208,
      "elativ": 2209,
      "ĠÐĴÐ¾Ð½Ð°": 2210,
      "Ġverwen": 2211,
      "ternet": 2212,
      "ĠUnter": 2213,
      "Ġpasst": 2214,
      "gÃ¤nzen": 2215,
      "Ġwerden": 2216,
      "29": 2217,
      "Bei": 2218,
      "Brot": 2219,
      "Mann": 2220,
      "Zeitung": 2221,
      "aden": 2222,
      "bau": 2223,
      "cke": 2224,
      "ffen": 2225,
      "ler": 2226,
      "rich": 2227,
      "âĹ": 2228,
      "Ġent": 2229,
      "ĨĴ": 2230,
      "ÐµÑģÑĸ": 2231,
      "ÑıÐº": 2232,
      "ÐµÐ½Ð¸Ð¹": 2233,
      "ine": 2234,
      "inks": 2235,
      "Ð¾Ð²Ð¸": 2236,
      "Ð´Ð¶": 2237,
      "ĠÐ·Ð»": 2238,
      "ĠÐ²ÑĸÐ½": 2239,
      "ĠÐ²Ð¸Ð³": 2240,
      "ĠwÃ¼r": 2241,
      "Ġges": 2242,
      "ĠSo": 2243,
      "sche": 2244,
      "ĠHand": 2245,
      "ĠÐºÐ°": 2246,
      "lle": 2247,
      "inden": 2248,
      "Ġgern": 2249,
      "ĠPassiv": 2250,
      "ungs": 2251,
      "ringen": 2252,
      "Ð¸ÑģÑĤÐ¸": 2253,
      "ĠStra": 2254,
      "Ð²Ð°ÑĢ": 2255,
      "Ð½ÑĸÑģÑĤÑĮ": 2256,
      "ÑĥÐ´ÐµÐ½ÑĤ": 2257,
      "ĠÐ´ÑĥÐ¶Ðµ": 2258,
      "empor": 2259,
      "ĠĠĠĠĠĠĠĠ": 2260,
      "ÑģÑĮÐºÐ¸Ð¹": 2261,
      "ĠÐ³ÑĢÐ¾ÑĪÑĸ": 2262,
      "âĹı": 2263,
      "18": 2264,
      "19": 2265,
      "23": 2266,
      "Auto": 2267,
      "KÃ¼che": 2268,
      "bild": 2269,
      "ckt": 2270,
      "di": 2271,
      "glich": 2272,
      "mal": 2273,
      "ok": 2274,
      "pen": 2275,
      "sicht": 2276,
      "ww": 2277,
      "Ġen": 2278,
      "ĠÐ¦": 2279,
      "Ð½Ñĥ": 2280,
      "ÐµÐ¼": 2281,
      "ÑıÑĤÐ¸": 2282,
      "cher": 2283,
      "Ð»ÐµÐ½Ð½Ñı": 2284,
      "ÑĥÑİ": 2285,
      "ingen": 2286,
      "inter": 2287,
      "ĠÐ¿Ð»": 2288,
      "ĠInternet": 2289,
      "gew": 2290,
      "ĠwÃ¤": 2291,
      "Ġwel": 2292,
      "Ð²ÑĸÐ´": 2293,
      "ĠBilden": 2294,
      "ĠÐ¿ÑĢÐ¾Ð¿": 2295,
      "arn": 2296,
      "ĠFolgen": 2297,
      "Ð»ÑĮÐ½Ð¸Ð¹": 2298,
      "Ð°Ð¼Ð°": 2299,
      "ĠÐ½Ð°Ð´": 2300,
      "ÑĪÑĤ": 2301,
      "ÑħÐ°ÑĤÐ¸": 2302,
      "ĠÑĸÐ¼": 2303,
      "ÑĸÐ²ÐµÑĢ": 2304,
      "itt": 2305,
      "onnen": 2306,
      "ĠKinder": 2307,
      "ĠGeb": 2308,
      "Ġbeim": 2309,
      "ÐµÑĢÑĤ": 2310,
      "ĠÐĴÐ¸": 2311,
      "ĠÐ»Ñĸ": 2312,
      "Ð¾Ð½Ð¸": 2313,
      "halten": 2314,
      "laub": 2315,
      "ÐºÑĢÐ°ÑĹÐ½": 2316,
      "ĠPerson": 2317,
      "25": 2318,
      "Bett": 2319,
      "Re": 2320,
      "Teil": 2321,
      "ast": 2322,
      "dern": 2323,
      "dien": 2324,
      "ff": 2325,
      "fi": 2326,
      "fall": 2327,
      "fangen": 2328,
      "mÃ¤": 2329,
      "par": 2330,
      "zÃ¤": 2331,
      "Ġ9": 2332,
      "ĠÑĨÑĸ": 2333,
      "Ġ................................": 2334,
      "ĠÐŀ": 2335,
      "ÐµÐ³": 2336,
      "ÑģÐ¸ÑĤ": 2337,
      "Ð°ÑĪ": 2338,
      "org": 2339,
      "ÑĢÐ¾Ð±": 2340,
      "stei": 2341,
      "ÐºÐ¾": 2342,
      "ÑĩÐ°ÑĤÐ¸": 2343,
      "Ð¾Ð²ÑĸÐ´": 2344,
      "aut": 2345,
      "ĠÐ¼ÑĥÐ·": 2346,
      "ĠÑģÐµ": 2347,
      "ĠAb": 2348,
      "ĠAl": 2349,
      "Ð¿ÑĢÐ°Ð²": 2350,
      "ĠSte": 2351,
      "ĠÑģÑĤÑĥÐ´ÐµÐ½ÑĤ": 2352,
      "Ġnoch": 2353,
      "schw": 2354,
      "schule": 2355,
      "ÑĨÑĸÐ¾Ð½Ð°": 2356,
      "ĠFin": 2357,
      "see": 2358,
      "ĠÐºÐ¾Ð³Ð¾ÑģÑĮ": 2359,
      "Ð¾Ð»Ñĸ": 2360,
      "ommen": 2361,
      "ĠMeinung": 2362,
      "ĠÐ½Ð°ÑĨÑĸÐ¾Ð½Ð°": 2363,
      "ÑħÐ¾Ð´": 2364,
      "Ð·Ð°": 2365,
      "ĠErgÃ¤nzen": 2366,
      "ĠLand": 2367,
      "ĠLinks": 2368,
      "teres": 2369,
      "amen": 2370,
      "ĠRelativ": 2371,
      "ĠÐ³Ð¾Ð²Ð¾ÑĢ": 2372,
      "ĠÑĢÐ°Ð´": 2373,
      "Ġje": 2374,
      "cker": 2375,
      "verb": 2376,
      "ĠNeben": 2377,
      "rÃ¼f": 2378,
      "ĠÐ²Ð¶Ðµ": 2379,
      "ĠâĨĴ": 2380,
      "ĠÑĪÐº": 2381,
      "Ð½Ð¸Ñħ": 2382,
      "gaben": 2383,
      "oss": 2384,
      "ĠReflexiv": 2385,
      "ĠReise": 2386,
      "Ð°Ð³Ð°ÑĤÐ¾": 2387,
      "bildung": 2388,
      "ÑĸÐ²ÐµÑĢÑģÐ¸ÑĤ": 2389,
      "fix": 2390,
      "Ġ................................................................": 2391,
      "ÑĸÐ²ÐµÑĢÑģÐ¸ÑĤÐµÑĤ": 2392,
      ",-": 2393,
      "24": 2394,
      "bie": 2395,
      "bes": 2396,
      "drÃ¼": 2397,
      "fl": 2398,
      "fon": 2399,
      "fol": 2400,
      "hei": 2401,
      "ic": 2402,
      "rlaub": 2403,
      "Ðľ": 2404,
      "Ġe": 2405,
      "Ð¾ÑĤÐ¸": 2406,
      "ÑĸÑİ": 2407,
      "Ð¸Ñĩ": 2408,
      "ÐµÐ½ÑĮ": 2409,
      "inga": 2410,
      "ĠIm": 2411,
      "ÑĩÐ°": 2412,
      "ĠÐ¼ÐµÐ½": 2413,
      "ĠÐ¼Ð°Ð³": 2414,
      "ĠÑģÐº": 2415,
      "Ð¾Ð¼ÑĥÑģÑĮ": 2416,
      "tikel": 2417,
      "Ð¿Ð°Ð´": 2418,
      "ĠÑĥÐ½": 2419,
      "ĠÐ¿ÑĢÐ¸Ð¹": 2420,
      "ĠFern": 2421,
      "ĠFrage": 2422,
      "ĠÐºÐ°ÑĢ": 2423,
      "ĠÐºÐ¾Ð½": 2424,
      "ĠÐ¾ÑĢ": 2425,
      "Ð°Ð²Ð°ÑĤÐ¸": 2426,
      "ĠPerfekt": 2427,
      "Ð²ÑĸÐ·": 2428,
      "ĠHaupt": 2429,
      "Ġange": 2430,
      "ĠWohn": 2431,
      "ĠWort": 2432,
      "ĠUm": 2433,
      "ierte": 2434,
      "Ġzur": 2435,
      "Ð°ÑĤÐ°": 2436,
      "ĠÐ³ÑĢ": 2437,
      "hlt": 2438,
      "Ã¤lt": 2439,
      "igkeit": 2440,
      "beim": 2441,
      "ÐµÑĢÑĪ": 2442,
      "liche": 2443,
      "Ð¸Ð²Ð°ÑĤÐ¸": 2444,
      "Ð¾ÑĩÐ¸Ð½": 2445,
      "ĠPrÃ¤fix": 2446,
      "ĠÐ»ÑİÐ±Ð»Ñİ": 2447,
      "ĠÐ¿ÑĢÐ°ÑĨ": 2448,
      "ĠwÃ¤re": 2449,
      "ingap": 2450,
      "60": 2451,
      "Ar": 2452,
      "Kon": 2453,
      "Man": 2454,
      "Pl": 2455,
      "Un": 2456,
      "Vater": 2457,
      "are": 2458,
      "agen": 2459,
      "fr": 2460,
      "fÃ¤": 2461,
      "hÃ¤n": 2462,
      "ram": 2463,
      "zung": 2464,
      "ĠÑģÐ»ÑĸÐ´": 2465,
      "Ġrich": 2466,
      "ÑĸÑģ": 2467,
      "ÑĸÐ»ÑĮÐ½": 2468,
      "ÑĸÐ³": 2469,
      "Ð°Ðº": 2470,
      "Ð¸ÑĢ": 2471,
      "ÐµÐ½Ð´Ð°": 2472,
      "Ð»Ð¸Ðº": 2473,
      "Ð¼Ð¾Ð²": 2474,
      "ÐºÑĤ": 2475,
      "ÑĩÐ¸Ð¹": 2476,
      "ĠInfinitiv": 2477,
      "assen": 2478,
      "Ð´Ð¸Ð½": 2479,
      "ĠÐ¼ÐµÐ½Ñĸ": 2480,
      "haft": 2481,
      "ĠÑģÐµÑĢ": 2482,
      "Ð»ÑıÐ´": 2483,
      "Ġwich": 2484,
      "eiden": 2485,
      "Ġgel": 2486,
      "Ð¾ÑĢÐ¾Ð¶": 2487,
      "Ġbis": 2488,
      "Ã¼ler": 2489,
      "Ð¸Ð¼Ð¸": 2490,
      "ĠSe": 2491,
      "ĠÐ¿ÑĢÐ¾Ð´": 2492,
      "ĠÐ·Ð°Ð±": 2493,
      "ĠKl": 2494,
      "Ġdiese": 2495,
      "Ġger": 2496,
      "ĠÐ±Ñĸ": 2497,
      "Ġschon": 2498,
      "Ð½ÐµÑĢ": 2499,
      "hnen": 2500,
      "ĠSchÃ¼ler": 2501,
      "ĠÐ¼ÑĸÑģÑĨÐµ": 2502,
      "ĠÑĸÐ·": 2503,
      "ald": 2504,
      "ĠÐ³Ð°ÑĢ": 2505,
      "seln": 2506,
      "immen": 2507,
      "learn": 2508,
      "lefon": 2509,
      "sieren": 2510,
      "Schrank": 2511,
      "ĠÑĢÐ¾Ð±Ð¾Ñĩ": 2512,
      "ĠPrÃ¤position": 2513,
      "Stu": 2514,
      "geln": 2515,
      "ÑĸÐ»ÑĮÐ¼": 2516,
      "ĠÐ´ÑĥÐ¼": 2517,
      "ĠÐ²ÐµÑĩ": 2518,
      "ĠÑĤÐµÐ»ÐµÐ²ÑĸÐ·": 2519,
      "endungen": 2520,
      "Ð¾Ð»Ð¾Ð³ÑĸÑĹ": 2521,
      "irekte": 2522,
      "Ġetwas": 2523,
      "ĠmÃ¶chte": 2524,
      "Ġzwischen": 2525,
      "rÃ¼fung": 2526,
      "ĠÐ¼Ð°Ð³Ð°Ð·": 2527,
      "ĠÑĥÐ½ÑĸÐ²ÐµÑĢÑģÐ¸ÑĤÐµÑĤ": 2528,
      "26": 2529,
      "27": 2530,
      "28": 2531,
      "CH": 2532,
      "Ein": 2533,
      "TE": 2534,
      "Tisch": 2535,
      "br": 2536,
      "eer": 2537,
      "gl": 2538,
      "hÃ¶r": 2539,
      "latz": 2540,
      "lbst": 2541,
      "pa": 2542,
      "ran": 2543,
      "sit": 2544,
      "tzt": 2545,
      "tner": 2546,
      "uhe": 2547,
      "vest": 2548,
      "verl": 2549,
      "xt": 2550,
      "Ġ.": 2551,
      "Ġgen": 2552,
      "Ġ...": 2553,
      "ĠÐĲ": 2554,
      "Ð½ÑĤ": 2555,
      "Ð¾ÑĪ": 2556,
      "ÑıÐ³": 2557,
      "ÑĸÐ¼": 2558,
      "ÑĤÑĸ": 2559,
      "ÑĥÐ±": 2560,
      "inn": 2561,
      "Ð¾Ð²Ð¾": 2562,
      "ĠÐ¿Ð¾Ðº": 2563,
      "ĠÐ´Ð¸Ð²": 2564,
      "aul": 2565,
      "ĠÐ·Ð½": 2566,
      "ĠÐ·Ð²": 2567,
      "geord": 2568,
      "ĠÐ²Ð¾Ð½Ð°": 2569,
      "ĠDa": 2570,
      "Ġso": 2571,
      "eigen": 2572,
      "ÑĤÐ¸ÑģÑı": 2573,
      "Ġgesch": 2574,
      "tisch": 2575,
      "ĠÐ£ÐºÑĢÐ°ÑĹÐ½": 2576,
      "Ð»ÑĮÑĤ": 2577,
      "ĠBau": 2578,
      "Ð¿ÑĢÐ¾": 2579,
      "ÑĨÑĸÑĹ": 2580,
      "ĠÐ¿ÑĢÐ¾Ð²": 2581,
      "arf": 2582,
      "ĠÑĩÐ¸": 2583,
      "ĠÑĩÐ¾Ð¼ÑĥÑģÑĮ": 2584,
      "unkt": 2585,
      "ĠKont": 2586,
      "ĠFilm": 2587,
      "ĠÐºÐ¾Ð»Ð¸": 2588,
      "ĠÐ¾Ð´": 2589,
      "ÐµÑĢÐµÐ·": 2590,
      "ĠMÃ¼": 2591,
      "ĠMit": 2592,
      "ĠModalverben": 2593,
      "ÑģÑĤÐ²Ð¾": 2594,
      "Ð±ÑĥÐ´": 2595,
      "usam": 2596,
      "ĠArtikel": 2597,
      "ĠfÃ¼": 2598,
      "Ġfolgen": 2599,
      "ĠÐ¼ÑĸÑģÑĤ": 2600,
      "ĠSchw": 2601,
      "ĠSchul": 2602,
      "ĠÑĸÐ½ÑĪ": 2603,
      "Ð°Ð»ÑĮÐ½Ð¸Ð¹": 2604,
      "Ġkon": 2605,
      "ÃŁe": 2606,
      "Ġ->": 2607,
      "Ġselbst": 2608,
      "achten": 2609,
      "ildet": 2610,
      "altung": 2611,
      "ĠÐ½ÑĸÐ¼ÐµÑĨÑĮÐºÐ¾ÑĹ": 2612,
      "ĠGesch": 2613,
      "ĠÐ³Ð¾Ð´": 2614,
      "ĠÐ³Ð¾ÑĤ": 2615,
      "izeit": 2616,
      "lassen": 2617,
      "ĠâĢ¦:": 2618,
      "Ġbesch": 2619,
      "elma": 2620,
      "erein": 2621,
      "neten": 2622,
      "ĠĠĠ": 2623,
      "Ġoft": 2624,
      "Ð½Ð¸Ð¶": 2625,
      "ĠÐ¿Ð¾Ð´Ð¾ÑĢÐ¾Ð¶": 2626,
      "Ã¶rter": 2627,
      "ĠÐĿÑĸ": 2628,
      "liegen": 2629,
      "ogra": 2630,
      "Ð°ÑİÑĤÑĮ": 2631,
      "gebot": 2632,
      "flexive": 2633,
      "waschen": 2634,
      "ĠWelche": 2635,
      "nahm": 2636,
      "Ġverwendet": 2637,
      "ĠwÃ¼rde": 2638,
      "ĠHandlung": 2639,
      "ĠÑĸÐ¼ÐµÐ½Ñĸ": 2640,
      "mÃ¤ÃŁ": 2641,
      "ĠNebensatz": 2642,
      "ĠReflexivpronomen": 2643,
      "Ġ................................................................................": 2644,
      "ingapps": 2645,
      "learningapps": 2646,
      "ĠÑĤÐµÐ»ÐµÐ²ÑĸÐ·Ð¾ÑĢ": 2647,
      "ĠÐ¼Ð°Ð³Ð°Ð·Ð¸Ð½": 2648,
      "vestor": 2649,
      "geordneten": 2650,
      "usammen": 2651,
      "20": 2652,
      "21": 2653,
      "47": 2654,
      "88": 2655,
      "An": 2656,
      "Ap": 2657,
      "IL": 2658,
      "NG": 2659,
      "RA": 2660,
      "SCH": 2661,
      "Um": 2662,
      "UNG": 2663,
      "dig": 2664,
      "dlich": 2665,
      "fer": 2666,
      "hung": 2667,
      "hÃ¤lt": 2668,
      "mel": 2669,
      "ob": 2670,
      "prÃ¤": 2671,
      "rag": 2672,
      "teil": 2673,
      "ust": 2674,
      "wo": 2675,
      "wel": 2676,
      "ym": 2677,
      "zw": 2678,
      "ĠQ": 2679,
      "Ġfe": 2680,
      "ĠÑĢÑĸ": 2681,
      "Ġemp": 2682,
      "recher": 2683,
      "Ð¸Ð»": 2684,
      "Ð¸Ð´": 2685,
      "ende": 2686,
      "ÑĢÐ¿": 2687,
      "ÑĢÐ½Ð¸Ð¹": 2688,
      "ÐµÐ½Ð´": 2689,
      "ÑĥÑĤÑĮ": 2690,
      "ĠChe": 2691,
      "ÑĶÐ¼": 2692,
      "Ð¼Ñĸ": 2693,
      "infinitiv": 2694,
      "ÐºÐ°Ð²": 2695,
      "ÑĩÐ½Ð¾": 2696,
      "Ð¾Ð²ÑĥÐ²Ð°ÑĤÐ¸": 2697,
      "ĠInvestor": 2698,
      "auber": 2699,
      "ĠÐ·Ð´": 2700,
      "ĠÐ·Ð±": 2701,
      "gesp": 2702,
      "ĠÑģÐ²ÑĸÑĤ": 2703,
      "ĠÐ²Ð¸ÑĤ": 2704,
      "anden": 2705,
      "Ġget": 2706,
      "tige": 2707,
      "utz": 2708,
      "Ð²Ð¾Ñĩ": 2709,
      "Ð¾ÑĢÐ¸": 2710,
      "Ð¾Ð³Ð¾Ð´": 2711,
      "irma": 2712,
      "ÑĦÐ¾Ð½": 2713,
      "ĠSomm": 2714,
      "Ð¾Ð´Ð¸ÑĤÐ¸": 2715,
      "Ġnur": 2716,
      "eite": 2717,
      "eiten": 2718,
      "Ã¤u": 2719,
      "ÑĨÑĸÑİ": 2720,
      "ark": 2721,
      "ĠÑĩÐ¾Ð³Ð¾ÑģÑĮ": 2722,
      "ĠÑĩÐ¸Ð¼Ð¾ÑģÑĮ": 2723,
      "ĠKar": 2724,
      "ĠFÃ¤": 2725,
      "llen": 2726,
      "ĠÐ¾Ñĩ": 2727,
      "ĠÐ¾Ð¿": 2728,
      "ĠÐ¾Ñħ": 2729,
      "ĠÑĦÑĸÐ»ÑĮÐ¼": 2730,
      "ĠÐ¿Ð¾Ñģ": 2731,
      "ĠÐ¿Ð¾ÑĹ": 2732,
      "Ð±Ðµ": 2733,
      "usik": 2734,
      "ĠTre": 2735,
      "ĠTÃ¤": 2736,
      "ĠÐ±Ð°Ð½": 2737,
      "ĠÐ±ÑĢÐ°ÑĤÐ¸": 2738,
      "Ð°Ð½Ð¾": 2739,
      "Ð°Ð½ÑĤ": 2740,
      "bereit": 2741,
      "pel": 2742,
      "Ġfin": 2743,
      "estell": 2744,
      "ete": 2745,
      "etz": 2746,
      "ĠÑĸÐ½ÑĤÐµÑĢ": 2747,
      "Ġzwei": 2748,
      "alen": 2749,
      "ĠUrlaub": 2750,
      "Ġverl": 2751,
      "att": 2752,
      "aten": 2753,
      "Ð°ÑĤÐµ": 2754,
      "ĠFreizeit": 2755,
      "Ġhinter": 2756,
      "ĠÐľÐ¸": 2757,
      "Geld": 2758,
      "ĠLeben": 2759,
      "brauch": 2760,
      "Ġ18": 2761,
      "Ġbekommen": 2762,
      "Ġbegin": 2763,
      "Ð¾ÑģÑĤÑĸ": 2764,
      "weiz": 2765,
      "ult": 2766,
      "ular": 2767,
      "Ð°Ð¹Ð±": 2768,
      "ĠSpiel": 2769,
      "ĠÑĢÐ¾Ð·Ð¿": 2770,
      "ÑĸÐ»ÑĮÑĪ": 2771,
      "halt": 2772,
      "Ð²Ð¸Ñĩ": 2773,
      "ĠÐ¹Ð¾Ð³Ð¾": 2774,
      "ĠÐ¹Ð´Ðµ": 2775,
      "ĠJa": 2776,
      "ĠÐĽÐµÑģÑĸ": 2777,
      "boten": 2778,
      "Ġsollte": 2779,
      "ĠÐ¯ÐºÑīÐ¾": 2780,
      "ĠÑħÐ¾ÑĩÐµ": 2781,
      "rache": 2782,
      "Ġandere": 2783,
      "ĠStadt": 2784,
      "ziehen": 2785,
      "ĠÑĦÑĸÐ»Ð¾Ð»Ð¾Ð³ÑĸÑĹ": 2786,
      "bauen": 2787,
      "emporale": 2788,
      "ĠÐ¿ÑĢÐ¾Ð¿Ð¾Ð·Ð¸": 2789,
      "ĠÐ¼ÑĥÐ·Ð¸Ðº": 2790,
      "ĠÐ³Ð¾Ð²Ð¾ÑĢÐ¸ÑĤÐ¸": 2791,
      "Ġjeden": 2792,
      "TEIL": 2793,
      "ĠÐ£ÐºÑĢÐ°ÑĹÐ½ÐºÐ¸": 2794,
      "ĠSommer": 2795,
      "07": 2796,
      "36": 2797,
      "50": 2798,
      "96": 2799,
      "Be": 2800,
      "Computer": 2801,
      "Dat": 2802,
      "EF": 2803,
      "EM": 2804,
      "ERT": 2805,
      "HEM": 2806,
      "IK": 2807,
      "Im": 2808,
      "IEF": 2809,
      "MM": 2810,
      "Mit": 2811,
      "ORT": 2812,
      "STEIL": 2813,
      "THEM": 2814,
      "Wenn": 2815,
      "abl": 2816,
      "bar": 2817,
      "brechen": 2818,
      "ii": 2819,
      "jug": 2820,
      "kra": 2821,
      "laden": 2822,
      "nung": 2823,
      "ogen": 2824,
      "ossen": 2825,
      "ppe": 2826,
      "rund": 2827,
      "sa": 2828,
      "sam": 2829,
      "tschaft": 2830,
      "zug": 2831,
      "©Ð¾": 2832,
      "Ġind": 2833,
      "Ð½Ð¾Ð¼": 2834,
      "Ð½Ð¾Ð¼Ñĥ": 2835,
      "Ð½ÑĸÐ¹": 2836,
      "Ð¾Ñħ": 2837,
      "ÐµÐ»ÑĮ": 2838,
      "ÐµÑĨÑĸ": 2839,
      "ÑıÐ²": 2840,
      "ÑıÐ·": 2841,
      "ret": 2842,
      "Ð°Ð»Ð¸": 2843,
      "Ð¸Ð»Ð°": 2844,
      "ÑĥÑĪ": 2845,
      "Ð¼Ð°ÑĤÐ¸": 2846,
      "innen": 2847,
      "stÃ¼r": 2848,
      "ÐºÐ»Ð°Ð´": 2849,
      "Ð¾Ð²Ð½Ð¸Ð¹": 2850,
      "ÑģÐ½Ð¸Ð¹": 2851,
      "ĠÐ¿Ð¾Ð¼": 2852,
      "ĠÐ¿Ð¾Ð¿": 2853,
      "ĠÐ´Ð¾Ð¼": 2854,
      "ĠÐ´ÑĸÑĶ": 2855,
      "ĠÐ´Ð¾Ð´": 2856,
      "asse": 2857,
      "ĠÐ¼Ð°ÑĤÐµ": 2858,
      "ĠÐ½Ð¾Ð²": 2859,
      "ĠÑģÐ¼Ð°": 2860,
      "ĠÐ²Ð±": 2861,
      "ange": 2862,
      "Ġwann": 2863,
      "ÑĤÐ¸Ð¹": 2864,
      "tigen": 2865,
      "Ġmal": 2866,
      "ÑĸÐ´Ð¾Ð¼": 2867,
      "Ð²Ð¸Ð¹": 2868,
      "Ð²ÐµÑĢ": 2869,
      "ĠAuf": 2870,
      "ÑĨÑĤ": 2871,
      "Ã¼tz": 2872,
      "ĠBl": 2873,
      "ĠÑĢÐµÐºÐ¾Ð¼": 2874,
      "ĠÑģÑĤÑĢÐ°Ð²": 2875,
      "ĠÑģÑĤÐ¾ÑĹ": 2876,
      "ĠÐ¿ÑĢÐ¾Ð±": 2877,
      "ĠHo": 2878,
      "ĠHer": 2879,
      "ĠHoch": 2880,
      "ĠKre": 2881,
      "ĠFall": 2882,
      "ĠFirma": 2883,
      "setzt": 2884,
      "ĠÐºÐ¸Ð¼Ð¾ÑģÑĮ": 2885,
      "ÑİÑĤÑĮ": 2886,
      "ĠÐ¾Ð²Ð¾Ñĩ": 2887,
      "Ð¾Ð»Ð¸Ð½": 2888,
      "ĠÐ·Ð°Ñħ": 2889,
      "Ð»ÑĮÐ½Ð¾Ð³Ð¾": 2890,
      "ĠGarten": 2891,
      "ĠGRA": 2892,
      "ĠMen": 2893,
      "ÑģÑĤÑĢÑĥ": 2894,
      "Ġganz": 2895,
      "Ð°Ð²ÑģÑı": 2896,
      "ĠTag": 2897,
      "Ġaufge": 2898,
      "rochen": 2899,
      "ĠÐ½Ð°ÑĢÐ¾Ð´": 2900,
      "ĠÐ½Ð°ÑĪ": 2901,
      "ĠSubjekt": 2902,
      "ichten": 2903,
      "ĠZug": 2904,
      "ĠÐ±Ð°Ð³Ð°ÑĤÐ¾": 2905,
      "Ð°Ð½Ñĸ": 2906,
      "best": 2907,
      "Ġtrennb": 2908,
      "ĠÑģÐ¿ÑĸÐ²": 2909,
      "Ã¶glich": 2910,
      "ĠSchl": 2911,
      "ĠSchreiben": 2912,
      "ĠÐ±ÑĥÐ´Ð¸Ð½": 2913,
      "etter": 2914,
      "ĠWendungen": 2915,
      "ĠWORT": 2916,
      "itten": 2917,
      "one": 2918,
      "ĠÐ¶Ð¸ÑĤ": 2919,
      "erlativ": 2920,
      "ĠÐ¿Ð¾Ð²ÐµÑĢ": 2921,
      "ĠÐ¿Ð¾Ð²ÑĸÐ´Ð¾Ð¼": 2922,
      "ĠVERT": 2923,
      "ĠFreunde": 2924,
      "ĠReg": 2925,
      "Ġviele": 2926,
      "Ð»Ð°ÑĪÑĤ": 2927,
      "ĠEn": 2928,
      "ĠEssen": 2929,
      "hol": 2930,
      "hoch": 2931,
      "ĠâĢ¦.": 2932,
      "SchlÃ¼ssel": 2933,
      "Ġ20": 2934,
      "ĠNo": 2935,
      "ĠNatur": 2936,
      "ÑĢÐ°ÑĪ": 2937,
      "mittel": 2938,
      "Ġverb": 2939,
      "Ġ12": 2940,
      "ational": 2941,
      "ĠÃ¼bergeordneten": 2942,
      "ĠÐ²Ð¸Ð¿Ð°Ð´": 2943,
      "Ã¤ndern": 2944,
      "ĠÐ´Ð¾ÑħÑĸÐ´": 2945,
      "ĠBeantworten": 2946,
      "ÑģÑĮÐºÐ¾Ð³Ð¾": 2947,
      "stellt": 2948,
      "stellen": 2949,
      "junktion": 2950,
      "rift": 2951,
      "klin": 2952,
      "ĠÑĤÐµÐ»ÐµÑĦÐ¾Ð½": 2953,
      "Ð²Ð°Ð¶Ð°Ñİ": 2954,
      "ĠOrd": 2955,
      "handel": 2956,
      "Ġsollten": 2957,
      "ĠÐ½Ð°Ð²Ñĩ": 2958,
      "zeug": 2959,
      "ĠÑīÐµ": 2960,
      "ATZ": 2961,
      "ATIK": 2962,
      "omparativ": 2963,
      "omparation": 2964,
      "ĠÐºÐ°ÑĦ": 2965,
      "ĠStraÃŁen": 2966,
      "fallen": 2967,
      "ĠÑĨÑĸÐºÐ°Ð²": 2968,
      "steig": 2969,
      "drÃ¼cken": 2970,
      "heim": 2971,
      "ĠÐ¼ÐµÐ½Ðµ": 2972,
      "ĠHauptsatz": 2973,
      "ĠWohnung": 2974,
      "Ġwichtig": 2975,
      "SCHATZ": 2976,
      "UNGSTEIL": 2977,
      "welt": 2978,
      "IEFUNGSTEIL": 2979,
      "MMATIK": 2980,
      "THEMA": 2981,
      "ĠÑģÑĤÐ¾ÑĹÑĤÑĮ": 2982,
      "ĠGRAMMATIK": 2983,
      "ĠWORTSCHATZ": 2984,
      "ĠVERTIEFUNGSTEIL": 2985,
      "37": 2986,
      "40": 2987,
      "79": 2988,
      "Ab": 2989,
      "Aus": 2990,
      "Akk": 2991,
      "Auf": 2992,
      "Bahn": 2993,
      "Co": 2994,
      "Ma": 2995,
      "Su": 2996,
      "ade": 2997,
      "eklin": 2998,
      "fragen": 2999,
      "finden": 3000,
      "gie": 3001,
      "io": 3002,
      "iÃŁ": 3003,
      "ion": 3004,
      "iver": 3005,
      "punkt": 3006,
      "rÃ¼n": 3007,
      "so": 3008,
      "sw": 3009,
      "son": 3010,
      "tre": 3011,
      "tlich": 3012,
      "wa": 3013,
      "zieren": 3014,
      "zogen": 3015,
      "ÐŁ": 3016,
      "Ġa": 3017,
      "ĠÃ¼b": 3018,
      "ĠÐĩ": 3019,
      "ĠÐĵ": 3020,
      "ĠÐ©Ð¾": 3021,
      "Ð½ÑĶ": 3022,
      "ÐµÐ¶": 3023,
      "ÐµÑĢÑĥ": 3024,
      "ÑıÑĤÑĮ": 3025,
      "ÑĸÑĤÐ°": 3026,
      "ÑģÑĸÐ´": 3027,
      "reflexive": 3028,
      "Ð¸ÑĪ": 3029,
      "ÑĤÑĤÑı": 3030,
      "ÑĢÐ¾Ð²": 3031,
      "ÑĢÐ¾Ð·": 3032,
      "ÑĥÐ»ÑĮÑĤ": 3033,
      "inen": 3034,
      "standen": 3035,
      "iere": 3036,
      "ieder": 3037,
      "ĠÐ¿ÑĢÐµ": 3038,
      "asch": 3039,
      "Ð´ÑĸÐ»": 3040,
      "ĠÐ¼Ð¾ÑĢ": 3041,
      "ĠÐ¼Ð¾Ð²Ð¸": 3042,
      "ÑĮÐ¾Ð³Ð¾Ð´": 3043,
      "geld": 3044,
      "ĠÑģÐ¼": 3045,
      "ÑĸÑĶÑİ": 3046,
      "ĠÐ²Ð¾Ð½Ð¸": 3047,
      "ander": 3048,
      "ĠDach": 3049,
      "eist": 3050,
      "eiger": 3051,
      "Ġgef": 3052,
      "Ġkenn": 3053,
      "aufgaben": 3054,
      "ĠAuss": 3055,
      "ĠAktiv": 3056,
      "ÑĨÐµÐ½ÑĤ": 3057,
      "irge": 3058,
      "ĠBo": 3059,
      "ĠBei": 3060,
      "ĠSing": 3061,
      "Ð¾Ð´Ð¸Ñĩ": 3062,
      "achsen": 3063,
      "âĢĺ": 3064,
      "ĠnÃ¤": 3065,
      "schrift": 3066,
      "ĠÐ·Ð°Ð³": 3067,
      "ĠHa": 3068,
      "genommen": 3069,
      "ĠÐºÐ»": 3070,
      "ĠÐºÐ°Ð²": 3071,
      "ĠÐºÑĥÑĢ": 3072,
      "llig": 3073,
      "ĠÐ·Ð°Ð¼Ð¾Ð²": 3074,
      "ĠÐ·Ð°ÑĢÐ¿": 3075,
      "feste": 3076,
      "ĠÑĩÐ°ÑģÑĥ": 3077,
      "ĠÑĦÑĸÑĢ": 3078,
      "ĠGer": 3079,
      "ĠGem": 3080,
      "ĠMeer": 3081,
      "Ð±Ð°": 3082,
      "Ð±Ñĥ": 3083,
      "ĠTur": 3084,
      "ÑĢÑĸÑĹ": 3085,
      "ĠÐ½Ð°ÑĥÐº": 3086,
      "ĠPo": 3087,
      "ĠPosition": 3088,
      "ĠPrÃ¼fung": 3089,
      "ĠPaul": 3090,
      "Ð½Ð°Ð»": 3091,
      "Ð²ÑĸÑģÑĤÑĮ": 3092,
      "Ð½ÑıÑĤÑĤÑı": 3093,
      "Ġersten": 3094,
      "beg": 3095,
      "ĠÑģÐ¿ÐµÑĨÑĸ": 3096,
      "Ġschw": 3097,
      "ĠSchweiz": 3098,
      "isten": 3099,
      "rÃ¤ch": 3100,
      "ĠWun": 3101,
      "itze": 3102,
      "ische": 3103,
      "erman": 3104,
      "ĠLie": 3105,
      "Ġsicher": 3106,
      "ĠÐľÐµÐ½Ñĸ": 3107,
      "etzten": 3108,
      "lasse": 3109,
      "ĠÑĢÐ¾Ðº": 3110,
      "ĠâĢ¦,": 3111,
      "ÑīÐ°": 3112,
      "ĠOp": 3113,
      "ĠObjekt": 3114,
      "ÑģÑĮÐºÐ°": 3115,
      "Ð¾Ð½Ð¾Ð¼": 3116,
      "ÑĢÐ°Ñħ": 3117,
      "Ð¾ÑĩÐµ": 3118,
      "ĠKonjunktiv": 3119,
      "ĠÑħÐ¾ÑĤÑĸ": 3120,
      "zent": 3121,
      "ĠÐ²Ð¸Ð±": 3122,
      "ĠÐ¿ÑĢÐ¾ÑĦ": 3123,
      "ĠÐ´Ð¾ÑĨÐµÐ½ÑĤ": 3124,
      "gelmÃ¤ÃŁ": 3125,
      "ÐµÐºÑĤÐ¸": 3126,
      "egation": 3127,
      "Ġstatt": 3128,
      "matik": 3129,
      "Ġabge": 3130,
      "ĠSatzende": 3131,
      "fÃ¼hr": 3132,
      "lang": 3133,
      "Ð¾ÑģÐ¸ÑĤÐ¸": 3134,
      "ĠÑĹÑĹ": 3135,
      "richten": 3136,
      "ĠÐ²ÑĸÐ´Ð¿ÑĥÑģÑĤ": 3137,
      "ĠÐ²ÑĸÐ´Ð¿Ð¾Ð²ÑĸÐ´": 3138,
      "opf": 3139,
      "oppel": 3140,
      "ĠÐºÑĥÐ¿Ð¸ÑĤÐ¸": 3141,
      "hÃ¶ren": 3142,
      "schieden": 3143,
      "ĠÐ¾ÑģÐ¾Ð±": 3144,
      "zeugen": 3145,
      "Ġanderen": 3146,
      "ÑĥÑģÑĤÑĢÑĸ": 3147,
      "Ġdavon": 3148,
      "ĠÐ¿Ð°ÑĢÑĤ": 3149,
      "ĠAdjektive": 3150,
      "ĠFlug": 3151,
      "ĠÐ·Ð»Ð¾ÑĩÐ¸Ð½": 3152,
      "Ġgerne": 3153,
      "dium": 3154,
      "www": 3155,
      "ĠÐ¦Ðµ": 3156,
      "ĠGebÃ¤u": 3157,
      "ĠFinalsatz": 3158,
      "ĠÐ½Ð°ÑĨÑĸÐ¾Ð½Ð°Ð»ÑĮÐ½Ð¾Ð³Ð¾": 3159,
      "ico": 3160,
      "ĠFernsehen": 3161,
      "ĠÐ¿ÑĢÐ°ÑĨÑİ": 3162,
      "Arbeit": 3163,
      "sitÃ¤t": 3164,
      "ĠÐ¾Ð´ÑıÐ³": 3165,
      "Ġkonjug": 3166,
      "ograf": 3167,
      "hÃ¤ltnis": 3168,
      "ĠÑĢÑĸÐ·": 3169,
      "gesprÃ¤ch": 3170,
      "Ġfinde": 3171,
      "Ġbeginnt": 3172,
      "Ð°Ð¹Ð±ÑĥÑĤ": 3173,
      "Ð²Ð¸ÑĩÐ°Ð¹": 3174,
      "ĠÐ²Ð±Ð¸Ð²": 3175,
      "ĠÐ¿ÑĢÐ¾Ð±Ð»Ðµ": 3176,
      "hochschule": 3177,
      "iversitÃ¤t": 3178,
      "ÑĮÐ¾Ð³Ð¾Ð´Ð½Ñĸ": 3179,
      "Ġkenne": 3180,
      "ĠÐ·Ð°ÑĢÐ¿Ð»": 3181,
      "!!": 3182,
      "34": 3183,
      "48": 3184,
      "Fach": 3185,
      "LÃ¶ffel": 3186,
      "SB": 3187,
      "Wel": 3188,
      "__": 3189,
      "ati": 3190,
      "bÃ¼": 3191,
      "bahn": 3192,
      "bringen": 3193,
      "dir": 3194,
      "eter": 3195,
      "ehmen": 3196,
      "film": 3197,
      "go": 3198,
      "glei": 3199,
      "gab": 3200,
      "gang": 3201,
      "garten": 3202,
      "ick": 3203,
      "itik": 3204,
      "jahr": 3205,
      "ker": 3206,
      "kehr": 3207,
      "komparation": 3208,
      "lage": 3209,
      "md": 3210,
      "mm": 3211,
      "modalverben": 3212,
      "oren": 3213,
      "passiv": 3214,
      "rim": 3215,
      "san": 3216,
      "sum": 3217,
      "siert": 3218,
      "smittel": 3219,
      "tag": 3220,
      "tieren": 3221,
      "trennb": 3222,
      "zei": 3223,
      "Ãĸ": 3224,
      "ÐĲ": 3225,
      "ÐĿ": 3226,
      "Ġ:": 3227,
      "Ġ=": 3228,
      "ĠNom": 3229,
      "ĠÑģÐ»Ñĥ": 3230,
      "Ð½Ð¸Ð¼": 3231,
      "ÐµÐ»": 3232,
      "ÑģÐº": 3233,
      "reis": 3234,
      "Ð°Ð»ÑĮ": 3235,
      "Ð°Ð»Ñĸ": 3236,
      "ches": 3237,
      "chmal": 3238,
      "ÑĢÐ¾Ð¿": 3239,
      "ÑĢÐ¸ÑĤÐ¸": 3240,
      "ÐµÐ½Ð°": 3241,
      "ÐµÐ½ÑĨÑĸÑı": 3242,
      "Ð»Ð¾": 3243,
      "Ð»ÑİÐ±": 3244,
      "era": 3245,
      "stru": 3246,
      "stit": 3247,
      "stamm": 3248,
      "ĠIhre": 3249,
      "ÐºÑĤÐ¸": 3250,
      "ÐºÑĸÐ²": 3251,
      "ÐºÐ¾Ð²Ð¸Ð¹": 3252,
      "ÑĩÑĩ": 3253,
      "ÑĩÐ½Ð°": 3254,
      "ief": 3255,
      "iesen": 3256,
      "ieÃŁen": 3257,
      "Ð¾Ð²ÐºÐ°": 3258,
      "ĠÐ¿Ð¾Ð»": 3259,
      "ĠÐ¿Ð¾Ð±": 3260,
      "ĠÐ¿Ð¸Ñģ": 3261,
      "ĠInsel": 3262,
      "ĠÐ´Ð¸": 3263,
      "ĠÐ´ÐµÐ½ÑĮ": 3264,
      "Ð´Ð°ÑĤÐ¸": 3265,
      "aupt": 3266,
      "ĠÐ¼Ð¾Ð²": 3267,
      "ĠÐ¼Ð¾Ð³": 3268,
      "ĠÐ¼Ð°Ñİ": 3269,
      "ĠÐ¼Ð°Ð¹Ð±ÑĥÑĤ": 3270,
      "ĠÐ·Ð³": 3271,
      "ĠÐ·ÑĢÐ¾Ð±": 3272,
      "Ġihn": 3273,
      "ĠÐ½Ð°Ð¿": 3274,
      "ĠÑģÐ¾": 3275,
      "ĠÑģÐ²Ð°ÑĢ": 3276,
      "ĠÐ²Ñĩ": 3277,
      "ĠÐ²Ð¿": 3278,
      "ĠÐ²ÑģÑĤ": 3279,
      "ĠÐ²Ð·": 3280,
      "ĠÐ²ÑĸÐº": 3281,
      "ĠÐ²Ð¸Ð²": 3282,
      "ĠÐ²Ð°Ð¶": 3283,
      "einer": 3284,
      "anst": 3285,
      "anzen": 3286,
      "angebot": 3287,
      "Ġweg": 3288,
      "Ġwissen": 3289,
      "Ġ(=": 3290,
      "Ġgeb": 3291,
      "Ġgeben": 3292,
      "ĠÐ½ÐµÐ²": 3293,
      "aufen": 3294,
      "Ð²Ð°Ð³": 3295,
      "Ð»ÑĮÐ¹": 3296,
      "Ġbere": 3297,
      "ĠÐ¿ÑĸÐ´Ð²Ð¸": 3298,
      "ĠBÃ¼r": 3299,
      "ess": 3300,
      "ĠSelma": 3301,
      "Ð¾Ð´Ð°": 3302,
      "ĠÑģÑĤÑĢ": 3303,
      "ĠÑģÑĤÑĢÐ°Ñħ": 3304,
      "ĠÑĥÑĩÐ°": 3305,
      "schn": 3306,
      "schutz": 3307,
      "Ã¤d": 3308,
      "ÑĨÑĸÐ¹": 3309,
      "ĠÐ¿ÑĢÐ¾Ð³": 3310,
      "erneinen": 3311,
      "ĠÑĩÐµÐº": 3312,
      "ĠÑĤÐ¾Ñĩ": 3313,
      "ĠÑĤÑĥÑĢ": 3314,
      "ĠHil": 3315,
      "ÑģÑĸÐ±": 3316,
      "ĠKann": 3317,
      "sekt": 3318,
      "ĠÐ¾ÑĦ": 3319,
      "ĠÐ¾Ð³": 3320,
      "Ð°Ð³Ð°ÑĤÐ¸": 3321,
      "Ð¾Ð»Ð°": 3322,
      "ĠÑĩÐ°Ñģ": 3323,
      "ĠGo": 3324,
      "ĠGegen": 3325,
      "ĠMo": 3326,
      "ĠMon": 3327,
      "ĠMÃ¤r": 3328,
      "ĠMesse": 3329,
      "ÑģÑĤÐ¾ÑĢ": 3330,
      "ÑģÑĤÑĢÑĸ": 3331,
      "ĠDeutschen": 3332,
      "ĠTa": 3333,
      "ĠTeil": 3334,
      "Ð°Ð¼ÑĸÐ½": 3335,
      "Ð°Ð¼Ð°ÑĤÐ¸": 3336,
      "ÑĢÑĸÐ°Ð»": 3337,
      "Ð¶ÐµÐ½Ð½Ñı": 3338,
      "ĠPf": 3339,
      "ĠPol": 3340,
      "ĠPlatz": 3341,
      "Ð³Ð¾Ð²Ð¾ÑĢ": 3342,
      "ĠArbeits": 3343,
      "Ġinteres": 3344,
      "umen": 3345,
      "ĠÐ±Ð¸": 3346,
      "Ð°Ð½Ð´": 3347,
      "begin": 3348,
      "ĠÑģÐ¿ÑĸÐ»": 3349,
      "ĠÑģÐ¿Ð¾ÑĢÑĤ": 3350,
      "Ġfern": 3351,
      "ĠÐ·Ð°Ð¹Ð¼": 3352,
      "Ð·Ð²": 3353,
      "Ð¿ÐµÑĢ": 3354,
      "ĠÐ´ÑĢÑĥÐ·": 3355,
      "chten": 3356,
      "ĠPartner": 3357,
      "Ð°Ð»ÑĮÐ½Ð°": 3358,
      "ĠWald": 3359,
      "ĠWÃ¶rter": 3360,
      "itzen": 3361,
      "ringt": 3362,
      "aler": 3363,
      "ĠUSB": 3364,
      "zig": 3365,
      "sicher": 3366,
      "ierung": 3367,
      "Ġvom": 3368,
      "Ð¾ÑĤÐµÑĢÐµ": 3369,
      "Ġneuen": 3370,
      "sprache": 3371,
      "ats": 3372,
      "ÑĥÐ²Ð°Ð»Ð°": 3373,
      "urs": 3374,
      "Ġher": 3375,
      "ĠÐ³Ð¾ÑĢ": 3376,
      "ĠÐ³Ð¾ÑģÑĤÑĸ": 3377,
      "ĠText": 3378,
      "ĠStudium": 3379,
      "schlag": 3380,
      "ĠÐ±ÐµÐ·Ð¿Ðµ": 3381,
      "zahlen": 3382,
      "warten": 3383,
      "ĠÑĢÐ°Ñħ": 3384,
      "ĠWohin": 3385,
      "Ã¶ff": 3386,
      "ĠHausaufgaben": 3387,
      "Ġmeiner": 3388,
      "ĠVerw": 3389,
      "ĠOst": 3390,
      "braucht": 3391,
      "ĠÐĴÐ°Ñģ": 3392,
      "ĠÐ»Ñİ": 3393,
      "ĠÐ»Ð¸ÑģÑĤ": 3394,
      "ĠÐ»ÐµÐº": 3395,
      "ĠÐ»Ð¾ÑĤÐµÑĢÐµ": 3396,
      "Ġ11": 3397,
      "Ġ13": 3398,
      "Ġ15": 3399,
      "ĠKonjunktion": 3400,
      "ĠÑħÐ²Ð¾ÑĢ": 3401,
      "Ð»Ð¸ÑĪ": 3402,
      "Ð»Ð¸Ð·": 3403,
      "ĠÐ¼Ð¾Ð¶Ñĥ": 3404,
      "ÐµÑĤÐ°": 3405,
      "adt": 3406,
      "adio": 3407,
      "Ð½Ð¸ÑĨÑĤ": 3408,
      "ĠVerbrecher": 3409,
      "ĠVerbstamm": 3410,
      "ÑĸÐ»ÑĮÑĪÐµ": 3411,
      "ĠÐ´ÑĥÐ¼Ð°Ñİ": 3412,
      "halb": 3413,
      "fÃ¼hren": 3414,
      "ositiv": 3415,
      "ÑĨÑĮÐºÐ°": 3416,
      "stellung": 3417,
      "Ã¤tte": 3418,
      "Ð»ÑıÑĤÐ¸ÑģÑı": 3419,
      "ĠRegel": 3420,
      "lungs": 3421,
      "ammel": 3422,
      "ĠÐ»ÑİÐ±Ð¸ÑĤÑĮ": 3423,
      "geschÃ¤ft": 3424,
      "ĠOrt": 3425,
      "ĠAusbildung": 3426,
      "Ġetw": 3427,
      "ÐµÐ´ÑĢÐ¸": 3428,
      "reiten": 3429,
      "schied": 3430,
      "Ġalle": 3431,
      "ĠÐ¾ÑģÐ²Ñĸ": 3432,
      "ĠÐµÐºÑģ": 3433,
      "ĠÐµÐºÐ¾Ð½Ð¾Ð¼": 3434,
      "meer": 3435,
      "ĠÐ§Ð¸": 3436,
      "ĠÐºÐ¾Ð»ÑĮ": 3437,
      "ĠÐºÐ¾Ð»ÐµÐ³": 3438,
      "Ð±Ð¸ÑĢÐ°ÑĤÐ¸": 3439,
      "ĠStadtr": 3440,
      "konjunktiv": 3441,
      "ÑĥÐ½Ð¾Ðº": 3442,
      "ÑģÐ»ÑĥÐ³": 3443,
      "Ġbestimm": 3444,
      "Ġverwenden": 3445,
      "ĠSofa": 3446,
      "ĠĠĠĠĠĠĠĠĠĠĠĠĠĠĠĠ": 3447,
      "ĠÐ¿Ð»Ð°Ð½": 3448,
      "ĠÐ»ÑĸÐºÐ°ÑĢ": 3449,
      "dienen": 3450,
      "zÃ¤hlt": 3451,
      "ĠAls": 3452,
      "ĠÑģÑĤÑĥÐ´ÐµÐ½ÑĤÑĸÐ²": 3453,
      "ĠRelativpronomen": 3454,
      "bieten": 3455,
      "besch": 3456,
      "folge": 3457,
      "Ġdiesem": 3458,
      "ĠÑĢÐ¾Ð±Ð¾ÑĩÐ¸Ð¹": 3459,
      "ĠÐ²ÐµÑĩÑĸÑĢ": 3460,
      "ĠÑĥÐ½ÑĸÐ²ÐµÑĢÑģÐ¸ÑĤÐµÑĤÑĥ": 3461,
      "ĠÐ´Ð¸Ð²Ð¸ÑĤÐ¸ÑģÑı": 3462,
      "Ġfolgenden": 3463,
      "Apfel": 3464,
      "ĠQR": 3465,
      "ĠChef": 3466,
      "ĠÐ¾ÑħÐ¾ÑĩÐµ": 3467,
      "ultur": 3468,
      "ĠÐ¿ÑĢÐ¾Ð¿Ð¾Ð·Ð¸ÑĨÑĸÑı": 3469,
      "tschafts": 3470,
      "ĠÑĢÐµÐºÐ¾Ð¼ÐµÐ½Ð´Ð°": 3471,
      "Ð¾Ð»Ð¸Ð½ÑģÑĮÐºÐ¾Ð³Ð¾": 3472,
      "bestimm": 3473,
      "Ã¶glichkeit": 3474,
      "ĠÐ±ÑĥÐ´Ð¸Ð½Ð¾Ðº": 3475,
      "ĠÐ¶Ð¸ÑĤÑĤÑı": 3476,
      "ĠÐºÐ°ÑĦÐµÐ´ÑĢÐ¸": 3477,
      "Codes": 3478,
      "iederlan": 3479,
      "ĠSingular": 3480,
      "ĠPost": 3481,
      "Ġkonjugierte": 3482,
      "ĠÑģÐ»ÑĥÐ¶": 3483,
      "Ġbereit": 3484,
      "ĠÐ¿ÑĸÐ´Ð²Ð¸Ñī": 3485,
      ");": 3486,
      "33": 3487,
      "35": 3488,
      "45": 3489,
      "49": 3490,
      "57": 3491,
      "67": 3492,
      "Ber": 3493,
      "Deutsch": 3494,
      "Hand": 3495,
      "Men": 3496,
      "Par": 3497,
      "Pro": 3498,
      "aha": 3499,
      "aar": 3500,
      "com": 3501,
      "dung": 3502,
      "doppel": 3503,
      "for": 3504,
      "fach": 3505,
      "fft": 3506,
      "gr": 3507,
      "gst": 3508,
      "gern": 3509,
      "gation": 3510,
      "hein": 3511,
      "higkeit": 3512,
      "ium": 3513,
      "iff": 3514,
      "kÃ¼": 3515,
      "kurs": 3516,
      "lÃ¶": 3517,
      "los": 3518,
      "markt": 3519,
      "namen": 3520,
      "ole": 3521,
      "pas": 3522,
      "perfekt": 3523,
      "perlativ": 3524,
      "qu": 3525,
      "ras": 3526,
      "rieben": 3527,
      "su": 3528,
      "ses": 3529,
      "sÃ¤tze": 3530,
      "ty": 3531,
      "tragen": 3532,
      "temporale": 3533,
      "uster": 3534,
      "voll": 3535,
      "verein": 3536,
      "we": 3537,
      "wÃ¤": 3538,
      "weg": 3539,
      "zin": 3540,
      "zog": 3541,
      "zone": 3542,
      "Ð¢": 3543,
      "Ð£": 3544,
      "Ðł": 3545,
      "Ġeigen": 3546,
      "ĠÐ¥": 3547,
      "ĠÐł": 3548,
      "Ð¾ÑĢÐµ": 3549,
      "ÐµÑĦ": 3550,
      "ÑĸÑĩÐ½Ð¸Ð¹": 3551,
      "ÑģÐ¸ÑĤÐ¸": 3552,
      "Ð¾Ð¹": 3553,
      "rer": 3554,
      "regelmÃ¤ÃŁ": 3555,
      "Ð°Ð´Ð°": 3556,
      "ÑĤÐµÐ½": 3557,
      "ÑĢÐ¸Ð¹": 3558,
      "ÑĢÐ¾Ð±Ñĸ": 3559,
      "ÑĢÐ°Ð·": 3560,
      "ÑĢÐ°Ð±": 3561,
      "ÑĢÐ¸Ð²Ð°ÑĤÐ¸": 3562,
      "ÐµÐ½ÑĤÑĢ": 3563,
      "ÐµÐ½ÐµÑĢ": 3564,
      "Ð»Ð»Ñı": 3565,
      "ÑĥÑĢÐ°": 3566,
      "Ð¼Ð¸": 3567,
      "inge": 3568,
      "ingt": 3569,
      "stich": 3570,
      "stimmen": 3571,
      "stadt": 3572,
      "ÐºÐ¸Ð¹": 3573,
      "ÐºÑĤÐ¾ÑĢ": 3574,
      "ÐºÐ¾Ð³Ð¾ÑģÑĮ": 3575,
      "ÐºÐ¾Ð²Ð¾": 3576,
      "ÑĩÐµ": 3577,
      "ÑĩÑĸ": 3578,
      "ÑĩÐ½Ðµ": 3579,
      "ÑĩÐºÐ°": 3580,
      "Ġdun": 3581,
      "Ġdeutsch": 3582,
      "Ġdann": 3583,
      "Ġdrei": 3584,
      "ieg": 3585,
      "iem": 3586,
      "iegen": 3587,
      "Ð¾Ð²Ð°Ð½Ð¸Ð¹": 3588,
      "ÑģÐ½Ð¸Ðº": 3589,
      "ĠÐ¿ÐµÑĢ": 3590,
      "ĠÐ¿ÑĸÑĪ": 3591,
      "ĠÐ¿Ð¾Ð»Ñĸ": 3592,
      "Ð¾Ð¼Ð°": 3593,
      "Ð¾Ð¼Ð¸Ð¹": 3594,
      "Ð¾Ð¼Ð°ÑĤ": 3595,
      "ĠInsekt": 3596,
      "ĠÐ´Ð¾ÑĢ": 3597,
      "ĠÐ´Ð²Ñĸ": 3598,
      "ĠÐ´Ð¾Ðº": 3599,
      "ĠÐ´Ð¾Ð±": 3600,
      "ĠÐ´ÐµÑĤ": 3601,
      "ĠÐ´Ð¸ÑĢ": 3602,
      "Ð¸ÐºÐ¸": 3603,
      "aschen": 3604,
      "ÑģÐ»ÑĸÐ²": 3605,
      "ĠÐ¼Ð¾ÑĹ": 3606,
      "ĠÐ¼Ð¾Ð²Ð°": 3607,
      "ĠÐ¼ÑĥÑģ": 3608,
      "ĠÐ¼ÑĢÑĸÑĹ": 3609,
      "Ð°ÑĶÑĪ": 3610,
      "Ð°ÑĶÐ¼Ð¾": 3611,
      "ĠÐ·Ð¼": 3612,
      "ĠÐ·Ð½Ð¸Ð¶": 3613,
      "ĠÐ·ÑĥÑģÑĤÑĢÑĸ": 3614,
      "ĠÐ½Ð°Ð¼": 3615,
      "ĠÐ½Ð¾Ð²Ð¸Ð¹": 3616,
      "ĠÑģÑĮÐ¾Ð³Ð¾Ð´Ð½Ñĸ": 3617,
      "ÑĸÑĶÐ½ÑĤ": 3618,
      "ĠÐ²Ð¼": 3619,
      "ĠÐ²Ð°ÑĢ": 3620,
      "ĠÐ²Ð¿ÑĢÐ°Ð²": 3621,
      "einander": 3622,
      "ÑĢÐµÑĤ": 3623,
      "Ġwo": 3624,
      "ĠDem": 3625,
      "Ġhal": 3626,
      "Ġsollt": 3627,
      "Ġgem": 3628,
      "ĠkÃ¤": 3629,
      "ĠÐ½ÐµÐ¿": 3630,
      "ĠÐ½ÐµÐ·": 3631,
      "Ġmei": 3632,
      "Ð²Ð°ÑĤÐ¸": 3633,
      "Ð²Ð½Ð¸Ð¹": 3634,
      "Ð¾ÑĢÐ°": 3635,
      "Ð¾ÑĢÐ¾Ð²": 3636,
      "Ð¾ÑĢÐ¾Ð½": 3637,
      "Ð¾ÑĢÐ¾ÑĪ": 3638,
      "Ð¼ÐµÑĢ": 3639,
      "Ġba": 3640,
      "Ã¼se": 3641,
      "Ã¼tzen": 3642,
      "ĠBÃ¤": 3643,
      "ĠBrÃ¼": 3644,
      "esung": 3645,
      "ÑĦÐµÑĢ": 3646,
      "ĠSon": 3647,
      "ĠSeite": 3648,
      "Ð¾Ð´ÐµÐ½": 3649,
      "Ð¾Ð´ÑĸÐ¹": 3650,
      "ĠÑģÑĤÑĢÐµ": 3651,
      "ache": 3652,
      "âĢĵ": 3653,
      "âĢŀ": 3654,
      "ĠÑĥÐºÑĥ": 3655,
      "ĠÑĥÑģÐ¿": 3656,
      "scheiden": 3657,
      "Ã¤f": 3658,
      "ÑĤÐ¸ÐºÐ¸": 3659,
      "ĠÐ¿ÑĢÐ¸Ð½": 3660,
      "ĠÐ¿ÑĢÐ¾ÑĤ": 3661,
      "ĠÐ¿ÑĢÐ¸Ð³": 3662,
      "ĠÐ¿ÑĢÐ¸Ð²": 3663,
      "decken": 3664,
      "arage": 3665,
      "ĠÑĩÐ¸ÑĤ": 3666,
      "ĠÑĩÑĥÐ´": 3667,
      "ĠÑĩÐ¸ÑģÑĤÐ¸": 3668,
      "ĠÑĩÐµÑĢÐµÐ·": 3669,
      "ĠÑĤÐ°Ð¼": 3670,
      "Ġeines": 3671,
      "ĠHe": 3672,
      "unft": 3673,
      "ĠKan": 3674,
      "ĠKrank": 3675,
      "ĠKunden": 3676,
      "ĠKopf": 3677,
      "ĠKultur": 3678,
      "ĠFr": 3679,
      "ĠFor": 3680,
      "setz": 3681,
      "ĠÐºÑĢÐ°": 3682,
      "llt": 3683,
      "Ð¸Ð½Ñĸ": 3684,
      "ĠÐ¾Ð¿Ðµ": 3685,
      "Ð¾Ð»ÑĮ": 3686,
      "ĠÐ·Ð°Ð»Ð¸ÑĪ": 3687,
      "ĠÑĩÐ°ÑģÑĤ": 3688,
      "ĠÑĦÐ¾ÑĤ": 3689,
      "ĠGast": 3690,
      "ĠGrund": 3691,
      "ĠMot": 3692,
      "ĠMusik": 3693,
      "ĠÐ¿Ð¾ÑģÐ¸": 3694,
      "ĠDeutschland": 3695,
      "ĠTrau": 3696,
      "ĠTal": 3697,
      "ĠTrink": 3698,
      "ĠTier": 3699,
      "ĠTour": 3700,
      "annt": 3701,
      "ÑĥÑĶÐ¼Ð¾": 3702,
      "ktur": 3703,
      "ĠPati": 3704,
      "ĠPreis": 3705,
      "Ð³Ð°": 3706,
      "ÑĢÑĥÐ´": 3707,
      "Ð½Ð¸ÐºÐ¸": 3708,
      "ĠZu": 3709,
      "rennen": 3710,
      "ĠÐ±Ð°Ñģ": 3711,
      "raut": 3712,
      "rauen": 3713,
      "ĠerhÃ¶": 3714,
      "ĠerzÃ¤hlt": 3715,
      "bew": 3716,
      "Ġteil": 3717,
      "Ġfliegen": 3718,
      "esten": 3719,
      "Ð½ÐµÑĤÑĸ": 3720,
      "Ð½ÐµÐ´ÑĸÐ»": 3721,
      "ĠSchwar": 3722,
      "ĠSchuhe": 3723,
      "ĠÐ¼ÑĸÑģÑĤÐ¸": 3724,
      "etzen": 3725,
      "ĠÑĨÐ¸Ð¼": 3726,
      "ĠÐ²ÑĸÐ´Ð±": 3727,
      "ĠWein": 3728,
      "ĠWenn": 3729,
      "dieren": 3730,
      "ennt": 3731,
      "itag": 3732,
      "itte": 3733,
      "ittel": 3734,
      "ÑĢÑıÑĤÐ¸": 3735,
      "ĠÐ¶Ð¾Ð²": 3736,
      "ĠÐ¶Ð¸ÑĤÐ¸": 3737,
      "durch": 3738,
      "achte": 3739,
      "Ð»ÑİÐ²Ð°ÑĤÐ¸": 3740,
      "Ġausge": 3741,
      "ĠausdrÃ¼cken": 3742,
      "Ð¾ÑĤÐ°": 3743,
      "ÑĸÐ¹ÑģÐ½": 3744,
      "ĠÑĨÑĮÐ¾Ð¼Ñĥ": 3745,
      "Ġwohnen": 3746,
      "serv": 3747,
      "Ã¼rfen": 3748,
      "telefon": 3749,
      "ame": 3750,
      "spr": 3751,
      "ĠÐ¢ÑĥÑĤ": 3752,
      "ĠVoll": 3753,
      "nee": 3754,
      "negation": 3755,
      "ĠFreitag": 3756,
      "ural": 3757,
      "ĠhÃ¶": 3758,
      "ĠRes": 3759,
      "iss": 3760,
      "arbeiter": 3761,
      "rak": 3762,
      "ĠEi": 3763,
      "ĠEl": 3764,
      "ĠGew": 3765,
      "Ð»ÐµÐ¶": 3766,
      "ĠÐ³ÑĢÐ°": 3767,
      "schlossen": 3768,
      "ĠÐĹÐ°": 3769,
      "zahl": 3770,
      "ĠÑĢÐ¸Ð½": 3771,
      "Ġ22": 3772,
      "schlagen": 3773,
      "Ã¤rm": 3774,
      "Ġmeinem": 3775,
      "ĠVerkehr": 3776,
      "Ð¸Ð²ÑģÑı": 3777,
      "Ð¸Ð²Ð°Ð½Ð½Ñı": 3778,
      "Ð½Ð¾ÑĹ": 3779,
      "ress": 3780,
      "Ð¾Ð¶Ð½Ð°": 3781,
      "ĠNein": 3782,
      "ĠNot": 3783,
      "ĠNegation": 3784,
      "ĠÐĴÐ¾Ð½Ð¸": 3785,
      "ĠÐĴÐ°ÑĪ": 3786,
      "ĠÑĢÐ¾Ð±Ð¾ÑĤÐ¸": 3787,
      "Ġ10": 3788,
      "olz": 3789,
      "olks": 3790,
      "ationen": 3791,
      "ĠÐ°Ð²ÑĤ": 3792,
      "Ġbeg": 3793,
      "Ġbeantworten": 3794,
      "ÑĥÑĤÐ±": 3795,
      "ÑĥÑĤÑĤÑı": 3796,
      "ĠÐ²Ð¸Ð´": 3797,
      "Ġvorbei": 3798,
      "othe": 3799,
      "rÃ¼hst": 3800,
      "weise": 3801,
      "ulieren": 3802,
      "000": 3803,
      "ĠÑĪÐµÑĦ": 3804,
      "ĠSpei": 3805,
      "ÑĢÐ°Ð²Ð°ÑĤÐ¸": 3806,
      "ĠÐ¿ÐµÑĢÐµÐ¼": 3807,
      "ĠÐ¿ÐµÑĢÐµÐ²Ñĸ": 3808,
      "ĠÐ·Ð½Ð°Ñİ": 3809,
      "hinter": 3810,
      "Ġstu": 3811,
      "liegt": 3812,
      "problem": 3813,
      "ĠÐ²ÐµÐ»Ð¸Ðº": 3814,
      "ÐµÐ¹Ð½": 3815,
      "ÑĥÑģÐº": 3816,
      "ĠUniversitÃ¤t": 3817,
      "ĠÑıÐºÑīÐ¾": 3818,
      "ÑĸÑĤÐ½Ð¸Ð¹": 3819,
      "ĠÐºÐ¾Ð¼Ð¿": 3820,
      "ĠÐºÐ¾Ð¼Ð°Ñħ": 3821,
      "Ġpassen": 3822,
      "eller": 3823,
      "ÑģÐ¿Ð¾ÑĢÑĤ": 3824,
      "ĠÑģÐ²Ð¾ÑĹ": 3825,
      "ĠReihen": 3826,
      "werden": 3827,
      "heits": 3828,
      "ĠWelt": 3829,
      "ĠWelches": 3830,
      "Ð»Ð¸Ð²Ð¾": 3831,
      "Ð»Ð¸Ð²Ð¸Ð¹": 3832,
      "ĠÑĤÐ°ÐºÐ¸Ð¹": 3833,
      "ĠÐ³ÑĢÐ¾ÑĪÐµÐ¹": 3834,
      "echseln": 3835,
      "ÐºÐ°ÑĢÐ¶": 3836,
      "ĠWiese": 3837,
      "ĠÐ§Ð¾Ð¼Ñĥ": 3838,
      "freund": 3839,
      "ÑĸÑĪÐ°ÑĤÐ¸": 3840,
      "Ġgewonnen": 3841,
      "ĠUnterricht": 3842,
      "Beispiele": 3843,
      "ĠÐ²Ð¸Ð³ÑĢÐ°ÑĪ": 3844,
      "ĠStraÃŁe": 3845,
      "ÑĥÑİÑĤÑĮ": 3846,
      "gewinnen": 3847,
      "Ġwelche": 3848,
      "Ġwelcher": 3849,
      "ĠGebirge": 3850,
      "zÃ¤hl": 3851,
      "ĠÐŀÐ±": 3852,
      "ĠÑģÐµÐ±Ðµ": 3853,
      "ĠAbsicht": 3854,
      "ĠAlpen": 3855,
      "ĠStelle": 3856,
      "ĠÐ½Ð°ÑĨÑĸÐ¾Ð½Ð°Ð»ÑĮÐ½Ð¸Ð¹": 3857,
      "ĠLandschaft": 3858,
      "ĠRelativsatz": 3859,
      "ĠÑĪÐºÐ¾Ð»Ð°": 3860,
      "flicht": 3861,
      "ĠÐºÐ¾Ð½ÑĤÐ°": 3862,
      "ĠPrÃ¤fixe": 3863,
      "rammatik": 3864,
      "Ġrichtige": 3865,
      "ĠÑģÐµÑĢÐ²Ñĸ": 3866,
      "ĠÐ¿ÑĢÐ¾Ð´ÑĥÐº": 3867,
      "Stuhl": 3868,
      "hÃ¶rt": 3869,
      "ĠKonto": 3870,
      "ĠMÃ¼cken": 3871,
      "ĠGeschÃ¤ft": 3872,
      "ĠÐ²Ð¸ÑĤÑĢÐ°ÑĤÐ¸": 3873,
      "Ġgetan": 3874,
      "ĠTÃ¤ter": 3875,
      "ĠÐ±Ð°Ð½ÐºÑĥ": 3876,
      "estelle": 3877,
      "ĠSpieler": 3878,
      "ÑıÐ²ÐºÑĥ": 3879,
      "ĠHochzeit": 3880,
      "ĠÐ¾Ð²Ð¾ÑĩÑĸ": 3881,
      "ĠMenschen": 3882,
      "ĠRegal": 3883,
      "ĠNoten": 3884,
      "ĠÑĤÐµÐ»ÐµÑĦÐ¾Ð½Ñĥ": 3885,
      "handeln": 3886,
      "Ausbildung": 3887,
      "Mail": 3888,
      "eklination": 3889,
      "swort": 3890,
      "ÑĸÑĤÐ°ÑĢÑĸ": 3891,
      "ĠÐ¿ÑĢÐµÐ´": 3892,
      "ĠÐ¼Ð¾ÑĢÑĸ": 3893,
      "ĠGemÃ¼se": 3894,
      "ĠWunsch": 3895,
      "ĠÑħÐ¾ÑĤÑĸÐ»Ð°": 3896,
      "ĠÐ²ÑĸÐ´Ð¿ÑĥÑģÑĤÐºÑĥ": 3897,
      "ĠFlugzeug": 3898,
      "Ð²Ð¸ÑĩÐ°Ð¹Ð½Ð¾": 3899,
      "ĠÐ¿ÑĢÐ¾Ð±Ð»ÐµÐ¼Ð°": 3900,
      "Welche": 3901,
      "ĠNomen": 3902,
      "struktur": 3903,
      "stitut": 3904,
      "ĠÐ¼Ð¾Ð³Ð»Ð¸": 3905,
      "ĠÑģÐ²Ð°ÑĢÐ¸ÑĤÐ¸ÑģÑı": 3906,
      "ĠBÃ¼rger": 3907,
      "ĠÑĥÑĩÐ°ÑģÑĤÑĮ": 3908,
      "ĠÑĢÐ°ÑħÑĥÐ½Ð¾Ðº": 3909,
      "ĠÐ»ÑİÐ´": 3910,
      "ĠStadtrand": 3911,
      "ÑĢÐ¾Ð±ÑĸÑĤ": 3912,
      "ĠÐ´ÐµÑĤÐµÐºÑĤÐ¸": 3913,
      "ĠÐ´Ð¸ÑĢÐ¸Ð³": 3914,
      "ĠÑĥÐºÑĥÑģ": 3915,
      "ĠMotor": 3916,
      "ĠÐ±Ð°ÑģÐµÐ¹Ð½": 3917,
      ".,": 3918,
      "39": 3919,
      "97": 3920,
      "Fre": 3921,
      "Fin": 3922,
      "Ges": 3923,
      "Hund": 3924,
      "Komparativ": 3925,
      "Meinung": 3926,
      "Nicht": 3927,
      "Pol": 3928,
      "PrÃ¼fung": 3929,
      "Positiv": 3930,
      "Sti": 3931,
      "Satz": 3932,
      "Selma": 3933,
      "ap": 3934,
      "ay": 3935,
      "akt": 3936,
      "ahl": 3937,
      "bs": 3938,
      "baren": 3939,
      "bad": 3940,
      "dre": 3941,
      "dienst": 3942,
      "dgesch": 3943,
      "ehen": 3944,
      "ehm": 3945,
      "fs": 3946,
      "fu": 3947,
      "fas": 3948,
      "fern": 3949,
      "fro": 3950,
      "fil": 3951,
      "gn": 3952,
      "gru": 3953,
      "gte": 3954,
      "glie": 3955,
      "german": 3956,
      "hor": 3957,
      "ift": 3958,
      "iÃ¤t": 3959,
      "kei": 3960,
      "kÃ¤": 3961,
      "kar": 3962,
      "kul": 3963,
      "legen": 3964,
      "lesung": 3965,
      "man": 3966,
      "meine": 3967,
      "mÃ¶": 3968,
      "mmer": 3969,
      "nas": 3970,
      "ndel": 3971,
      "national": 3972,
      "ock": 3973,
      "osten": 3974,
      "pp": 3975,
      "prÃ¼": 3976,
      "plan": 3977,
      "ppen": 3978,
      "rom": 3979,
      "ss": 3980,
      "sÃ¤": 3981,
      "sgesprÃ¤ch": 3982,
      "sammel": 3983,
      "ts": 3984,
      "ufe": 3985,
      "ufen": 3986,
      "viel": 3987,
      "wissen": 3988,
      "xi": 3989,
      "zwei": 3990,
      "Ðĳ": 3991,
      "Ðķ": 3992,
      "Ðŀ": 3993,
      "Ġ!": 3994,
      "ĠÑģÐ½": 3995,
      "ĠÃ¤": 3996,
      "Ġus": 3997,
      "Ġ..": 3998,
      "ĠÃĸ": 3999,
      "Ð½Ñİ": 4000,
      "Ð½Ð°Ð²": 4001,
      "Ð¾ÑĶÐ¼": 4002,
      "ÐµÑģ": 4003,
      "ÐµÑģÑĤ": 4004,
      "ÐµÑĢÑĸ": 4005,
      "ÐµÑĤÑĢ": 4006,
      "ÐµÑĢÑĸÐ²": 4007,
      "ÑıÐ½": 4008,
      "ÑıÐ´": 4009,
      "ÑĸÑģÑĤ": 4010,
      "ÑĸÑħ": 4011,
      "ÑĸÐ»Ðµ": 4012,
      "ÑģÐµÑĢ": 4013,
      "ÑģÐ¾Ð²Ð¸Ð¹": 4014,
      "reg": 4015,
      "reten": 4016,
      "Ð°ÑĦ": 4017,
      "Ð°ÑĤÑĮ": 4018,
      "Ð°ÑĢÑĥ": 4019,
      "orben": 4020,
      "orden": 4021,
      "rechn": 4022,
      "Ð¸Ð¶": 4023,
      "Ð¸Ñī": 4024,
      "Ð¸Ð»Ð¸": 4025,
      "enut": 4026,
      "enden": 4027,
      "ÑĤÑĢÑĥ": 4028,
      "ÑĤÐ¼Ð¾": 4029,
      "ÑĢÐ°Ð½": 4030,
      "ÑĢÐ°Ð¼Ð°": 4031,
      "ÐµÐ½Ð¾": 4032,
      "ÐµÐ½ÑĤÐ¸": 4033,
      "Ð»ÐµÐ½": 4034,
      "ÑĥÐ»Ñı": 4035,
      "erw": 4036,
      "erte": 4037,
      "Ð¼Ð°ÑĤÐ¸ÑģÑı": 4038,
      "ina": 4039,
      "inken": 4040,
      "ÐµÐ½Ð½ÑıÐ¼": 4041,
      "stag": 4042,
      "stand": 4043,
      "ĠIran": 4044,
      "ÐºÐ¾Ð²Ð°": 4045,
      "ÑĩÐ¸": 4046,
      "ÑĩÐ½Ñĸ": 4047,
      "ÑĩÐµÑĢÐµÐ·": 4048,
      "Ġdre": 4049,
      "Ġdarf": 4050,
      "iete": 4051,
      "Ð¾Ð²Ð¸ÑĤÐ¸": 4052,
      "Ð¾Ð²Ð°ÑĢ": 4053,
      "Ð¾Ð²Ð°Ð½Ñĸ": 4054,
      "ĠÐ¿Ð¾Ð²Ñĸ": 4055,
      "ĠÐ¿ÑĸÑĤÐ¸": 4056,
      "ĠÐ¿Ð¾Ð¶": 4057,
      "ĠÐ¿ÐµÑĢÑĪ": 4058,
      "ĠInteres": 4059,
      "ĠÐ´Ð¾Ð²": 4060,
      "ĠÐ´ÑĸÑĤ": 4061,
      "ĠÐ´ÑĸÑı": 4062,
      "ĠÐ´Ð·Ð²": 4063,
      "asus": 4064,
      "Ð´Ð¾": 4065,
      "Ð´Ñĥ": 4066,
      "Ð´Ð°ÑĤ": 4067,
      "Ð´ÐµÑĢ": 4068,
      "Ð´ÑĥÐ¼": 4069,
      "auer": 4070,
      "ĠÐ¼Ð°Ð²": 4071,
      "Ð°ÑĶÐ¼": 4072,
      "Ð°ÑĶÑĤÐµ": 4073,
      "hafen": 4074,
      "ĠÐ·ÐµÐ¼": 4075,
      "gest": 4076,
      "gemein": 4077,
      "ĠÐ½Ð°Ð³": 4078,
      "ĠÐ½Ð°Ð·": 4079,
      "ĠÑģÐ²ÑĸÐ¹": 4080,
      "ĠÑģÐ¾Ð½": 4081,
      "ĠÑģÐ°Ð´": 4082,
      "ĠÑģÐ¸Ð´": 4083,
      "ĠÐ²ÑģÑĸ": 4084,
      "ĠÐ²Ð¸ÑģÑĤÐ°Ð²": 4085,
      "ĠÐ²Ð»Ð°": 4086,
      "ĠÐ²ÑĸÑĤ": 4087,
      "ĠÐ²Ð²Ð°Ð¶": 4088,
      "ĠÐ²ÐµÑĢÑĪ": 4089,
      "ĠÐ²ÑĸÐ»ÑĮÐ½": 4090,
      "einem": 4091,
      "ans": 4092,
      "anlage": 4093,
      "ÑĢÐµÐºÑĤÐ¾ÑĢ": 4094,
      "ĠweiÃŁ": 4095,
      "Ġwechseln": 4096,
      "ĠDeklination": 4097,
      "Ġhandel": 4098,
      "Ġseit": 4099,
      "Ġsagen": 4100,
      "Ġsauber": 4101,
      "Ġsitzen": 4102,
      "Ġgespielt": 4103,
      "Ġgestellt": 4104,
      "ĠgehÃ¶rt": 4105,
      "ĠÐ½ÐµÐ´": 4106,
      "ĠÐ½ÐµÐ¼Ð°": 4107,
      "ĠÐ½ÐµÐ¿ÑĢ": 4108,
      "utto": 4109,
      "Ġmel": 4110,
      "ĠmiÃŁ": 4111,
      "ÑĸÐ´Ð½Ñı": 4112,
      "Ð²Ð½": 4113,
      "Ð²Ð¸ÑĤ": 4114,
      "Ð²Ð»Ð°ÑĪÑĤ": 4115,
      "Ð²ÑĢÐ¾Ð¿": 4116,
      "ĠÐĶÐ¾": 4117,
      "ĠAber": 4118,
      "Ð¾ÑĢÑĥ": 4119,
      "Ð¾Ð³Ñĥ": 4120,
      "Ð¾Ð³ÑĤÐ¸": 4121,
      "Ð¾Ð³ÑĢÐ°": 4122,
      "ÑĨÑĸÐ½": 4123,
      "Ġbet": 4124,
      "Ġbilden": 4125,
      "Ġbringen": 4126,
      "Ġbildet": 4127,
      "Ð¼ÐµÑĤÐ¾Ð´Ð¸Ñĩ": 4128,
      "ĠBr": 4129,
      "ĠBas": 4130,
      "ĠBes": 4131,
      "ĠBet": 4132,
      "ĠBord": 4133,
      "ĠBestell": 4134,
      "eshalb": 4135,
      "Ð¿ÑĢÐ¸": 4136,
      "Ð¿ÑĤÐµ": 4137,
      "ĠÑĢÐµÐ¼Ð¾": 4138,
      "ĠSti": 4139,
      "ĠSort": 4140,
      "ĠSand": 4141,
      "ĠSetzen": 4142,
      "icher": 4143,
      "Ð¾Ð´Ñĸ": 4144,
      "ĠÑģÑĤÐ¾Ð»": 4145,
      "ĠÑģÑĤÐ¾Ð¼Ð°ÑĤ": 4146,
      "ĠÑĥÑģÑĸ": 4147,
      "ĠÑĥÐ²Ð°Ð³": 4148,
      "Ġnie": 4149,
      "Ġnorm": 4150,
      "Ġneben": 4151,
      "eitet": 4152,
      "scher": 4153,
      "schein": 4154,
      "Ã¤he": 4155,
      "Ã¤che": 4156,
      "Ã¤uf": 4157,
      "ÑĨÑĸÐ²": 4158,
      "dete": 4159,
      "arzt": 4160,
      "arke": 4161,
      "ĠÑĩÐ°Ð¹": 4162,
      "ĠÑĤÐ°Ð½": 4163,
      "ĠÑĤÐ¾Ð±Ñĸ": 4164,
      "ĠÑĤÐ¾ÑĢÑĤ": 4165,
      "ĠÑĤÐ²Ð°ÑĢ": 4166,
      "ĠÑĤÐ¾Ð¹": 4167,
      "ĠÑĤÐ¾Ð²Ð°ÑĢ": 4168,
      "Ġeinge": 4169,
      "Ġeinmal": 4170,
      "ĠHalt": 4171,
      "under": 4172,
      "ĠKlasse": 4173,
      "ĠKrim": 4174,
      "ĠFot": 4175,
      "ĠÐºÑĥ": 4176,
      "ĠÐºÐ¾Ð¼Ñĥ": 4177,
      "ĠÐºÐ»Ð°": 4178,
      "ĠÐºÐ°Ð¿": 4179,
      "ĠÐºÑĢÐ°ÑĹ": 4180,
      "ĠÐºÐ²Ð°ÑĢ": 4181,
      "ĠÐºÐ½Ð¸Ð¶": 4182,
      "ĠÐºÐ°Ð¼ÑĸÐ½": 4183,
      "ĠÐºÐµÑĢÑĸÐ²": 4184,
      "Ġlei": 4185,
      "Ġlange": 4186,
      "Ġletzten": 4187,
      "ÑİÑĤÐµÑĢ": 4188,
      "ĠÐ·Ð°Ð´": 4189,
      "ĠÐ·Ð°ÑħÑĸÐ´": 4190,
      "ĠÐ·Ð°ÑģÑĸÐ´": 4191,
      "ĠÐ·Ð°ÑģÑĸÐ±": 4192,
      "ĠÐ·Ð°ÑıÐ²ÐºÑĥ": 4193,
      "fehlen": 4194,
      "rum": 4195,
      "ÐµÑĢÐµÐ¶": 4196,
      "ĠMin": 4197,
      "ĠMeine": 4198,
      "ĠMat": 4199,
      "indirekte": 4200,
      "ĠÐ¿Ð¾ÑĪ": 4201,
      "ĠÐ¿Ð¾Ð½ÐµÐ´ÑĸÐ»": 4202,
      "ÑģÑĤÑĥÐ¿": 4203,
      "Ġganzen": 4204,
      "ĠTiere": 4205,
      "ĠÐ·Ð°ÐºÐ¾Ñħ": 4206,
      "chenke": 4207,
      "rocken": 4208,
      "eile": 4209,
      "Ð¶Ñĸ": 4210,
      "ĠPl": 4211,
      "derung": 4212,
      "ĠZusammen": 4213,
      "rennt": 4214,
      "ument": 4215,
      "ĠÐ±Ñİ": 4216,
      "ĠÐ±Ð¾Ð»": 4217,
      "ĠÐ±Ð°Ð³Ð°ÑĤ": 4218,
      "ĠÐ±ÑĸÐ»ÑĮÑĪ": 4219,
      "ĠÐ±ÐµÑĢÑĥ": 4220,
      "Ð°Ð½Ð¾Ð²": 4221,
      "Ð°Ð½ÑĤÐ¸": 4222,
      "Ð°Ð½ÑģÐ¿Ð¾ÑĢÑĤ": 4223,
      "ĠZeitschrift": 4224,
      "Ġerlau": 4225,
      "bed": 4226,
      "bet": 4227,
      "Ã¶l": 4228,
      "Ã¶s": 4229,
      "Ġfol": 4230,
      "ĠfrÃ¼": 4231,
      "Ġfliegt": 4232,
      "ÑħÐ°": 4233,
      "eucht": 4234,
      "Ð·Ð°ÑĤÐ¸": 4235,
      "Ð·ÑĮÐº": 4236,
      "Ð·Ð°Ð±": 4237,
      "Ð¿ÐµÑĤÐµÐ½": 4238,
      "Ð¿ÐµÐ²Ð½": 4239,
      "stet": 4240,
      "ĠÐ¼ÑĸÐ¹": 4241,
      "hnt": 4242,
      "ĠSchiff": 4243,
      "fte": 4244,
      "Ð´Ð¸ÑĤÐ¸": 4245,
      "ĠÑĸÐ½Ð¾Ð·": 4246,
      "ĠÑĸÐ½ÑģÑĤÑĢÑĥ": 4247,
      "ĠErdgesch": 4248,
      "ĠParty": 4249,
      "Ð°Ð»ÑĮÐ½Ð¸Ðº": 4250,
      "Ð´Ð½Ð¸Ð¹": 4251,
      "rÃ¤u": 4252,
      "ĠÑĨÐ¸": 4253,
      "ĠÑĨÑĸÐ½": 4254,
      "ĠÑĨÐµÐ½ÑĤÑĢ": 4255,
      "ĠÐ²ÑĸÐ´Ðº": 4256,
      "ĠÐ²ÑĸÐ´Ð²ÑĸÐ´": 4257,
      "ĠWe": 4258,
      "ĠWeg": 4259,
      "ĠWissen": 4260,
      "ĠWinter": 4261,
      "ĠWetter": 4262,
      "ĠÐ²Ð¸ÐºÐ¾ÑĢÐ¸ÑģÑĤÐ°Ð½Ð½Ñı": 4263,
      "itz": 4264,
      "itzung": 4265,
      "Ġzusammen": 4266,
      "ÑĢÑıÐ´Ð¶": 4267,
      "ĠÐ·Ð°Ð¿ÑĢÐ¾": 4268,
      "ĠWirtschafts": 4269,
      "ond": 4270,
      "onn": 4271,
      "undes": 4272,
      "ausgeben": 4273,
      "alkon": 4274,
      "duzieren": 4275,
      "ĠUkra": 4276,
      "gangenheit": 4277,
      "ientieren": 4278,
      "Ð¾Ð±Ð¾Ñİ": 4279,
      "ĠApothe": 4280,
      "ĠLi": 4281,
      "twend": 4282,
      "ĠÑĩÐ¾Ð»Ð¾Ð²ÑĸÐº": 4283,
      "eidung": 4284,
      "Ð¾ÑĤÑĥ": 4285,
      "ÑĢÐµÐ±Ð°": 4286,
      "agt": 4287,
      "dessen": 4288,
      "zte": 4289,
      "amil": 4290,
      "Ð¸ÑģÐº": 4291,
      "spro": 4292,
      "spitze": 4293,
      "ĠÐ½ÑĸÑĩÐ¾Ð³Ð¾": 4294,
      "Ġunbestimm": 4295,
      "Ð°ÑĤÐ¾ÑĢ": 4296,
      "Ð°ÑĤÐ¾Ðº": 4297,
      "ĠÐ¢Ð°Ðº": 4298,
      "ĠVort": 4299,
      "ÑĥÐ²Ð°ÑĶÑĤÑĮÑģÑı": 4300,
      "urz": 4301,
      "urfen": 4302,
      "ĠhÃ¤n": 4303,
      "ĠhÃ¤tte": 4304,
      "ĠRiesen": 4305,
      "ĠRadio": 4306,
      "ĠRhein": 4307,
      "arbeiten": 4308,
      "ĠFreundin": 4309,
      "rain": 4310,
      "Ð»Ð°Ð»Ð°": 4311,
      "ĠStau": 4312,
      "ĠStÃ¤d": 4313,
      "ĠEnt": 4314,
      "ĠÐĨÐ½": 4315,
      "Ð´Ð°ÑĢ": 4316,
      "ĠÐ³ÑĥÐ±": 4317,
      "ĠÐ³ÑĢÑĥÐ´": 4318,
      "ĠÐ³ÑĸÑĤÐ°ÑĢÑĸ": 4319,
      "selprÃ¤": 4320,
      "ĠTelefon": 4321,
      "Ġbleiben": 4322,
      "Ġbleibt": 4323,
      "ÑģÑĤÐ°Ð²Ð»ÑıÑĤÐ¸": 4324,
      "Ġstellen": 4325,
      "leben": 4326,
      "Ð»ÑĸÑĤ": 4327,
      "schlieÃŁen": 4328,
      "ĠÑĢÐ¸": 4329,
      "Schule": 4330,
      "ĠAmt": 4331,
      "Ġ21": 4332,
      "Ġ25": 4333,
      "kannt": 4334,
      "ÐµÑĢÑħ": 4335,
      "berg": 4336,
      "berichten": 4337,
      "ÑīÐ°Ð´": 4338,
      "Gebur": 4339,
      "Ġmeinen": 4340,
      "Ġbesuchen": 4341,
      "Ð¸Ð²Ð°ÑĶ": 4342,
      "verbrauch": 4343,
      "verstanden": 4344,
      "tigkeit": 4345,
      "Ð°ÑĢÑĩ": 4346,
      "ĠNational": 4347,
      "ĠNico": 4348,
      "ĠNÃ¤he": 4349,
      "ĠÐ»ÐµÐ³": 4350,
      "Ð¾Ð½ÑĥÐ²Ð°ÑĤÐ¸": 4351,
      "mittag": 4352,
      "Ġvergessen": 4353,
      "Ġverschieden": 4354,
      "Ġ14": 4355,
      "Ġ16": 4356,
      "Ġ17": 4357,
      "Ġ19": 4358,
      "ĠÑħÐ¾ÑĢÐ¾ÑĪ": 4359,
      "ÑİÐ²Ð°ÑĤÐ¸ÑģÑı": 4360,
      "Ð»Ð¸Ð²ÑĸÑģÑĤÑĮ": 4361,
      "ÐºÑĥÑĢ": 4362,
      "ĠÐ²Ð¸ÑĢÑĸÑĪ": 4363,
      "bungsgesprÃ¤ch": 4364,
      "ĠÐ¼Ð¾Ð¶Ð»Ð¸Ð²ÑĸÑģÑĤÑĮ": 4365,
      "otter": 4366,
      "otto": 4367,
      "reise": 4368,
      "reibt": 4369,
      "ÑĢÐ¾Ñī": 4370,
      "ÐµÑĤÐµ": 4371,
      "weis": 4372,
      "weisen": 4373,
      "weihung": 4374,
      "Ð°Ð¹Ðº": 4375,
      "ĠÑĪÑĥÐº": 4376,
      "ĠSprach": 4377,
      "Ġpaar": 4378,
      "ĠÐ¿Ð¾Ð´ÑıÐº": 4379,
      "ĠÐ¿Ð¾Ð´Ð°ÑĢÑĥ": 4380,
      "stens": 4381,
      "ĠÐ¿ÐµÑĢÐµÐºÐ»Ð°Ð´": 4382,
      "ĠBewer": 4383,
      "ĠBezug": 4384,
      "ÐµÐºÑĢÐµÑĤ": 4385,
      "Ã¶rt": 4386,
      "ĠAngst": 4387,
      "liehen": 4388,
      "ĠÐ¿ÑĢÐ¸ÑĢÐ¾Ð´": 4389,
      "ĠÐ¿ÑĢÐ¸Ð±ÑĥÐ´": 4390,
      "fÃ¼llen": 4391,
      "Ð°ÑģÐ¸Ðº": 4392,
      "Ġunterhalten": 4393,
      "ĠÑıÐºÐ±Ð¸": 4394,
      "nergie": 4395,
      "gebaut": 4396,
      "alsÃ¤tze": 4397,
      "wendet": 4398,
      "ĠJahr": 4399,
      "ÑĨÐµÐ²Ð»Ð°ÑĪÑĤ": 4400,
      "klÃ¤r": 4401,
      "ĠÐ¡Ðº": 4402,
      "ĠReisen": 4403,
      "ĠEinkommen": 4404,
      "ĠÐ²ÑĸÐ´Ð¿Ð¾Ñĩ": 4405,
      "ĠVorort": 4406,
      "ĠVorschlag": 4407,
      "Inseln": 4408,
      "Ġwieder": 4409,
      "ĠÐ¿ÑĢÐ°ÑĨÐµÐ²Ð»Ð°ÑĪÑĤ": 4410,
      "unterst": 4411,
      "boden": 4412,
      "ÐĴÐ¸": 4413,
      "Ġrepar": 4414,
      "endung": 4415,
      "ÐºÐ¾Ð¼Ð¿ÐµÑĤÐµÐ½": 4416,
      "ĠAusstellung": 4417,
      "echs": 4418,
      "echselprÃ¤": 4419,
      "igent": 4420,
      "ÐµÐ´ÐµÐ½Ð½Ñı": 4421,
      "ĠÑĤÑĢÐ°Ð¿": 4422,
      "ĠÑĤÑĢÐ°Ð½ÑģÐ¿Ð¾ÑĢÑĤ": 4423,
      "reichen": 4424,
      "ĠÐ¯ÐºÐ±Ð¸": 4425,
      "ĠÑħÐ¾ÑĩÑĥ": 4426,
      "ĠÑīÐ°": 4427,
      "Ã¼bern": 4428,
      "freu": 4429,
      "ĠAdjektivs": 4430,
      "ĠBerg": 4431,
      "ĠBeruf": 4432,
      "ĠFlur": 4433,
      "Ġzweiten": 4434,
      "ĠEuropÃ¤": 4435,
      "ĠEuropa": 4436,
      "Beispiel": 4437,
      "ÑıÐºÑĸ": 4438,
      "ĠÐ²Ð¸Ð³Ð»ÑıÐ´": 4439,
      "ĠSozi": 4440,
      "Ġentw": 4441,
      "Ð½ÑĥÑĤÐ¸": 4442,
      "gewann": 4443,
      "Ġwelch": 4444,
      "ĠÐ½Ð°Ð´Ð·": 4445,
      "ĠKindergarten": 4446,
      "ĠPersonen": 4447,
      "258": 4448,
      "Rektion": 4449,
      "drÃ¼ckt": 4450,
      "flug": 4451,
      "ĠFernse": 4452,
      "Ġangefangen": 4453,
      "ĠzurÃ¼ck": 4454,
      "Ð¾ÑĩÐ¸Ð½Ð°ÑĤÐ¸": 4455,
      "ĠÐ¿ÑĢÐ°ÑĨÑİÐ²Ð°ÑĤÐ¸": 4456,
      "Konjunktiv": 4457,
      "Unter": 4458,
      "fÃ¤llig": 4459,
      "hÃ¤ngen": 4460,
      "Ġrichtigen": 4461,
      "ÑĸÐ»ÑĮÐ½Ð°": 4462,
      "haften": 4463,
      "ĠSee": 4464,
      "Ġgerade": 4465,
      "ĠÐ±ÑĸÐ»Ñı": 4466,
      "ĠÑĥÐ½ÑĸÐ²ÐµÑĢÑģÐ¸ÑĤÐµÑĤÑĸ": 4467,
      "innern": 4468,
      "ĠÐ·Ð½Ð°Ð¹": 4469,
      "ĠfÃ¼hren": 4470,
      "nahme": 4471,
      "Umwelt": 4472,
      "teilnehmen": 4473,
      "ymnas": 4474,
      "Ġfest": 4475,
      "ĠKarte": 4476,
      "ĠFÃ¤higkeit": 4477,
      "ĠÐ¾ÑĩÑĸÐº": 4478,
      "ĠÐ¾Ð¿Ð¸ÑĤ": 4479,
      "ĠÐ¿Ð¾ÑĹÑħÐ°ÑĤÐ¸": 4480,
      "ĠTÃ¤tigkeit": 4481,
      "Ġverloren": 4482,
      "ĠÐ¹Ð´ÐµÐ¼Ð¾": 4483,
      "ĠJahre": 4484,
      "ĠÑħÐ¾ÑĩÐµÐ¼Ð¾": 4485,
      "ĠÐ¼ÑĥÐ·Ð¸ÐºÑĥ": 4486,
      "sah": 4487,
      "Ð¸Ð»Ð°ÑģÑı": 4488,
      "ĠÐ´Ð¾Ð¼Ð¾Ð²": 4489,
      "ĠÐ´ÑĸÑĶÑģÐ»ÑĸÐ²": 4490,
      "ĠBlog": 4491,
      "ĠHof": 4492,
      "ĠHotel": 4493,
      "ĠHerz": 4494,
      "ĠKreu": 4495,
      "ĠÐ½Ð°ÑĢÐ¾Ð´Ð¶ÐµÐ½Ð½Ñı": 4496,
      "Ġtrennbaren": 4497,
      "ĠSchla": 4498,
      "ĠÐ¿Ð¾Ð²ÐµÑĢÑģÑĸ": 4499,
      "ĠEnde": 4500,
      "holen": 4501,
      "ĠStraÃŁenbahn": 4502,
      "Superlativ": 4503,
      "Ġaber": 4504,
      "ĠÐĩÐ¼": 4505,
      "ĠAussicht": 4506,
      "ĠBoden": 4507,
      "ĠnÃ¤chst": 4508,
      "ĠÐºÐ°Ð²Ñĥ": 4509,
      "ĠÐºÑĥÑĢÑģÑĥ": 4510,
      "ĠÑĦÑĸÑĢÐ¼Ñĸ": 4511,
      "ĠTurm": 4512,
      "ĠPauli": 4513,
      "begann": 4514,
      "ĠÐ¿ÑĢÐ¾ÑĦÐµÑģÑĸ": 4515,
      "fÃ¼hrung": 4516,
      "ĠÐ²ÑĸÐ´Ð¿Ð¾Ð²ÑĸÐ´Ð°ÑĤÐ¸": 4517,
      "ĠÐ¿Ð°ÑĢÑĤÐ½ÐµÑĢ": 4518,
      "ĠGebÃ¤ude": 4519,
      "ĠÐ¿ÑĢÐ°ÑĨÑİÑĶ": 4520,
      "ĠÐ·Ð°ÑĢÐ¿Ð»Ð°ÑĤÐ°": 4521,
      "gleich": 4522,
      "ĠÐ¿Ð¸ÑģÑĮ": 4523,
      "ĠÐ´Ð¸ÑĢÐµÐºÑĤÐ¾ÑĢ": 4524,
      "ĠÐ·ÑĢÐ¾Ð±Ð¸Ð²": 4525,
      "Ġgebildet": 4526,
      "ĠÑģÑĤÑĢÐ°Ð¶": 4527,
      "ĠÑģÑĤÑĢÐ°ÑħÐ¾Ð²ÐºÐ°": 4528,
      "ĠÑĩÐµÐºÐ°ÑĤÐ¸": 4529,
      "ĠÑĤÑĥÑĢÐ¸ÑģÑĤÐ¸": 4530,
      "ĠHilfs": 4531,
      "ĠÐ¾ÑĦÑĸÑģ": 4532,
      "ĠÐ¾Ð³Ð»ÑıÐ´": 4533,
      "ĠMÃ¤rz": 4534,
      "ÑģÑĤÐ¾ÑĢÐ°Ð½": 4535,
      "beginnen": 4536,
      "ĠÑģÐ¿ÑĸÐ»Ðº": 4537,
      "ĠÐ·Ð°Ð¹Ð¼Ð°ÑĶÑĤÑĮÑģÑı": 4538,
      "alerweise": 4539,
      "sicherung": 4540,
      "ĠVerwaltung": 4541,
      "Ð½Ð¸ÑĨÑĤÐ²Ð¾": 4542,
      "ĠÐ¾ÑģÐ²ÑĸÑĤÐ°": 4543,
      "ĠÐµÐºÑģÐºÑĥÑĢ": 4544,
      "ĠÐºÐ¾Ð»ÑĮÐ¾ÑĢ": 4545,
      "ĠÐºÐ¾Ð»ÐµÐ³Ð°Ð¼Ð¸": 4546,
      "ĠÑĢÐµÐºÐ¾Ð¼ÐµÐ½Ð´Ð°ÑĨÑĸÑĹ": 4547,
      "iederlande": 4548,
      "ĠÑģÐ»ÑĥÐ¶Ð±Ð°": 4549,
      "Ġbereitet": 4550,
      "Handlung": 4551,
      "Ġdunkel": 4552,
      "ĠÐ´Ð¾Ð±ÑĢÐµ": 4553,
      "ĠÐ½Ð°Ð¼ÑĸÑĢ": 4554,
      "ĠBÃ¤cker": 4555,
      "ĠBrÃ¼cke": 4556,
      "ĠÑģÑĤÑĢÐµÑģÑĥ": 4557,
      "ĠÐ¿ÑĢÐ¸Ð²Ð°ÑĤ": 4558,
      "ĠÑĩÑĥÐ´Ð¾Ð²Ð¸Ð¹": 4559,
      "ĠHex": 4560,
      "ĠÐ·Ð°Ð»Ð¸ÑĪÐ°ÑĤÐ¸": 4561,
      "ĠÑĩÐ°ÑģÑĤÐ¾": 4562,
      "ĠÐ¿Ð¾ÑģÐ¸Ð»": 4563,
      "ĠTrinkgeld": 4564,
      "ĠPatient": 4565,
      "ĠÐ²ÑĸÐ´Ð±ÑĥÐ²Ð°ÑĶÑĤÑĮÑģÑı": 4566,
      "ĠÐ¶Ð¾Ð²ÑĤ": 4567,
      "telefonieren": 4568,
      "ĠVerkehrsmittel": 4569,
      "olkshochschule": 4570,
      "Ġbegonnen": 4571,
      "ĠSpeicher": 4572,
      "ĠReihenfolge": 4573,
      "ĠÐºÐ¾Ð½ÑĤÐ°ÐºÑĤ": 4574,
      "Mails": 4575,
      "ĠMotorrad": 4576,
      "Stick": 4577,
      "ayern": 4578,
      "glied": 4579,
      "horn": 4580,
      "Ġusw": 4581,
      "Ð¾ÑĶÐ¼Ñĥ": 4582,
      "ĠInteresse": 4583,
      "ĠÑģÐ¸Ð´ÑĸÑĤÐ¸": 4584,
      "Ð¾Ð³ÑĢÐ°ÑĦ": 4585,
      "ĠÑĢÐµÐ¼Ð¾Ð½ÑĤ": 4586,
      "ĠSortieren": 4587,
      "ĠÑģÑĤÐ¾Ð¼Ð°ÑĤÐ¾Ð»Ð¾Ð³": 4588,
      "ĠHaltestelle": 4589,
      "ĠFoto": 4590,
      "Ġfolgt": 4591,
      "ĠÑĸÐ½Ð¾Ð·ÐµÐ¼": 4592,
      "ĠErdgeschoss": 4593,
      "ĠApotheke": 4594,
      "ĠÐ³ÑĢÑĥÐ´Ð½Ñı": 4595,
      "ĠÐ¿Ð¾Ð´ÑıÐºÑĥÐ²Ð°Ð»Ð°": 4596,
      "ĠBewerbungsgesprÃ¤ch": 4597,
      "ÐµÐºÑĢÐµÑĤÐ°ÑĢ": 4598,
      "ymnasium": 4599,
      ".âĢľ": 4600,
      "/-": 4601,
      "/?": 4602,
      "01": 4603,
      "05": 4604,
      "09": 4605,
      "32": 4606,
      "38": 4607,
      "316": 4608,
      "41": 4609,
      "56": 4610,
      "62": 4611,
      "78": 4612,
      "Al": 4613,
      "Ant": 4614,
      "Bi": 4615,
      "BÃ¼": 4616,
      "Bes": 4617,
      "Bundes": 4618,
      "Dinge": 4619,
      "EN": 4620,
      "ER": 4621,
      "En": 4622,
      "Gymnasium": 4623,
      "Hob": 4624,
      "Haupt": 4625,
      "Ihre": 4626,
      "Kar": 4627,
      "Li": 4628,
      "Lis": 4629,
      "Muster": 4630,
      "Natur": 4631,
      "Netz": 4632,
      "Nico": 4633,
      "Niederlande": 4634,
      "Ph": 4635,
      "Pers": 4636,
      "Rad": 4637,
      "Relativ": 4638,
      "Se": 4639,
      "Sp": 4640,
      "Tour": 4641,
      "Urlaub": 4642,
      "Vor": 4643,
      "Wohn": 4644,
      "adie": 4645,
      "ahre": 4646,
      "ace": 4647,
      "by": 4648,
      "buch": 4649,
      "bot": 4650,
      "cen": 4651,
      "dan": 4652,
      "dativ": 4653,
      "dru": 4654,
      "dit": 4655,
      "drig": 4656,
      "diert": 4657,
      "ding": 4658,
      "direkte": 4659,
      "dÃ¼rfen": 4660,
      "ekt": 4661,
      "egt": 4662,
      "eld": 4663,
      "ecke": 4664,
      "gnet": 4665,
      "garage": 4666,
      "gress": 4667,
      "hÃ¼": 4668,
      "hÃ¤": 4669,
      "hiel": 4670,
      "heiÃŁ": 4671,
      "haupt": 4672,
      "hitzung": 4673,
      "ian": 4674,
      "ider": 4675,
      "iser": 4676,
      "ice": 4677,
      "ihm": 4678,
      "izig": 4679,
      "ki": 4680,
      "kor": 4681,
      "kat": 4682,
      "kale": 4683,
      "kret": 4684,
      "kasus": 4685,
      "ln": 4686,
      "lt": 4687,
      "lat": 4688,
      "leute": 4689,
      "mo": 4690,
      "mu": 4691,
      "mas": 4692,
      "met": 4693,
      "mon": 4694,
      "mma": 4695,
      "miÃŁ": 4696,
      "mÃ¶glichkeit": 4697,
      "nst": 4698,
      "nier": 4699,
      "nÃ¤hr": 4700,
      "nik": 4701,
      "ness": 4702,
      "ow": 4703,
      "ose": 4704,
      "oben": 4705,
      "oder": 4706,
      "ohlen": 4707,
      "ph": 4708,
      "pra": 4709,
      "pers": 4710,
      "passen": 4711,
      "platz": 4712,
      "paten": 4713,
      "rt": 4714,
      "ritt": 4715,
      "sf": 4716,
      "seit": 4717,
      "sil": 4718,
      "szeit": 4719,
      "tter": 4720,
      "tet": 4721,
      "tage": 4722,
      "use": 4723,
      "ull": 4724,
      "verm": 4725,
      "wit": 4726,
      "wÃ¼r": 4727,
      "wechs": 4728,
      "xp": 4729,
      "yp": 4730,
      "ylt": 4731,
      "ziel": 4732,
      "Â©": 4733,
      "ÃĦ": 4734,
      "Ð¡": 4735,
      "Ð¯": 4736,
      "ÐĹ": 4737,
      "Ġ>": 4738,
      "ĠÑģÐ»": 4739,
      "ĠÑĢÑĸÐ²": 4740,
      "ĦÐ²ÑĢÐ¾Ð¿": 4741,
      "ĠÐ¨": 4742,
      "ĠÐ®": 4743,
      "Ð½ÐµÐ½Ð½Ñı": 4744,
      "Ð½ÑĸÐº": 4745,
      "Ð¾ÑģÑı": 4746,
      "Ð¾Ð½ÐµÑĢ": 4747,
      "Ð¾ÑīÐ°Ð´": 4748,
      "ÐµÐ²": 4749,
      "ÐµÐ»ÑĮÐ½Ð¸Ð¹": 4750,
      "ÑıÑĤ": 4751,
      "ÑıÑĩÐ¸Ð¹": 4752,
      "ÑĸÑĩ": 4753,
      "ÑĸÐ¼Ðµ": 4754,
      "ÑģÑĦÐµÑĢ": 4755,
      "Ð¾Ð°": 4756,
      "ree": 4757,
      "reig": 4758,
      "reffen": 4759,
      "Ð°Ð»Ðµ": 4760,
      "Ð°ÐµÑĢ": 4761,
      "Ð°ÐºÑĥ": 4762,
      "orf": 4763,
      "recht": 4764,
      "chste": 4765,
      "chnet": 4766,
      "ender": 4767,
      "enhaus": 4768,
      "enige": 4769,
      "enzin": 4770,
      "enstich": 4771,
      "ÑĤÑĶ": 4772,
      "ÑĤÐ¾Ð¿": 4773,
      "ÑĤÐ²ÐµÑĢ": 4774,
      "ÑĢÐ¸ÑģÑĤ": 4775,
      "ÑĢÐ¸ÑĤ": 4776,
      "ÑĢÐ¾Ðº": 4777,
      "ÐµÐ½Ñİ": 4778,
      "ÐµÐ½Ð·": 4779,
      "ÐµÐ½Ð¾ÑģÐ¸ÑĤÐ¸": 4780,
      "Ð»ÐºÐ°": 4781,
      "Ð»ÐµÐ½Ð¸Ð¹": 4782,
      "ÑĥÐ»Ð¸": 4783,
      "ĠCD": 4784,
      "ĠChan": 4785,
      "ÑĶÐ´Ð½": 4786,
      "erk": 4787,
      "erhÃ¶": 4788,
      "erdig": 4789,
      "erinnen": 4790,
      "Ð¼Ð¸Ð½": 4791,
      "Ð¼Ð°Ð½": 4792,
      "Ð¼Ð¾Ð²Ð°": 4793,
      "inkt": 4794,
      "inne": 4795,
      "inner": 4796,
      "inform": 4797,
      "interes": 4798,
      "star": 4799,
      "station": 4800,
      "stÃ¼tz": 4801,
      "ĠIr": 4802,
      "ĠIhnen": 4803,
      "ÐºÑĨÑĸÑı": 4804,
      "ÑĩÑĥ": 4805,
      "ÑĩÐ½Ð¸Ðº": 4806,
      "ÑĩÑĥÐ²Ð°ÑĤÐ¸": 4807,
      "ÑĩÑĥÐº": 4808,
      "ÑĩÐ¾ÑĢÐ°": 4809,
      "Ġde": 4810,
      "Ġdau": 4811,
      "Ġdar": 4812,
      "Ġdam": 4813,
      "ĠdrÃ¼": 4814,
      "Ġdirekt": 4815,
      "iehen": 4816,
      "iebt": 4817,
      "Ð¾Ð²Ð¾Ð»": 4818,
      "Ð¾Ð²Ð½Ð¾": 4819,
      "Ð¾Ð²ÐµÑĨÑĮ": 4820,
      "Ð¾Ð²Ð½Ð¸Ñħ": 4821,
      "ĠÐ¿Ð¸ÑĤÐ¸": 4822,
      "ĠÐ¿Ð°Ð´": 4823,
      "ĠÐ¿Ð°Ð»": 4824,
      "ĠÐ¿Ð¾Ð·Ð¸": 4825,
      "Ð¾Ð¼ÐµÑĢ": 4826,
      "Ð¾Ð¼ÐµÐ½ÑĤ": 4827,
      "ĠInten": 4828,
      "ĠÐ´Ð¾Ð¿": 4829,
      "ĠÐ´Ð¸ÑĤ": 4830,
      "ĠÐ´ÐµÑĢ": 4831,
      "ĠÐ´ÑıÐº": 4832,
      "ĠÐ´Ð¾Ð²ÑĸÐ´": 4833,
      "ĠÐ´ÑĸÑİ": 4834,
      "asen": 4835,
      "aske": 4836,
      "Ð´Ñĸ": 4837,
      "Ð´Ð¸Ð¹": 4838,
      "Ð´Ð°Ð½Ð½Ñı": 4839,
      "Ð´Ð¾Ð¼Ð°": 4840,
      "auch": 4841,
      "auen": 4842,
      "auran": 4843,
      "aukasus": 4844,
      "ĠÐ¼Ðµ": 4845,
      "ĠÐ¼Ð°Ð¼": 4846,
      "ĠÐ¼Ð°ÑĪ": 4847,
      "ĠÐ¼Ð°ÑİÑĤÑĮ": 4848,
      "ĠÐ¼Ð¾ÑĢÐµ": 4849,
      "ĠÐ¼Ð¾Ð¼ÐµÐ½ÑĤ": 4850,
      "ĠÐ°Ð½": 4851,
      "ĠÐ°ÑĤÐ¼Ð¾": 4852,
      "ĠÐ°Ð¿ÑĤÐµ": 4853,
      "ĠÐ·ÑĢÑĥ": 4854,
      "ĠÐ·Ð½Ð¸Ðº": 4855,
      "ĠÐ·Ð½Ñı": 4856,
      "ĠÐ·Ð¾ÑĢÑĥ": 4857,
      "Ġihm": 4858,
      "gefÃ¼": 4859,
      "geogra": 4860,
      "gezogen": 4861,
      "gebraucht": 4862,
      "gegn": 4863,
      "ĠÐ½ÑĸÐº": 4864,
      "ĠÐ½Ð°Ð¼Ð¸": 4865,
      "ĠÐ½Ð¾Ð¼ÐµÑĢ": 4866,
      "ĠÑģÐ¸Ð¼": 4867,
      "ĠÑģÐ²Ñĸ": 4868,
      "ĠÐ²Ñĸ": 4869,
      "ĠÐ²Ðº": 4870,
      "ĠÐ²Ð¸Ñģ": 4871,
      "ĠÐ²Ð²Ð°Ð¶Ð°Ñİ": 4872,
      "ĠÐ²ÑĸÑĪÐ°ÑĤÐ¸": 4873,
      "ĠÐ²Ð¿ÐµÐ²Ð½": 4874,
      "ÑĸÐ½Ð°Ð½": 4875,
      "ande": 4876,
      "andes": 4877,
      "anis": 4878,
      "anbie": 4879,
      "Ð»ÑıÑĶ": 4880,
      "Ð»ÑıÑİ": 4881,
      "Ð»ÑıÑİÑĤÑĮ": 4882,
      "Ġweit": 4883,
      "Ġwert": 4884,
      "ĠDen": 4885,
      "ĠDiÃ¤t": 4886,
      "Ġson": 4887,
      "Ġsollen": 4888,
      "Ġsingen": 4889,
      "Ġschenke": 4890,
      "eim": 4891,
      "eich": 4892,
      "eigt": 4893,
      "ÑĤÐ¸ÑĢÐ°": 4894,
      "Ġgeg": 4895,
      "Ġgebo": 4896,
      "Ġgebr": 4897,
      "Ġgewaschen": 4898,
      "Ġgeboten": 4899,
      "Ġgefallen": 4900,
      "Ġgeliehen": 4901,
      "tis": 4902,
      "tier": 4903,
      "uten": 4904,
      "Ð²ÐµÑĢÑĤ": 4905,
      "ĠAt": 4906,
      "ĠAu": 4907,
      "ĠAut": 4908,
      "ĠAug": 4909,
      "Ð¾ÑĢÐ´": 4910,
      "Ð¾Ð³Ð°": 4911,
      "Ð¼ÐµÑĢÐ°": 4912,
      "ÑĨÑİ": 4913,
      "ÑĨÐµÑĢÑĤ": 4914,
      "Ð»ÑĮÐ¿": 4915,
      "Ġber": 4916,
      "Ġbel": 4917,
      "Ġbenut": 4918,
      "Ã¼hr": 4919,
      "Ã¼cken": 4920,
      "ĠÐ¿ÑĸÐ´ÑĤÑĢÐ¸Ð¼": 4921,
      "ĠÐ¿ÑĸÐ´Ð¿ÑĢÐ¸": 4922,
      "Ð¹Ð½Ð°": 4923,
      "ĠBÃ¼": 4924,
      "ĠBil": 4925,
      "ĠBis": 4926,
      "ĠBond": 4927,
      "ĠBalkon": 4928,
      "ĠBayern": 4929,
      "ÑĦÐ¾ÑĢÑĤ": 4930,
      "Ð¿Ð¾": 4931,
      "Ð¿Ñĸ": 4932,
      "Ð¿Ð°ÑĤÐ¸": 4933,
      "Ð¿Ð¾Ð·": 4934,
      "ĠÑĢÐµÑģÑĤÐ¾ÑĢÐ°Ð½": 4935,
      "ĠSÃ¼": 4936,
      "ĠSÃ¤": 4937,
      "ĠSicher": 4938,
      "ĠSylt": 4939,
      "ĠSender": 4940,
      "Ð¾Ð´Ñĥ": 4941,
      "ĠÑģÑĤÐ°Ð²": 4942,
      "ĠÑģÑĤÑĢÑĸ": 4943,
      "ĠÑģÑĤÐ¾Ñģ": 4944,
      "ĠÑģÑĤÐ¾Ð»Ñĸ": 4945,
      "ĠÑĥÐºÑĢÐ°ÑĹÐ½": 4946,
      "ĠnÃ¼tz": 4947,
      "eiter": 4948,
      "Erd": 4949,
      "schien": 4950,
      "schmer": 4951,
      "Ã¤ren": 4952,
      "Ã¤rin": 4953,
      "Ã¤gt": 4954,
      "Ã¤dlich": 4955,
      "ÑĨÑĸÐ¾Ð½": 4956,
      "arum": 4957,
      "arken": 4958,
      "arischen": 4959,
      "artner": 4960,
      "ernhof": 4961,
      "erneinung": 4962,
      "ĠÑĩÐ¸ÑģÑĤ": 4963,
      "ĠÑĩÐµÑĢ": 4964,
      "ĠÑĤÐ¾": 4965,
      "ĠÑĤÐ°ÑĶÐ¼": 4966,
      "heben": 4967,
      "Ġeinige": 4968,
      "Ġeinfach": 4969,
      "Ġeinverstanden": 4970,
      "ĠHÃ¼": 4971,
      "ĠHier": 4972,
      "untern": 4973,
      "unktion": 4974,
      "ÑģÑĸÐ»Ð»Ñı": 4975,
      "genehm": 4976,
      "ĠKn": 4977,
      "ĠKoll": 4978,
      "ĠKomp": 4979,
      "ĠKlo": 4980,
      "ĠKomparativ": 4981,
      "ĠKeller": 4982,
      "ĠFC": 4983,
      "ĠFÃ¤hr": 4984,
      "ĠFrÃ¼hst": 4985,
      "ĠFace": 4986,
      "ĠFeld": 4987,
      "ĠFunktion": 4988,
      "ĠÐºÐ¾Ð³Ð¾": 4989,
      "ĠÐºÐ°Ð¶": 4990,
      "ĠÐºÑĸÐ»ÑĮ": 4991,
      "ĠÐºÑĢÐ¸": 4992,
      "ĠÐºÐ°Ñģ": 4993,
      "ĠÐºÑĸÐ¼": 4994,
      "ĠÐºÐ°Ð½Ð´": 4995,
      "ĠÐºÐ²Ð¸ÑĤ": 4996,
      "Ġlang": 4997,
      "Ġlaufen": 4998,
      "ÑİÐºÐ°": 4999,
      "ÑİÑĢÐ¸ÑģÑĤ": 5000,
      "Ð¸Ð½Ð°Ð¼Ð¸": 5001,
      "Ð¸Ð½Ð¾Ñİ": 5002,
      "ĠÐ¾ÑģÑĤ": 5003,
      "ĠÐ¾ÑĨÑĸÐ½": 5004,
      "Ð¾Ð»Ð¾Ð²": 5005,
      "ĠÐ·Ð°ÑĢÐ¾Ð±": 5006,
      "Ġdenn": 5007,
      "ÑģÑıÑĨÑĮ": 5008,
      "ĠÑĩÐ°ÑģÑĤÐ¸": 5009,
      "ĠÑĦÐ°ÑĢ": 5010,
      "ĠÑĦÑĥÑĤÐ±": 5011,
      "ĠÑĦÑĸÐ½Ð°Ð½": 5012,
      "ĠGÃ¤": 5013,
      "ĠGlei": 5014,
      "ĠGasse": 5015,
      "ĠGrÃ¼n": 5016,
      "ĠGerman": 5017,
      "ĠGrammatik": 5018,
      "Ġdiesen": 5019,
      "Ġdieser": 5020,
      "ĠMar": 5021,
      "ĠMaus": 5022,
      "ĠMetz": 5023,
      "ĠMasch": 5024,
      "inder": 5025,
      "ĠÐ¿Ð¾ÑģÐ»ÑĸÐ´": 5026,
      "ĠÐ¿Ð¾ÑģÐ»Ñĥ": 5027,
      "Ð±ÑĥÐ²Ð°ÑĤÐ¸ÑģÑı": 5028,
      "Ð°Ð²Ð°": 5029,
      "teratur": 5030,
      "terhorn": 5031,
      "ĠDeutschkurs": 5032,
      "ĠTo": 5033,
      "ĠTim": 5034,
      "ĠTrÃ¶": 5035,
      "ĠTief": 5036,
      "ĠTaschen": 5037,
      "annte": 5038,
      "Ð°Ð¼Ð¿": 5039,
      "ĠArt": 5040,
      "chenk": 5041,
      "rop": 5042,
      "ĠÐ½Ð°Ñģ": 5043,
      "ĠÐ½Ð°ÑģÑĤÑĢÑĸ": 5044,
      "ĠÐ½Ð°Ð»ÐµÐ¶": 5045,
      "eilen": 5046,
      "ĠSuche": 5047,
      "ĠSuperlativ": 5048,
      "Ð¶Ð°Ð²": 5049,
      "Ð¶ÑĥÐ²Ð°ÑĤÐ¸": 5050,
      "Ð¶ÐµÐ½Ð¸Ð¹": 5051,
      "Ð¶Ð´Ð¶": 5052,
      "ĠPeter": 5053,
      "Ð³ÑĢ": 5054,
      "Ð³Ð°Ð½": 5055,
      "ichte": 5056,
      "ÑĢÑĥÑĩÐ½Ð¸Ðº": 5057,
      "kaufs": 5058,
      "ĠZeu": 5059,
      "ĠZust": 5060,
      "rend": 5061,
      "ummer": 5062,
      "ummel": 5063,
      "ÑĪÐºÐ°": 5064,
      "ĠÐ±ÑĸÐ´": 5065,
      "ĠÐ±Ð¾ÑĢ": 5066,
      "ĠÐ±Ð°ÑĢ": 5067,
      "ĠÐ±Ð°Ð»": 5068,
      "ĠÐ±ÑĸÐ·": 5069,
      "ĠÐ±Ð°Ñĩ": 5070,
      "ĠÐ±Ð°Ð³Ð°ÑĤÐ¸": 5071,
      "ĠÐ±ÑĸÐ»ÑĮÑĪÐµ": 5072,
      "Ð°Ð½Ð´Ð¸": 5073,
      "Ġerk": 5074,
      "beantworten": 5075,
      "becken": 5076,
      "bekl": 5077,
      "Ġteu": 5078,
      "Ġtri": 5079,
      "Ġtreffen": 5080,
      "ĠÑģÐ¿Ð°": 5081,
      "ĠÑģÐ¿Ð¾Ðº": 5082,
      "ĠÑģÐ¿ÑĢÐ°Ð²": 5083,
      "ĠÑģÐ¿ÑĢÐ¸": 5084,
      "pekt": 5085,
      "pektiv": 5086,
      "Ã¶hnen": 5087,
      "Ã¶llig": 5088,
      "Ã¶hnt": 5089,
      "Ġfr": 5090,
      "Ġfot": 5091,
      "Ġfaul": 5092,
      "ÑħÐ¾": 5093,
      "Ð·Ð´": 5094,
      "estauran": 5095,
      "ĠÑĤÐµÑģÑĤ": 5096,
      "ĠÑĤÐµÐ¶": 5097,
      "ĠÑĤÐµÐ±Ðµ": 5098,
      "ĠschÃ¤dlich": 5099,
      "Ð½ÐµÑĤ": 5100,
      "Ð½ÐµÑĢÐ°": 5101,
      "Ġspricht": 5102,
      "ĠÐ¼ÑĸÑģÑĤÐ°": 5103,
      "ĠÐ¼ÑĸÐ»ÑĮÐ¹": 5104,
      "ĠÐ¼ÑĸÑģÑıÑĨÑĮ": 5105,
      "hne": 5106,
      "hnung": 5107,
      "Ġanal": 5108,
      "Ġanfangen": 5109,
      "Ġangenehm": 5110,
      "chtung": 5111,
      "ĠÐŁÑĢÐ¾": 5112,
      "ĠÐŁÑĢÐ¸": 5113,
      "hte": 5114,
      "ĠÐ±ÑĥÐ²": 5115,
      "ĠÐ±ÑĥÐ»ÑĮÐ¹": 5116,
      "ethe": 5117,
      "ette": 5118,
      "Ð´Ð¸Ð²": 5119,
      "denken": 5120,
      "Ð°ÑĤÐ¸Ð²": 5121,
      "ĠErho": 5122,
      "ĠErzÃ¤hl": 5123,
      "ĠErnÃ¤hr": 5124,
      "Ð°Ð»ÑĮÐ½Ð¾": 5125,
      "Ð¾Ð¿ÑĸÐ¹": 5126,
      "Ð´Ð½Ð¾": 5127,
      "Ð°Ð²Ð¸Ð»ÑĮÐ½Ð¸Ñħ": 5128,
      "ĠÑĨÑİ": 5129,
      "ĠÑĨÑĥÐº": 5130,
      "Ð¸ÑĤÐ°ÑĤÐ¸": 5131,
      "Ð¸ÑĤÐµÐ»ÑĮ": 5132,
      "ĠÐ²ÑĸÐ´ÑĮ": 5133,
      "ĠÐ²ÑĸÐ´ÑĢÑıÐ´Ð¶": 5134,
      "ĠWes": 5135,
      "ennen": 5136,
      "PrÃ¤positionen": 5137,
      "Ã¶nliche": 5138,
      "ÑĸÐ²ÐºÐ°": 5139,
      "itel": 5140,
      "itÃ¤t": 5141,
      "Ġzwar": 5142,
      "Ġzeigt": 5143,
      "ĠÐ·Ð°Ð¿Ð¸Ñģ": 5144,
      "ÑĥÑĩÐ°ÑĤÐ¸": 5145,
      "ĠÑĢÐµÑĩÑĸ": 5146,
      "ĠÐ¶ÑĥÑĢ": 5147,
      "ĠÐ¶Ð°Ð»ÑĮ": 5148,
      "ĠÐ·Ð°Ð²ÐµÑĢÑĪ": 5149,
      "ĠÐ·Ð°Ð²Ð´Ð°Ð½Ð½Ñı": 5150,
      "alz": 5151,
      "demittel": 5152,
      "ille": 5153,
      "ĠÐ¶ÑĸÐ½ÐºÐ°": 5154,
      "ĠÐ´Ð¾Ð¿Ð¾Ð¼Ð¾Ð³ÑĤÐ¸": 5155,
      "dukt": 5156,
      "ziert": 5157,
      "ĠÐļÐ°ÑĢ": 5158,
      "sichtig": 5159,
      "ĠUhrzeit": 5160,
      "ermine": 5161,
      "Ġausgeben": 5162,
      "uÃŁern": 5163,
      "ĠFuÃŁgÃ¤n": 5164,
      "ĠLÃ¤ndern": 5165,
      "ĠLotto": 5166,
      "ĠBuchladen": 5167,
      "ierten": 5168,
      "ierig": 5169,
      "kosten": 5170,
      "Ġverm": 5171,
      "Ġverneinen": 5172,
      "erleben": 5173,
      "erlegt": 5174,
      "ĠÐ¾Ð·ÐµÑĢ": 5175,
      "ÑĸÐ¹Ð½Ð¸Ð¹": 5176,
      "Ġliegen": 5177,
      "Ã¼ritz": 5178,
      "Ð¼Ð¾Ð½": 5179,
      "ames": 5180,
      "spunkt": 5181,
      ".....": 5182,
      "ilft": 5183,
      "ilien": 5184,
      "ĠÐ½ÑĸÐ¼ÐµÑĨÑĮÐºÑĥ": 5185,
      "ĠGesprÃ¤": 5186,
      "ĠGeschenk": 5187,
      "mpfen": 5188,
      "Ð¾Ð·Ð²Ñĸ": 5189,
      "ator": 5190,
      "andt": 5191,
      "andte": 5192,
      "ĠVerneinen": 5193,
      "ĠVerneinung": 5194,
      "ĠParkhaus": 5195,
      "neben": 5196,
      "ÑĥÐ²Ð°Ð½": 5197,
      "ĠFreunden": 5198,
      "ĠFremd": 5199,
      "urde": 5200,
      "ĠhÃ¼b": 5201,
      "Ġhilft": 5202,
      "ĠRuhe": 5203,
      "ĠRasen": 5204,
      "ĠRestauran": 5205,
      "isÃ¶r": 5206,
      "rafen": 5207,
      "ration": 5208,
      "ĠStamm": 5209,
      "ĠSteiger": 5210,
      "ĠStock": 5211,
      "Ġmachte": 5212,
      "ĠEnergie": 5213,
      "ĠEtage": 5214,
      "ĠEreig": 5215,
      "ĠÐľÐ¾Ñı": 5216,
      "ĠÐľÑĸÐ¹": 5217,
      "ĠÐľÐ°Ð¼Ð°": 5218,
      "leiden": 5219,
      "Ð´Ð°ÑĩÐ°": 5220,
      "bteil": 5221,
      "ĠÐ³Ð°Ð·": 5222,
      "ĠÐ³ÑĢÐ°Ð²": 5223,
      "ĠÐ³Ð°Ð»": 5224,
      "ĠÐ³ÑĢÐ°ÑĤÐ¸": 5225,
      "ĠÐ³ÑĥÑģ": 5226,
      "ĠÐ³ÑĸÐ³": 5227,
      "kenland": 5228,
      "ĠÐ¾Ð±Ð¾Ð²": 5229,
      "ĠÐ¾Ð±Ð»Ð°ÑĪÑĤ": 5230,
      "ĠÐ¾Ð±ÑģÐ»ÑĥÐ³": 5231,
      "ĠÐ¾Ð±ÐµÑĢÐµÐ¶": 5232,
      "ĠProfil": 5233,
      "Ã¼nsche": 5234,
      "ĠProbleme": 5235,
      "ÑģÑĤÐ°Ð²ÐºÑĥ": 5236,
      "imal": 5237,
      "schloss": 5238,
      "sterben": 5239,
      "Ġleben": 5240,
      "warz": 5241,
      "ĠÑĢÑĸÐ´": 5242,
      "ĠBahnsteig": 5243,
      "Ã¤len": 5244,
      "ĠWochen": 5245,
      "Schul": 5246,
      "Schreiben": 5247,
      "Ġ23": 5248,
      "Ġ24": 5249,
      "Ð²Ð°ÑĢÑĸ": 5250,
      "Ð²Ð°Ð»Ð°": 5251,
      "mÃ¼tlich": 5252,
      "Ġseiner": 5253,
      "ĠBildung": 5254,
      "ÑĹÑħ": 5255,
      "ÑĹÐ¶Ð´Ð¶": 5256,
      "ÐµÑĢÐ»": 5257,
      "ÐµÑĢÑİ": 5258,
      "lichen": 5259,
      "ÑīÐµ": 5260,
      "ÑīÐ¸Ð½Ð°": 5261,
      "Ã¤rgern": 5262,
      "ĠÐ³Ð¾Ð»Ð¾Ð²Ð½Ð¸Ð¹": 5263,
      "gerzone": 5264,
      "Ġdeinen": 5265,
      "ĠVerhÃ¤ltnis": 5266,
      "ĠVergangenheit": 5267,
      "iesland": 5268,
      "ÃŁerdem": 5269,
      "verw": 5270,
      "verhÃ¤ltnis": 5271,
      "versicherung": 5272,
      "ĠKomma": 5273,
      "Ð½Ð¾ÑģÑĤ": 5274,
      "Ð¾Ð¶Ð¸Ð²Ð°Ð½Ð½Ñı": 5275,
      "ĠNe": 5276,
      "ĠNacht": 5277,
      "ĠNamen": 5278,
      "ĠÐĴÑĸÐ´": 5279,
      "ĠÐĴÐ°Ð¼": 5280,
      "ĠÐĴÐ¾Ð»Ð¸Ð½ÑģÑĮÐºÐ¾Ð³Ð¾": 5281,
      "ĠÐ»ÑĸÐº": 5282,
      "ĠÐ»ÑĸÑĤ": 5283,
      "ĠÐ»ÐµÐ¶": 5284,
      "Ð¾Ð½Ð´Ð°ÑĢ": 5285,
      "ĠNachrichten": 5286,
      "ĠÑĢÐ¾Ð±Ð¸ÑĤÐ¸": 5287,
      "ĠÑĢÐ¾Ð±Ð¾ÑĤÑĥ": 5288,
      "Ãľb": 5289,
      "keln": 5290,
      "Ġverboten": 5291,
      "Ġverdoppel": 5292,
      "Ð¾ÑĩÐºÐ°": 5293,
      "ĠKongress": 5294,
      "âĢ¦);": 5295,
      "ĠPrÃ¤sens": 5296,
      "Ġbedeut": 5297,
      "âĢľ.": 5298,
      "âĢľ:": 5299,
      "ĠÑħÐ¾ÑĤ": 5300,
      "ĠÑħÐ¾Ð»Ð¾Ð´": 5301,
      "ĠÑħÐ²Ð¸": 5302,
      "ĠÑħÐ°ÑĢÑĩ": 5303,
      "ĠMorgeng": 5304,
      "zentr": 5305,
      "abonn": 5306,
      "Ð»Ð¸Ð²Ñĸ": 5307,
      "Ð»Ð¸Ð²Ð°": 5308,
      "Ð°Ð´ÑĥÐ²Ð°ÑĤÐ¸": 5309,
      "ĠÐ²Ð¸ÑģÐ»Ð¾Ð²": 5310,
      "ĠÐ²Ð¸Ð·": 5311,
      "ĠÐ²Ð¸ÑĢÐ¾Ð±": 5312,
      "ĠÐ¿ÑĢÐ¾ÑĤÐ¸": 5313,
      "satzes": 5314,
      "ÐµÑĤÐ¾Ð´Ð¸Ñĩ": 5315,
      "adjektiv": 5316,
      "ĠÑĪÐ°Ð½": 5317,
      "ĠSport": 5318,
      "ĠSprache": 5319,
      "ĠSpitze": 5320,
      "ĠSpree": 5321,
      "Ġplan": 5322,
      "Ð½Ð¸ÑĨÑı": 5323,
      "ÑĤÐ°Ð»": 5324,
      "ÑĤÐ°ÑĪ": 5325,
      "ĠÐ¿Ð¾Ð´Ð°ÑĤÐ¾Ðº": 5326,
      "ĠÑĢÐ¾Ð·ÐµÑĤ": 5327,
      "ĠÐ¿ÐµÑĢÐµÑĢ": 5328,
      "ĠÐ¿ÐµÑĢÐµÐ±": 5329,
      "ĠÐ¿ÐµÑĢÐµÐ±ÑĥÐ´": 5330,
      "ĠBedeut": 5331,
      "ĠBezie": 5332,
      "ĠBeding": 5333,
      "ĠBeerdig": 5334,
      "ÐµÐºÐ¾Ð¼": 5335,
      "ÑĸÐ»ÑĮÐºÐ¸": 5336,
      "ÑĥÐ´ÑĮ": 5337,
      "Ġstreiten": 5338,
      "Ġstarke": 5339,
      "ĠÐĿÐµ": 5340,
      "ĠAntwort": 5341,
      "ĠAngebot": 5342,
      "ĠAnzahl": 5343,
      "fing": 5344,
      "findet": 5345,
      "lieÃŁ": 5346,
      "iven": 5347,
      "Ð²Ð¸Ð´": 5348,
      "Ð²Ð¸Ð´Ð½Ð¾": 5349,
      "ĠÐ¿ÑĢÐ¸Ñħ": 5350,
      "ĠÐ¿ÑĢÐ¸Ð²ÑĸÑĤ": 5351,
      "gabe": 5352,
      "ika": 5353,
      "stelle": 5354,
      "ogle": 5355,
      "sivstation": 5356,
      "ĠÑıÐºÑĸ": 5357,
      "ĠÑıÐºÐ¾Ñİ": 5358,
      "ÑĸÑĤÑĤÑı": 5359,
      "ĠÐºÐ¾Ð¼ÑĦÐ¾ÑĢÑĤ": 5360,
      "ĠRepar": 5361,
      "ntag": 5362,
      "ĠManchmal": 5363,
      "flexiven": 5364,
      "ĠÑĹÐ¹": 5365,
      "ĠÑĹÐ´Ðµ": 5366,
      "ĠÑĹÑģÑĤÐ¸": 5367,
      "Ġpassiert": 5368,
      "ellen": 5369,
      "riffen": 5370,
      "ĠJames": 5371,
      "ĠÐĳÐ°Ð³Ð°ÑĤÐ¾": 5372,
      "ĠÐĳÐ°ÑĤÑĮ": 5373,
      "ĠÐ¡ÐµÐºÑĢÐµÑĤÐ°ÑĢ": 5374,
      "ÑģÐ¿ÑĸÐ²": 5375,
      "ÑģÐ¿ÑĢÐ°Ð²": 5376,
      "ĠÑģÐ²ÑĸÐ´": 5377,
      "ĠÑģÐ²ÐµÑĤÑĢ": 5378,
      "ĠÑģÐ²Ð¾ÑĶÐ¼Ñĥ": 5379,
      "ĠEinkaufen": 5380,
      "ĠEinweihung": 5381,
      "ÑĸÐ·Ð¸Ðº": 5382,
      "ÑĸÐ·Ð½Ð°": 5383,
      "ĠÐ²ÑĸÐ´Ð¿Ð¾Ð²Ñĸ": 5384,
      "ĠVorlesung": 5385,
      "Infinitiv": 5386,
      "Institut": 5387,
      "haushalt": 5388,
      "Ð¾Ð²Ð¾ÑĢÐ¸ÑĤÐ¸": 5389,
      "geschaut": 5390,
      "geschehen": 5391,
      "Ð²Ð°Ð¶Ð»Ð¸Ð²": 5392,
      "ĠOrte": 5393,
      "135": 5394,
      "Verb": 5395,
      "Verbst": 5396,
      "Veranst": 5397,
      "book": 5398,
      "nahmen": 5399,
      "ÐĴÑĸÐ½": 5400,
      "ÐĴÐ¾Ð½Ð°": 5401,
      "ÐĴÐ¾Ð»Ð¸Ð½ÑģÑĮÐºÐ¾Ð³Ð¾": 5402,
      "Ġreflexiven": 5403,
      "ÑĤÐµÑĢÐ½ÐµÑĤÑĸ": 5404,
      "ÑĥÐ¼ÐµÐ½ÑĤ": 5405,
      "ÑĥÐ¼ÐµÐ½ÑĤÐ¸": 5406,
      "hand": 5407,
      "ĠAusdru": 5408,
      "ĠFormular": 5409,
      "ĠFormulieren": 5410,
      "reichbar": 5411,
      "ÑĥÐ·ÑĮ": 5412,
      "ĠÐ½Ð°Ð²Ðº": 5413,
      "ĠÐ¾ÑģÐ²ÑĸÑĤ": 5414,
      "ĠÑħÐ¾ÑĩÐµÑĤÐµ": 5415,
      "ĠÐĿÐ°ÑĪ": 5416,
      "low": 5417,
      "lokale": 5418,
      "meckt": 5419,
      "ukunft": 5420,
      "ĠÐ¿Ð¾Ð³ÑĢÐ°Ð±": 5421,
      "ĠÐ¿Ð¾Ð³Ð¾Ð²Ð¾ÑĢÐ¸ÑĤÐ¸": 5422,
      "ĠÐ´ÐµÑıÐºÑĸ": 5423,
      "delmarkt": 5424,
      "Ð¾Ð·Ð¸ÑĨÑĮÐºÐ°": 5425,
      "rennbare": 5426,
      "freut": 5427,
      "rief": 5428,
      "riere": 5429,
      "ÑĸÑĪÐ½Ð¸Ð¹": 5430,
      "ÑĥÐ½ÐºÐ¸": 5431,
      "Ġdabei": 5432,
      "ĠdafÃ¼r": 5433,
      "Ġbesten": 5434,
      "ĠBerge": 5435,
      "ĠBergen": 5436,
      "Ð¿ÑĢÐ¾Ð¿": 5437,
      "ĠÑĦÑĸÐ»Ð¾Ð»": 5438,
      "ĠUnterstÃ¼tz": 5439,
      "baute": 5440,
      "Ġenthalten": 5441,
      "ĠÐ·Ð»Ð¸ÑĤÐ¸ÑģÑı": 5442,
      "ĠÐ·Ð»Ð¾Ð´ÑĸÐ¹": 5443,
      "ĠÐ²Ð¸Ð³ÑĢÐ°Ð²Ð°ÑĤÐ¸": 5444,
      "ĠwÃ¼rden": 5445,
      "Ġgesund": 5446,
      "Ġgesagt": 5447,
      "ungsfor": 5448,
      "emporalsatz": 5449,
      "dition": 5450,
      "Ġendet": 5451,
      "ĠÐ¦ÐµÐ¹": 5452,
      "ÐµÐ¼ÐµÐ½Ñİ": 5453,
      "ĠÐ¿ÑĢÐ¾Ð¿Ð¾Ð½ÑĥÐ²Ð°ÑĤÐ¸": 5454,
      "ĠÐ½Ð°Ð´ÑĤÐ¾": 5455,
      "ÐµÑĢÑĤÐ°ÑĤÐ¸": 5456,
      "ĠÐ»ÑĸÐºÐ°": 5457,
      "ĠPersonal": 5458,
      "Redemittel": 5459,
      "ffpunkt": 5460,
      "ĠÑĨÑĸÐ»": 5461,
      "steigen": 5462,
      "ĠÑģÐµÑĢÑĸÐ°Ð»": 5463,
      "ĠAbschied": 5464,
      "ÑħÐ¾Ð´Ð¸": 5465,
      "ÑħÐ¾Ð´Ð¸ÑĤÐ¸": 5466,
      "ĠÑĢÐ°Ð´ÑĸÑĤÐ¸": 5467,
      "ĠÑĢÐ°Ð´ÑĸÑİ": 5468,
      "ĠReflexive": 5469,
      "folg": 5470,
      "ÐľÐµÑĤÐ¾Ð´Ð¸Ñĩ": 5471,
      "ĠÐ¿ÑĢÐ¸Ð¹Ð¾Ð¼": 5472,
      "ĠÐ¿ÑĢÐ¸Ð¹ÑĪ": 5473,
      "ĠÐ¿ÑĢÐ¸Ð¹Ð¼Ð°ÑĤÐ¸": 5474,
      "ĠFragesatz": 5475,
      "ĠÐ¾ÑĢÐ³Ð°Ð½": 5476,
      "ĠUmwelt": 5477,
      "ĠÐ³ÑĢÐ°Ð¼Ð°ÑĤÐ¸": 5478,
      "605": 5479,
      "frieren": 5480,
      "friesland": 5481,
      "hÃ¤ng": 5482,
      "ĠÐ¿ÑĢÐ¾Ð´Ð°Ð¶": 5483,
      "ĠKleid": 5484,
      "ĠÐ³Ð°ÑĢÐ½Ð¾": 5485,
      "ĠÐ³Ð°ÑĢÐ½Ñĸ": 5486,
      "ĠÐ´ÑĥÐ¼ÐºÐ°": 5487,
      "ĠÐ²ÐµÑĩÐµÑĢÑİ": 5488,
      "289": 5489,
      "sitzen": 5490,
      "verlor": 5491,
      "verlieren": 5492,
      "Ġgenannt": 5493,
      "ĠÐ¿Ð¾ÐºÑĥÐ¿": 5494,
      "ĠÐ¿Ð¾ÐºÐ»Ð°Ð»Ð°": 5495,
      "ĠÐ·Ð½Ð°ÑĶÑĤÐµ": 5496,
      "Ġgeschrieben": 5497,
      "Ð»ÑĮÑĤÐµÑĤ": 5498,
      "ĠBaum": 5499,
      "ĠBauernhof": 5500,
      "ĠBaustelle": 5501,
      "ĠÐ¿ÑĢÐ¾Ð²Ð¾Ð´Ð¸ÑĤÐ¸": 5502,
      "ĠÐ¿ÑĢÐ¾Ð²ÐµÐ´ÐµÐ½Ð½Ñı": 5503,
      "ĠMÃ¼ll": 5504,
      "ĠÐ¼ÑĸÑģÑĤÐ¾": 5505,
      "ĠSchulhof": 5506,
      "ĠSchuljahr": 5507,
      "ĠbeschÃ¤f": 5508,
      "Ġ...................................................................................": 5509,
      "Ansicht": 5510,
      "melden": 5511,
      "zwischen": 5512,
      "zwald": 5513,
      "Ġempf": 5514,
      "ÐµÐ½Ð´Ð¾Ð²": 5515,
      "ĠChefin": 5516,
      "ĠÐ·Ð´ÑĸÐ¹ÑģÐ½": 5517,
      "ĠÐ·Ð±ÑĢ": 5518,
      "ĠÐ·Ð±ÑĸÐ»ÑĮÑĪ": 5519,
      "ĠÐ²Ð¸ÑĤÑĢÐ°": 5520,
      "Ð¾ÑĢÐ¸ÑģÐ½": 5521,
      "ĠFÃ¤hre": 5522,
      "ĠÐ¿Ð¾ÑģÐºÐ°ÑĢÐ¶": 5523,
      "ĠTreppe": 5524,
      "ĠTreppen": 5525,
      "ĠTreffpunkt": 5526,
      "bereiten": 5527,
      "ĠÑĸÐ½ÑĤÐµÑĢÐ½ÐµÑĤ": 5528,
      "ĠLebens": 5529,
      "ĠÑĢÐ¾Ð·Ð¿Ð¾ÑĩÐ¸Ð½Ð°ÑĤÐ¸": 5530,
      "ĠJahren": 5531,
      "ĠÐ¼ÑĥÐ·Ð¸ÐºÐ°": 5532,
      "966": 5533,
      "Beantworten": 5534,
      "Ġindirekt": 5535,
      "Ġindirekte": 5536,
      "stÃ¼rzen": 5537,
      "ĠÐ¿Ð¾Ð¼Ð¸": 5538,
      "ĠÐ¿Ð¾Ð¿ÑĢÐ¾Ñī": 5539,
      "ĠÐ´Ð¾Ð¼Ð°ÑĪ": 5540,
      "ĠÐ´Ð¾Ð´Ð¾Ð¼Ñĥ": 5541,
      "ĠÐ¼Ð°ÑĤÐµÐ¼Ð°": 5542,
      "ĠÐ¼Ð°ÑĤÐµÑĢÑĸÐ°Ð»": 5543,
      "ĠÑģÑĤÑĢÐ°Ð²Ñĥ": 5544,
      "ĠKredit": 5545,
      "ĠÐ·Ð°ÑħÐ¸ÑģÑĤ": 5546,
      "ĠMensch": 5547,
      "ĠTagung": 5548,
      "ĠZugspitze": 5549,
      "ettert": 5550,
      "ĠÐ¿Ð¾Ð²ÐµÑĢÑħ": 5551,
      "ĠÐ¿Ð¾Ð²ÑĸÐ´Ð¾Ð¼Ð»ÑıÑĤÐ¸": 5552,
      "ĠÐ¿Ð¾Ð²ÑĸÐ´Ð¾Ð¼Ð»ÐµÐ½Ð½Ñı": 5553,
      "ĠEndung": 5554,
      "Ġ2022": 5555,
      "ĠNotwend": 5556,
      "Ġverbunden": 5557,
      "Ġverbringt": 5558,
      "ĠÐ²Ð¸Ð¿Ð°Ð´Ð¾Ðº": 5559,
      "ĠOrdner": 5560,
      "ĠOrdnung": 5561,
      "ĠÐ½Ð°Ð²ÑĩÐ°Ð½Ð½Ñı": 5562,
      "ĠStraÃŁenecke": 5563,
      "ĠÑĨÑĸÐºÐ°Ð²Ð¸ÑĤÐ¸ÑģÑı": 5564,
      "sow": 5565,
      "sondern": 5566,
      "ĠÃ¼berlegt": 5567,
      "ĠDachboden": 5568,
      "Ġgeflo": 5569,
      "ĠBoot": 5570,
      "ĠBeispiel": 5571,
      "ĠÐºÐ»ÑĸÑĶÐ½ÑĤ": 5572,
      "ĠÐ·Ð°Ð¼Ð¾Ð²Ð»ÐµÐ½Ð½Ñı": 5573,
      "ĠÑĦÑĸÑĢÐ¼Ð°": 5574,
      "ĠGericht": 5575,
      "ĠGerÃ¤t": 5576,
      "ĠTurnier": 5577,
      "ĠÑģÐ¿ÐµÑĨÑĸÐ°Ð»ÑĮÐ½Ð¸Ð¹": 5578,
      "ĠÑģÐ¿ÐµÑĨÑĸÐ°Ð»Ñĸ": 5579,
      "Ġschwimmen": 5580,
      "isteninform": 5581,
      "ĠLiefer": 5582,
      "ĠÑĢÐ¾ÐºÑĸÐ²": 5583,
      "zentrum": 5584,
      "ĠÐ²Ð¸Ð±Ð°Ñĩ": 5585,
      "Ġabgeschlossen": 5586,
      "ĠÐ¾ÑģÐ¾Ð±Ð»Ð¸Ð²Ð¾": 5587,
      "ĠÐ¿Ð°ÑĢÑĤÐ½ÐµÑĢÐ°": 5588,
      "ĠÐ·Ð»Ð¾ÑĩÐ¸Ð½ÐµÑĨÑĮ": 5589,
      "ĠGebÃ¤uden": 5590,
      "ĠÐ¿ÑĢÐ°ÑĨÑİÑİ": 5591,
      "ĠÐ²Ð±Ð¸Ð²ÑĨÑı": 5592,
      "ĠÐ²Ð±Ð¸Ð²ÑģÑĤÐ²Ð¾": 5593,
      "!!!": 5594,
      "Fachhochschule": 5595,
      "bÃ¼ro": 5596,
      "mmt": 5597,
      "zeichen": 5598,
      "zeichnet": 5599,
      "ĠÐ¼Ð¾Ð²Ñĥ": 5600,
      "ĠÐ¼Ð°Ð¹Ð±ÑĥÑĤÐ½ÑĮÐ¾Ð¼Ñĥ": 5601,
      "ĠÐ¼Ð°Ð¹Ð±ÑĥÑĤÐ½ÑĶ": 5602,
      "ĠÐ·Ð³Ð¾Ð´ÐµÐ½": 5603,
      "ĠÑģÐ¾Ð½Ñı": 5604,
      "ĠÐ²Ð¿Ð»Ð¸Ð²": 5605,
      "ĠÐ²ÑģÑĤÐ°Ð½Ð¾Ð²": 5606,
      "ĠÐ²Ð¸Ð²Ñĩ": 5607,
      "ĠÐ²Ð¸Ð²ÑĩÐ°ÑĤÐ¸": 5608,
      "schnitt": 5609,
      "ĠÐ¿ÑĢÐ¾Ð³ÑĢÐ°Ð¼Ð°": 5610,
      "ĠÑĤÐ¾ÑĩÐ½Ð¾": 5611,
      "ĠGoethe": 5612,
      "ĠGoogle": 5613,
      "ĠGegend": 5614,
      "ĠMosel": 5615,
      "ĠTaxi": 5616,
      "ĠPfosten": 5617,
      "ĠPoliz": 5618,
      "Ð³Ð¾Ð²Ð¾ÑĢÐµÐ½Ð½Ñı": 5619,
      "ĠÐ´ÑĢÑĥÐ·Ñĸ": 5620,
      "ĠÐ±ÐµÐ·Ð¿ÐµÐºÐ¸": 5621,
      "Ã¶ffnung": 5622,
      "ĠOstfriesland": 5623,
      "ĠÐ»Ð¾ÑĤÐµÑĢÐµÑİ": 5624,
      "lungsreich": 5625,
      "ĠÐ¿Ð»Ð°Ð½ÑĥÐ²Ð°ÑĤÐ¸": 5626,
      "ĠÐ²ÐµÑĩÑĸÑĢÐºÑĥ": 5627,
      "ĠÐ¿ÑĸÐ´Ð²Ð¸ÑīÐµÐ½Ð½ÑıÐ¼": 5628,
      "Partizip": 5629,
      "gramm": 5630,
      "kÃ¼ste": 5631,
      "rasilien": 5632,
      "ĠÐ¥ÑĤÐ¾": 5633,
      "regelmÃ¤ÃŁigen": 5634,
      "iemand": 5635,
      "ĠÐ¿ÑĸÑĪÐ¾Ð²": 5636,
      "ĠÐ²Ð¼ÑĸÑĶ": 5637,
      "ĠÐ²Ð°ÑĢÑĤ": 5638,
      "ĠÐ²Ð¿ÑĢÐ°Ð²Ð¸": 5639,
      "Ġwohl": 5640,
      "Ġhalten": 5641,
      "Ġsolltest": 5642,
      "Ġgemalt": 5643,
      "ĠkÃ¤mmt": 5644,
      "Ġmeistens": 5645,
      "ĠSonntag": 5646,
      "ĠÐ¿ÑĢÐ¸Ð½ÑĤÐµÑĢ": 5647,
      "ĠÐ¿ÑĢÐ¸Ð³Ð°Ð´ÑĥÐ²Ð°ÑĤÐ¸": 5648,
      "ĠKanarischen": 5649,
      "ĠKulturangebot": 5650,
      "ĠFrisÃ¶r": 5651,
      "ĠÑĦÐ¾ÑĤÐ¾": 5652,
      "ĠTournee": 5653,
      "ĠerhÃ¶hen": 5654,
      "ĠSchwarzwald": 5655,
      "durcheinander": 5656,
      "service": 5657,
      "ĠEifel": 5658,
      "ĠEltern": 5659,
      "ĠGewinn": 5660,
      "ĠÑĢÐ¸Ð½Ð¾Ðº": 5661,
      "ĠNotar": 5662,
      "ĠÐĴÐ°ÑĪÑĥ": 5663,
      "ÑĥÑģÐºÐ°ÑĤÐ¸": 5664,
      "ĠBÃ¼rgersteig": 5665,
      "ĠÐ´Ð¸ÑĢÐ¸Ð³ÐµÐ½ÑĤ": 5666,
      "Freund": 5667,
      "Politik": 5668,
      "bseite": 5669,
      "frosch": 5670,
      "karte": 5671,
      "nationalit": 5672,
      "romiss": 5673,
      "zweig": 5674,
      "ĠÃ¤uÃŁern": 5675,
      "ÑıÐ´Ð¾Ðº": 5676,
      "ÑĥÐ»ÑıÑĢÐ½Ð¸Ð¹": 5677,
      "Ġdrehen": 5678,
      "ĠÐ´ÑĸÑĤÐµÐ¹": 5679,
      "ĠÐ´Ð·Ð²Ð¾Ð½": 5680,
      "ĠÐ²ÐµÑĢÑĪÐ¸Ð½Ð°": 5681,
      "ĠÐ²ÑĸÐ»ÑĮÐ½Ð¾Ð³Ð¾": 5682,
      "Ġhandeln": 5683,
      "ĠÐ½ÐµÐ¿ÑĢÐ°Ð²Ð¸Ð»ÑĮÐ½Ð¸Ñħ": 5684,
      "ĠBaskenland": 5685,
      "ĠBesuch": 5686,
      "ĠBetrag": 5687,
      "ĠBestellung": 5688,
      "Ġnormalerweise": 5689,
      "ĠÑĤÐ¾Ð²Ð°ÑĢÐ¸": 5690,
      "ĠÐºÐ°Ð¼ÑĸÐ½ÑĮ": 5691,
      "ĠÐºÐµÑĢÑĸÐ²Ð½Ð¸ÑĨÑĤÐ²Ð¾": 5692,
      "ĠÐ·Ð°ÑģÑĸÐ´Ð°Ð½Ð½Ñı": 5693,
      "ĠMatterhorn": 5694,
      "ĠÐ¿Ð¾Ð½ÐµÐ´ÑĸÐ»Ð¾Ðº": 5695,
      "ĠPlural": 5696,
      "Ġerlaubt": 5697,
      "ĠWebseite": 5698,
      "Ġzusammenge": 5699,
      "ĠWirtschaftszweig": 5700,
      "ĠUkraine": 5701,
      "sprogramm": 5702,
      "Ġunbestimmten": 5703,
      "ĠVortrag": 5704,
      "ĠhÃ¤ngt": 5705,
      "rainieren": 5706,
      "ĠStÃ¤dte": 5707,
      "ĠÐĨÐ½ÑĤÐµÑĢÐ½ÐµÑĤÑĸ": 5708,
      "ĠÐ³ÑĥÐ±Ð¸ÑĤÐ¸": 5709,
      "Geburts": 5710,
      "ĠSprachschule": 5711,
      "ÐºÐ¾Ð¼Ð¿ÐµÑĤÐµÐ½ÑĨÑĸÑĹ": 5712,
      "echselprÃ¤positionen": 5713,
      "freudig": 5714,
      "ĠSozialen": 5715,
      "Ġwelchem": 5716,
      "ĠÐ½Ð°Ð´Ð·Ð²Ð¸ÑĩÐ°Ð¹Ð½Ð¾": 5717,
      "ĠFernseh": 5718,
      "ĠTÃ¤tigkeiten": 5719,
      "ĠAussichtspunkt": 5720,
      "ĠÐ´Ð¸ÑĢÐµÐºÑĤÐ¾ÑĢÐ¾Ð¼": 5721,
      "ĠÑģÑĤÑĢÐ°Ð¶Ð´Ð°ÑĤÐ¸": 5722,
      "ĠHilfsverb": 5723,
      "ĠÑģÐ¿ÑĸÐ»ÐºÑĥÐ²Ð°ÑĤÐ¸ÑģÑı": 5724,
      "ĠÐµÐºÑģÐºÑĥÑĢÑģÑĸ": 5725,
      "ĠÐ¿ÑĢÐ¸Ð²Ð°ÑĤÐ½Ð¸Ð¹": 5726,
      "ĠÐ¿Ð¾ÑģÐ¸Ð»Ð°Ð½Ð½Ñı": 5727,
      "ĠÐ¶Ð¾Ð²ÑĤÐ½Ñı": 5728,
      "ĠÑĸÐ½Ð¾Ð·ÐµÐ¼Ð½Ð¾ÑĹ": 5729,
      "Hobby": 5730,
      "Lisa": 5731,
      "Touristeninform": 5732,
      "Wohnen": 5733,
      "hielt": 5734,
      "kretÃ¤rin": 5735,
      "nstration": 5736,
      "persÃ¶nliche": 5737,
      "wechslungsreich": 5738,
      "ÑģÑĦÐµÑĢÐ°": 5739,
      "Ð°ÐµÑĢÐ¾Ð¿": 5740,
      "Ð°ÐºÑĥÐ»ÑĮÑĤÐµÑĤ": 5741,
      "ÑĤÐ²ÐµÑĢÐ´Ð¶": 5742,
      "ĠChancen": 5743,
      "Ġdamit": 5744,
      "ĠdrÃ¼cken": 5745,
      "ĠIntensivstation": 5746,
      "ĠÐ´Ð¾Ð¿Ð¸ÑĤ": 5747,
      "ĠÐ´Ð¸ÑĤÑıÑĩÐ¸Ð¹": 5748,
      "ĠÐ´ÐµÑĢÐ¶Ð°Ð²": 5749,
      "ĠÐ¼Ð°Ð¼Ñĸ": 5750,
      "ĠÐ°ÑĤÐ¼Ð¾ÑģÑĦÐµÑĢÐ°": 5751,
      "geograph": 5752,
      "gegnungen": 5753,
      "anbieter": 5754,
      "ĠÐ¿ÑĸÐ´Ð¿ÑĢÐ¸ÑĶÐ¼": 5755,
      "ĠBilder": 5756,
      "ĠSÃ¤tzen": 5757,
      "ĠÑģÑĤÐ¾ÑģÑĥÐ½ÐºÐ¸": 5758,
      "ĠnÃ¼tzlich": 5759,
      "ĠFrÃ¼hstÃ¼ck": 5760,
      "ĠFacebook": 5761,
      "ĠFeldberg": 5762,
      "ĠÐºÑĸÐ¼Ð½Ð°": 5763,
      "ĠÑĩÐ°ÑģÑĤÐ¸Ð½Ð°": 5764,
      "ĠGleis": 5765,
      "ĠMetzger": 5766,
      "ĠÐ¿Ð¾ÑģÐ»ÑĥÑħÐ°ÑĤÐ¸": 5767,
      "ĠTrÃ¶delmarkt": 5768,
      "ĠTiefgarage": 5769,
      "ĠÐ½Ð°ÑģÑĤÑĢÑĸÐ¹": 5770,
      "ĠÐ±ÑĸÐ·Ð½Ðµ": 5771,
      "bekleidung": 5772,
      "Ġtrifft": 5773,
      "ĠÑģÐ¿Ð¾ÐºÑĸÐ¹": 5774,
      "pektive": 5775,
      "ĠÐ±ÑĥÐ»ÑĮÐ¹Ð¾Ð½": 5776,
      "ĠErnÃ¤hrung": 5777,
      "ĠÐ²ÑĸÐ´ÑĢÑıÐ´Ð¶ÐµÐ½Ð½Ñı": 5778,
      "ĠÐ¶ÑĥÑĢÐ½Ð°Ð»": 5779,
      "ĠFuÃŁgÃ¤ngerzone": 5780,
      "ĠRestaurant": 5781,
      "ĠÐ³Ð°Ð»ÑĥÐ·ÑĮ": 5782,
      "ĠÐ³ÑĥÑģÑĤÐ¸Ð¹": 5783,
      "ĠÐ³ÑĸÐ³Ð°Ð½ÑĤ": 5784,
      "Ð¾Ð½Ð´Ð°ÑĢÑĩÑĥÐº": 5785,
      "ĠBeerdigung": 5786,
      "ĠReparatur": 5787,
      "ĠÐĳÐ°ÑĤÑĮÐºÑĸÐ²": 5788,
      "Ð²Ð°Ð¶Ð»Ð¸Ð²Ð¸Ð¼": 5789,
      "Verbstamm": 5790,
      "ĠAusdruck": 5791,
      "ĠUnterstÃ¼tzung": 5792,
      "ungsformen": 5793,
      "ÐµÐ¼ÐµÐ½ÑİÐº": 5794,
      "ÐľÐµÑĤÐ¾Ð´Ð¸ÑĩÐ½Ñĸ": 5795,
      "ĠÐ¾ÑĢÐ³Ð°Ð½ÑĸÐ·": 5796,
      "ĠTreppenhaus": 5797,
      "ĠNotwendigkeit": 5798,
      "Touristeninformation": 5799,
      ")/": 5800,
      "-/": 5801,
      "02": 5802,
      "03": 5803,
      "04": 5804,
      "06": 5805,
      "08": 5806,
      "216": 5807,
      "350": 5808,
      "44": 5809,
      "46": 5810,
      "488": 5811,
      "51": 5812,
      "58": 5813,
      "69": 5814,
      "737": 5815,
      "87": 5816,
      "99": 5817,
      "Ad": 5818,
      "Auss": 5819,
      "Achtung": 5820,
      "Abteil": 5821,
      "BC": 5822,
      "BE": 5823,
      "Bill": 5824,
      "Baha": 5825,
      "Brasilien": 5826,
      "Che": 5827,
      "Drei": 5828,
      "ES": 5829,
      "Eis": 5830,
      "Eins": 5831,
      "Euro": 5832,
      "Emma": 5833,
      "Fl": 5834,
      "Fahr": 5835,
      "FÃ¼n": 5836,
      "Frage": 5837,
      "GÃ¤n": 5838,
      "Gri": 5839,
      "Grund": 5840,
      "Jahre": 5841,
      "Kan": 5842,
      "Krank": 5843,
      "Kaus": 5844,
      "Kont": 5845,
      "Koch": 5846,
      "Kaukasus": 5847,
      "Leben": 5848,
      "Links": 5849,
      "Leist": 5850,
      "Landes": 5851,
      "MW": 5852,
      "MÃ¼": 5853,
      "Meine": 5854,
      "Mon": 5855,
      "Mat": 5856,
      "Meer": 5857,
      "MÃ¼ritz": 5858,
      "Nord": 5859,
      "Neben": 5860,
      "Negation": 5861,
      "Niemand": 5862,
      "Ost": 5863,
      "Position": 5864,
      "Peter": 5865,
      "Reg": 5866,
      "Radio": 5867,
      "Si": 5868,
      "Sein": 5869,
      "Slo": 5870,
      "Singap": 5871,
      "Tsch": 5872,
      "Tages": 5873,
      "Temporale": 5874,
      "Tiere": 5875,
      "Trennbare": 5876,
      "Volkshochschule": 5877,
      "WechselprÃ¤positionen": 5878,
      "Zwei": 5879,
      "Zust": 5880,
      "Zukunft": 5881,
      "az": 5882,
      "ape": 5883,
      "aal": 5884,
      "abend": 5885,
      "acken": 5886,
      "aik": 5887,
      "ahm": 5888,
      "aats": 5889,
      "bc": 5890,
      "bf": 5891,
      "bem": 5892,
      "brot": 5893,
      "bieren": 5894,
      "brach": 5895,
      "bast": 5896,
      "btisch": 5897,
      "bringt": 5898,
      "ca": 5899,
      "cc": 5900,
      "dau": 5901,
      "dun": 5902,
      "dki": 5903,
      "dose": 5904,
      "diven": 5905,
      "eder": 5906,
      "echt": 5907,
      "eden": 5908,
      "ehnen": 5909,
      "elefon": 5910,
      "fein": 5911,
      "fort": 5912,
      "fand": 5913,
      "frei": 5914,
      "flie": 5915,
      "fri": 5916,
      "fang": 5917,
      "frage": 5918,
      "frie": 5919,
      "fassen": 5920,
      "fliegen": 5921,
      "frÃ¼hst": 5922,
      "grei": 5923,
      "ggel": 5924,
      "glan": 5925,
      "garn": 5926,
      "grammatik": 5927,
      "gift": 5928,
      "ganis": 5929,
      "hle": 5930,
      "hig": 5931,
      "hungen": 5932,
      "iw": 5933,
      "ide": 5934,
      "iden": 5935,
      "icken": 5936,
      "jas": 5937,
      "jem": 5938,
      "jiw": 5939,
      "ka": 5940,
      "kan": 5941,
      "kom": 5942,
      "kter": 5943,
      "kung": 5944,
      "kam": 5945,
      "kont": 5946,
      "komp": 5947,
      "kri": 5948,
      "karten": 5949,
      "klasse": 5950,
      "kunft": 5951,
      "lu": 5952,
      "lag": 5953,
      "lett": 5954,
      "lungen": 5955,
      "leitung": 5956,
      "line": 5957,
      "lingen": 5958,
      "mus": 5959,
      "mann": 5960,
      "maus": 5961,
      "mord": 5962,
      "mÃ¤n": 5963,
      "musik": 5964,
      "minken": 5965,
      "marken": 5966,
      "nie": 5967,
      "nal": 5968,
      "nisch": 5969,
      "nte": 5970,
      "nig": 5971,
      "nland": 5972,
      "nsche": 5973,
      "nungs": 5974,
      "neiden": 5975,
      "nÃ¼tz": 5976,
      "nitten": 5977,
      "name": 5978,
      "njem": 5979,
      "oo": 5980,
      "ore": 5981,
      "ochen": 5982,
      "offe": 5983,
      "oko": 5984,
      "obt": 5985,
      "prec": 5986,
      "put": 5987,
      "pier": 5988,
      "ption": 5989,
      "pfle": 5990,
      "pflicht": 5991,
      "plat": 5992,
      "romm": 5993,
      "rren": 5994,
      "rand": 5995,
      "ritten": 5996,
      "ritte": 5997,
      "rzte": 5998,
      "saus": 5999,
      "such": 6000,
      "sorgen": 6001,
      "soll": 6002,
      "sra": 6003,
      "sollen": 6004,
      "sig": 6005,
      "sol": 6006,
      "singen": 6007,
      "sfÃ¤": 6008,
      "ssprache": 6009,
      "sinken": 6010,
      "surfen": 6011,
      "sandte": 6012,
      "slow": 6013,
      "tÃ¤": 6014,
      "tÃ¶": 6015,
      "test": 6016,
      "tÃ¶n": 6017,
      "ttern": 6018,
      "treiben": 6019,
      "trauen": 6020,
      "uh": 6021,
      "usch": 6022,
      "ude": 6023,
      "ugen": 6024,
      "ubl": 6025,
      "vieren": 6026,
      "vÃ¶llig": 6027,
      "wie": 6028,
      "wehr": 6029,
      "wort": 6030,
      "wahr": 6031,
      "wÃ¶rter": 6032,
      "wachsen": 6033,
      "wiegen": 6034,
      "wunder": 6035,
      "wurde": 6036,
      "wusch": 6037,
      "xten": 6038,
      "yst": 6039,
      "ysi": 6040,
      "yjiw": 6041,
      "zusammen": 6042,
      "zess": 6043,
      "Ð¨": 6044,
      "âĨĴ": 6045,
      "Ġor": 6046,
      "Ġern": 6047,
      "ĠÑĢÐ¾Ð´": 6048,
      "Ġrot": 6049,
      "Ġal": 6050,
      "Ġat": 6051,
      "Ġrei": 6052,
      "ĠÃ¤ndern": 6053,
      "ĠÑİÑĢÐ¸ÑģÑĤ": 6054,
      "ĠÃľb": 6055,
      "ĠÐĦÐ²ÑĢÐ¾Ð¿": 6056,
      "Ð½ÐºÐ°": 6057,
      "Ð½Ð¾Ðº": 6058,
      "Ð½Ð°Ð·": 6059,
      "Ð½ÐºÐ¸": 6060,
      "Ð½Ð¸Ð³": 6061,
      "Ð½ÑİÐ²Ð°ÑĤÐ¸": 6062,
      "Ð½ÑĥÑĤ": 6063,
      "Ð½Ð°Ð¹": 6064,
      "Ð¾ÑĶ": 6065,
      "Ð¾ÑģÐ»": 6066,
      "Ð¾ÑĦ": 6067,
      "Ð¾Ð½Ðµ": 6068,
      "Ð¾ÑģÐ½Ð¾Ð²": 6069,
      "Ð¾ÑĥÑĤÐ±": 6070,
      "ÐµÑı": 6071,
      "ÐµÐ»Ð°": 6072,
      "ÐµÐ»Ñĸ": 6073,
      "ÐµÐºÐ°ÑĢ": 6074,
      "ÐµÐ»Ð¸Ðº": 6075,
      "ÐµÑĨÑĤ": 6076,
      "ÐµÐ²Ð¸Ð´Ð½Ð¾": 6077,
      "ÑıÑĢ": 6078,
      "ÑıÐ¼": 6079,
      "ÑıÑģÐ½": 6080,
      "ÑıÐ½Ð°": 6081,
      "ÑıÑĤÐ°": 6082,
      "ÑĸÑĨÑĸ": 6083,
      "ÑĸÑĤÑĮ": 6084,
      "ÑĸÐ±": 6085,
      "ÑĸÐºÐ°": 6086,
      "ÑģÐ¾": 6087,
      "ÑģÐ°": 6088,
      "ÑģÐ¸Ðº": 6089,
      "ÑģÐµÑĢÐµÐ´": 6090,
      "ÑģÐºÐ°": 6091,
      "ÑģÑĥÐ²Ð°ÑĤÐ¸": 6092,
      "ÑģÐ°ÑĢ": 6093,
      "ÑģÐµÐ»": 6094,
      "reu": 6095,
      "rein": 6096,
      "reden": 6097,
      "repar": 6098,
      "reduzieren": 6099,
      "Ð°ÑĢÐµ": 6100,
      "Ð°Ð½ÑĮ": 6101,
      "Ð°ÑİÑĤÑĮÑģÑı": 6102,
      "Ð°ÑĨÑĸÑı": 6103,
      "Ð°ÑĢÑĸÐ²": 6104,
      "Ð°Ð¾ÑĤÐ¸": 6105,
      "orge": 6106,
      "ordent": 6107,
      "orca": 6108,
      "Ð¸Ð²Ñĸ": 6109,
      "Ð¸ÑĢÐ¾": 6110,
      "Ð¸ÑĨÑı": 6111,
      "Ð¸Ð·ÑĮÐº": 6112,
      "chs": 6113,
      "chit": 6114,
      "enten": 6115,
      "enseit": 6116,
      "ÑĤÐ¾Ð¼": 6117,
      "ÑĤÐºÐ¸": 6118,
      "ÑĤÑĢÐµÐ±Ð°": 6119,
      "ÑĢÐ¾Ð¼": 6120,
      "ÑĢÐ¸Ð¼": 6121,
      "ÑĢÐ³": 6122,
      "ÑĢÐ¾Ð¶": 6123,
      "ÑĢÐ°Ð¼Ð¸": 6124,
      "ÑĢÐ¸ÑģÑĤÐ¸": 6125,
      "ÐµÐ½Ðµ": 6126,
      "ÐµÐ½Ñģ": 6127,
      "ÐµÐ½Ð¸Ð¼": 6128,
      "ÐµÐ½ÑģÑĸ": 6129,
      "ÐµÐ½Ð°Ð³": 6130,
      "ÐµÐ½ÑĪ": 6131,
      "Ð»Ð¸Ð½": 6132,
      "Ð»Ð¸Ð¹": 6133,
      "Ð»Ð°Ð¼": 6134,
      "Ð»Ð¾Ð¿": 6135,
      "Ð»ÑĥÑĩ": 6136,
      "Ð»ÑĸÐ¹": 6137,
      "Ð»Ð¸ÑĤÐ¸ÑģÑı": 6138,
      "Ð»Ð¾Ð²Ð¸": 6139,
      "ÑĥÑĢÐµ": 6140,
      "ÑĥÑģÑı": 6141,
      "ÑĥÑĨÑĮÐº": 6142,
      "ÑĥÑģÑĤÐ°": 6143,
      "ÑĥÐ±Ð¸": 6144,
      "ÐµÐ½Ð½Ð¾": 6145,
      "ÑĶÑĢ": 6146,
      "ÑĶÑĢÐ°": 6147,
      "ÑĶÐºÑĤ": 6148,
      "erie": 6149,
      "erren": 6150,
      "ersten": 6151,
      "erinnern": 6152,
      "erfolg": 6153,
      "Ð¼Ñĥ": 6154,
      "Ð¼Ð¾Ð²Ñĸ": 6155,
      "Ð¼Ð¾Ðº": 6156,
      "Ð¼ÐºÑĥ": 6157,
      "Ð¼Ð°Ð¹": 6158,
      "Ð¼ÐµÐ½ÑĤ": 6159,
      "Ð¼Ð¾Ð²Ð¸Ð¹": 6160,
      "Ð¼ÑĸÑĹ": 6161,
      "inar": 6162,
      "insen": 6163,
      "inal": 6164,
      "stu": 6165,
      "stein": 6166,
      "stÃ¤r": 6167,
      "stÃ¤n": 6168,
      "strei": 6169,
      "streiten": 6170,
      "stieg": 6171,
      "stolz": 6172,
      "ÐºÐ¾Ð¼Ñĥ": 6173,
      "ÐºÐ¾Ð´": 6174,
      "ÐºÑģÑĤ": 6175,
      "ÐºÑĥÐ¿": 6176,
      "ÐºÑĥÐ²Ð°ÑĤÐ¸": 6177,
      "ÐºÐ»Ðµ": 6178,
      "ÐºÐ¾Ð½": 6179,
      "ÐºÐ¾Ð½Ð°": 6180,
      "ÐºÑĢÐ¸": 6181,
      "ÑĩÐ¸Ðº": 6182,
      "ÑĩÐ¸Ð½": 6183,
      "ÑĩÐ°Ð½Ð½Ñı": 6184,
      "ÑĩÐµÐ½Ð¸Ð¹": 6185,
      "ÑĩÐ½Ð¾Ð¼Ñĥ": 6186,
      "ÑĩÐ°ÑĶÐ¼Ð¾": 6187,
      "ÑĩÑĥÑĤÑĤÑı": 6188,
      "ÑĩÐ°Ð»ÑĮÐ½Ð¾": 6189,
      "Ġdeut": 6190,
      "Ġdeklin": 6191,
      "ĠdÃ¼rfen": 6192,
      "ieden": 6193,
      "ieÃŁ": 6194,
      "ieur": 6195,
      "iegel": 6196,
      "ĠÐŁÐ¾Ð´": 6197,
      "ĠÐŁÐ°ÑģÐ¸Ðº": 6198,
      "Ð¾Ð²Ñĥ": 6199,
      "Ð¾Ð²Ð¾Ð³Ð¾": 6200,
      "Ð¾Ð²Ð¾Ð´": 6201,
      "Ð¾Ð²Ð·": 6202,
      "Ð¾Ð²Ð°Ð¹": 6203,
      "Ð¾Ð²Ð¸Ñħ": 6204,
      "Ð¾Ð²ÑĥÐ²Ð°Ð½Ð½Ñı": 6205,
      "Ð¾Ð²ÐµÑĢÑħ": 6206,
      "Ð¾Ð²Ð½ÑİÐ²Ð°ÑĤÐ¸": 6207,
      "ÑģÐ½Ñĥ": 6208,
      "ĠÐ¿Ñĸ": 6209,
      "ĠÐ¿ÑĸÐ½": 6210,
      "ĠÐ¿Ð°Ð½": 6211,
      "ĠÐ¿ÑĸÐ²": 6212,
      "ĠÐ¿Ð¾Ð»Ð¸": 6213,
      "ĠÐ¿Ð»Ð°": 6214,
      "ĠÐ¿Ð°Ð¿": 6215,
      "ĠÐ¿ÐµÑĤ": 6216,
      "ĠÐ¿ÑĸÑģ": 6217,
      "ĠÐ¿ÑĥÐ±": 6218,
      "ĠÐ¿ÐµÐºÐ°ÑĢ": 6219,
      "ĠÐ¿ÐµÐ½ÑģÑĸ": 6220,
      "Ð¾Ð¼Ð°Ð´": 6221,
      "Ð¾Ð¼ÑĸÑģ": 6222,
      "Ð¾Ð¼Ð¾Ð²Ð½Ð¸Ñħ": 6223,
      "ĠInge": 6224,
      "ĠInter": 6225,
      "ĠInnen": 6226,
      "ĠInform": 6227,
      "ĠInseln": 6228,
      "ĠÐ´ÐµÐ½Ð½": 6229,
      "ĠÐ´Ð¸ÑģÑĤ": 6230,
      "ĠÐ´Ð½Ñı": 6231,
      "ĠÐ´ÑĸÑĤÐ¸": 6232,
      "ĠÐ´ÑĸÐ²": 6233,
      "ĠÐ´Ð°Ñĩ": 6234,
      "ĠÐ´Ð°Ð½Ñĸ": 6235,
      "ĠÐ´ÑĸÐ¹ÑģÐ½": 6236,
      "ĠÐ´Ð¸ÑģÐº": 6237,
      "ĠÐ´Ð¾Ð·Ð²Ñĸ": 6238,
      "ĠÐ´Ð¾ÑĩÐºÐ°": 6239,
      "Ð¸ÐºÐ°ÑĤÐ¸": 6240,
      "Ð´ÑĮ": 6241,
      "Ð´Ð»Ñı": 6242,
      "Ð´Ð°Ð²": 6243,
      "Ð´ÑĸÐ¶": 6244,
      "Ð´ÐµÐ½ÑĮ": 6245,
      "aue": 6246,
      "ause": 6247,
      "auben": 6248,
      "aune": 6249,
      "ÑģÐ»Ð¸Ð²": 6250,
      "ĠÐ¼Ñĥ": 6251,
      "ĠÐ¼Ð¾Ñı": 6252,
      "ĠÐ¼ÑĸÐ½": 6253,
      "ĠÐ¼Ð¸ÑģÑĤ": 6254,
      "ĠÐ¼Ð¸ÑĤÐ¸": 6255,
      "ĠÐ¼Ð°Ð»": 6256,
      "ĠÐ¼Ð°Ñģ": 6257,
      "ĠÐ¼Ð°Ð»Ð°": 6258,
      "ĠÐ¼Ð¾ÑĤÐ¸": 6259,
      "ĠÐ¼ÐµÑĤÐ°": 6260,
      "ÑĮÐ¾Ð¼Ñĥ": 6261,
      "ÑĮÐ¹": 6262,
      "ÑĮÐ¾Ñħ": 6263,
      "halle": 6264,
      "ĠÐ°Ð´": 6265,
      "ĠÐ°Ð¿Ðµ": 6266,
      "ĠÐ°ÑĥÐº": 6267,
      "ĠÐ°Ð½Ð°Ð»": 6268,
      "ĠÐ·Ð¸Ð¼": 6269,
      "ĠÐ·ÑĥÐ¿": 6270,
      "ĠÐ·Ð½Ñĸ": 6271,
      "ĠÐ·Ð¾Ð½Ð°": 6272,
      "ĠÐ·Ð¾ÑĪ": 6273,
      "ĠÐ·Ð²Ð¸Ñĩ": 6274,
      "ĠÐ·ÐµÐ»": 6275,
      "ĠÐ·Ð±Ð¸ÑĢÐ°ÑĤÐ¸": 6276,
      "ĠÐ·Ð²Ð¸ÑĩÐ°Ð¹Ð½Ð¾": 6277,
      "ĠÐ·ÑĥÐ±Ð¸": 6278,
      "Ġihren": 6279,
      "Ġirren": 6280,
      "gekommen": 6281,
      "gewohn": 6282,
      "gehÃ¶r": 6283,
      "gelassen": 6284,
      "gefÃ¼hr": 6285,
      "gesetz": 6286,
      "geizig": 6287,
      "ĠÐ½Ñİ": 6288,
      "ĠÐ½ÑĸÐ¶": 6289,
      "ĠÐ½Ð¾Ñģ": 6290,
      "ĠÐ½Ð¸Ð¼Ð¸": 6291,
      "ĠÐ½Ð°Ð¹Ð±": 6292,
      "ĠÐ½Ð¾ÑĥÑĤÐ±": 6293,
      "ĠÐ½Ð¸Ð·ÑĮÐº": 6294,
      "ĠÐ½ÑĮÐ¾Ð¼Ñĥ": 6295,
      "ĠÑģÑı": 6296,
      "ĠÑģÐ°": 6297,
      "ĠÑģÑĤÐ¸": 6298,
      "ĠÑģÐ¾Ð»": 6299,
      "ĠÑģÑĢÑĸÐ±": 6300,
      "ĠÑģÐ²Ð°": 6301,
      "ĠÑģÐ¸ÑĢ": 6302,
      "ĠÑģÑĸÐ¼": 6303,
      "ĠÑģÐ¸Ð»": 6304,
      "ĠÑģÐ¼ÐµÑĢ": 6305,
      "ĠÑģÐºÐ°ÑĢÐ¶": 6306,
      "ĠÑģÐ¾Ð±Ð¾Ñİ": 6307,
      "ÑĸÑĶÑĪ": 6308,
      "ĠÐ²Ð²": 6309,
      "ĠÐ²Ð¾Ð´": 6310,
      "ĠÐ²Ð¸Ð½": 6311,
      "ĠÐ²ÑĤÑĢ": 6312,
      "ĠÐ²ÐºÐ°Ð·": 6313,
      "ĠÐ²ÑĸÑĢ": 6314,
      "ĠÐ²Ð¾ÑģÑĮ": 6315,
      "ĠÐ²ÑĸÐ·": 6316,
      "ĠÐ²ÑħÑĸÐ´": 6317,
      "ĠÐ²ÑħÐ¾Ð´": 6318,
      "ĠÐ²ÑĸÑĤÐ°": 6319,
      "ĠÐ²ÑģÑĤÐ°Ð²Ð»ÑıÑĤÐ¸": 6320,
      "ĠÐ²ÐµÑĢÑħ": 6321,
      "ĠÐ²ÑĥÐ»Ð¸": 6322,
      "ĠÐ²Ð´Ð¾Ð¼Ð°": 6323,
      "ĠÐ²Ð½ÑĥÑĤ": 6324,
      "ÑĸÐ½Ñĸ": 6325,
      "einkommen": 6326,
      "einnehmen": 6327,
      "einbauen": 6328,
      "einrichten": 6329,
      "einsammel": 6330,
      "antiv": 6331,
      "anem": 6332,
      "anon": 6333,
      "anfangen": 6334,
      "anerinnen": 6335,
      "anmelden": 6336,
      "ÑĢÐµÐ¹": 6337,
      "ÑĢÐµÑĤÐ°": 6338,
      "ÑĢÐµÐºÐ¾Ð¼": 6339,
      "Ð»ÑıÑĢ": 6340,
      "Ġwachsen": 6341,
      "Ġwider": 6342,
      "Ġwenige": 6343,
      "ĠDir": 6344,
      "ĠDru": 6345,
      "ĠDok": 6346,
      "ĠDingen": 6347,
      "ĠDamen": 6348,
      "ĠDram": 6349,
      "ĠDeshalb": 6350,
      "ĠDorf": 6351,
      "Ġsen": 6352,
      "Ġsau": 6353,
      "Ġsan": 6354,
      "Ġsetzt": 6355,
      "Ġsammel": 6356,
      "Ġsurfen": 6357,
      "eichen": 6358,
      "eihn": 6359,
      "eister": 6360,
      "eiera": 6361,
      "eignet": 6362,
      "ÑĤÐ¸ÑĤ": 6363,
      "ÑĤÐ¸ÑĤÐ¸": 6364,
      "ÑĤÐ¸Ð½Ð°": 6365,
      "Ġgebe": 6366,
      "Ġgesp": 6367,
      "Ġgeho": 6368,
      "Ġgescha": 6369,
      "ĠgefÃ¼": 6370,
      "Ġgegeben": 6371,
      "Ġgehan": 6372,
      "Ġgesche": 6373,
      "Ġgefangen": 6374,
      "Ġgeschw": 6375,
      "Ġgesetzt": 6376,
      "Ġgezogen": 6377,
      "ĠgehÃ¶ren": 6378,
      "Ġgebraucht": 6379,
      "Ġgespr": 6380,
      "Ġgeschlagen": 6381,
      "ĠgemÃ¼tlich": 6382,
      "Ġgefreut": 6383,
      "tigt": 6384,
      "tisieren": 6385,
      "Ġke": 6386,
      "Ġkam": 6387,
      "ĠÐ½ÐµÐ³": 6388,
      "ĠÐ½ÐµÐ¾Ð±": 6389,
      "utt": 6390,
      "utzung": 6391,
      "Ġmalt": 6392,
      "Ġmeist": 6393,
      "aufgeben": 6394,
      "aufhaus": 6395,
      "ÑĸÐ´Ð½Ð¾": 6396,
      "Ð²Ð¾Ð¼": 6397,
      "Ð²Ð¸Ðº": 6398,
      "Ð²Ð¾Ð»": 6399,
      "Ð²Ð°Ð½Ð½Ñı": 6400,
      "Ð²ÐµÐ¹": 6401,
      "Ð²Ð¿ÑĢÐ°Ð²": 6402,
      "Ð²Ð²Ð°Ð¶Ð°Ñİ": 6403,
      "Ð²ÑģÑĤÑĢÑĸ": 6404,
      "ĠÐĶÑıÐº": 6405,
      "ĠAll": 6406,
      "ĠAben": 6407,
      "ĠAuft": 6408,
      "ĠAfr": 6409,
      "ĠAhnung": 6410,
      "Ð¾ÑĢÐ¾ÑĤ": 6411,
      "Ð¾ÑĢÑĥÑĪ": 6412,
      "ÑĨÐµÐ¹": 6413,
      "ÑĨÑĸÑĶÑİ": 6414,
      "ĠbÃ¼": 6415,
      "Ġbitte": 6416,
      "irr": 6417,
      "irgen": 6418,
      "Ð¼ÐµÑĤÐ¾Ð´": 6419,
      "Ã¼be": 6420,
      "Ã¼hren": 6421,
      "Ã¼tzt": 6422,
      "ĠÐ¿ÑĸÐ´ÑĸÐ¹": 6423,
      "ĠÐ¿ÑĸÐ´ÑģÐ¸": 6424,
      "ĠÐ¿ÑĸÐ´ÑĢÑĥÑĩÐ½Ð¸Ðº": 6425,
      "Ð¸Ð¼Ð¾ÑģÑı": 6426,
      "Ð¹Ð¾Ð¼": 6427,
      "Ð¹Ð½Ð¸Ð¹": 6428,
      "ĠBom": 6429,
      "ĠBrau": 6430,
      "ĠBest": 6431,
      "ĠBist": 6432,
      "ĠBran": 6433,
      "ĠBade": 6434,
      "ĠBraut": 6435,
      "ĠBenzin": 6436,
      "ĠBMW": 6437,
      "essiv": 6438,
      "ÑĦÐ°": 6439,
      "ÑĦÐ¾ÑĢÐ¼": 6440,
      "ÑĦÑĸÐ»": 6441,
      "ÑĦÑĸÑĢ": 6442,
      "ÑĦÑĸÐ»ÑĮÐ¼": 6443,
      "Ð¿Ð¾ÑĢ": 6444,
      "Ð¿Ð¾Ð»": 6445,
      "Ð¿ÑĥÑģ": 6446,
      "Ð¿Ð¾Ñģ": 6447,
      "Ð¿Ð¾ÑĢÑĤ": 6448,
      "Ð¿Ð°Ð»Ð°": 6449,
      "Ð¿Ð¾Ð»Ñĸ": 6450,
      "Ð¿Ð¾Ð³Ð¾Ð´": 6451,
      "ĠÑĢÐµÐº": 6452,
      "ĠÑĢÐµÐ·": 6453,
      "ĠSeit": 6454,
      "ĠSind": 6455,
      "ĠSohn": 6456,
      "ĠSachen": 6457,
      "ĠSonnen": 6458,
      "ĠSauber": 6459,
      "ĠSera": 6460,
      "ĠSalz": 6461,
      "ĠSaal": 6462,
      "ichtig": 6463,
      "Ð¾Ð´Ð½Ñı": 6464,
      "Ð¾Ð´Ð¾Ð±": 6465,
      "Ð¾Ð´Ð¸ÑĤÐ¸ÑģÑı": 6466,
      "Ð¾Ð´Ð¸ÑĤÑĮ": 6467,
      "Ð¾Ð´ÐµÐ½Ð½Ð¾": 6468,
      "ĠÑģÑĤÐ°ÑĤÐ¸": 6469,
      "ĠÑģÑĤÐ°ÑĢ": 6470,
      "ĠÑģÑĤÑĸÐ»": 6471,
      "ĠÑģÑĤÐ°Ð»": 6472,
      "ĠÑģÑĤÑĸÐ»Ðµ": 6473,
      "omat": 6474,
      "oment": 6475,
      "ĠÑĥÑĢÑı": 6476,
      "ĠÑĥÐ¶Ðµ": 6477,
      "ĠÑĥÐ¿ÑĢÐ°Ð²": 6478,
      "ĠÑĥÐ»ÑİÐ±": 6479,
      "ĠÑĥÑĩÐ¾ÑĢÐ°": 6480,
      "Ġnennt": 6481,
      "ErgÃ¤nzen": 6482,
      "ErÃ¶ffnung": 6483,
      "scheine": 6484,
      "schalt": 6485,
      "schieben": 6486,
      "scheinen": 6487,
      "schwei": 6488,
      "schrie": 6489,
      "schoss": 6490,
      "schuhe": 6491,
      "schauer": 6492,
      "schritte": 6493,
      "Ã¤ge": 6494,
      "Ã¤se": 6495,
      "Ã¤hlen": 6496,
      "Ã¤llt": 6497,
      "ĠÐ¿ÑĢÐ¾Ð¼": 6498,
      "ĠÐ¿ÑĢÐ¾ÑıÑģÐ½": 6499,
      "ĠÐ¿ÑĢÐ°Ð²": 6500,
      "ĠÐ¿ÑĢÐ°Ð¿": 6501,
      "ĠÐ¿ÑĢÐ¾Ñĩ": 6502,
      "ĠÐ¿ÑĢÐ¾ÑģÑĤ": 6503,
      "ĠÐ¿ÑĢÐ°Ñģ": 6504,
      "ĠÐ¿ÑĢÐ¾Ð¶Ð¸Ð²Ð°Ð½Ð½Ñı": 6505,
      "deckt": 6506,
      "ĠÐ°ÑĢÐ³": 6507,
      "ĠÐ°ÑĢÑħ": 6508,
      "ari": 6509,
      "arm": 6510,
      "arz": 6511,
      "artig": 6512,
      "ĠÑĩÐµÑĢÐµ": 6513,
      "ĠÑĩÑĥÐ²": 6514,
      "ĠÑĤÑĸ": 6515,
      "ĠÑĤÐ¾ÑĢ": 6516,
      "ĠÑĤÐ¾Ð³Ð¾": 6517,
      "ĠÑĤÐ¾Ð¿": 6518,
      "ĠÑĤÐ²Ð¾ÑĢ": 6519,
      "ĠÑĤÑĢÐ°Ð²": 6520,
      "ĠÑĤÑĢÐ¸": 6521,
      "ĠÑĤÐ²ÐµÑĢ": 6522,
      "here": 6523,
      "hematik": 6524,
      "Ġeins": 6525,
      "Ġeingekauft": 6526,
      "Ġeinschlafen": 6527,
      "ĠHu": 6528,
      "ĠHem": 6529,
      "ĠHÃ¶": 6530,
      "ĠHolz": 6531,
      "ungel": 6532,
      "ungest": 6533,
      "unregelmÃ¤ÃŁigen": 6534,
      "ÑģÑĸÑĤÐ¸": 6535,
      "genieur": 6536,
      "ĠKir": 6537,
      "ĠKÃ¼": 6538,
      "ĠKenn": 6539,
      "ĠKil": 6540,
      "ĠKra": 6541,
      "ĠKoch": 6542,
      "ĠKyjiw": 6543,
      "ĠKaufhaus": 6544,
      "ĠFas": 6545,
      "ĠFahr": 6546,
      "ĠFÃ¼hren": 6547,
      "seren": 6548,
      "setze": 6549,
      "ĠÐºÑĢÑĸ": 6550,
      "ĠÐºÐ¾ÑĢÐ¸ÑģÑĤ": 6551,
      "ĠÐºÐ°Ð±": 6552,
      "ĠÐºÑĥÐ´Ð¸": 6553,
      "ĠÐºÐ½Ð¸Ð³Ñĥ": 6554,
      "ĠÐºÑĥÑģ": 6555,
      "ĠÐºÐ¾Ñģ": 6556,
      "ĠÐºÐ²ÑĸÑĤ": 6557,
      "ĠÐºÐ¾Ð¼ÑĥÑģÑĮ": 6558,
      "ĠÐºÐµÑĢÑĥ": 6559,
      "ĠÐºÑĥÐ»ÑĮÑĤ": 6560,
      "ĠÐºÐ°Ð½Ð´Ð¸": 6561,
      "ĠÐºÐ½Ð¸Ð³": 6562,
      "Ġlas": 6563,
      "ĠlÃ¶": 6564,
      "Ġlaut": 6565,
      "Ġlassen": 6566,
      "Ġleiden": 6567,
      "Ġlobt": 6568,
      "ÑİÐ´Ð¸": 6569,
      "ÑİÑģÐ°ÑĢ": 6570,
      "Ð¸Ð½ÐºÐ°": 6571,
      "ĠÐ¾Ð»Ñĸ": 6572,
      "ĠÐ¾ÐºÑĢÐ°ÑĹ": 6573,
      "ĠÐ¾ÑĤÑĢÑĥ": 6574,
      "Ð¾Ð»ÑĸÐº": 6575,
      "Ð¾Ð»Ð¾ÑĪ": 6576,
      "ĠÐ·Ð°Ð»": 6577,
      "ĠÐ·Ð°ÑĤÑĢÐ¸Ð¼": 6578,
      "ĠÐ·Ð°Ð»Ñĸ": 6579,
      "ĠÐ·Ð°Ð½ÑıÑĤÑĤÑı": 6580,
      "ĠÐ·Ð°Ð¾ÑīÐ°Ð´": 6581,
      "ĠÐ·Ð°Ð°ÑĢÐµ": 6582,
      "ĠÐ·Ð°Ð¼Ð¾Ðº": 6583,
      "fehl": 6584,
      "rug": 6585,
      "ĠÑĩÐ°ÑĢÑĸÐ²": 6586,
      "ÐµÑĢÐµÐºÐ»Ð°Ð´": 6587,
      "ĠÑĦÑĢÑĥ": 6588,
      "ĠÑĦÐ»Ðµ": 6589,
      "ĠÑĦÐµÐ´": 6590,
      "ĠÑĦÑĸÐ·Ð¸Ðº": 6591,
      "ĠÑĦÐ°ÐºÑĥÐ»ÑĮÑĤÐµÑĤ": 6592,
      "senden": 6593,
      "sentieren": 6594,
      "Ð»ÑĮÐ½Ð¾": 6595,
      "ĠGl": 6596,
      "ĠGÃ¶": 6597,
      "ĠGrad": 6598,
      "ĠGrÃ¶": 6599,
      "ĠGol": 6600,
      "ĠGarage": 6601,
      "ĠGift": 6602,
      "Ð¾ÑĢÐ¼Ð°": 6603,
      "ĠÑĦÐ¾ÑĢÐ¼Ð°": 6604,
      "Ġdieses": 6605,
      "ĠMe": 6606,
      "ĠMein": 6607,
      "ĠMÃ¶": 6608,
      "ĠMund": 6609,
      "ĠMal": 6610,
      "ĠMill": 6611,
      "ĠMall": 6612,
      "ĠMord": 6613,
      "ĠMitt": 6614,
      "ĠMeiner": 6615,
      "ĠMÃ¶glichkeit": 6616,
      "ĠMuster": 6617,
      "ĠMiete": 6618,
      "ĠMaske": 6619,
      "ĠMoment": 6620,
      "indern": 6621,
      "ĠÐ¿Ð¾ÑĨÑĸ": 6622,
      "ĠÐ¿Ð¾Ñħ": 6623,
      "ĠÐ¿Ð¾ÑģÐ¿": 6624,
      "ĠÐ¿Ð¾Ð½ÑıÑĤÑĤÑı": 6625,
      "ĠÐ¿Ð¾ÑģÐ»ÑĥÐ³": 6626,
      "ÑģÑĤÑı": 6627,
      "ÑģÑĤÑİ": 6628,
      "ÑģÑĤÐ²Ð°": 6629,
      "ÑģÑĤÐµÑĢ": 6630,
      "ÑģÑĤÑĢÐ¾": 6631,
      "ÑģÑĤÑĢÐ¸": 6632,
      "ÑģÑĤÑĥÐ´ÐµÐ½ÑĤ": 6633,
      "Ġgram": 6634,
      "ĠgrÃ¼n": 6635,
      "Ð±Ð°Ð»": 6636,
      "Ð±ÑĥÑĢ": 6637,
      "Ð±Ð°Ð³Ð°ÑĤÐ¾": 6638,
      "Ð±ÑĸÐ³": 6639,
      "Ð±ÑĸÐ»ÑĮÑĪ": 6640,
      "Ð°Ð²ÐµÑĨÑĮ": 6641,
      "ĠTenn": 6642,
      "ĠTage": 6643,
      "ĠTagen": 6644,
      "ĠTabl": 6645,
      "ĠTrend": 6646,
      "ĠTermine": 6647,
      "ÑĥÑĶÑĤÑĮÑģÑı": 6648,
      "beitreten": 6649,
      "ĠÐºÑĸÐ½ÐµÑĨÑĮ": 6650,
      "ĠÐ·Ð°ÐºÐ¾ÑĢÐ´": 6651,
      "ÑĢÑĸÐ¹": 6652,
      "ÑĢÑĸÑıÑĤÐ¸": 6653,
      "ĠArchit": 6654,
      "kte": 6655,
      "roch": 6656,
      "rohen": 6657,
      "rogen": 6658,
      "roren": 6659,
      "ronik": 6660,
      "ĠÐ½Ð°ÑĦ": 6661,
      "ĠSubst": 6662,
      "Ð¶Ð°": 6663,
      "Ð¶ÐµÑĢ": 6664,
      "Ð¶ÐµÐ½ÐµÑĢ": 6665,
      "Ð¶Ð¸Ð²Ð°Ð½Ð½Ñı": 6666,
      "Ð¶Ð´ÐµÐ½ÑĮ": 6667,
      "ĠPist": 6668,
      "ĠPort": 6669,
      "ĠPlan": 6670,
      "ĠPech": 6671,
      "ĠPoss": 6672,
      "ĠPflicht": 6673,
      "ders": 6674,
      "Ð³Ð¾ÑĢ": 6675,
      "Ð³ÑĢÐ°ÑĪ": 6676,
      "Ð³Ð»ÑĸÐ¹": 6677,
      "ÑĢÑĥÐ³Ð°": 6678,
      "ÑĢÑĥÐ¶ÐµÐ½Ð¸Ð¹": 6679,
      "Ð½Ð°Ð»ÑĮÐ½": 6680,
      "Ð½Ð¸ÐºÑĸÐ²": 6681,
      "ĠZwei": 6682,
      "Ġinform": 6683,
      "iele": 6684,
      "ume": 6685,
      "umm": 6686,
      "umziehen": 6687,
      "ÑĪÐ°": 6688,
      "ÑĪÐº": 6689,
      "ÑĪÐ½ÑĮÐ¾Ð³Ð¾": 6690,
      "ĠÐ±Ð¾": 6691,
      "ĠÐ±Ð»": 6692,
      "ĠÐ±Ð°Ð²": 6693,
      "ĠÐ±Ð°Ð·": 6694,
      "ĠÐ±Ð°Ð±": 6695,
      "ĠÐ±Ð°Ð¶": 6696,
      "ĠÐ±ÑĸÐ»": 6697,
      "ĠÐ±Ð¾Ð»Ñĸ": 6698,
      "ĠÐ±ÐµÐ½Ð·": 6699,
      "Ð°Ð½Ðµ": 6700,
      "Ð°Ð½ÐµÑĨÑĮ": 6701,
      "Ð°Ð½Ð½ÑĸÐ¹": 6702,
      "Ð°Ð½ÑĸÑĤÐ½Ð¸Ð¹": 6703,
      "ĠZeitungen": 6704,
      "ĠZeitpunkt": 6705,
      "Ġerw": 6706,
      "Ġerste": 6707,
      "Ġerle": 6708,
      "Ġerwarten": 6709,
      "Ġerinnern": 6710,
      "Ġerinne": 6711,
      "Ġerreichbar": 6712,
      "ĠertÃ¶n": 6713,
      "Ð¾Ð²ÑĸÐ»ÑĮÐ½Ð¾": 6714,
      "bedeut": 6715,
      "bewer": 6716,
      "bedien": 6717,
      "begl": 6718,
      "bezahlen": 6719,
      "bedienen": 6720,
      "behandeln": 6721,
      "beugen": 6722,
      "Ġtan": 6723,
      "Ġtut": 6724,
      "Ġtun": 6725,
      "Ġtragen": 6726,
      "Ġtanzen": 6727,
      "Ġtrocken": 6728,
      "Ġtrennt": 6729,
      "Ġtrainieren": 6730,
      "ĠÑģÐ¿ÑĸÐ»ÑĮÐ½": 6731,
      "ĠÑģÐ¿ÑĢÐ¸Ð¹": 6732,
      "ĠÑģÐ¿ÑĢÐµÐ¹": 6733,
      "Ã¶st": 6734,
      "Ã¶gel": 6735,
      "Ġform": 6736,
      "Ġfragen": 6737,
      "Ġfinden": 6738,
      "ĠfÃ¤llt": 6739,
      "ÑħÐ°Ð²": 6740,
      "ÑħÑĤÐ¾": 6741,
      "ÑħÐ½Ñĸ": 6742,
      "ÑħÐ°ÑĤÐ¸ÑģÑı": 6743,
      "euern": 6744,
      "Ð·Ð¸Ðº": 6745,
      "Ð·Ð°Ð¹": 6746,
      "Ð·ÐµÐ½ÑĤ": 6747,
      "Ð·ÑĸÑĢ": 6748,
      "Ð·Ð°Ð»": 6749,
      "Ð·ÐµÐ¼": 6750,
      "Ð·Ð´Ð¸ÑĤÐ¸": 6751,
      "ĠÑĤÐµÐ¼": 6752,
      "ĠÑĤÐµÐ¿": 6753,
      "ĠÑĤÐµÑĢÐ¿": 6754,
      "ĠÑĤÐµÐºÑģÑĤ": 6755,
      "Ġschwer": 6756,
      "Ġschreiben": 6757,
      "Ġschneiden": 6758,
      "Ġsparen": 6759,
      "ÑĢÑĸÑĪÐ½Ñı": 6760,
      "stechen": 6761,
      "ĠÐ¼ÑĸÐ¶": 6762,
      "ĠÐ¼ÑĸÐ³": 6763,
      "hner": 6764,
      "Ġangeln": 6765,
      "Ġanziehen": 6766,
      "Ġanbauen": 6767,
      "Ġangeschaut": 6768,
      "ĠSchn": 6769,
      "ĠSchmer": 6770,
      "ĠSchmu": 6771,
      "ĠÐ´ÑĢÑĥÐ³Ð¾Ð²Ñĸ": 6772,
      "ĠÑĦÐ¾ÑĢÐ¼ÑĥÐ»ÑıÑĢ": 6773,
      "Ð¸Ð»ÑĮÐ½Ð¸Ðº": 6774,
      "ĠÐ±ÑĥÐ»Ð°": 6775,
      "ĠÐ±ÑĥÐ»Ð¸": 6776,
      "ĠÐ±ÑĥÐ´Ðµ": 6777,
      "ĠÐ±ÑĥÐ´ÑĮ": 6778,
      "etzi": 6779,
      "etten": 6780,
      "Ð´Ð¸ÑĤÐ¸ÑģÑı": 6781,
      "denten": 6782,
      "Ð°ÑĤÐ¸Ð²Ð½Ð¸Ð¹": 6783,
      "ĠÑĸÐ½ÑĤÐµ": 6784,
      "ĠÑĸÐ½Ð°Ðº": 6785,
      "ĠÑĸÐ½Ð¾Ð´Ñĸ": 6786,
      "ĠÑĸÐ½Ð¶ÐµÐ½ÐµÑĢ": 6787,
      "ĠErlaub": 6788,
      "ĠErinner": 6789,
      "ĠÑĸÐ½ÑĦÐ¾ÑĢÐ¼Ð°": 6790,
      "Ð°Ð»ÑĮÐ½Ð¸Ñħ": 6791,
      "Ð°Ð»ÑĮÐ½ÑĸÑģÑĤÑĮ": 6792,
      "ungsp": 6793,
      "ungsst": 6794,
      "rÃ¤umen": 6795,
      "Ġkostet": 6796,
      "ĠÑĸÑģÑĤÐ¾ÑĢ": 6797,
      "ĠÑĸÐ³ÑĢÐ°ÑĪ": 6798,
      "ĠÐ¾ÑģÐ½Ð¾Ð²Ð½Ð¸Ñħ": 6799,
      "ĠÑĨÐ²ÑĸÑĤ": 6800,
      "ĠÐ¿Ð¾ÑĩÑĥÐ²Ð°ÑĤÐ¸ÑģÑı": 6801,
      "Ð¸ÑĤÐµ": 6802,
      "Ð¸ÑĤÑĸ": 6803,
      "Ð¸ÑĤÐ°": 6804,
      "ĠÐ²ÑĸÐ´Ð¼ÑĸÐ½": 6805,
      "ĠÐ²ÑĸÐ´Ð½Ð¾": 6806,
      "ĠÐ²ÑĸÐ´Ð´Ð°ÑĤÐ¸": 6807,
      "ĠÐ²ÑĸÐ´ÑĩÑĥÑĤÑĤÑı": 6808,
      "ĠWer": 6809,
      "ĠWien": 6810,
      "ĠWaren": 6811,
      "ĠWell": 6812,
      "ĠWare": 6813,
      "ĠWahl": 6814,
      "ĠWeile": 6815,
      "ĠWurz": 6816,
      "ĠWÃ¼nsche": 6817,
      "ĠWeihn": 6818,
      "ĠWÃ¤hlen": 6819,
      "ÃŁnahme": 6820,
      "ĠÐ²Ð¸ÐºÐ¾Ð½Ð°": 6821,
      "itam": 6822,
      "itur": 6823,
      "Ġzer": 6824,
      "Ġzeigen": 6825,
      "ĠÐ·Ð°Ð¿ÑĢÐ¾ÑĪ": 6826,
      "ĠÐ·Ð°Ð¿ÑĸÐ·": 6827,
      "ÑĥÑĩÐ¸Ð¹": 6828,
      "ÑĥÑĩÐ½Ð¾Ð¼": 6829,
      "ringer": 6830,
      "ĠÐ·ÑĸÐ¿": 6831,
      "onas": 6832,
      "onummer": 6833,
      "onders": 6834,
      "ĠKamp": 6835,
      "ĠKamer": 6836,
      "ĠKatzen": 6837,
      "ĠKaiser": 6838,
      "undfahrt": 6839,
      "ĠÐ¶Ð°Ñħ": 6840,
      "ĠÐ¶ÐµÑĢÑĤ": 6841,
      "ausdrÃ¼cken": 6842,
      "alter": 6843,
      "alitÃ¤t": 6844,
      "blÃ¤t": 6845,
      "blick": 6846,
      "ĠÐ´Ð¾Ð¿Ð¾Ð¼Ð°Ð³Ð°ÑĤÐ¸": 6847,
      "alls": 6848,
      "Ð¾ÐºÐ°": 6849,
      "Ð¾ÐºÐ¾Ð»": 6850,
      "dur": 6851,
      "Ġsechs": 6852,
      "zik": 6853,
      "zimmer": 6854,
      "ĠÐļÐ¾Ð»ÑĮ": 6855,
      "Ð¾Ð»Ð¸ÑĪÐ½ÑĮÐ¾Ð³Ð¾": 6856,
      "Ġumstruktur": 6857,
      "Ġumgezogen": 6858,
      "Ð¾Ð±Ð¸": 6859,
      "Ð¾Ð±ÑĥÐ²Ð°ÑĤÐ¸": 6860,
      "Ð¾Ð±ÑĥÑģ": 6861,
      "ĠÐ¿Ð¾ÑĩÐ¸Ð½Ð°ÑĤÐ¸": 6862,
      "ĠÐ¿ÑĢÐ¸ÐºÑĢÐ¸Ð²Ð°ÑĤÐ¸": 6863,
      "ĠKindern": 6864,
      "ermÃ¶glich": 6865,
      "ĠÐ·Ð¼ÑĸÐ½ÑİÐ²Ð°ÑĤÐ¸ÑģÑı": 6866,
      "ĠLei": 6867,
      "ĠLicht": 6868,
      "ĠLag": 6869,
      "ĠLesen": 6870,
      "ĠLeitung": 6871,
      "ĠLang": 6872,
      "ĠLaden": 6873,
      "ĠLaut": 6874,
      "ĠLÃ¤rm": 6875,
      "ĠLÃ¼cken": 6876,
      "ĠLaune": 6877,
      "kommt": 6878,
      "Ġwarten": 6879,
      "ĠÑģÐµÑĢÐµÐ´Ð¾Ð²Ð¸": 6880,
      "ierungen": 6881,
      "iertel": 6882,
      "kohol": 6883,
      "Ġverein": 6884,
      "Ġvierten": 6885,
      "Ġgleich": 6886,
      "Ġglauben": 6887,
      "ÑĸÐ¶Ð½Ð¸Ðº": 6888,
      "erleiten": 6889,
      "agd": 6890,
      "ager": 6891,
      "agisch": 6892,
      "agsp": 6893,
      "Ġmehrmal": 6894,
      "Ġzustimmen": 6895,
      "ĠÐ¿Ð¾Ð²Ð½Ð¸Ð¹": 6896,
      "ĠÐ¿Ð¾Ð²Ð°ÑĢ": 6897,
      "ĠÐ¿Ð¾Ð²Ð½Ñĸ": 6898,
      "ĠÐ¿Ð¾Ð²ÐµÑĢÑĤÐ°ÑĤÐ¸": 6899,
      "tell": 6900,
      "ÑĤÑĢÐ°": 6901,
      "amt": 6902,
      "amir": 6903,
      "ÑĥÐ¿Ð¸ÑĤÐ¸": 6904,
      "spar": 6905,
      "spur": 6906,
      "spra": 6907,
      "sparen": 6908,
      "spassiv": 6909,
      "sprach": 6910,
      "springen": 6911,
      "sprecher": 6912,
      "Ð°Ð±Ð°Ð½": 6913,
      "Ð°Ð±Ð»Ð¸": 6914,
      "Ð°Ð±ÑĥÑģ": 6915,
      "Ð°Ð±ÐµÐ»ÑĮÐ½Ð¸Ð¹": 6916,
      "Ð°Ð±ÑĸÐ¶Ð½Ð¸Ðº": 6917,
      "ilette": 6918,
      "altet": 6919,
      "altungen": 6920,
      "ĠÑģÑĥÑħ": 6921,
      "ĠÑģÑĥÑģÑĸÐ´": 6922,
      "ĠÑģÑĥÐ¼ÐºÑĥ": 6923,
      "ĠGesund": 6924,
      "ĠGesell": 6925,
      "mpartner": 6926,
      "mpfehl": 6927,
      "ĠÐ¿Ð¾ÑĢÐ°": 6928,
      "ĠÐ¿Ð¾ÑĢÑıÐ´Ð¾Ðº": 6929,
      "Ð¿ÑĸÐ´ÑĤÐ²ÐµÑĢÐ´Ð¶": 6930,
      "weilig": 6931,
      "atland": 6932,
      "olle": 6933,
      "Ġuntrennb": 6934,
      "ĠunpersÃ¶nliche": 6935,
      "Ġunseren": 6936,
      "Ð°ÑĤÐ¾": 6937,
      "Ð°ÑĤÑĥ": 6938,
      "Ð°ÑĤÑĤÑı": 6939,
      "Ð°ÑĤÑĥÑĢÐ°": 6940,
      "ÐµÐ·Ð¿Ðµ": 6941,
      "fahl": 6942,
      "ĠÐ¢Ð¾Ð±Ñĸ": 6943,
      "ĠÐ¢ÑĥÐ´Ð¸": 6944,
      "ĠÐ¢ÑĢÐµÐ±Ð°": 6945,
      "ĠÐ¢ÑĥÑĢÐµ": 6946,
      "ĠÐ¢Ð°ÑĤÐ¾": 6947,
      "ĠÑĤÐ°Ð»": 6948,
      "ĠVill": 6949,
      "ĠVerl": 6950,
      "ĠVerein": 6951,
      "ĠVolkshochschule": 6952,
      "ĠVÃ¶gel": 6953,
      "ĠVitam": 6954,
      "ĠWasch": 6955,
      "ÑĥÐ²Ð°Ð½Ð¸Ð¹": 6956,
      "ĠFreien": 6957,
      "ĠFreude": 6958,
      "urm": 6959,
      "urt": 6960,
      "Ġhin": 6961,
      "ĠhÃ¤lt": 6962,
      "Ġhole": 6963,
      "ĠhÃ¤uf": 6964,
      "ĠhÃ¶rt": 6965,
      "ĠRinder": 6966,
      "ĠBankmit": 6967,
      "ĠÑĢÑĥÐº": 6968,
      "arbeitet": 6969,
      "ĠÐ´ÑĸÑĶÑģÐ»Ð¾Ð²Ð°": 6970,
      "Ð°ÑĤÐºÐ¸": 6971,
      "Ð°ÑĤÐºÑĥ": 6972,
      "tzlich": 6973,
      "ĠStein": 6974,
      "ĠStÃ¼": 6975,
      "ĠSteuer": 6976,
      "ĠStunde": 6977,
      "ĠStress": 6978,
      "ĠSteuern": 6979,
      "Wasser": 6980,
      "ĠEigen": 6981,
      "ĠExp": 6982,
      "ĠÐľÐ¾Ð¶": 6983,
      "ĠÐľÐ¾ÑĹ": 6984,
      "ĠAbendsonnen": 6985,
      "agesatz": 6986,
      "ÐļÐ¾ÑĢÐ¸ÑģÐ½": 6987,
      "onto": 6988,
      "ĠGeben": 6989,
      "leihen": 6990,
      "leisch": 6991,
      "ĠÐĨÑĢÐ°": 6992,
      "Ð´Ð°Ñĩ": 6993,
      "Ð»ÐµÐº": 6994,
      "ĠÐ³Ðµ": 6995,
      "ĠÐ³Ð°": 6996,
      "ĠÐ³ÐµÑĢ": 6997,
      "ĠÐ³Ð°Ð´": 6998,
      "ĠÐ³ÑĥÑĩÐ½Ð¾Ð¼": 6999,
      "ĠÐ¾Ð±ÑĢÐ°Ð·": 7000,
      "ĠTexten": 7001,
      "ĠProdukt": 7002,
      "Ġbeide": 7003,
      "ÑģÑĤÐ°Ð²Ð°ÑĤÐ¸": 7004,
      "Ġgestanden": 7005,
      "Ġgestiegen": 7006,
      "Ġgestorben": 7007,
      "ima": 7008,
      "fstÃ¶r": 7009,
      "leer": 7010,
      "lecht": 7011,
      "lektion": 7012,
      "lecker": 7013,
      "Ð»ÑĸÐºÐ°": 7014,
      "ĠStufe": 7015,
      "ĠStudenten": 7016,
      "schluss": 7017,
      "schlug": 7018,
      "schlÃ¤ge": 7019,
      "hopp": 7020,
      "sterreich": 7021,
      "Ġlehren": 7022,
      "Ġlecker": 7023,
      ".........": 7024,
      "ĠÐ±ÐµÐ·ÑģÐ»ÑĸÐ´": 7025,
      "ĠÐ±ÐµÐ·ÐºÐ¾": 7026,
      "ĠÐĹÐ²ÐµÑĢÑĤ": 7027,
      "Ð¾Ð´Ð¶ÐµÐ½Ð½Ñı": 7028,
      "ahne": 7029,
      "tri": 7030,
      "wird": 7031,
      "ĠÑĢÐ¾Ð³": 7032,
      "ĠÑĢÐ°Ð¿": 7033,
      "ĠÑĢÐ°Ð½Ñĸ": 7034,
      "ÐĶÐļ": 7035,
      "ÐĶÐľ": 7036,
      "ĠâĢ¦?": 7037,
      "Ġgetrieben": 7038,
      "Ã¤lde": 7039,
      "ĠWol": 7040,
      "ĠWohl": 7041,
      "Ã¶flich": 7042,
      "alaton": 7043,
      "wohnen": 7044,
      "wohner": 7045,
      "wohnung": 7046,
      "Schweiz": 7047,
      "Schwarz": 7048,
      "Ġteuersten": 7049,
      "beln": 7050,
      "beleucht": 7051,
      "beliebt": 7052,
      "ĠFahrradladen": 7053,
      "ĠComputerproblem": 7054,
      "Ġjem": 7055,
      "Ġjetzi": 7056,
      "ĠHaushalt": 7057,
      "ĠDiese": 7058,
      "Ġklettert": 7059,
      "igung": 7060,
      "igit": 7061,
      "igieren": 7062,
      "ÐµÑĢÐ°ÑĤÐ¸Ð²Ð½Ð¸Ð¹": 7063,
      "bert": 7064,
      "lichkeit": 7065,
      "ÑīÐ¸Ð¹": 7066,
      "ÑīÐ°Ð½Ð½Ñı": 7067,
      "ÑīÐ¾Ð´Ð½Ñı": 7068,
      "Ã¤rmen": 7069,
      "ĠÐ³Ð¾Ð»ÑĥÐ±": 7070,
      "ĠÑģÐ¸Ð»ÑĮÐ½Ð¸Ñħ": 7071,
      "Ð¸Ð³ÑĸÐ½": 7072,
      "Ġdeiner": 7073,
      "Ġbesu": 7074,
      "Ġbesonders": 7075,
      "ĠVerwen": 7076,
      "Ð¸Ð²Ð°ÑĤÐ¸ÑģÑı": 7077,
      "ckdose": 7078,
      "ĠOl": 7079,
      "ĠOrig": 7080,
      "ĠOsten": 7081,
      "ĠOze": 7082,
      "vergessen": 7083,
      "verfÃ¼": 7084,
      "verga": 7085,
      "verhalten": 7086,
      "verschw": 7087,
      "verboten": 7088,
      "verheim": 7089,
      "verdoppel": 7090,
      "verhaften": 7091,
      "versorgen": 7092,
      "tigung": 7093,
      "tigte": 7094,
      "ĠLebt": 7095,
      "Ð½Ð¾Ñİ": 7096,
      "sion": 7097,
      "Ġunserem": 7098,
      "Ð¾Ð¶Ð½ÑĸÐ¹": 7099,
      "Ð°ÑĢÐ°": 7100,
      "Ġfast": 7101,
      "ĠNicht": 7102,
      "ĠNiederlan": 7103,
      "ĠName": 7104,
      "ĠNina": 7105,
      "ĠÐĴÐ°Ð¼Ð¸": 7106,
      "ĠÐ»Ð°Ð·": 7107,
      "ĠÐ»Ð¸Ð¶": 7108,
      "Ð¾Ð½Ð´": 7109,
      "usstsein": 7110,
      "ÑīÐ¾ÑģÑĮ": 7111,
      "ĠNachbar": 7112,
      "ÑĢÐ°Ð´": 7113,
      "ÑĢÐ°Ñī": 7114,
      "ĠÑĢÐ¾Ð±Ð¸ÑĤÑĮ": 7115,
      "ĠÑĢÐ¾Ð±Ð¾ÑĤÐ°": 7116,
      "ÑĤÐ¾Ñİ": 7117,
      "Ã¼bergeordneten": 7118,
      "Ġverkaufen": 7119,
      "Ġverab": 7120,
      "Ġverschw": 7121,
      "ĠverÃ¤ndern": 7122,
      "Ġverheim": 7123,
      "Ġverglei": 7124,
      "Ġverhaften": 7125,
      "Ġ117": 7126,
      "Ġ124": 7127,
      "ĠKonsum": 7128,
      "ĠKonserv": 7129,
      "oline": 7130,
      "sprechenden": 7131,
      "Ð½ÑĸÐ¼": 7132,
      "Â».": 7133,
      "ĠkÃ¶nntest": 7134,
      "ĠÑıÐ»Ð¾Ð²Ð¸": 7135,
      "ertÃ¶n": 7136,
      "Ġbew": 7137,
      "Ġbewer": 7138,
      "Ġbezie": 7139,
      "Ġbegl": 7140,
      "Ġbedienen": 7141,
      "Ġberechn": 7142,
      "Ġbekannt": 7143,
      "Ġbeeilen": 7144,
      "Ġbezeichnet": 7145,
      "ĠÑħÐ»Ñĸ": 7146,
      "ĠÑħÑĤÐ¾": 7147,
      "ĠÑħÐ°Ð¾ÑĤÐ¸": 7148,
      "Ð¾ÑģÑĤÐ°ÑĤÐ¸": 7149,
      "abhÃ¤ng": 7150,
      "abstÃ¼rzen": 7151,
      "abwechslungsreich": 7152,
      "ĠÃ¼berzeu": 7153,
      "ĠÃ¼berfallen": 7154,
      "ĠÃ¼berzeugen": 7155,
      "ĠÃ¼berhaupt": 7156,
      "ĠÐ²Ð¸ÑĪ": 7157,
      "ĠÐ²Ð¸Ð»ÐºÐ°": 7158,
      "ĠÐ²Ð¸Ð¶Ð¸Ð²Ð°Ð½Ð½Ñı": 7159,
      "ĠÐ¿ÑĢÐ¾ÑĶÐºÑĤ": 7160,
      "ĠÐ¿ÑĢÐ¾ÑīÐ°Ð½Ð½Ñı": 7161,
      "ĠÐ¼Ð¾Ð¶ÑĥÑĤÑĮ": 7162,
      "Ã¤nder": 7163,
      "Ã¤nderung": 7164,
      "ĠÐ´Ð¾ÑģÐ»ÑĸÐ´": 7165,
      "Ġvorge": 7166,
      "otal": 7167,
      "rÃ¼fen": 7168,
      "rÃ¼ÃŁen": 7169,
      "reibung": 7170,
      "reibtisch": 7171,
      "Ð°Ð¶Ð°ÑĤÐ¸": 7172,
      "Ð°Ð¶Ð¸ÑĤÐ¸": 7173,
      "Steiger": 7174,
      "ĠÑĢÐ°Ð·Ð¾Ð¼": 7175,
      "ÐµÑĤÑĸÑĤÐ¸": 7176,
      "weiÃŁ": 7177,
      "gelten": 7178,
      "geleitet": 7179,
      "ughafen": 7180,
      "enthalten": 7181,
      "Ð°Ð¹Ð½Ð¸Ð¹": 7182,
      "ada": 7183,
      "wartet": 7184,
      "jezik": 7185,
      "ĠÑĪÑĤ": 7186,
      "ĠÑĪÑĥÐ¼": 7187,
      "ĠÑĪÐ°ÑĦ": 7188,
      "ĠSpar": 7189,
      "ĠSprich": 7190,
      "ĠSpiegel": 7191,
      "herausgeben": 7192,
      "Ġput": 7193,
      "Ġpro": 7194,
      "ĠprÃ¼fen": 7195,
      "ÑĸÐ»ÐºÐ°": 7196,
      "Ð½Ð¸ÑĩÐºÐ°": 7197,
      "ĠVerbs": 7198,
      "ĠVerbes": 7199,
      "ĠVerbrechen": 7200,
      "ĠVerbinden": 7201,
      "ĠÐ¿Ð¾Ð´Ð°Ð²": 7202,
      "ĠÐ¿Ð¾Ð´Ð²Ð¾": 7203,
      "ĠÐ¿Ð¾Ð´Ð°Ð²Ð°ÑĤÐ¸": 7204,
      "ĠÐ¿Ð¾Ð´Ð°Ð½Ð¾": 7205,
      "ĠÑĢÐ¾Ð·Ð¼": 7206,
      "ĠÑĢÐ¾Ð·ÑģÐ»ÑĸÐ´": 7207,
      "ĠÑĢÐ¾Ð·ÑĥÐ¼": 7208,
      "ĠÑĢÐ¾Ð·Ð¼Ð¾Ð²": 7209,
      "ĠÑĢÐ¾Ð·Ð»ÑĥÑĩ": 7210,
      "ĠÐ¿ÐµÑĢÐµÐ²Ð°Ð¶": 7211,
      "ĠÐ¿ÐµÑĢÐµÑĹÐ¶Ð´Ð¶": 7212,
      "ĠÐ¿ÐµÑĢÐµÐºÐ¾Ð½Ð°": 7213,
      "ĠÐ·Ð½Ð°Ð½Ð½Ñı": 7214,
      "hing": 7215,
      "zufÃ¤llig": 7216,
      "zubereiten": 7217,
      "ÐµÐºÐ»ÐµÐ½": 7218,
      "Ã¶rder": 7219,
      "egin": 7220,
      "ĠÐ´ÑĥÑħ": 7221,
      "ĠstÃ¤r": 7222,
      "Ġsteigen": 7223,
      "Ġstark": 7224,
      "ÑĢÐ¸Ð»Ð¸": 7225,
      "ĠAnge": 7226,
      "ĠAnna": 7227,
      "ĠAndenken": 7228,
      "finalsatz": 7229,
      "lieh": 7230,
      "Ð°Ð»ÐµÐ½Ð½Ñı": 7231,
      "ĠDaten": 7232,
      "empfehlen": 7233,
      "empfahl": 7234,
      "schafts": 7235,
      "109": 7236,
      "Ġabwaschen": 7237,
      "ÑģÑĮÐºÐ¾Ð¼Ñĥ": 7238,
      "ÑģÑĮÐºÐ¾ÑĹ": 7239,
      "ÑģÑĮÐºÐ¸Ð¼Ð¸": 7240,
      "ĠSatzes": 7241,
      "ĠSatzglied": 7242,
      "ĠÐ¿ÑĢÐ¸Ð±": 7243,
      "ĠÐ¿ÑĢÐ¸Ð¿ÑĢÐ°Ð²": 7244,
      "ĠÐ¿ÑĢÐ¸Ð±Ð¸ÑĢÐ°ÑĤÐ¸": 7245,
      "ĠÐ¿ÑĢÐ¸ÑĹÑħ": 7246,
      "fÃ¼hlen": 7247,
      "fÃ¼llt": 7248,
      "iker": 7249,
      "ikum": 7250,
      "ikanerinnen": 7251,
      "ĠÐ²ÐµÐ»": 7252,
      "ĠÐ²ÐµÐ´": 7253,
      "ĠÐ²ÐµÐ´Ðµ": 7254,
      "ĠÐ²ÐµÑģÑĸÐ»Ð»Ñı": 7255,
      "ĠÐ²ÐµÑģÐµÐ»": 7256,
      "steller": 7257,
      "stellte": 7258,
      "ogie": 7259,
      "112": 7260,
      "lange": 7261,
      "ĠÃľberzeug": 7262,
      "Ġunterst": 7263,
      "Ġunterbrechen": 7264,
      "zurÃ¼ck": 7265,
      "Ð¾ÑģÐ¸": 7266,
      "Ð¾ÑģÑĤÐ¸": 7267,
      "Ð¾ÑģÐ¾ÑĦ": 7268,
      "ÑĸÑĤÐºÐ°": 7269,
      "ĠÐºÐ¾Ð¼ÐµÐ´": 7270,
      "ĠÐºÐ¾Ð¼Ð¿ÑĢ": 7271,
      "ĠÐºÐ¾Ð¼Ð°ÑĢÑĸÐ²": 7272,
      "ĠReze": 7273,
      "ĠÐ¹Ð¾Ð³": 7274,
      "ĠÐ¹Ð´Ñĥ": 7275,
      "gebildet": 7276,
      "ĠÑĹÑħÐ°ÑĤÐ¸": 7277,
      "ĠÑĹÐ¶Ñĸ": 7278,
      "Ð´ÐµÑĩÐ½Ð¾": 7279,
      "Ġpassieren": 7280,
      "ellner": 7281,
      "zehn": 7282,
      "zeitschrift": 7283,
      "ĠJagd": 7284,
      "ĠÐĳÐ¾Ð³": 7285,
      "ĠÐĳÐ¾Ð´ÐµÐ½": 7286,
      "ĠÐĳÐµÑĢÐ»": 7287,
      "ĠÐĳÑĥÐ´ÑĮ": 7288,
      "ĠÐĳÐ¾Ð½Ð´Ð°ÑĢÑĩÑĥÐº": 7289,
      "ÑĨÐµÐ¼": 7290,
      "ÑĨÐµÐ¿": 7291,
      "telmeer": 7292,
      "TÃ¼rkei": 7293,
      "klÃ¤ren": 7294,
      "laut": 7295,
      "wasser": 7296,
      "ĠÐ¡Ð»": 7297,
      "ĠÐ¡ÑĸÐ¼": 7298,
      "ĠÐ¡ÑĮÐ¾Ð³Ð¾Ð´Ð½Ñĸ": 7299,
      "ĠÐ¡ÐµÐ¼ÐµÐ½ÑİÐº": 7300,
      "ĠÐµÐ½ÐµÑĢ": 7301,
      "ĠÐĽÐ¾Ð·Ð¸ÑĨÑĮÐºÐ°": 7302,
      "ĠÐĽÑĥÑĨÑĮÐº": 7303,
      "ĠÑģÐ²ÐµÐº": 7304,
      "ĠEinb": 7305,
      "ĠEinkaufs": 7306,
      "ksam": 7307,
      "vorbei": 7308,
      "vorsichtig": 7309,
      "werk": 7310,
      "werfen": 7311,
      "werken": 7312,
      "ĠÑĤÐ¸ÑħÐ¾": 7313,
      "ĠÑĤÐ¸Ð¶Ð´ÐµÐ½ÑĮ": 7314,
      "ÑĸÐ·Ð½Ð¾": 7315,
      "ÑĥÑĢÑĤ": 7316,
      "ÑĥÑĢÐ½Ð°": 7317,
      "ĠÐ²ÑĸÐ´Ð¿ÑĢÐ°Ð²": 7318,
      "ĠVorbereit": 7319,
      "ĠVorgang": 7320,
      "Indirekte": 7321,
      "irekter": 7322,
      "prache": 7323,
      "ĠÐ¿ÑĢÐ°Ðº": 7324,
      "ĠÐ¿ÑĢÐ°ÑĨÑĸ": 7325,
      "untersuchen": 7326,
      "unterbieten": 7327,
      "unterhielt": 7328,
      "Ð¶ÐµÐ»ÑİÐ±": 7329,
      "ÑħÑĸÐ´Ð½Ð¸Ñħ": 7330,
      "immbad": 7331,
      "ĠauÃŁerdem": 7332,
      "Ġalso": 7333,
      "Ð²Ð°Ð¶Ð°ÑĤÐ¸ÑģÑı": 7334,
      "schenken": 7335,
      "ĠOrientieren": 7336,
      "168": 7337,
      "223": 7338,
      "Verben": 7339,
      "Verbrechen": 7340,
      "ktionen": 7341,
      "naie": 7342,
      "ÐĴÐĲ": 7343,
      "Ġ,-": 7344,
      "Ġ811": 7345,
      "Ġreist": 7346,
      "Ġreden": 7347,
      "ÑģÐ¸Ð»Ð°": 7348,
      "ÑģÐ¸ÑĩÐ½Ð¸Ð¹": 7349,
      "hang": 7350,
      "anzÃ¶s": 7351,
      "anziehen": 7352,
      "anzhaushalt": 7353,
      "ĠAusnahmen": 7354,
      "ĠÐºÑĥÐ¿ÑĥÐ²Ð°ÑĤÐ¸": 7355,
      "ĠÐºÑĥÐ¿Ð¸Ð»Ð°": 7356,
      "ĠÐºÑĥÐ¿Ð»ÑıÑİ": 7357,
      "Ð¾Ð»Ð¾Ð³ÑĸÑı": 7358,
      "Ð¾Ð»Ð¾Ð³ÑĸÑĩ": 7359,
      "...?": 7360,
      "ĠÑĤÐ°ÐºÑģÑĸ": 7361,
      "ĠÑĤÐ°ÐºÐ¾Ð¶": 7362,
      "irektor": 7363,
      "hÃ¶rer": 7364,
      "reitet": 7365,
      "schieÃŁen": 7366,
      "ĠÑĤÑĢÐµÐ½": 7367,
      "ĠÑĤÑĢÐ¸Ð²Ð°ÑĶ": 7368,
      "ĠÑĤÑĢÑĮÐ¾Ñħ": 7369,
      "alediven": 7370,
      "ĠPrÃ¤teritumform": 7371,
      "Ġ50": 7372,
      "Ġallen": 7373,
      "Ġallein": 7374,
      "Ġallem": 7375,
      "Ġalleine": 7376,
      "Ð°ÑĩÐ°ÑĤÐ¸": 7377,
      "Ð°ÑĩÐ¸ÑĤÐ¸": 7378,
      "ĠÐ½Ð°Ð²Ð¸Ñĩ": 7379,
      "ĠÐ½Ð°Ð²ÑĥÑĪ": 7380,
      "ĠdurchgefÃ¼hr": 7381,
      "ĠÐµÐºÑģÐ¿": 7382,
      "ĠÑīÐ¸ÑĢÐ¾": 7383,
      "ĠÑīÐ¾Ð´ÐµÐ½Ð½Ð¾": 7384,
      "ĠÐ§Ð¸Ð¼": 7385,
      "ingu": 7386,
      "ĠÐ¿Ð¾Ð³Ð¾Ð´Ð¶ÑĥÐ²Ð°ÑĤÐ¸ÑģÑı": 7387,
      "ĠÐ¿Ð¾Ð³Ð¾Ð´Ð¸ÑĤÐ¸ÑģÑı": 7388,
      "ĠÐ´ÐµÑģÑĮ": 7389,
      "ĠÐ´ÐµÑĪÐµ": 7390,
      "ĠÐ´ÐµÐ¿Ð¾Ð·": 7391,
      "ĠÐ´ÐµÐ¼Ð¾Ð½": 7392,
      "ĠPerspektive": 7393,
      "Ð¾Ð·Ð¸ÑĨÑĸÑİ": 7394,
      "riechen": 7395,
      "Ġ63": 7396,
      "ÑģÑĤÐ¸ÑĩÐ½Ð°": 7397,
      "ÑĥÐ½ÑĸÐ²ÐµÑĢÑģÐ¸ÑĤÐµÑĤ": 7398,
      "ĠÐ¿Ð°ÑĢÐº": 7399,
      "Ġgewesen": 7400,
      "Ġgewachsen": 7401,
      "Ġgeworden": 7402,
      "ĠmÃ¶gen": 7403,
      "ĠmÃ¶glich": 7404,
      "Ġbestrafen": 7405,
      "Ġbestellen": 7406,
      "Ð¿ÑĢÐ¾Ð²Ð°Ð¹": 7407,
      "ĠÑĦÑĸÐ»Ð¾ÑģÐ¾ÑĦ": 7408,
      "ĠÑĦÑĸÐ»Ð¾Ð»Ð¾Ð³ÑĸÑĩ": 7409,
      "ĠEurozone": 7410,
      "ĠUntersuch": 7411,
      "Beim": 7412,
      "Ġentscheiden": 7413,
      "Ð´Ð¶ÐµÑĤ": 7414,
      "ĠÐ²Ð¸Ð³ÑĢÐ°Ð²": 7415,
      "Ġgesessen": 7416,
      "Ġgesunken": 7417,
      "Ġgesungen": 7418,
      "Ġgesandt": 7419,
      "ĠSoÃŁe": 7420,
      "ĠÐºÐ°Ð½Ð°Ð»": 7421,
      "ĠÐºÐ°Ð¼ÐµÑĢÐ°": 7422,
      "ungskra": 7423,
      "Ð¸ÑģÑĤÐ¸Ð¹": 7424,
      "187": 7425,
      "okabel": 7426,
      "okale": 7427,
      "ÑĥÑİÑģÑı": 7428,
      "ÑĥÑİÑĩÐ¸": 7429,
      "ĠÐ¿Ð»Ð°ÑĤÐ°": 7430,
      "ĠÐ¿Ð»Ð°ÑĤÑĤÑı": 7431,
      "ĠInternetanbieter": 7432,
      "ĠwÃ¤ren": 7433,
      "Ð²ÑĸÐ´Ð¿": 7434,
      "Ð²ÑĸÐ´Ð¾Ð¼Ð¸Ð¹": 7435,
      "Ð°Ð¼Ð°ÑĤÐ¸ÐºÐ¸": 7436,
      "ĠÐ½Ð°Ð´Ð°Ð²Ð°ÑĤÐ¸": 7437,
      "ĠÐ½Ð°Ð´ÑĸÐ¹Ð½Ð¸Ð¹": 7438,
      "ÑĪÑĤÑĥÐ²Ð°ÑĤÐ¸": 7439,
      "ÑĪÑĤÐ¾Ð²Ð½Ð¾": 7440,
      "ÐµÑĢÑĤÐ²": 7441,
      "ĠÐ»ÑĸÑĤÐ°": 7442,
      "256": 7443,
      "Reflexive": 7444,
      "astrop": 7445,
      "zÃ¤hlen": 7446,
      "ĠÐ¼ÑĥÐ·Ð¸Ñĩ": 7447,
      "ĠÑģÐµÐ»Ðµ": 7448,
      "ĠAlkohol": 7449,
      "ĠSteht": 7450,
      "ĠSteckdose": 7451,
      "ĠÑģÑĤÑĥÐ´ÐµÐ½ÑĤÐºÐ°": 7452,
      "schwimmen": 7453,
      "ĠFinnland": 7454,
      "seekÃ¼ste": 7455,
      "ÑħÐ¾Ð´Ð¸Ð²": 7456,
      "ÑħÐ¾Ð´Ð¸ÑĤÐ¸ÑģÑı": 7457,
      "ĠRelativsÃ¤tze": 7458,
      "ĠÐ³Ð¾Ð²Ð¾ÑĢÑıÑĤÑĮ": 7459,
      "ĠÑĢÐ°Ð´ÑĸÑĶÑĪ": 7460,
      "Ġjedem": 7461,
      "verbi": 7462,
      "ĠÑĪÐºÐ¾Ð´Ð°": 7463,
      "ĠÑĪÐºÑĸÐ»ÑĮÐ½Ð°": 7464,
      "ĠReisebÃ¼ro": 7465,
      "bietet": 7466,
      "besetzt": 7467,
      "folgt": 7468,
      "ickeln": 7469,
      "ÐľÐ¾Ð¶Ð½Ð°": 7470,
      "Ġex": 7471,
      "Ġedel": 7472,
      "ĠImage": 7473,
      "ĠÐ¼ÐµÐ½ÑĪÐµ": 7474,
      "ĠÑģÐºÐ¾ÑĢ": 7475,
      "ĠÑģÐºÑĥÐ¿": 7476,
      "ĠÑģÐºÐ»Ð°Ð´": 7477,
      "Ð¿Ð°Ð´Ð°ÑĤÐ¸": 7478,
      "ĠÐ¿ÑĢÐ¸Ð¹ÑĤÐ¸": 7479,
      "ĠÐºÐ°ÑĢÑĤÐ¾Ð¿": 7480,
      "ĠÐºÐ¾Ð½ÑĦÐµÑĢ": 7481,
      "ĠÐºÐ¾Ð½ÑĨÐµÑĢÑĤ": 7482,
      "ĠÐ¾ÑĢÐµÐ½Ð´Ð°": 7483,
      "ĠÐ¾ÑĢÑĸÑĶÐ½ÑĤ": 7484,
      "ĠÐ¾ÑĢÐ¸Ð³ÑĸÐ½": 7485,
      "ĠHauptstadt": 7486,
      "Ġangegeben": 7487,
      "Ġangezogen": 7488,
      "ĠWortfolge": 7489,
      "ĠUmsatz": 7490,
      "ĠUmgang": 7491,
      "ĠÐ³ÑĢÐ¸Ð²": 7492,
      "ĠÐ³ÑĢÐ¾Ð¼Ð°Ð´": 7493,
      "ĠÐ³ÑĢÐ°Ð±ÑĸÐ¶Ð½Ð¸Ðº": 7494,
      "ĠÐ³ÑĢÐ°Ð¼Ð°ÑĤÐ¸ÐºÐ¸": 7495,
      "Konzert": 7496,
      "Konsum": 7497,
      "Kondition": 7498,
      "Manchmal": 7499,
      "Plural": 7500,
      "UniversitÃ¤t": 7501,
      "hÃ¤ngt": 7502,
      "Ġrichtig": 7503,
      "ÑĸÑģÐ°ÑĢ": 7504,
      "ÐºÑĤÑĥ": 7505,
      "ĠÑģÐµÑĢÑĨÐµ": 7506,
      "Ð»ÑıÐ´Ñĥ": 7507,
      "Ġwichtige": 7508,
      "Ġgelegen": 7509,
      "Ġgelungen": 7510,
      "Ġbisschen": 7511,
      "ĠSekretÃ¤rin": 7512,
      "ĠÐ·Ð°Ð±ÑĢÐ°ÑĤÐ¸": 7513,
      "ĠÐ·Ð°Ð±Ð¾ÑĢÐ¾Ð½": 7514,
      "ĠÐ·Ð°Ð±ÐµÐ·Ð¿Ðµ": 7515,
      "ĠKlein": 7516,
      "Ġgerufen": 7517,
      "ĠÐ±ÑĸÐ»Ð¸Ð·": 7518,
      "ĠÐ±ÑĸÐ¾Ð³ÑĢÐ°ÑĦ": 7519,
      "ĠÐ¼ÑĸÑģÑĨÐµÐ²ÑĸÑģÑĤÑĮ": 7520,
      "ĠÐ³Ð°ÑĢÐ½Ð¸Ð¹": 7521,
      "ĠÑĢÐ¾Ð±Ð¾ÑĩÑĸ": 7522,
      "ĠÑĢÐ¾Ð±Ð¾ÑĩÐ¾Ð¼Ñĥ": 7523,
      "Studieren": 7524,
      "ĠÐ´ÑĥÐ¼Ð°ÑĶ": 7525,
      "ĠÐ´ÑĥÐ¼ÐºÐ¸": 7526,
      "ĠÐ´ÑĥÐ¼Ð°ÑĶÑĪ": 7527,
      "ĠÐ²ÐµÑĩÐµ": 7528,
      "Einkaufen": 7529,
      "Einige": 7530,
      "EinfÃ¼hrung": 7531,
      "brachte": 7532,
      "glaube": 7533,
      "glÃ¼cklich": 7534,
      "xtra": 7535,
      "Ġgenug": 7536,
      "Ġgenommen": 7537,
      "Ġ...):": 7538,
      "ĠÐĲÐ²ÑģÑĤÑĢÑĸ": 7539,
      "ÑıÐ³Ð½ÑĥÑĤÐ¸": 7540,
      "ĠÐ¿Ð¾ÐºÐ°Ð·": 7541,
      "ĠÐ·Ð½Ð¾Ð²Ñĥ": 7542,
      "ĠÐ·Ð²ÑĥÑĩÐ°ÑĤÐ¸": 7543,
      "Ġsofern": 7544,
      "Ġgeschossen": 7545,
      "Ġgeschnitten": 7546,
      "ĠÐ¿ÑĢÐ¾Ð²ÐµÐ»Ð°": 7547,
      "ĠKontakt": 7548,
      "ĠMitarbeiter": 7549,
      "ĠfÃ¼hlen": 7550,
      "Ġfolgende": 7551,
      "Ġfolgendem": 7552,
      "ĠÐ¼ÑĸÑģÑĤÑĸ": 7553,
      "ĠÐ¼ÑĸÑģÑĤÑĥ": 7554,
      "ĠÐ¼ÑĸÑģÑĤÑıÑĤÑĮ": 7555,
      "ĠSchwimmbad": 7556,
      "ĠSchulzeit": 7557,
      "ĠÑĸÐ½ÑĪÐ°": 7558,
      "ĠÑĸÐ½ÑĪÐ¸Ð¼": 7559,
      "ĠÑĸÐ½ÑĪÐ¾Ð¼Ð¾Ð²Ð½Ð¸Ñħ": 7560,
      "Ġkonzentr": 7561,
      "ĠGeschichten": 7562,
      "ĠGeschirr": 7563,
      "ĠÐ³Ð¾Ð´Ð¸Ð½Ð¸": 7564,
      "ĠÐ³Ð¾Ð´Ð¸Ð½Ð°": 7565,
      "ĠÐ³Ð¾Ð´Ð¸Ð½Ð°Ð¼Ð¸": 7566,
      "ĠÐ³Ð¾ÑĤÑĥÐ²Ð°ÑĤÐ¸": 7567,
      "ĠÐ³Ð¾ÑĤÐµÐ»ÑĮ": 7568,
      "ĠÐ³Ð¾ÑĤÐµÐ»Ñĸ": 7569,
      "Ġbeschreiben": 7570,
      "ĠÐ¿Ð¾Ð´Ð¾ÑĢÐ¾Ð¶ÑĥÐ²Ð°ÑĤÐ¸": 7571,
      "ĠwÃ¼rdest": 7572,
      "mÃ¤ÃŁig": 7573,
      "Ġ....................................................................................": 7574,
      "ferd": 7575,
      "obachten": 7576,
      "prÃ¤sentieren": 7577,
      "wohin": 7578,
      "ĠQu": 7579,
      "Ġfesten": 7580,
      "Ġempfehlen": 7581,
      "Ð¸Ð»Ð°ÑĤÐ¸": 7582,
      "Ð¸Ð´ÐµÐ½ÑĨÑĸÑı": 7583,
      "ÐµÐ½Ð´ÑĥÐ²Ð°ÑĤÐ¸": 7584,
      "Ð¼ÑĸÑħÐ°ÑĤÐ¸ÑģÑı": 7585,
      "ÑĩÐ½Ð¾ÑĹ": 7586,
      "ĠÐ·Ð´Ð¾ÑĢÐ¾Ð²": 7587,
      "ĠÐ·Ð´Ð¾Ð±ÑĥÐ²Ð°ÑĤÐ¸": 7588,
      "ĠÐ·Ð±ÑĸÑĢ": 7589,
      "gesprochen": 7590,
      "ĠÑģÐ²ÑĸÑĤÑĥ": 7591,
      "ĠÑģÐ²ÑĸÑĤÐ¾Ð²Ð°": 7592,
      "arktis": 7593,
      "ĠKarriere": 7594,
      "ĠFÃ¤llen": 7595,
      "ĠÐ¾ÑĩÐ¸Ñī": 7596,
      "ĠÐ¾ÑĩÐµÐ²Ð¸Ð´Ð½Ð¾": 7597,
      "ĠÐ¿Ð¾ÑģÐ°Ð´Ð°": 7598,
      "ĠÐ¿Ð¾ÑģÐ¼ÑĸÑħÐ°ÑĤÐ¸ÑģÑı": 7599,
      "ĠÐ¿Ð¾ÑĹÐ´Ðµ": 7600,
      "ĠÐ¿Ð¾ÑĹÑħÐ°Ð²": 7601,
      "ĠÐ±Ð°Ð½Ðº": 7602,
      "Ġfindet": 7603,
      "ĠÑĸÐ½ÑĤÐµÑĢÐ½ÐµÑĤÑĸ": 7604,
      "Ġverlassen": 7605,
      "ĠLebensmittel": 7606,
      "brauchsfÃ¤": 7607,
      "Ġbeginnen": 7608,
      "ultat": 7609,
      "ĠÑĢÐ¾Ð·Ð¿Ð¾ÑĢ": 7610,
      "Ġanderer": 7611,
      "ĠÐ¿ÑĢÐ¾Ð¿Ð¾Ð·Ð¸ÑĨÑĸÑİ": 7612,
      "072": 7613,
      "367": 7614,
      "501": 7615,
      "Begegnungen": 7616,
      "ablauf": 7617,
      "ablesen": 7618,
      "ablehnen": 7619,
      "Ġindirekter": 7620,
      "Ð½Ð¾Ð¼Ð°Ð½ÑĸÑĤÐ½Ð¸Ð¹": 7621,
      "ÑıÐ·ÐºÐ¾Ð²Ð¾": 7622,
      "rett": 7623,
      "Ð°Ð»Ð¸ÑģÑı": 7624,
      "stÃ¼rzt": 7625,
      "ĠÐ¿Ð¾Ð¼ÑĢÑĸÑıÑĤÐ¸": 7626,
      "ĠÐ¿Ð¾Ð¿ÑĥÐ»ÑıÑĢÐ½Ð¸Ð¹": 7627,
      "ĠÐ´ÑĸÑĶÑĤÐ°": 7628,
      "ĠÐ´Ð¾Ð´Ð°ÑĤÐºÐ¾Ð²Ñĸ": 7629,
      "ĠÐ½Ð¾Ð²Ð¸Ñħ": 7630,
      "ĠÐ½Ð¾Ð²Ð¸Ð¼Ð¸": 7631,
      "ĠÑģÐ¼Ð°ÑĩÐ½Ð¸Ð¹": 7632,
      "ĠÑģÐ¼Ð°ÑĩÐ½Ð¾": 7633,
      "ĠAufklÃ¤r": 7634,
      "ĠBlumen": 7635,
      "ĠÑģÑĤÑĢÐ°Ð²Ð°": 7636,
      "ĠHerr": 7637,
      "ĠHerren": 7638,
      "setzte": 7639,
      "ĠÐ¾Ð²Ð¾ÑĩÑĸÐ²": 7640,
      "Ð¾Ð»Ð¸Ð½ÑģÑĮÐºÐ¸Ð¹": 7641,
      "ĠÐ·Ð°ÑħÐ¸Ñī": 7642,
      "Ġaufgestanden": 7643,
      "ĠÐ½Ð°ÑĢÐ¾Ð´Ð½Ð°": 7644,
      "ĠÐ½Ð°ÑĪÐ¾Ð³Ð¾": 7645,
      "ĠÐ½Ð°ÑĪÐ¸Ð¼Ð¸": 7646,
      "ĠSubjekts": 7647,
      "Ġtrennbar": 7648,
      "ĠÑģÐ¿ÑĸÐ²Ð°ÑİÑĤÑĮ": 7649,
      "ĠÐ²Ð¸Ð¿Ð°Ð´ÐºÐ¾Ð²Ð¾": 7650,
      "junktionen": 7651,
      "Ð²Ð°Ð¶Ð°ÑİÑĩÐ¸": 7652,
      "ĠOrdnen": 7653,
      "handelte": 7654,
      "ĠÐºÐ°ÑĦÐµ": 7655,
      "steigern": 7656,
      "ĠWohnungstÃ¼r": 7657,
      "373": 7658,
      "4060": 7659,
      "Sudan": 7660,
      "ionen": 7661,
      "sonst": 7662,
      "treten": 7663,
      "waii": 7664,
      "wakei": 7665,
      "ÐŁÐķ": 7666,
      "ÐŁÐ°ÑģÐ¸Ðº": 7667,
      "ĠÃ¼bern": 7668,
      "ĠÃ¼brig": 7669,
      "ĠÐĩÐ¹": 7670,
      "ĠÐĵÑĢÐ¾ÑĪ": 7671,
      "ÑĢÐ¾Ð²Ð°Ð¼Ð¸": 7672,
      "ÑĢÐ¾Ð·ÑĥÐ¼": 7673,
      "ÑĢÐ¾Ð·Ð²Ð°Ð¶Ð°ÑĤÐ¸ÑģÑı": 7674,
      "ÑĥÐ»ÑĮÑĤÐ°ÑĤ": 7675,
      "ĠÐ¿ÑĢÐµÐ·ÐµÐ½ÑĤ": 7676,
      "aschinen": 7677,
      "ĠÑģÐ¼ÑĸÑĤÑĤÑı": 7678,
      "Ġgefunden": 7679,
      "Ġgefroren": 7680,
      "ĠAktivsatzes": 7681,
      "ĠÐ·Ð°Ð³Ð°Ð´": 7682,
      "ĠÐ·Ð°Ð³Ð¾Ð»Ð¾Ð²": 7683,
      "ĠHaben": 7684,
      "ĠHawaii": 7685,
      "ĠÐºÐ»Ð°Ð²": 7686,
      "ĠÐºÐ°Ð²Ð¸": 7687,
      "ĠÐ·Ð°Ð¼Ð¾Ð²Ð¸ÑĤÐ¸": 7688,
      "ĠGemÃ¤lde": 7689,
      "Ð±ÑĥÐ»Ñı": 7690,
      "Ð±ÑĥÑĤÐ¸": 7691,
      "begriffen": 7692,
      "istenz": 7693,
      "ĠWunder": 7694,
      "ĠLiebes": 7695,
      "ĠÑĢÐ¾ÐºÑĥ": 7696,
      "ĠOper": 7697,
      "ĠOpern": 7698,
      "ĠOpfer": 7699,
      "ĠÑħÐ¾ÑĤÑĸÐ»Ð¸": 7700,
      "ĠÐ²Ð¸Ð±ÑĸÑĢ": 7701,
      "ĠÐ²Ð¸Ð±ÑĢÐ°ÑĤÐ¸": 7702,
      "ĠÐ¿ÑĢÐ¾ÑĦÐµÑģ": 7703,
      "ĠabgestÃ¼rzt": 7704,
      "langsam": 7705,
      "ĠÐ¾ÑģÐ¾Ð±Ð¸ÑģÑĤ": 7706,
      "ĠFlughafen": 7707,
      "ĠÐ¾Ð´ÑıÐ³Ð°ÑĤÐ¸ÑģÑı": 7708,
      "ografisch": 7709,
      "ografieren": 7710,
      "ĠÑĢÑĸÐ·Ð½Ñĸ": 7711,
      "ĠÑĢÑĸÐ·Ð½Ð¾Ð¼Ð°Ð½ÑĸÑĤÐ½Ð¸Ð¹": 7712,
      "ĠÐ·Ð°ÑĢÐ¿Ð»Ð°ÑĤÐ¸": 7713,
      "Fachzeitschrift": 7714,
      "____": 7715,
      "dirigent": 7716,
      "icky": 7717,
      "mmung": 7718,
      "sant": 7719,
      "trennbare": 7720,
      "ÐĿÑĸÐ¼Ðµ": 7721,
      "Ġ=>": 7722,
      "ÑĩÑĩÐ¸Ð½Ð¾Ñİ": 7723,
      "ĠÐ¿Ð¾Ð±Ð»Ð¸Ð·": 7724,
      "ĠÐ¿Ð¾Ð±Ð°ÑĩÐ¸ÑĤÐ¸": 7725,
      "ĠÐ¿Ð¸ÑģÐ°ÑĤÐ¸": 7726,
      "ĠÐ·Ð³ÑĸÐ´Ð½Ð¾": 7727,
      "ĠÐ·ÑĢÐ¾Ð±Ð¸ÑĤÐ¸": 7728,
      "ĠÐ½Ð°Ð¿Ð°Ð´": 7729,
      "ĠÑģÐ¾ÑĨÑĸ": 7730,
      "ĠÐ²ÑĩÐ¾ÑĢÐ°": 7731,
      "ĠÐ²ÑĩÐ¸ÑĤÐµÐ»ÑĮ": 7732,
      "ĠÐ²Ð¿ÑĸÐ·Ð½Ð°": 7733,
      "ĠÐ²Ð·ÑĥÑĤÑĤÑı": 7734,
      "ĠÐ²ÑĸÐºÐ½Ð¾": 7735,
      "ĠÐ²ÑĸÐºÐ½Ð¾Ð¼": 7736,
      "ĠÐ²Ð°Ð¶Ð»Ð¸Ð²Ñĸ": 7737,
      "Ġweggenommen": 7738,
      "ĠÐ½ÐµÐ²Ð´Ð°ÑĩÐ°": 7739,
      "ĠÐ½ÐµÐ²ÐµÐ»Ð¸Ðº": 7740,
      "schneiden": 7741,
      "ÑĨÑĸÐ¹Ð½Ð°": 7742,
      "ĠHilfe": 7743,
      "ĠKannst": 7744,
      "ĠÐ¾ÑĦÑĸÑĨÑĸ": 7745,
      "ĠGegenwart": 7746,
      "ĠMonat": 7747,
      "ĠMonats": 7748,
      "ĠMÃ¤rchen": 7749,
      "ĠTaste": 7750,
      "ĠTeilzeit": 7751,
      "ĠPfeil": 7752,
      "ĠPolitik": 7753,
      "ĠArbeitsverhÃ¤ltnis": 7754,
      "Ġinteressieren": 7755,
      "Ġinteressiert": 7756,
      "Ġinteressant": 7757,
      "beginnt": 7758,
      "ĠÑģÐ¿ÑĸÐ»ÐºÐ°": 7759,
      "ĠÑģÐ¿Ð¾ÑĢÑĤÑĥ": 7760,
      "ĠÑģÐ¿Ð¾ÑĢÑĤÐ·Ð°Ð»": 7761,
      "Ġferngesehen": 7762,
      "Ð¿ÐµÑĢÑĤ": 7763,
      "ĠÐ´ÑĢÑĥÐ·ÑĸÐ²": 7764,
      "ĠPartnerschaft": 7765,
      "itzenklasse": 7766,
      "Ġherr": 7767,
      "Ġheraus": 7768,
      "ĠÐ³Ð¾ÑĢÐ´Ð¸ÑĤÐ¸ÑģÑı": 7769,
      "ĠÐ±ÐµÐ·Ð¿ÐµÐºÐ°": 7770,
      "Ã¶ffnen": 7771,
      "ĠVerwand": 7772,
      "ĠÐ»ÐµÐºÑģÐ¸ÑĩÐ½Ð¸Ð¹": 7773,
      "ĠÐ»Ð¾ÑĤÐµÑĢÐµÑĹ": 7774,
      "ĠÑħÐ²Ð¾ÑĢÐ¸Ð¹": 7775,
      "ĠÑħÐ²Ð¾ÑĢÐ¾Ð±Ð¸": 7776,
      "ĠÐ´ÑĥÐ¼Ð°ÑİÑĤÑĮ": 7777,
      "ĠÐµÐºÑģÐ¿ÐµÑĢÑĤ": 7778,
      "ĠÐµÐºÐ¾Ð½Ð¾Ð¼ÑĸÐºÐ°": 7779,
      "ĠÐºÐ¾Ð»ÐµÐ³Ð¸": 7780,
      "Ġbestimmt": 7781,
      "Ġbestimmten": 7782,
      "ĠĠĠĠĠĠĠĠĠĠĠĠĠĠĠĠĠĠĠĠĠĠĠĠĠĠĠĠĠĠĠĠ": 7783,
      "ĠÑģÐ»ÑĥÐ¶Ð±": 7784,
      "Ġbereits": 7785,
      "Deutschland": 7786,
      "MenÃ¼": 7787,
      "ahara": 7788,
      "lÃ¶sen": 7789,
      "lÃ¶tzlich": 7790,
      "pass": 7791,
      "passieren": 7792,
      "qualitÃ¤t": 7793,
      "sucht": 7794,
      "vereinbaren": 7795,
      "weren": 7796,
      "wÃ¤hlen": 7797,
      "weglassen": 7798,
      "Ð¢Ð¾Ð±Ñĸ": 7799,
      "Ð¢Ð°Ð±Ð»Ð¸": 7800,
      "Ð£ÐĶÐļ": 7801,
      "ÐłÐķ": 7802,
      "Ġeigenen": 7803,
      "Ġeigenes": 7804,
      "ĠÐłÐµÐºÐ¾Ð¼": 7805,
      "ĠÐ¿ÐµÑĢÐµÐ½Ð¾ÑģÐ¸ÑĤÐ¸": 7806,
      "ĠÐ¿Ð¾Ð»ÑĸÑĤÐ¸Ðº": 7807,
      "ĠInsekten": 7808,
      "ĠÐ´Ð²ÑĸÑĩÑĸ": 7809,
      "ĠÐ´Ð¾ÐºÑĥÐ¼ÐµÐ½ÑĤ": 7810,
      "aschengeld": 7811,
      "ĠÐ¼Ð¾ÑĹÐ¹": 7812,
      "ĠÐ¼ÑĥÑģÐ¸ÑĪ": 7813,
      "ĠÐ·Ð¼ÑĸÑı": 7814,
      "ĠÐ·Ð¼ÐµÐ½ÑĪ": 7815,
      "ĠÐ·Ð½Ð¸Ð¶ÐºÐ¸": 7816,
      "ĠÐ·ÑĥÑģÑĤÑĢÑĸÑĩÑĸ": 7817,
      "ĠÐ·ÑĥÑģÑĤÑĢÑĸÑĩÐ°ÑĶÐ¼Ð¾": 7818,
      "ĠÐ²Ð¼ÑĸÑİ": 7819,
      "ĠÐ²Ð°ÑĢÑĤÐ¾": 7820,
      "ĠDemo": 7821,
      "Ġsolltet": 7822,
      "ĠÐ½ÐµÐ¿Ð¾ÑĢÑĥÑĪ": 7823,
      "ĠÐ½ÐµÐ·Ð²Ð°Ð¶Ð°ÑİÑĩÐ¸": 7824,
      "Ð¼ÐµÑĢÐ·Ð°ÑĤÐ¸": 7825,
      "Ġbadet": 7826,
      "Ġbackt": 7827,
      "ĠSonne": 7828,
      "ĠÑĥÑģÐ¿ÑĸÑĪ": 7829,
      "ĠÑĥÑģÐ¿ÑĸÑħ": 7830,
      "ĠÐ¿ÑĢÐ¸Ð½Ð¾ÑģÐ¸ÑĤÐ¸": 7831,
      "ĠÑĩÐ¸ÑĤÐ°ÑĤÐ¸": 7832,
      "ĠÑĩÐ¸ÑģÑĤÐ¸ÑĤÐ¸": 7833,
      "ĠÑĩÐ¸ÑģÑĤÐ¸Ð¹": 7834,
      "ĠKranken": 7835,
      "ĠKrankheit": 7836,
      "ĠKopfhÃ¶rer": 7837,
      "ĠFranzÃ¶s": 7838,
      "ĠFormen": 7839,
      "setzung": 7840,
      "ĠÐºÑĢÐ°ÑīÐµ": 7841,
      "ĠÐºÑĢÐ°Ð´ÑĸÐ¶": 7842,
      "ĠGastfreund": 7843,
      "ĠTraum": 7844,
      "ĠTraumpartner": 7845,
      "ĠTouristen": 7846,
      "ĠerhÃ¶ht": 7847,
      "bewusstsein": 7848,
      "Ġteilnehmen": 7849,
      "ĠÐ¼ÑĸÑģÑĤÐ¸ÑĤÐ¸ÑģÑı": 7850,
      "itteln": 7851,
      "Ġausgegeben": 7852,
      "ĠausgedrÃ¼ckt": 7853,
      "sprang": 7854,
      "ĠVollzeit": 7855,
      "ĠVollverb": 7856,
      "ĠRespekt": 7857,
      "ĠResultat": 7858,
      "raktik": 7859,
      "ĠElbe": 7860,
      "ĠÑĢÐ¸Ð½ÐºÑĥ": 7861,
      "ĠÐ°Ð²ÑĤÐ¾Ð±ÑĥÑģ": 7862,
      "ĠÐ¿ÐµÑĢÐµÐ¼Ð¾Ð¶": 7863,
      "ĠÐ¿ÐµÑĢÐµÐ²ÑĸÑĢÑıÑĤÐ¸": 7864,
      "ĠÐ¿ÐµÑĢÐµÐ²ÑĸÑĢÐ¸Ð»Ð¸": 7865,
      "hinterlassen": 7866,
      "Ġstudieren": 7867,
      "Ġstudiert": 7868,
      "ĠÐ²ÐµÐ»Ð¸ÐºÐ¸Ð¹": 7869,
      "ĠÐºÐ¾Ð¼Ð°ÑħÐ¸": 7870,
      "Ġpassende": 7871,
      "ĠÑģÐ²Ð¾ÑĹÐ¼Ð¸": 7872,
      "freundlich": 7873,
      "ĠUnterrichtsst": 7874,
      "ĠÐŀÐ±Ð³Ð¾Ð²Ð¾ÑĢÐµÐ½Ð½Ñı": 7875,
      "ĠÑģÐµÑĢÐ²ÑĸÑģ": 7876,
      "ĠÐ¿ÑĢÐ¾Ð´ÑĥÐºÑĤ": 7877,
      "ĠÐ¿ÑĢÐ¾Ð´ÑĥÐºÑĤÐ¸": 7878,
      "ĠÐ¿ÑĢÐµÐ´ÑģÑĤÐ°Ð²Ð»ÑıÑĤÐ¸": 7879,
      "ĠÐ»ÑİÐ´ÐµÐ¹": 7880,
      "ÑĢÐ¾Ð±ÑĸÑĤÐ½Ð¸ÐºÐ¸": 7881,
      "ĠÐ´ÐµÑĤÐµÐºÑĤÐ¸Ð²": 7882,
      "ĠÐ´Ð¸ÑĢÐ¸Ð³ÑĥÐ²Ð°ÑĤÐ¸": 7883,
      "aputt": 7884,
      "aktfreudig": 7885,
      "fuer": 7886,
      "fuhr": 7887,
      "fernsehen": 7888,
      "gruppe": 7889,
      "kÃ¤mpfen": 7890,
      "mÃ¶bel": 7891,
      "mÃ¶chten": 7892,
      "prÃ¼fen": 7893,
      "plant": 7894,
      "sslich": 7895,
      "wissenschaft": 7896,
      "ÐŀÐĴÐĲ": 7897,
      "Ġ...:": 7898,
      "ÑıÐ½ÑģÑĮÐºÐ¸Ð¹": 7899,
      "ÑģÐµÑĢÐ´ÐµÑĩÐ½Ð¾": 7900,
      "regierung": 7901,
      "rechner": 7902,
      "ÑĢÐ°Ð½ÑĨÑĸ": 7903,
      "ĠÐ¿Ð¾Ð¶ÐµÑĢÑĤÐ²": 7904,
      "ĠÐ¿ÐµÑĢÑĪÐ¾Ð¼Ñĥ": 7905,
      "ĠÐ¿ÐµÑĢÑĪÐ¸Ð¹": 7906,
      "ĠÐ´Ð¾Ð²Ð³": 7907,
      "ĠÐ·ÐµÐ¼Ð»Ðµ": 7908,
      "gestaltung": 7909,
      "ĠÐ½Ð°Ð³ÑĢÑĸÐ²": 7910,
      "ĠÐ½Ð°Ð·Ð²Ð°": 7911,
      "ĠÐ½Ð°Ð·Ð°Ð´": 7912,
      "ĠÑģÐ¾Ð½ÑĨÐµ": 7913,
      "ĠÐ²Ð¸ÑģÑĤÐ°Ð²ÐºÐ¸": 7914,
      "ĠÐ²ÑĸÑĤÐ°ÑĤÐ¸": 7915,
      "ĠÐ²ÑĸÑĤÐ°Ð¼ÑĸÐ½": 7916,
      "ĠÐ²Ð²Ð°Ð¶Ð°ÑĤÐ¸ÑģÑı": 7917,
      "ĠÐ²Ð²Ð°Ð¶Ð°ÑİÑĤÑĮÑģÑı": 7918,
      "ĠÐ½ÐµÐ´Ð¾Ð»ÑĸÐº": 7919,
      "Ġmelden": 7920,
      "Ġmeldet": 7921,
      "ĠÐĶÐ¾ÑģÑĤÐ°Ð²ÐºÑĥ": 7922,
      "Ð¼ÐµÑĤÐ¾Ð´Ð¸ÑĩÐ½Ð¸Ñħ": 7923,
      "ĠBrutto": 7924,
      "ĠBrille": 7925,
      "ĠStimmung": 7926,
      "ĠÑģÑĤÐ¾Ð»Ð¾Ð²Ð°": 7927,
      "ĠÑĥÑģÑĸÑħ": 7928,
      "ĠÑĥÐ²Ð°Ð³Ñĥ": 7929,
      "scheinlich": 7930,
      "Ã¤cheln": 7931,
      "ĠÑĩÐ°Ð¹Ð½Ð¸Ðº": 7932,
      "ĠÑĤÐ°Ð½ÑĨ": 7933,
      "ĠÑĤÐ²Ð°ÑĢÐ¸Ð½Ð¸": 7934,
      "ĠÑĤÐ²Ð°ÑĢÐ¸Ð½Ð°": 7935,
      "Ġeingesetzt": 7936,
      "Ġeinmaligen": 7937,
      "ĠÐºÐ¾Ð¼ÑĥÐ½ÑĸÐº": 7938,
      "ĠÐºÐ»Ð°ÑģÑĤÐ¸": 7939,
      "ĠÐºÐ°Ð¿ÑĥÑģÑĤÐ°": 7940,
      "ĠÐºÑĢÐ°ÑĹÐ½Ð°": 7941,
      "ĠÐºÑĢÐ°ÑĹÐ½Ð¸": 7942,
      "ĠÐºÐ²Ð°ÑĢÑĤÐ¸ÑĢÐ°": 7943,
      "ĠÐºÐ½Ð¸Ð¶ÐºÐ¾Ð²Ð¸Ð¹": 7944,
      "Ġleicht": 7945,
      "ĠÐ·Ð°Ð´Ð¾Ð²Ð¾Ð»": 7946,
      "ĠMinuten": 7947,
      "ĠÐ¿Ð¾ÑĪÑĥÐº": 7948,
      "ĠÐ·Ð°ÐºÐ¾ÑħÐ°ÑĤÐ¸ÑģÑı": 7949,
      "ĠÐ·Ð°ÐºÐ¾ÑħÐ°Ð²ÑģÑı": 7950,
      "ĠZusammenleben": 7951,
      "ĠZusammenhang": 7952,
      "ĠÐ±ÑİÑĢÐ¾": 7953,
      "ĠÐ±ÑİÐ´Ð¶ÐµÑĤ": 7954,
      "ĠÐ±Ð¾Ð»Ñı": 7955,
      "ĠÐ±ÐµÑĢÑĥÑĤÑĮ": 7956,
      "bedingt": 7957,
      "ĠfrÃ¼h": 7958,
      "ĠfrÃ¼her": 7959,
      "ÑħÐ°ÑĥÑģ": 7960,
      "Ð·Ð°Ð±Ð¾ÑĢÐ¾Ð½": 7961,
      "ĠÑĸÐ½ÑģÑĤÑĢÑĥÐºÑĨÑĸÑı": 7962,
      "ĠÑĸÐ½ÑģÑĤÑĢÑĥÐ¼ÐµÐ½ÑĤ": 7963,
      "rÃ¤uber": 7964,
      "ĠÑĨÐ¸Ð±ÑĥÐ»Ñı": 7965,
      "ĠÑĨÑĸÐ½Ð°": 7966,
      "ĠÐ²ÑĸÐ´ÐºÑĢÐ¸ÑĤÐ¸": 7967,
      "ĠWissenschaft": 7968,
      "ĠLiteratur": 7969,
      "amilie": 7970,
      "ĠStaub": 7971,
      "ĠEntfÃ¼hrung": 7972,
      "ĠÐ»ÐµÐ³ÐºÐ¾": 7973,
      "Ġverschiedene": 7974,
      "ĠÐ²Ð¸ÑĢÑĸÑĪÑĥÐ²Ð°ÑĤÐ¸": 7975,
      "otterie": 7976,
      "Ð°Ð¹ÐºÑĢÐ°Ñī": 7977,
      "ĠÑĪÑĥÐºÐ°ÑĤÐ¸": 7978,
      "ĠÐ¿ÐµÑĢÐµÐºÐ»Ð°Ð´Ñĥ": 7979,
      "ĠBezugswort": 7980,
      "ĠÐ¿ÑĢÐ¸Ð±ÑĥÐ´Ðµ": 7981,
      "ĠÐ¿ÑĢÐ¸Ð±ÑĥÐ´ÑĥÑĤÑĮ": 7982,
      "ĠÐ¡ÐºÐ°Ð¶": 7983,
      "ĠÐ¡ÐºÑĸÐ»ÑĮÐºÐ¸": 7984,
      "ĠÐ²ÑĸÐ´Ð¿Ð¾ÑĩÐ¸Ð²Ð°ÑĶ": 7985,
      "ĠÐ¿ÑĢÐ°ÑĨÐµÐ²Ð»Ð°ÑĪÑĤÑĥÐ²Ð°Ð½Ð½Ñı": 7986,
      "unterstreichen": 7987,
      "Ġreparieren": 7988,
      "ĠÑĤÑĢÐ°Ð¿Ð¸Ð»": 7989,
      "ĠÑĤÑĢÐ°Ð¿Ð»ÑıÑĤÐ¸ÑģÑı": 7990,
      "ĠÑĤÑĢÐ°Ð½ÑģÐ¿Ð¾ÑĢÑĤÐ½Ð¸Ð¹": 7991,
      "ĠÑīÐ°ÑģÐ»Ð¸Ð²": 7992,
      "ĠÑīÐ°ÑģÑĤÑı": 7993,
      "Ã¼bernehmen": 7994,
      "ĠEuropÃ¤ischen": 7995,
      "ĠÐ²Ð¸Ð³Ð»ÑıÐ´Ð°ÑĶ": 7996,
      "Ġentweder": 7997,
      "Unterricht": 7998,
      "ĠÐ·Ð½Ð°Ð¹Ð¾Ð¼Ð¸Ð¹": 7999
    },
    "merges": [
      [
        "Ġ",
        "Ð"
      ],
      [
        "Ð",
        "½"
      ],
      [
        "Ð",
        "¾"
      ],
      [
        "Ð",
        "µ"
      ],
      [
        "Ñ",
        "ı"
      ],
      [
        "Ñ",
        "ĸ"
      ],
      [
        "Ñ",
        "ģ"
      ],
      [
        "Ð¾",
        "Ð"
      ],
      [
        "r",
        "e"
      ],
      [
        "Ð",
        "°"
      ],
      [
        "o",
        "r"
      ],
      [
        "re",
        "c"
      ],
      [
        "or",
        "rec"
      ],
      [
        "orrec",
        "t"
      ],
      [
        "Ð",
        "¸"
      ],
      [
        "c",
        "h"
      ],
      [
        "Ġ",
        "'"
      ],
      [
        "e",
        "n"
      ],
      [
        "Ñ",
        "Ĥ"
      ],
      [
        "Ñ",
        "Ģ"
      ],
      [
        "Ðµ",
        "Ð½"
      ],
      [
        "Ð",
        "»"
      ],
      [
        "Ñ",
        "ĥ"
      ],
      [
        "Ġ",
        "C"
      ],
      [
        "â",
        "ľ"
      ],
      [
        "ĠC",
        "orrect"
      ],
      [
        "âľ",
        "ħ"
      ],
      [
        "ÐµÐ½",
        "Ð½"
      ],
      [
        "Ñ",
        "Ķ"
      ],
      [
        "e",
        "r"
      ],
      [
        "Ð",
        "¼"
      ],
      [
        "i",
        "n"
      ],
      [
        "ÐµÐ½Ð½",
        "Ñı"
      ],
      [
        "s",
        "t"
      ],
      [
        "Ġ",
        "I"
      ],
      [
        "Ð",
        "º"
      ],
      [
        "Ð¾",
        "Ñı"
      ],
      [
        "Ñ",
        "ĩ"
      ],
      [
        "Ġ",
        "d"
      ],
      [
        "i",
        "e"
      ],
      [
        "ĠÐ",
        "Ł"
      ],
      [
        "Ð¾Ð",
        "²"
      ],
      [
        "Ñģ",
        "Ð½"
      ],
      [
        "ĠÐ",
        "¿"
      ],
      [
        "Ð¾Ð",
        "¼"
      ],
      [
        "ĠI",
        "n"
      ],
      [
        "Ð¾Ñı",
        "ÑģÐ½"
      ],
      [
        "Ð¾ÑıÑģÐ½",
        "ÐµÐ½Ð½Ñı"
      ],
      [
        "c",
        "orrect"
      ],
      [
        "â",
        "Ŀ"
      ],
      [
        "ð",
        "Ł"
      ],
      [
        "ĵ",
        "Ŀ"
      ],
      [
        "ĠÐŁ",
        "Ð¾ÑıÑģÐ½ÐµÐ½Ð½Ñı"
      ],
      [
        "ĠIn",
        "correct"
      ],
      [
        "âĿ",
        "Į"
      ],
      [
        "ðŁ",
        "ĵĿ"
      ],
      [
        "ĠÐ",
        "´"
      ],
      [
        "Ð¸",
        "Ðº"
      ],
      [
        "a",
        "s"
      ],
      [
        "Ð",
        "´"
      ],
      [
        "a",
        "u"
      ],
      [
        "Ñģ",
        "Ð»"
      ],
      [
        "ĠÐ",
        "¼"
      ],
      [
        "Ð°",
        "ÑĶ"
      ],
      [
        "Ñ",
        "Į"
      ],
      [
        "h",
        "a"
      ],
      [
        "ĠÐ",
        "°"
      ],
      [
        "ĠÐ",
        "·"
      ],
      [
        "Ġ",
        "i"
      ],
      [
        "ÑģÐ»",
        "Ð¾Ð²"
      ],
      [
        "g",
        "e"
      ],
      [
        "Ð°",
        "Ð"
      ],
      [
        "ĠÐ",
        "½"
      ],
      [
        "'",
        "."
      ],
      [
        "Ġ",
        "Ñģ"
      ],
      [
        "Ñĸ",
        "ÑĶ"
      ],
      [
        "Ð¾Ð¼",
        "Ñĥ"
      ],
      [
        "ÑĸÑĶ",
        "ÑģÐ»Ð¾Ð²"
      ],
      [
        "ĠÐ",
        "²"
      ],
      [
        "ÑĸÑĶÑģÐ»Ð¾Ð²",
        "Ð¾"
      ],
      [
        "Ñĸ",
        "Ð½"
      ],
      [
        "e",
        "in"
      ],
      [
        "a",
        "n"
      ],
      [
        "ÑĢ",
        "Ðµ"
      ],
      [
        "Ð»",
        "Ñı"
      ],
      [
        "Ġ",
        "w"
      ],
      [
        "Ġ",
        "D"
      ],
      [
        "Ġ",
        "ha"
      ],
      [
        "Ġ",
        "s"
      ],
      [
        "e",
        "i"
      ],
      [
        "Ġ",
        "("
      ],
      [
        "h",
        "r"
      ],
      [
        "ÑĤ",
        "Ð¸"
      ],
      [
        "I",
        "ch"
      ],
      [
        "Ġ",
        "ge"
      ],
      [
        "Ġi",
        "st"
      ],
      [
        "t",
        "i"
      ],
      [
        "Ġ",
        "k"
      ],
      [
        "ĠÐ½",
        "Ðµ"
      ],
      [
        "S",
        "ie"
      ],
      [
        "ĠÐ¼",
        "Ð°ÑĶ"
      ],
      [
        "u",
        "t"
      ],
      [
        "ĠÐ",
        "£"
      ],
      [
        "'",
        ","
      ],
      [
        "Ġ",
        "m"
      ],
      [
        "au",
        "f"
      ],
      [
        "Ñĸ",
        "Ð´"
      ],
      [
        "Ð",
        "²"
      ],
      [
        "ĠÐ",
        "Ķ"
      ],
      [
        "ti",
        "v"
      ],
      [
        "Ġ",
        "A"
      ],
      [
        "Ð¾",
        "ÑĢ"
      ],
      [
        "Ñĩ",
        "ÐµÐ½Ð½Ñı"
      ],
      [
        "Ð¾Ð",
        "³"
      ],
      [
        "Ð¾Ð³",
        "Ð¾"
      ],
      [
        "Ð¼",
        "Ðµ"
      ],
      [
        "Ñ",
        "Ĩ"
      ],
      [
        "ĠÐ´",
        "ÑĸÑĶÑģÐ»Ð¾Ð²Ð¾"
      ],
      [
        "Ð»",
        "ÑĮ"
      ],
      [
        "Ġ",
        "b"
      ],
      [
        "i",
        "r"
      ],
      [
        "Ð¼Ðµ",
        "ÑĤ"
      ],
      [
        "a",
        "tiv"
      ],
      [
        "Ġha",
        "b"
      ],
      [
        "Ã",
        "¼"
      ],
      [
        "ĠÐ´",
        "Ð»Ñı"
      ],
      [
        "ĠÐ¿",
        "ÑĸÐ´"
      ],
      [
        "Ð¸",
        "Ð¼"
      ],
      [
        "Ð",
        "¹"
      ],
      [
        "Ġ",
        "B"
      ],
      [
        "e",
        "s"
      ],
      [
        "Ñ",
        "Ħ"
      ],
      [
        "ÐµÐ½Ð½",
        "Ð¸Ðº"
      ],
      [
        "Ð¼",
        "ÐµÐ½Ð½Ð¸Ðº"
      ],
      [
        "Ð",
        "¿"
      ],
      [
        "Ġ",
        "ÑĢÐµ"
      ],
      [
        "Ġ",
        "S"
      ],
      [
        "i",
        "ch"
      ],
      [
        "Ð¾Ð",
        "´"
      ],
      [
        "ĠÑģ",
        "ÑĤ"
      ],
      [
        "o",
        "m"
      ],
      [
        "a",
        "ch"
      ],
      [
        "â",
        "Ģ"
      ],
      [
        "Ġ",
        "Ñĥ"
      ],
      [
        "Ġ",
        "n"
      ],
      [
        "h",
        "en"
      ],
      [
        "ei",
        "t"
      ],
      [
        "Ġ",
        "âĢ"
      ],
      [
        "E",
        "r"
      ],
      [
        "s",
        "ch"
      ],
      [
        "Ã",
        "¤"
      ],
      [
        "D",
        "as"
      ],
      [
        "ĠI",
        "ch"
      ],
      [
        "ÑĤ",
        "Ð¸Ðº"
      ],
      [
        "ÑĨ",
        "Ñĸ"
      ],
      [
        "ĠÐ¿",
        "ÑĢ"
      ],
      [
        "ĠÐ¿ÑĸÐ´",
        "Ð¼ÐµÑĤ"
      ],
      [
        "ĠÐĶ",
        "ÑĸÑĶÑģÐ»Ð¾Ð²Ð¾"
      ],
      [
        "d",
        "e"
      ],
      [
        "ĠÐ°",
        "ÑĢ"
      ],
      [
        "ĠÐ°ÑĢ",
        "ÑĤÐ¸Ðº"
      ],
      [
        "a",
        "r"
      ],
      [
        "Ð¾Ñı",
        "ÑĤÐ¸"
      ],
      [
        "ĠÑģÑĤ",
        "Ð¾ÑıÑĤÐ¸"
      ],
      [
        "er",
        "n"
      ],
      [
        "ĠÐ·",
        "Ð°Ð"
      ],
      [
        "Ġ",
        "Ñĩ"
      ],
      [
        "W",
        "ir"
      ],
      [
        "Ġ",
        "ÑĤ"
      ],
      [
        "h",
        "e"
      ],
      [
        "Ġ",
        "ein"
      ],
      [
        "ĠÑĢÐµ",
        "ÑĩÐµÐ½Ð½Ñı"
      ],
      [
        "Ġ",
        "H"
      ],
      [
        "Ġb",
        "in"
      ],
      [
        "u",
        "n"
      ],
      [
        "Ñģ",
        "Ñĸ"
      ],
      [
        "g",
        "en"
      ],
      [
        "Ġ",
        "K"
      ],
      [
        "Ġ",
        "F"
      ],
      [
        "s",
        "e"
      ],
      [
        "ÑĢ",
        "Ð¾Ð´"
      ],
      [
        "ĠÐ",
        "º"
      ],
      [
        "ÑĢÐ¾Ð´",
        "Ñĥ"
      ],
      [
        "Ġ",
        "l"
      ],
      [
        "Ñ",
        "İ"
      ],
      [
        "l",
        "l"
      ],
      [
        "Ð¸",
        "Ð½"
      ],
      [
        "ĠÐ",
        "¾"
      ],
      [
        "Ð°Ð",
        "³"
      ],
      [
        "'",
        ")"
      ],
      [
        "ĠÐ²",
        "Ð¸Ð¼"
      ],
      [
        "Ð°Ð³",
        "Ð°ÑĶ"
      ],
      [
        "ĠÐ²Ð¸Ð¼",
        "Ð°Ð³Ð°ÑĶ"
      ],
      [
        "Ð¾Ð",
        "»"
      ],
      [
        "Ġd",
        "er"
      ],
      [
        "Ġd",
        "as"
      ],
      [
        "ĠÐ·",
        "Ð°"
      ],
      [
        "Ġm",
        "Ã¼"
      ],
      [
        "Ġ(",
        "'"
      ],
      [
        "f",
        "e"
      ],
      [
        "Ġd",
        "en"
      ],
      [
        "Ñģ",
        "Ñı"
      ],
      [
        "r",
        "u"
      ],
      [
        "I",
        "hr"
      ],
      [
        "ĠÐ°ÑĢÑĤÐ¸Ðº",
        "Ð»ÑĮ"
      ],
      [
        "b",
        "en"
      ],
      [
        "e",
        "ut"
      ],
      [
        "ĠÑĩ",
        "Ð°"
      ],
      [
        "ĠÑĩÐ°",
        "ÑģÑĸ"
      ],
      [
        "Ð¸",
        "Ð¹"
      ],
      [
        "Ðµ",
        "ÑĢÐµ"
      ],
      [
        "Ġ",
        "ÑĦ"
      ],
      [
        "s",
        "en"
      ],
      [
        "Ð»ÑĮ",
        "Ð½"
      ],
      [
        "D",
        "u"
      ],
      [
        "Ġ",
        "G"
      ],
      [
        "Ð¾ÑĢ",
        "Ð¼"
      ],
      [
        "ĠÑĦ",
        "Ð¾ÑĢÐ¼"
      ],
      [
        "Ġd",
        "ie"
      ],
      [
        "ĠmÃ¼",
        "de"
      ],
      [
        "om",
        "m"
      ],
      [
        "e",
        "m"
      ],
      [
        "Ġ",
        "M"
      ],
      [
        "in",
        "d"
      ],
      [
        "ĠÐ¿",
        "Ð¾"
      ],
      [
        "Ñģ",
        "ÑĤ"
      ],
      [
        "Ġ",
        "g"
      ],
      [
        "ÑĤ",
        "ÑĮ"
      ],
      [
        "Ġ",
        "Sie"
      ],
      [
        "Ð",
        "±"
      ],
      [
        "Ð°Ð",
        "²"
      ],
      [
        "ĠÐĶ",
        "Ð»Ñı"
      ],
      [
        "Ġ",
        "ÑĢÐ¾Ð´Ñĥ"
      ],
      [
        "t",
        "er"
      ],
      [
        "eut",
        "sch"
      ],
      [
        "ĠD",
        "eutsch"
      ],
      [
        "u",
        "s"
      ],
      [
        "ÑĤÑĮ",
        "ÑģÑı"
      ],
      [
        "Ġn",
        "ach"
      ],
      [
        "Ġ",
        "T"
      ],
      [
        "an",
        "n"
      ],
      [
        "Ñĥ",
        "ÑĶ"
      ],
      [
        "Ð°",
        "Ð¼"
      ],
      [
        "b",
        "eit"
      ],
      [
        "ĠÐº",
        "ÑĸÐ½"
      ],
      [
        "ĠÐºÑĸÐ½",
        "ÑĨÑĸ"
      ],
      [
        "Ð½",
        "ÑĮ"
      ],
      [
        "ĠÐ·Ð°",
        "Ðº"
      ],
      [
        "ĠÐ·Ð°Ðº",
        "ÑĸÐ½"
      ],
      [
        "Ġ",
        "auf"
      ],
      [
        "ĠÐ·Ð°ÐºÑĸÐ½",
        "ÑĩÐµÐ½Ð½Ñı"
      ],
      [
        "Ġ'",
        "-"
      ],
      [
        "ÑĢ",
        "Ñĸ"
      ],
      [
        "ĠÑģ",
        "Ð°Ð¼"
      ],
      [
        "ĠÑģÐ°Ð¼",
        "Ð¾Ð¼Ñĥ"
      ],
      [
        "Ġl",
        "ern"
      ],
      [
        "ĠÐ¿ÑĸÐ´Ð¼ÐµÑĤ",
        "Ð°"
      ],
      [
        "Ġhab",
        "e"
      ],
      [
        "ĠA",
        "r"
      ],
      [
        "k",
        "t"
      ],
      [
        "ĠâĢ",
        "Ķ"
      ],
      [
        "ch",
        "en"
      ],
      [
        "r",
        "o"
      ],
      [
        "Ġha",
        "t"
      ],
      [
        "ĠÐ½",
        "Ð°"
      ],
      [
        "ei",
        "l"
      ],
      [
        "ÐµÑĢÐµ",
        "Ð´"
      ],
      [
        "ĠS",
        "u"
      ],
      [
        "ĠSu",
        "p"
      ],
      [
        "Ð",
        "¶"
      ],
      [
        "Ġ",
        "P"
      ],
      [
        "d",
        "er"
      ],
      [
        "Ð¸",
        "ÑģÑĤ"
      ],
      [
        "Ġd",
        "em"
      ],
      [
        "ĠD",
        "as"
      ],
      [
        "Ð",
        "³"
      ],
      [
        "ich",
        "t"
      ],
      [
        "an",
        "k"
      ],
      [
        "ĠAr",
        "beit"
      ],
      [
        "ÑĢ",
        "Ñĥ"
      ],
      [
        "Ð½",
        "Ð°"
      ],
      [
        "k",
        "auf"
      ],
      [
        "Ð½",
        "Ð¸Ðº"
      ],
      [
        "Ð²",
        "Ñĸ"
      ],
      [
        "Ġ",
        "Z"
      ],
      [
        "re",
        "n"
      ],
      [
        "Ġ",
        "in"
      ],
      [
        "Ġhab",
        "en"
      ],
      [
        "ie",
        "l"
      ],
      [
        "u",
        "m"
      ],
      [
        "Ñ",
        "Ī"
      ],
      [
        "Ð½",
        "Ñı"
      ],
      [
        "ĠÐ",
        "±"
      ],
      [
        "r",
        "au"
      ],
      [
        "Ġk",
        "auf"
      ],
      [
        "Ñĩ",
        "Ð¾Ð³Ð¾"
      ],
      [
        "Ð°",
        "Ð½"
      ],
      [
        "ĠH",
        "au"
      ],
      [
        "Ġge",
        "he"
      ],
      [
        "ĠZ",
        "eit"
      ],
      [
        "k",
        "k"
      ],
      [
        "Ġ",
        "er"
      ],
      [
        "ĠâĢ",
        "ĵ"
      ],
      [
        "Ð¾Ð²",
        "Ñĸ"
      ],
      [
        "ĠD",
        "u"
      ],
      [
        "ĠA",
        "kk"
      ],
      [
        "b",
        "e"
      ],
      [
        "ein",
        "e"
      ],
      [
        "Ġ",
        "t"
      ],
      [
        "ro",
        "t"
      ],
      [
        "ĠÑģ",
        "Ð¿"
      ],
      [
        "p",
        "e"
      ],
      [
        "us",
        "ativ"
      ],
      [
        "ĠAkk",
        "usativ"
      ],
      [
        "Ã",
        "¶"
      ],
      [
        "ĠÐ¿ÑĸÐ´Ð¼ÐµÑĤ",
        "Ð¾Ð¼"
      ],
      [
        "Ġ",
        "f"
      ],
      [
        "Ñ",
        "ħ"
      ],
      [
        "Ð¸Ð¹",
        "Ð¼ÐµÐ½Ð½Ð¸Ðº"
      ],
      [
        "Ð½Ð°",
        "Ñĩ"
      ],
      [
        "Ġk",
        "omm"
      ],
      [
        "e",
        "u"
      ],
      [
        "ÐµÐ½Ð½",
        "Ñĸ"
      ],
      [
        "Ġd",
        "u"
      ],
      [
        "ĠÐ·Ð°Ð",
        "¹"
      ],
      [
        "Ġw",
        "eil"
      ],
      [
        "Ð",
        "·"
      ],
      [
        "ĠÐ·Ð°Ð¹",
        "Ð¼ÐµÐ½Ð½Ð¸Ðº"
      ],
      [
        "e",
        "st"
      ],
      [
        "ĠÑĤ",
        "Ðµ"
      ],
      [
        "ĠD",
        "ativ"
      ],
      [
        "Ð¿",
        "Ðµ"
      ],
      [
        "Ġs",
        "ch"
      ],
      [
        "Ð½",
        "Ðµ"
      ],
      [
        "Ġs",
        "p"
      ],
      [
        "ch",
        "e"
      ],
      [
        "Ġg",
        "ut"
      ],
      [
        "ÑĢÑĸ",
        "ÑĪ"
      ],
      [
        "st",
        "e"
      ],
      [
        "Ð½ÑĮ",
        "Ð¾Ð¼Ñĥ"
      ],
      [
        "ĠÑĤÐµ",
        "Ð¿Ðµ"
      ],
      [
        "ÑĢÑĸÑĪ",
        "Ð½ÑĮÐ¾Ð¼Ñĥ"
      ],
      [
        "ĠÑĤÐµÐ¿Ðµ",
        "ÑĢÑĸÑĪÐ½ÑĮÐ¾Ð¼Ñĥ"
      ],
      [
        "ĠÐ¼",
        "Ñĸ"
      ],
      [
        "ĠHau",
        "se"
      ],
      [
        "h",
        "n"
      ],
      [
        "Ġ",
        "an"
      ],
      [
        "ĠS",
        "ch"
      ],
      [
        "ĠÐ¼Ñĸ",
        "Ñģ"
      ],
      [
[...]
