{
  "version": "1.0",
  "truncation": null,
  "padding": null,
  "added_tokens": [
    {
      "id": 0,
      "content": "<PAD>",
      "single_word": false,
      "lstrip": false,
      "rstrip": false,
      "normalized": false,
      "special": true
    },
    {
      "id": 1,
      "content": "<BOS>",
      "single_word": false,
      "lstrip": false,
      "rstrip": false,
      "normalized": false,
      "special": true
    },
    {
      "id": 2,
      "content": "<EOS>",
      "single_word": false,
      "lstrip": false,
      "rstrip": false,
      "normalized": false,
      "special": true
    },
    {
      "id": 3,
      "content": "<UNK>",
      "single_word": false,
      "lstrip": false,
      "rstrip": false,
      "normalized": false,
      "special": true
    }
  ],
  "normalizer": null,
  "pre_tokenizer": {
    "type": "ByteLevel",
    "add_prefix_space": false,
    "trim_offsets": true,
    "use_regex": true
  },
  "post_processor": {
    "type": "TemplateProcessing",
    "single": [
      {
        "Sequence": {
          "id": "A",
          "type_id": 0
        }
      }
    ],
    "pair": [
      {
        "Sequence": {
          "id": "A",
          "type_id": 0
        }
      },
      {
        "Sequence": {
          "id": "B",
          "type_id": 1
        }
      }
    ],
    "special_tokens": {}
  },
  "decoder": {
    "type": "ByteLevel",
    "add_prefix_space": true,
    "trim_offsets": true,
    "use_regex": true
  },
  "model": {
    "type": "BPE",
    "dropout": null,
    "unk_token": "<UNK>",
    "continuing_subword_prefix": null,
    "end_of_word_suffix": null,
    "fuse_unk": false,
    "byte_fallback": false,
    "ignore_merges": false,
    "vocab": {
      "<PAD>": 0,
      "<BOS>": 1,
      "<EOS>": 2,
      "<UNK>": 3,
      "!": 4,
      "%": 5,
      "'": 6,
      "(": 7,
      ")": 8,
      "*": 9,
      "+": 10,
      ",": 11,
      "-": 12,
      ".": 13,
      "/": 14,
      "0": 15,
      "1": 16,
      "2": 17,
      "3": 18,
      "4": 19,
      "5": 20,
      "6": 21,
      "7": 22,
      "8": 23,
      "9": 24,
      ":": 25,
      ";": 26,
      "=": 27,
      ">": 28,
      "?": 29,
      "A": 30,
      "B": 31,
      "C": 32,
      "D": 33,
      "E": 34,
      "F": 35,
      "G": 36,
      "H": 37,
      "I": 38,
      "J": 39,
      "K": 40,
      "L": 41,
      "M": 42,
      "N": 43,
      "O": 44,
      "P": 45,
      "Q": 46,
      "R": 47,
      "S": 48,
      "T": 49,
      "U": 50,
      "V": 51,
      "W": 52,
      "X": 53,
      "Y": 54,
      "Z": 55,
      "[": 56,
      "]": 57,
      "_": 58,
      "`": 59,
      "a": 60,
      "b": 61,
      "c": 62,
      "d": 63,
      "e": 64,
      "f": 65,
      "g": 66,
      "h": 67,
      "i": 68,
      "j": 69,
      "k": 70,
      "l": 71,
      "m": 72,
      "n": 73,
      "o": 74,
      "p": 75,
      "q": 76,
      "r": 77,
      "s": 78,
      "t": 79,
      "u": 80,
      "v": 81,
      "w": 82,
      "x": 83,
      "y": 84,
      "z": 85,
      "¡": 86,
      "¢": 87,
      "£": 88,
      "¤": 89,
      "¥": 90,
      "¦": 91,
      "§": 92,
      "¨": 93,
      "©": 94,
      "«": 95,
      "®": 96,
      "¯": 97,
      "°": 98,
      "±": 99,
      "²": 100,
      "³": 101,
      "´": 102,
      "µ": 103,
      "¶": 104,
      "·": 105,
      "¸": 106,
      "¹": 107,
      "º": 108,
      "»": 109,
      "¼": 110,
      "½": 111,
      "¾": 112,
      "¿": 113,
      "Â": 114,
      "Ã": 115,
      "Ð": 116,
      "Ñ": 117,
      "Ò": 118,
      "â": 119,
      "ï": 120,
      "ð": 121,
      "Ċ": 122,
      "Ġ": 123,
      "Ģ": 124,
      "ģ": 125,
      "Ĥ": 126,
      "ĥ": 127,
      "Ħ": 128,
      "ħ": 129,
      "Ĩ": 130,
      "ĩ": 131,
      "Ī": 132,
      "ī": 133,
      "Į": 134,
      "İ": 135,
      "ı": 136,
      "Ĳ": 137,
      "ĳ": 138,
      "Ĵ": 139,
      "ĵ": 140,
      "Ķ": 141,
      "ķ": 142,
      "ĸ": 143,
      "Ĺ": 144,
      "ĺ": 145,
      "Ļ": 146,
      "ļ": 147,
      "Ľ": 148,
      "ľ": 149,
      "Ŀ": 150,
      "ŀ": 151,
      "Ł": 152,
      "ł": 153,
      "ĠÐ": 154,
      "Ð½": 155,
      "Ð¾": 156,
      "Ðµ": 157,
      "Ñı": 158,
      "Ñĸ": 159,
      "Ñģ": 160,
      "re": 161,
      "Ð¾Ð": 162,
      "Ð°": 163,
      "or": 164,
      "rec": 165,
      "orrec": 166,
      "orrect": 167,
      "Ð¸": 168,
      "ch": 169,
      "Ġ'": 170,
      "en": 171,
      "ÑĤ": 172,
      "ÑĢ": 173,
      "ÐµÐ½": 174,
      "Ð»": 175,
      "Ñĥ": 176,
      "ĠC": 177,
      "âľ": 178,
      "ĠCorrect": 179,
      "âľħ": 180,
      "ÐµÐ½Ð½": 181,
      "ÑĶ": 182,
      "er": 183,
      "Ð¼": 184,
      "in": 185,
      "ÐµÐ½Ð½Ñı": 186,
      "st": 187,
      "ĠI": 188,
      "Ðº": 189,
      "Ð¾Ñı": 190,
      "Ñĩ": 191,
      "Ġd": 192,
      "ie": 193,
      "ĠÐŁ": 194,
      "Ð¾Ð²": 195,
      "ÑģÐ½": 196,
      "ĠÐ¿": 197,
      "Ð¾Ð¼": 198,
      "ĠIn": 199,
      "Ð¾ÑıÑģÐ½": 200,
      "Ð¾ÑıÑģÐ½ÐµÐ½Ð½Ñı": 201,
      "correct": 202,
      "âĿ": 203,
      "ðŁ": 204,
      "ĵĿ": 205,
      "ĠÐŁÐ¾ÑıÑģÐ½ÐµÐ½Ð½Ñı": 206,
      "ĠIncorrect": 207,
      "âĿĮ": 208,
      "ðŁĵĿ": 209,
      "ĠÐ´": 210,
      "Ð¸Ðº": 211,
      "as": 212,
      "au": 213,
      "Ð´": 214,
      "ha": 215,
      "ÑģÐ»": 216,
      "ĠÐ¼": 217,
      "Ð°ÑĶ": 218,
      "ÑĮ": 219,
      "ĠÐ°": 220,
      "ĠÐ·": 221,
      "Ġi": 222,
      "ÑģÐ»Ð¾Ð²": 223,
      "Ð°Ð": 224,
      "ge": 225,
      "ĠÐ½": 226,
      "'.": 227,
      "Ð¾Ð¼Ñĥ": 228,
      "ÑĸÑĶ": 229,
      "ÑĸÑĶÑģÐ»Ð¾Ð²": 230,
      "ĠÑģ": 231,
      "ĠÐ²": 232,
      "ÑĸÑĶÑģÐ»Ð¾Ð²Ð¾": 233,
      "ÑĸÐ½": 234,
      "ein": 235,
      "Ð»Ñı": 236,
      "Ġha": 237,
      "ĠD": 238,
      "ÑĢÐµ": 239,
      "Ġw": 240,
      "an": 241,
      "Ġs": 242,
      "ei": 243,
      "Ġ(": 244,
      "Sie": 245,
      "Ich": 246,
      "ÑĤÐ¸": 247,
      "Ġge": 248,
      "ĠÐ½Ðµ": 249,
      "ut": 250,
      "ti": 251,
      "Ġist": 252,
      "Ġk": 253,
      "hr": 254,
      "ĠÐ¼Ð°ÑĶ": 255,
      "ĠÐ£": 256,
      "auf": 257,
      "',": 258,
      "Ġm": 259,
      "ÑĸÐ´": 260,
      "ĠA": 261,
      "ĠÐĶ": 262,
      "Ð²": 263,
      "tiv": 264,
      "Ð¾ÑĢ": 265,
      "ÑĩÐµÐ½Ð½Ñı": 266,
      "Ð¾Ð³": 267,
      "Ð¾Ð³Ð¾": 268,
      "Ð¼Ðµ": 269,
      "ÑĨ": 270,
      "Ð»ÑĮ": 271,
      "ĠÐ´ÑĸÑĶÑģÐ»Ð¾Ð²Ð¾": 272,
      "Ġb": 273,
      "ĠÐ´Ð»Ñı": 274,
      "ir": 275,
      "Ð¼ÐµÑĤ": 276,
      "Ġhab": 277,
      "ativ": 278,
      "Ã¼": 279,
      "ĠÐ¿ÑĸÐ´": 280,
      "ĠB": 281,
      "Ð¸Ð¼": 282,
      "es": 283,
      "om": 284,
      "ÐµÐ½Ð½Ð¸Ðº": 285,
      "Ð¼ÐµÐ½Ð½Ð¸Ðº": 286,
      "Ð¿": 287,
      "Ð¹": 288,
      "ich": 289,
      "ÑĦ": 290,
      "ĠS": 291,
      "ĠÑĢÐµ": 292,
      "Ð¾Ð´": 293,
      "âĢ": 294,
      "Ġn": 295,
      "ĠÑģÑĤ": 296,
      "ach": 297,
      "Er": 298,
      "hen": 299,
      "ĠâĢ": 300,
      "sch": 301,
      "ĠÑĥ": 302,
      "eit": 303,
      "ÑĤÐ¸Ðº": 304,
      "ĠIch": 305,
      "ĠÐ°ÑĢ": 306,
      "ĠÐ°ÑĢÑĤÐ¸Ðº": 307,
      "Ã¤": 308,
      "ĠÐĶÑĸÑĶÑģÐ»Ð¾Ð²Ð¾": 309,
      "ĠÐ¿ÑĢ": 310,
      "Das": 311,
      "de": 312,
      "ĠÐ¿ÑĸÐ´Ð¼ÐµÑĤ": 313,
      "ÑĨÑĸ": 314,
      "ĠÑĩ": 315,
      "ern": 316,
      "Ð¾ÑıÑĤÐ¸": 317,
      "ĠÑģÑĤÐ¾ÑıÑĤÐ¸": 318,
      "ĠÐ·Ð°Ð": 319,
      "ĠÑĤ": 320,
      "ar": 321,
      "eut": 322,
      "Wir": 323,
      "Ġein": 324,
      "se": 325,
      "gen": 326,
      "ĠÑĢÐµÑĩÐµÐ½Ð½Ñı": 327,
      "Ġbin": 328,
      "ÑģÑĸ": 329,
      "ÑĢÐ¾Ð´": 330,
      "ÑĢÐ¾Ð´Ñĥ": 331,
      "ĠÐº": 332,
      "ĠH": 333,
      "Ġl": 334,
      "un": 335,
      "ll": 336,
      "ĠK": 337,
      "Ñİ": 338,
      "ĠÐ¾": 339,
      "Ð°Ð³": 340,
      "ĠF": 341,
      "Ð¸Ð½": 342,
      "Ð¾Ð»": 343,
      "ĠÐ²Ð¸Ð¼": 344,
      "Ð°Ð³Ð°ÑĶ": 345,
      "ĠÐ²Ð¸Ð¼Ð°Ð³Ð°ÑĶ": 346,
      "ĠÐ·Ð°": 347,
      "')": 348,
      "Ġder": 349,
      "Ġdas": 350,
      "ĠmÃ¼": 351,
      "Ġden": 352,
      "ben": 353,
      "ĠÐ°ÑĢÑĤÐ¸ÐºÐ»ÑĮ": 354,
      "ru": 355,
      "ĠM": 356,
      "omm": 357,
      "ĠÑĩÐ°": 358,
      "ÑģÑı": 359,
      "Ð¸Ð¹": 360,
      "Du": 361,
      "he": 362,
      "ĠÑĩÐ°ÑģÑĸ": 363,
      "Ġdie": 364,
      "fe": 365,
      "ĠÑĦ": 366,
      "Ġ('": 367,
      "Ihr": 368,
      "ĠT": 369,
      "em": 370,
      "Ð¾ÑĢÐ¼": 371,
      "ĠmÃ¼de": 372,
      "ĠÑĦÐ¾ÑĢÐ¼": 373,
      "ter": 374,
      "ĠG": 375,
      "Ð»ÑĮÐ½": 376,
      "ĠSie": 377,
      "Ð¸Ñģ": 378,
      "ro": 379,
      "sen": 380,
      "ĠÐ¿Ð¾": 381,
      "Ð±": 382,
      "ind": 383,
      "us": 384,
      "ÐµÑĢÐµ": 385,
      "ÑĤÑĮ": 386,
      "Ġnach": 387,
      "eutsch": 388,
      "Ġg": 389,
      "ĠÑĢÐ¾Ð´Ñĥ": 390,
      "ĠDeutsch": 391,
      "Ð°Ð²": 392,
      "ĠÐĶÐ»Ñı": 393,
      "ÑĥÑĶ": 394,
      "ÑĤÑĮÑģÑı": 395,
      "Ġauf": 396,
      "ann": 397,
      "ĠÐ·Ð°Ðº": 398,
      "Ð°Ð¼": 399,
      "ĠÐ·Ð°ÐºÑĸÐ½": 400,
      "ĠÐ·Ð°ÐºÑĸÐ½ÑĩÐµÐ½Ð½Ñı": 401,
      "Ġ'-": 402,
      "ĠÐºÑĸÐ½": 403,
      "ĠÐºÑĸÐ½ÑĨÑĸ": 404,
      "ÑĢÑĸ": 405,
      "Ġhat": 406,
      "ĠÐ¿ÑĸÐ´Ð¼ÐµÑĤÐ°": 407,
      "ĠÑģÐ°Ð¼": 408,
      "ĠÑģÐ°Ð¼Ð¾Ð¼Ñĥ": 409,
      "Ġlern": 410,
      "chen": 411,
      "Ġhabe": 412,
      "ĠâĢĶ": 413,
      "eil": 414,
      "beit": 415,
      "Ð½ÑĮ": 416,
      "der": 417,
      "ĠAr": 418,
      "ĠÐ½Ð°": 419,
      "kt": 420,
      "ĠSu": 421,
      "ĠSup": 422,
      "Ð¶": 423,
      "Ġdem": 424,
      "Ð¸ÑģÑĤ": 425,
      "icht": 426,
      "ĠP": 427,
      "Ð½Ð°": 428,
      "rot": 429,
      "kauf": 430,
      "Ġhaben": 431,
      "ÐµÑĢÐµÐ´": 432,
      "Ð½Ð¸Ðº": 433,
      "ĠDas": 434,
      "iel": 435,
      "rau": 436,
      "ÑĩÐ¾Ð³Ð¾": 437,
      "Ġin": 438,
      "ÑĢÑĥ": 439,
      "Ð³": 440,
      "Ð²Ñĸ": 441,
      "ÑĪ": 442,
      "ĠArbeit": 443,
      "Ġkauf": 444,
      "um": 445,
      "ĠÐ±": 446,
      "ren": 447,
      "ĠDu": 448,
      "Ġt": 449,
      "Ð¾Ð²Ñĸ": 450,
      "est": 451,
      "ĠZ": 452,
      "Ð½Ñı": 453,
      "kk": 454,
      "ĠAkk": 455,
      "ĠâĢĵ": 456,
      "Ð·": 457,
      "Ġdu": 458,
      "ank": 459,
      "pe": 460,
      "ĠÑģÐ¿": 461,
      "Ð°Ð½": 462,
      "Ð½Ð°Ñĩ": 463,
      "ĠZeit": 464,
      "eine": 465,
      "Ġgehe": 466,
      "usativ": 467,
      "ĠAkkusativ": 468,
      "Ġkomm": 469,
      "Ð¸Ð¹Ð¼ÐµÐ½Ð½Ð¸Ðº": 470,
      "eu": 471,
      "Ġweil": 472,
      "Ġf": 473,
      "ÐµÐ½Ð½Ñĸ": 474,
      "ĠÐ·Ð°Ð¹": 475,
      "Ġer": 476,
      "ĠÐ·Ð°Ð¹Ð¼ÐµÐ½Ð½Ð¸Ðº": 477,
      "ĠÑĤÐµ": 478,
      "Ñħ": 479,
      "Ġsp": 480,
      "ste": 481,
      "Ð¿Ðµ": 482,
      "ist": 483,
      "ÑĢÑĸÑĪ": 484,
      "Ġsch": 485,
      "ĠÐ¿ÑĸÐ´Ð¼ÐµÑĤÐ¾Ð¼": 486,
      "Ð½ÑĮÐ¾Ð¼Ñĥ": 487,
      "ĠÑĤÐµÐ¿Ðµ": 488,
      "ĠHau": 489,
      "ÑĢÑĸÑĪÐ½ÑĮÐ¾Ð¼Ñĥ": 490,
      "ĠÑĤÐµÐ¿ÐµÑĢÑĸÑĪÐ½ÑĮÐ¾Ð¼Ñĥ": 491,
      "ĠHause": 492,
      "che": 493,
      "ĠSch": 494,
      "ĠDativ": 495,
      "ÑĸÑģ": 496,
      "ĠÑĦÐ¾ÑĢÐ¼Ñĥ": 497,
      "ht": 498,
      "haben": 499,
      "Ġgut": 500,
      "Ġan": 501,
      "Ã¶": 502,
      "Ð½Ðµ": 503,
      "Ġlernen": 504,
      "Nom": 505,
      "inativ": 506,
      "Nominativ": 507,
      "ĠÑĤÐ¾Ð¼Ñĥ": 508,
      "ĠÐ¼ÑĸÑģ": 509,
      "cht": 510,
      "be": 511,
      "hn": 512,
      "ĠÐ´ÑĢÑĥ": 513,
      "ĠÐ´ÑĢÑĥÐ³": 514,
      "ĠÐ¼ÑĸÑģÑĨÑĸ": 515,
      "ĠÐ¿Ð¾ÑĤ": 516,
      "ĠÐ´ÑĢÑĥÐ³Ð¾Ð¼Ñĥ": 517,
      "Ð¸Ð»ÑĮÐ½": 518,
      "Ġwir": 519,
      "ĠÐŁÑĢ": 520,
      "ĠEr": 521,
      "ĠÑĸ": 522,
      "den": 523,
      "ehr": 524,
      "itiv": 525,
      "ĠÐ±Ñĥ": 526,
      "Ð°ÑĤÐ¸": 527,
      "ĠÐ¿ÐµÑĢÐµÐ´": 528,
      "ft": 529,
      "ĠGen": 530,
      "ĠÐ±ÑĥÑĤÐ¸": 531,
      "ĠGenitiv": 532,
      "rÃ¤": 533,
      "egen": 534,
      "Ð´Ð¸": 535,
      "ĠSuppe": 536,
      "ĠÑĸÐ½": 537,
      "ÑĸÑĤÐ¸": 538,
      "Ð¾Ð¿": 539,
      "Ð´Ð½": 540,
      "Ð¸Ð½Ñĥ": 541,
      "ĠÐ¼Ð¸Ð½Ñĥ": 542,
      "Ð»Ð¾Ð¼Ñĥ": 543,
      "ĠÐ¼Ð¸Ð½ÑĥÐ»Ð¾Ð¼Ñĥ": 544,
      "Ð°Ð²Ð¸Ð»ÑĮÐ½": 545,
      "ĠPar": 546,
      "ÃŁ": 547,
      "ĠÑĸÐ½ÑĦ": 548,
      "ÑĸÐ½ÑĸÑĤÐ¸": 549,
      "ĠÑĸÐ½ÑĦÑĸÐ½ÑĸÑĤÐ¸": 550,
      "ĠÑĸÐ½ÑĦÑĸÐ½ÑĸÑĤÐ¸Ð²Ñĸ": 551,
      "ĠÑĨ": 552,
      "Ġich": 553,
      "Ð°Ð»ÑĮÐ½": 554,
      "hren": 555,
      "das": 556,
      "die": 557,
      "et": 558,
      "ĠÑĦÐ¾ÑĢÐ¼Ñĸ": 559,
      "Ð¾Ð¿Ð¾Ð¼": 560,
      "und": 561,
      "ĠÑĸÐ¼ÐµÐ½Ð½Ð¸Ðº": 562,
      "ĠÐ²Ð¸Ðº": 563,
      "ĠÐ²ÑĸÐ´": 564,
      "PrÃ¤": 565,
      "Ð¾ÑĢÐ¸ÑģÑĤ": 566,
      "ĠÐ²Ð¸ÐºÐ¾ÑĢÐ¸ÑģÑĤ": 567,
      "..": 568,
      "Ð¾Ð²ÑĥÑĶ": 569,
      "ĠÐ²Ð¸ÐºÐ¾ÑĢÐ¸ÑģÑĤÐ¾Ð²ÑĥÑĶ": 570,
      "ÑģÐ½Ð¾Ð²": 571,
      "ĠÐ¾ÑģÐ½Ð¾Ð²": 572,
      "Ð°Ð²Ð¸Ð»ÑĮÐ½Ð¾": 573,
      "Ġhast": 574,
      "ĠÐ¾ÑģÐ½Ð¾Ð²Ð½Ðµ": 575,
      "Ã¶n": 576,
      "ÑĸÑģÐ»": 577,
      "ÑĸÑģÐ»Ñı": 578,
      "Ġko": 579,
      "Ġh": 580,
      "ÑĸÐ²": 581,
      "ohn": 582,
      "utter": 583,
      "ĠÐ¿Ð¾Ñĩ": 584,
      "it": 585,
      "ssen": 586,
      "ĠMutter": 587,
      "Ð¸ÑĤ": 588,
      "ester": 589,
      "wester": 590,
      "ĠW": 591,
      "ĠÐ°ÑĢÑĤÐ¸ÐºÐ»Ñı": 592,
      "ĠNominativ": 593,
      "ÑĢÑı": 594,
      "Ġspiel": 595,
      "on": 596,
      "ÑĥÑĩ": 597,
      "ĠKa": 598,
      "ĠÐ¶": 599,
      "enn": 600,
      "ĠÐ·Ñĸ": 601,
      "eute": 602,
      "ruder": 603,
      "ĠÑĢÐµÑĩ": 604,
      "Ð½Ð¸ÐºÐ¾Ð¼": 605,
      "ĠÐ¿ÑĸÐ´ÑĢÑı": 606,
      "Ð¾Ð»ÑĥÑĩ": 607,
      "ĠÑģÐ¿Ð¾Ð»ÑĥÑĩ": 608,
      "Ð´Ð½Ð¾Ð¼Ñĥ": 609,
      "ĠÑĢÐµÑĩÐµÐ½Ð½Ñĸ": 610,
      "ĠÐ¿ÑĸÐ´ÑĢÑıÐ´Ð½Ð¾Ð¼Ñĥ": 611,
      "ĠÑģÐ¿Ð¾Ð»ÑĥÑĩÐ½Ð¸ÐºÐ¾Ð¼": 612,
      "Ġdes": 613,
      "ĠÐ·Ð°Ð¿": 614,
      "kauft": 615,
      "').": 616,
      "Ð²Ð¾ÑĢ": 617,
      "ĠWir": 618,
      "Ġsie": 619,
      "ĠÐ¶ÑĸÐ½": 620,
      "ĠÑģÐ»Ð¾Ð²": 621,
      "ĠÐ¶ÑĸÐ½Ð¾": 622,
      "ĠÐ¶ÑĸÐ½Ð¾ÑĩÐ¾Ð³Ð¾": 623,
      "fen": 624,
      "rin": 625,
      "ĠBrot": 626,
      "ĠAp": 627,
      "Ġsind": 628,
      "al": 629,
      "ĠIhr": 630,
      "ung": 631,
      "Ġ-": 632,
      "isch": 633,
      "Ġgehen": 634,
      "Ġes": 635,
      "ÐºÐ°": 636,
      "ill": 637,
      "Ġz": 638,
      "ĠÐ·Ð°Ð²": 639,
      "ĠÐŁÑĢÐ¸Ð¹Ð¼ÐµÐ½Ð½Ð¸Ðº": 640,
      "all": 641,
      "Ġhabt": 642,
      "dem": 643,
      "ĠÐ¿ÑĢÐ°Ð²Ð¸Ð»ÑĮÐ½Ð¾": 644,
      "fel": 645,
      "Ð¶Ð´Ð¸": 646,
      "ĠÐ·Ð°Ð²Ð¶Ð´Ð¸": 647,
      "ĠÐ´Ð¾Ð¿Ð¾Ð¼": 648,
      "sehen": 649,
      "Ð½Ð¾Ð³Ð¾": 650,
      "ĠApfel": 651,
      "rotz": 652,
      "bl": 653,
      "Ġse": 654,
      "ĠFrau": 655,
      "Ð½Ð¸Ð¹": 656,
      "Ð¾Ðº": 657,
      "Ġmeine": 658,
      "aus": 659,
      "ĠTisch": 660,
      "du": 661,
      "ĠU": 662,
      "Ġim": 663,
      "sein": 664,
      "Ġste": 665,
      "ÑİÐ²": 666,
      "ĠBruder": 667,
      "ĠSchwester": 668,
      "uch": 669,
      "Ġnicht": 670,
      "asche": 671,
      "angen": 672,
      "Ġum": 673,
      "'),": 674,
      "komm": 675,
      "Ð¾Ð±": 676,
      "ĠÑĩÐ¾Ð»": 677,
      "ĠÑĩÐ¾Ð»Ð¾Ð²Ñĸ": 678,
      "ort": 679,
      "gangen": 680,
      "ien": 681,
      "uto": 682,
      "ke": 683,
      "ĠÑĩÐ¾Ð»Ð¾Ð²ÑĸÑĩÐ¾Ð³Ð¾": 684,
      "Ġdass": 685,
      "Ġ7": 686,
      "ĠKind": 687,
      "ĠUhr": 688,
      "Ð°ÑĶÑĤÑĮÑģÑı": 689,
      "ĠÑĶ": 690,
      "uÃŁ": 691,
      "zi": 692,
      "Ð»ÑİÐ²": 693,
      "hat": 694,
      "ĠFuÃŁ": 695,
      "Ð¸ÑģÑĤÐ°Ð²": 696,
      "erm": 697,
      "ÑĢÐµÐ¼": 698,
      "ĠAuto": 699,
      "Ð°Ð½Ð¸Ð¼": 700,
      "ball": 701,
      "ĠÐ¿ÑĢÐ¸ÑģÑĤÐ°Ð²": 702,
      "ĠÐ¿ÑĢÐ¸ÑģÑĤÐ°Ð²ÐºÐ°": 703,
      "ĠÐ²ÑĸÐ´Ð¾Ðº": 704,
      "Ð»ÑİÐ²Ð°Ð½Ð¸Ð¼": 705,
      "ĠFuÃŁball": 706,
      "ÑĢÐµÐ¼Ð»ÑİÐ²Ð°Ð½Ð¸Ð¼": 707,
      "ĠÐ²ÑĸÐ´Ð¾ÐºÑĢÐµÐ¼Ð»ÑİÐ²Ð°Ð½Ð¸Ð¼": 708,
      "ĠÐļ": 709,
      "ĠÐ¿ÑĢÐ¸Ðº": 710,
      "ihr": 711,
      "rank": 712,
      "Ð¼ÐµÑĤÐ½Ð¸Ðº": 713,
      "Ð¾Ð»Ð¸": 714,
      "ĠÐ¿ÑĢÐ¸ÐºÐ¼ÐµÑĤÐ½Ð¸Ðº": 715,
      "ĠII": 716,
      "erfe": 717,
      "Ġkrank": 718,
      "ÑİÑĤÑĮÑģÑı": 719,
      "erfekt": 720,
      "arkt": 721,
      "zip": 722,
      "tizip": 723,
      "acht": 724,
      "ĠPartizip": 725,
      "Ð¼ÑĸÐ½": 726,
      "ĠSuperm": 727,
      "ĠSupermarkt": 728,
      "ĠÐļÐ¾Ð»Ð¸": 729,
      "sich": 730,
      "ĠÐ¿Ð¾ÑĩÐ¸Ð½": 731,
      "ĠÐ¿Ð¾ÑĩÐ¸Ð½Ð°ÑĶÑĤÑĮÑģÑı": 732,
      "ĠÐ·Ð¼ÑĸÐ½": 733,
      "Ġwenn": 734,
      "Ġsich": 735,
      "ĠÐ·Ð°Ð¹Ð¼ÐµÐ½Ð½Ð¸ÐºÐ°": 736,
      "Perfekt": 737,
      "kaufen": 738,
      "gessen": 739,
      "ĠBuch": 740,
      "Ã¤hren": 741,
      "Ã¤hrend": 742,
      "eid": 743,
      "Ġwar": 744,
      "ĠTasche": 745,
      "hel": 746,
      "kommen": 747,
      "Ġaus": 748,
      "erl": 749,
      "ier": 750,
      "tw": 751,
      "Ġtrin": 752,
      "Ġv": 753,
      "Ð¾Ñģ": 754,
      "Ð½Ð°ÑĩÐµÐ½": 755,
      "Ð½Ð°ÑĩÐµÐ½Ð¾Ð³Ð¾": 756,
      "twort": 757,
      "sens": 758,
      "PrÃ¤sens": 759,
      "orgen": 760,
      "Ġheute": 761,
      "Ġbrau": 762,
      "Ġfre": 763,
      "lern": 764,
      "ffe": 765,
      "ĠBerl": 766,
      "ĠBerlin": 767,
      "ĠL": 768,
      "ĠKaffe": 769,
      "Ð¾Ð±Ñĸ": 770,
      "ĠKaffee": 771,
      "Ġausru": 772,
      "ÑĢÑĸÐ±": 773,
      "Ġkauft": 774,
      "ko": 775,
      "Ġwill": 776,
      "Ġtrotz": 777,
      "rst": 778,
      "ĠÐ¾Ð·": 779,
      "ĠÐ¿Ð¾ÑĤÑĢÑĸÐ±": 780,
      "ĠDurst": 781,
      "ÑĢÐµÐ±": 782,
      "ĠÐ¿Ð¾ÑĤÑĢÐµÐ±": 783,
      "ĠÐ¿Ð¾ÑĤÑĢÐµÐ±ÑĥÑĶ": 784,
      "Ð°Ð·": 785,
      "il": 786,
      "Ġgl": 787,
      "Ð¾Ð´Ð°Ð»ÑĮÐ½": 788,
      "ĠÐ¿ÑĢÐ¸Ð¹Ð¼ÐµÐ½Ð½Ð¸Ðº": 789,
      "Ġkaufen": 790,
      "ÑĸÐ¶": 791,
      "Wo": 792,
      "Ġgegangen": 793,
      "uss": 794,
      "Ġkochen": 795,
      "zt": 796,
      "ĠÐºÐ¾ÑĢ": 797,
      "Ġmehr": 798,
      "ĠÑĨÑĮ": 799,
      "ĠÐºÐ¾ÑĢÐµÐ½": 800,
      "Ġwegen": 801,
      "am": 802,
      "ÑĸÐ¹": 803,
      "Ã¼r": 804,
      "ĠÑĸÐ¼ÐµÐ½Ð½Ð¸ÐºÐ°": 805,
      "ĠÐ¿Ð¾ÑĤÑĢÑĸÐ±ÐµÐ½": 806,
      "ĠÑĨÑĮÐ¾Ð³Ð¾": 807,
      "Wann": 808,
      "Ð¾ÑĤ": 809,
      "ken": 810,
      "Ġwas": 811,
      "des": 812,
      "Der": 813,
      "ag": 814,
      "Ġneu": 815,
      "Ġwohn": 816,
      "Am": 817,
      "Ġihr": 818,
      "tz": 819,
      "Ġgekauft": 820,
      "Ð½ÑĮÐ¾Ð³Ð¾": 821,
      "ĠÑģÐµÑĢÐµÐ´": 822,
      "Ġschl": 823,
      "ĠÑģÐµÑĢÐµÐ´Ð½ÑĮÐ¾Ð³Ð¾": 824,
      "ser": 825,
      "ĠÐ²Ð¸ÐºÐ¾ÑĢÐ¸ÑģÑĤÐ¾Ð²ÑĥÑĶÑĤÑĮÑģÑı": 826,
      "Ġlie": 827,
      "te": 828,
      "Ð¼Ð¾": 829,
      "ĠÐ¿Ð¾Ð²": 830,
      "Es": 831,
      "Ġkein": 832,
      "ÑĤÑĢ": 833,
      "ÐºÐ°Ð·": 834,
      ").": 835,
      "Ġspielt": 836,
      "aube": 837,
      "ÑĮÐº": 838,
      "ĠHung": 839,
      "ĠHunger": 840,
      "Ġkomme": 841,
      "Ġglaube": 842,
      "sp": 843,
      "Ð°Ð½Ð½Ñı": 844,
      "ĠwÃ¤hrend": 845,
      "rechen": 846,
      "alt": 847,
      "bend": 848,
      "Ġgegessen": 849,
      "ĠMann": 850,
      "Ġhel": 851,
      "ÐµÐ·": 852,
      "ĠAbend": 853,
      "ĠÐ²Ð¸ÐºÐ¾ÑĢÐ¸ÑģÑĤÐ¾Ð²ÑĥÑĶÐ¼Ð¾": 854,
      "ÑĥÐ¿": 855,
      "ÑĤÑĢÐ¸Ð¼": 856,
      "mp": 857,
      "ĠÐŁÑĸÑģÐ»Ñı": 858,
      "ĠÐ¾ÑĤÑĢÐ¸Ð¼": 859,
      "ĠÐ¾ÑĤÑĢÐ¸Ð¼ÑĥÑĶ": 860,
      "ÐµÐ½Ñĸ": 861,
      "ÑĸÐº": 862,
      "....": 863,
      "Ġzu": 864,
      "ĠÐ½Ñĸ": 865,
      "ĠGes": 866,
      "Imp": 867,
      "Ð°Ð±": 868,
      "ĠÑģÐ¿Ð¾Ñģ": 869,
      "erativ": 870,
      "Ð¾Ð²Ð¾Ð¼Ñĥ": 871,
      "ĠÐ½Ð°ÐºÐ°Ð·": 872,
      "ĠÑĨÐµ": 873,
      "Imperativ": 874,
      "ĠÑģÐ¿Ð¾ÑģÐ¾Ð±Ñĸ": 875,
      "ĠÐ½Ð°ÐºÐ°Ð·Ð¾Ð²Ð¾Ð¼Ñĥ": 876,
      "weil": 877,
      "Ġeine": 878,
      "Ð¾Ð·": 879,
      "nicht": 880,
      "ÑĨÑĮÐº": 881,
      "Ġbist": 882,
      "Ð¼ÐµÑĨÑĮÐº": 883,
      "ĠÐ½ÑĸÐ¼ÐµÑĨÑĮÐº": 884,
      "ĠÑģÑĥ": 885,
      "Ð¿ÑĸÐ´": 886,
      "),": 887,
      "Ġru": 888,
      "ĠÐ¿Ð¾ÑĢ": 889,
      "ĠÐ¼Ð°ÑĤÐ¸": 890,
      "ĠÐ·Ð½Ð°Ñĩ": 891,
      "Ð¿ÑĸÐ´Ð¼ÐµÑĤ": 892,
      "ĠÐ·Ð½Ð°ÑĩÐµÐ½Ð½Ñĸ": 893,
      "Ð²ÑĸÐ¹": 894,
      "Ð½Ð½Ñı": 895,
      "ĠFre": 896,
      "ÐµÑĢÐµÑĩÐµÐ½Ð½Ñı": 897,
      "ĠÐ·Ð°Ð¿ÐµÑĢÐµÑĩÐµÐ½Ð½Ñı": 898,
      "erien": 899,
      "ĠV": 900,
      "ÑĤÐ²Ð¾ÑĢ": 901,
      "Ð¾Ð³Ð¾Ñİ": 902,
      "ÑģÑĸÐ²": 903,
      "ĠFerien": 904,
      "Ġantwort": 905,
      "ĠÐ´Ð¾Ð¿Ð¾Ð¼Ð¾Ð³Ð¾Ñİ": 906,
      "mehr": 907,
      "ÑĦÑĸÐº": 908,
      "ĠÑģÑĤÑĥÐ¿": 909,
      "ĠÐ¿Ð¾Ð²Ð¸Ð½": 910,
      "ĠGesicht": 911,
      "ĠÐ¼Ð¾Ð²Ñĸ": 912,
      "ĠÑĥÑĤÐ²Ð¾ÑĢ": 913,
      "ÑİÑİÑĤÑĮÑģÑı": 914,
      "Ð¸ÑģÐ²ÑĸÐ¹": 915,
      "Ð½ÑıÐ½Ð½Ñı": 916,
      "ÑĸÐ²Ð½ÑıÐ½Ð½Ñı": 917,
      "ĠÑģÐ»Ð¾Ð²Ð¾Ð¼": 918,
      "ĠÐ·Ð¼ÑĸÐ½Ð¸": 919,
      "ĠÐºÐ¾ÑĢÐµÐ½Ñı": 920,
      "Ð°Ð±Ð¾": 921,
      "ĠÐ½ÑĸÐ¼ÐµÑĨÑĮÐºÑĸÐ¹": 922,
      "ĠÑģÑĥÑĦÑĸÐº": 923,
      "ĠÐ¿Ð¾ÑĢÑĸÐ²Ð½ÑıÐ½Ð½Ñı": 924,
      "ĠÑģÑĤÑĥÐ¿ÐµÐ½Ñĸ": 925,
      "ĠÐ¿Ð¾Ð²Ð¸Ð½ÐµÐ½": 926,
      "ĠÑĥÑĤÐ²Ð¾ÑĢÑİÑİÑĤÑĮÑģÑı": 927,
      "Ð¸ÑģÐ²ÑĸÐ¹Ð½Ð¸Ð¹": 928,
      "ĠÑģÑĥÑĦÑĸÐºÑģÑĸÐ²": 929,
      "ĠR": 930,
      "ĠÐ¿ÑĸÑģÐ»Ñı": 931,
      "Ã¶nn": 932,
      "ĠÐ·Ð²Ð¾ÑĢ": 933,
      "Ð¾ÑĤÐ½Ð¾Ð³Ð¾": 934,
      "ĠÐ·Ð²Ð¾ÑĢÐ¾ÑĤÐ½Ð¾Ð³Ð¾": 935,
      "ĠÐ¿Ð¸ÑĤ": 936,
      "Ð¸ÑĤÐ°Ð½Ð½Ñı": 937,
      "Ð°Ð»ÑĮÐ½Ð¾Ð³Ð¾": 938,
      "ĠÐ·Ð°Ð¿Ð¸ÑĤÐ°Ð½Ð½Ñı": 939,
      "ĠÑģÐ»Ð¾Ð²Ð°": 940,
      "ĠÐ¿Ð¸ÑĤÐ°Ð»ÑĮÐ½Ð¾Ð³Ð¾": 941,
      "ĠÐ·Ð°Ð¿Ð¸ÑĤÐ°Ð½Ð½ÑıÑħ": 942,
      "and": 943,
      "ĠHund": 944,
      "Ġseid": 945,
      "oll": 946,
      "Ġun": 947,
      "ĠFreund": 948,
      "ĠschÃ¶n": 949,
      "Ġkalt": 950,
      "sind": 951,
      "Ġgekommen": 952,
      "terit": 953,
      "Ġfreu": 954,
      "teritum": 955,
      "Ð°ÑĤ": 956,
      "ĠÐ¢": 957,
      "Ġsprechen": 958,
      "Ġmuss": 959,
      "ieben": 960,
      "?'": 961,
      "Die": 962,
      "PrÃ¤teritum": 963,
      "ĠÐ½ÐµÐ¾Ð·": 964,
      "ĠÐ½ÐµÐ¾Ð·Ð½Ð°ÑĩÐµÐ½Ð¾Ð³Ð¾": 965,
      "ĠÑĤÐ°": 966,
      "gt": 967,
      "Ġgebl": 968,
      "Ġgeblieben": 969,
      "ĠBank": 970,
      "Ġkann": 971,
      "Ã¤ft": 972,
      "tze": 973,
      "fa": 974,
      "lernen": 975,
      "uchen": 976,
      "Ġeu": 977,
      "ne": 978,
      "habe": 979,
      "ĠÐ¢Ð¾Ð¼Ñĥ": 980,
      "ĠÐ°Ð±": 981,
      "ĠÐ°Ð±Ð¾": 982,
      "kein": 983,
      "spiel": 984,
      "ĠPark": 985,
      "ĠÑĢÑĥ": 986,
      "ÑĥÐ²": 987,
      "ino": 988,
      "hast": 989,
      "ĠKino": 990,
      "ĠÐ´Ð¾Ð¿Ð¾Ð¼ÑĸÐ¶": 991,
      "ĠÐ´Ð¾Ð¿Ð¾Ð¼ÑĸÐ¶Ð½Ð¾Ð³Ð¾": 992,
      "ĠWas": 993,
      "ĠÐ¾Ð·Ð½Ð°Ñĩ": 994,
      "ĠÑĢÑĥÑħ": 995,
      "ĠÐ¾Ð·Ð½Ð°ÑĩÐ°ÑĶ": 996,
      "Ġgesehen": 997,
      "ÑģÑĤ": 998,
      "hst": 999,
      "Ġkommst": 1000,
      "ĠSt": 1001,
      "Ġmorgen": 1002,
      "ĠRegen": 1003,
      "is": 1004,
      "Ġsehen": 1005,
      "ĠRegens": 1006,
      "ur": 1007,
      "Ġkommen": 1008,
      "Ã¼s": 1009,
      "stehen": 1010,
      "Ġschne": 1011,
      "Ġschnell": 1012,
      "Ã¶nnen": 1013,
      "gehen": 1014,
      "sel": 1015,
      "Ġmit": 1016,
      "ĠschlÃ¤ft": 1017,
      "aren": 1018,
      "hre": 1019,
      "Ð»Ð°": 1020,
      "arbeit": 1021,
      "ĠÐ´ÑĸÑĶÑģÐ»Ð¾Ð²": 1022,
      "ĠKatze": 1023,
      "ÑĥÐ²Ð°ÑĤÐ¸": 1024,
      "ĠÐ¼Ð¾Ð´Ð°Ð»ÑĮÐ½": 1025,
      "ĠÑĢÐµÑĩÐµÐ½Ð½ÑıÑħ": 1026,
      "ĠÐ´ÑĸÑĶÑģÐ»Ð¾Ð²Ð¾Ð¼": 1027,
      "ĠÐ¼Ð¾Ð´Ð°Ð»ÑĮÐ½Ð¸Ð¼": 1028,
      "fahren": 1029,
      "at": 1030,
      "Ġarbeit": 1031,
      "Ġlerne": 1032,
      "Ġtrinke": 1033,
      "Ġwohnst": 1034,
      "macht": 1035,
      "Ġviel": 1036,
      "lÃ¼s": 1037,
      "Ġhier": 1038,
      "ĠÐľ": 1039,
      "Ð°ÑĤÐº": 1040,
      "lÃ¼ssel": 1041,
      "Ġzum": 1042,
      "kocht": 1043,
      "ten": 1044,
      "ollen": 1045,
      "Ġdenke": 1046,
      "Ġlernt": 1047,
      "Ġessen": 1048,
      "Ð°ÑĤÐºÐ¾Ð²Ñĸ": 1049,
      "rufen": 1050,
      "ĠÐ¿ÑĢÐ¸ÑģÐ²ÑĸÐ¹Ð½Ð¸Ð¹": 1051,
      "ĠÐ¿Ð¾ÑĩÐ°ÑĤÐºÐ¾Ð²Ñĸ": 1052,
      "ĠÐ¿Ð¾ÑĩÐ°ÑĤÐºÐ¾Ð²ÑĸÐ¹": 1053,
      "andy": 1054,
      "Ð»Ðµ": 1055,
      "age": 1056,
      "ĠGe": 1057,
      "Ġfreuen": 1058,
      "ÐºÐ¸": 1059,
      "omp": 1060,
      "ĠSchlÃ¼ssel": 1061,
      "essen": 1062,
      "ater": 1063,
      "Ġeinen": 1064,
      "etzt": 1065,
      "las": 1066,
      "Ġgeht": 1067,
      "Ã¼n": 1068,
      "ĠE": 1069,
      "ild": 1070,
      "ĠÐĨ": 1071,
      "ampe": 1072,
      "Ġwaschen": 1073,
      "Ġliest": 1074,
      "Ġmacht": 1075,
      "Ġausruhen": 1076,
      "ĠVater": 1077,
      "fst": 1078,
      "ĠPro": 1079,
      "Ġstell": 1080,
      "ĠStu": 1081,
      "Was": 1082,
      "Jetzt": 1083,
      "Ðļ": 1084,
      "ÑĥÐ´Ð¸": 1085,
      "Ð´Ð°": 1086,
      "blem": 1087,
      "Ġesse": 1088,
      "hl": 1089,
      "ĠÐĨÐ¼ÐµÐ½Ð½Ð¸Ðº": 1090,
      "bt": 1091,
      "ont": 1092,
      "uter": 1093,
      "chst": 1094,
      "Ð¾Ð´Ð°Ð»ÑĮÐ½Ðµ": 1095,
      "ĠÐľÐ¾Ð´Ð°Ð»ÑĮÐ½Ðµ": 1096,
      "omputer": 1097,
      "ÐļÑĥÐ´Ð¸": 1098,
      "Ġbraucht": 1099,
      "ĠProblem": 1100,
      "lei": 1101,
      "ĠArzt": 1102,
      "pÃ¤": 1103,
      "ĠProblems": 1104,
      "ĠBier": 1105,
      "ĠHandy": 1106,
      "Ġbei": 1107,
      "Ġseht": 1108,
      "ĠComputer": 1109,
      "pÃ¤ter": 1110,
      "ages": 1111,
      "ĠÐ³": 1112,
      "Ð°Ð¿": 1113,
      "anken": 1114,
      "Ð»Ñĸ": 1115,
      "ĠAbends": 1116,
      "aufstehen": 1117,
      "le": 1118,
      "ĠMont": 1119,
      "Ġkocht": 1120,
      "ohne": 1121,
      "ĠMontag": 1122,
      "ÑĩÐ½Ð¸Ð¹": 1123,
      "ĠÐ±ÐµÐ·": 1124,
      "Ġle": 1125,
      "ĠTages": 1126,
      "ĠÐ¾Ð±": 1127,
      "ĠTe": 1128,
      "ĠLampe": 1129,
      "Ġkommt": 1130,
      "dass": 1131,
      "ĠÐĹ": 1132,
      "Ġgest": 1133,
      "anach": 1134,
      "ĠKÃ¼": 1135,
      "hrt": 1136,
      "ienst": 1137,
      "ĠWasser": 1138,
      "ĠKÃ¼che": 1139,
      "Ġblei": 1140,
      "Ð»Ð°Ð´": 1141,
      "ĠÐ²ÑĸÐ´ÐºÐ¸": 1142,
      "Ġspielen": 1143,
      "Ġliegt": 1144,
      "Ð´Ð°ÑİÑĤÑĮÑģÑı": 1145,
      "ĠÐ²ÑĸÐ´ÐºÐ¸Ð´Ð°ÑİÑĤÑĮÑģÑı": 1146,
      "ĠÐ°Ð»Ðµ": 1147,
      "ĠBild": 1148,
      "estern": 1149,
      "ĠGlas": 1150,
      "sie": 1151,
      "einkaufen": 1152,
      "ĠDienst": 1153,
      "ÑĢÐ¸Ðº": 1154,
      "Ġwaren": 1155,
      "Ð±ÐµÐ·": 1156,
      "ĠDienstag": 1157,
      "ĠÑĸÐ¼ÐµÐ½Ð½Ð¸ÐºÑĸÐ²": 1158,
      "ĠÐ¾Ð·Ð½Ð°ÑĩÐµÐ½Ð¾Ð³Ð¾": 1159,
      "ÑģÑĤÐ°Ð²": 1160,
      "Ġgestern": 1161,
      "ĠTÃ¼r": 1162,
      "Ġbleibe": 1163,
      "bist": 1164,
      "ĠTee": 1165,
      "Ð°Ð¿ÑĢÐ¸Ðº": 1166,
      "Ð°Ð¿ÑĢÐ¸ÐºÐ»Ð°Ð´": 1167,
      "Ð½Ð°Ð¿ÑĢÐ¸ÐºÐ»Ð°Ð´": 1168,
      "ĠDer": 1169,
      "........": 1170,
      "Ð»ÑĸÑĩÐ½Ð¸Ð¹": 1171,
      "ĠÐĹÐ»ÑĸÑĩÐ½Ð¸Ð¹": 1172,
      "Heute": 1173,
      "tr": 1174,
      "habt": 1175,
      "Ġwohnt": 1176,
      "ÑĥÐ²Ð°ÑĤÐ¸ÑģÑı": 1177,
      "bin": 1178,
      "Sch": 1179,
      "will": 1180,
      "anrufen": 1181,
      "ĠÐ¾Ð±ÑģÑĤÐ°Ð²": 1182,
      "ĠÐ¾Ð±ÑģÑĤÐ°Ð²Ð¸Ð½": 1183,
      "ĠMil": 1184,
      "Ġsteht": 1185,
      "ĠÐ¿ÑĢÐ¸ÐºÐ¼ÐµÑĤÐ½Ð¸ÐºÑĸÐ²": 1186,
      "ĠMilch": 1187,
      "Nach": 1188,
      "schl": 1189,
      "seid": 1190,
      "Ġarbeitet": 1191,
      "wenn": 1192,
      "Ã¤l": 1193,
      "euer": 1194,
      "Ġsu": 1195,
      "Ġantwortet": 1196,
      "kochen": 1197,
      "Ġmich": 1198,
      "Ġgefahren": 1199,
      "Ð¾Ð´Ð¶": 1200,
      "sst": 1201,
      "ĠÑĢ": 1202,
      "Ġgemacht": 1203,
      "trin": 1204,
      "ĠâĢ¦": 1205,
      "Ð¾Ð´Ð¶ÑĥÐ²Ð°ÑĤÐ¸ÑģÑı": 1206,
      "iz": 1207,
      "trotz": 1208,
      "Ġgetr": 1209,
      "ĠÐĶÐ¾Ð¿Ð¾Ð¼": 1210,
      "ĠÑĥÐ·": 1211,
      "Ð³Ð¾Ð´Ð¶ÑĥÐ²Ð°ÑĤÐ¸ÑģÑı": 1212,
      "ÑĸÐ¶Ð½Ðµ": 1213,
      "ĠÐĶÐ¾Ð¿Ð¾Ð¼ÑĸÐ¶Ð½Ðµ": 1214,
      "ĠÑĥÐ·Ð³Ð¾Ð´Ð¶ÑĥÐ²Ð°ÑĤÐ¸ÑģÑı": 1215,
      "unken": 1216,
      "Des": 1217,
      "Ġkaufst": 1218,
      "za": 1219,
      "Ġgetrunken": 1220,
      "Morgen": 1221,
      "ÐĶ": 1222,
      "Ġdich": 1223,
      "Ġuns": 1224,
      "ĠEs": 1225,
      "Ġhatte": 1226,
      "ho": 1227,
      "Ġhelft": 1228,
      "Ã¤lter": 1229,
      "ĠfÃ¼r": 1230,
      "Ġausruht": 1231,
      "ÐĶÐµ": 1232,
      "Ġihre": 1233,
      "ankt": 1234,
      "achen": 1235,
      "Ġwascht": 1236,
      "ĠEis": 1237,
      "ĠStuhl": 1238,
      "wegen": 1239,
      "Ġdankt": 1240,
      "ĠPiz": 1241,
      "ĠschÃ¶ne": 1242,
      "ĠPizza": 1243,
      "Ġgekocht": 1244,
      "Ġbrauchen": 1245,
      "SpÃ¤ter": 1246,
      "war": 1247,
      "Ġtrinken": 1248,
      "Schwester": 1249,
      "gut": 1250,
      "Ġins": 1251,
      "Ġfreut": 1252,
      "wir": 1253,
      "gesehen": 1254,
      "Ġeuch": 1255,
      "Ġohne": 1256,
      "ĠKuchen": 1257,
      "Danach": 1258,
      "ahn": 1259,
      "ĠWo": 1260,
      "Ġkeine": 1261,
      "ĠAm": 1262,
      "neu": 1263,
      "Ġgegen": 1264,
      "ĠÐŁÑĢÐ°Ð²Ð¸Ð»ÑĮÐ½Ð¾": 1265,
      "ĠWann": 1266,
      "wohn": 1267,
      "Ġaufste": 1268,
      "Dem": 1269,
      "Gestern": 1270,
      "Ġfa": 1271,
      "Ġruft": 1272,
      "Dann": 1273,
      "ule": 1274,
      "Ġvon": 1275,
      "ĠkÃ¶nnen": 1276,
      "Ġkaufe": 1277,
      "hof": 1278,
      "gegessen": 1279,
      "alat": 1280,
      "Den": 1281,
      "gekauft": 1282,
      "antwort": 1283,
      "Bruder": 1284,
      "Ġj": 1285,
      "ĠBahn": 1286,
      "ĠSalat": 1287,
      "ĠDie": 1288,
      "antworten": 1289,
      "wÃ¤hrend": 1290,
      "Ġgute": 1291,
      "ĠBahnhof": 1292,
      "ld": 1293,
      "Ġkl": 1294,
      "ĠMÃ¼n": 1295,
      "ĠMÃ¼nchen": 1296,
      "Kind": 1297,
      "helfen": 1298,
      "Ġklein": 1299,
      "Ġ2": 1300,
      "ĠÐŁÑĢÐ¸ÑģÐ²ÑĸÐ¹Ð½Ð¸Ð¹": 1301,
      "Ġschla": 1302,
      "kÃ¶nnen": 1303,
      "ĠSchule": 1304,
      "tion": 1305,
      "gegangen": 1306,
      "lich": 1307,
      "Ġneue": 1308,
      "ig": 1309,
      "Ġwollen": 1310,
      "muss": 1311,
      "Ð²Ð°": 1312,
      "Ġanru": 1313,
      "Ġwillst": 1314,
      "Ġsucht": 1315,
      "Ġteuer": 1316,
      "ÑĹ": 1317,
      "Ġhatt": 1318,
      "kann": 1319,
      "ĠÐ¾Ð´Ð½": 1320,
      "Ġrufen": 1321,
      "lernt": 1322,
      "ĠGeld": 1323,
      "Ġantworten": 1324,
      "Ġstellt": 1325,
      "ÐµÑĢ": 1326,
      "bur": 1327,
      "roÃŁ": 1328,
      "ber": 1329,
      "Ñī": 1330,
      "Ġhatten": 1331,
      "mÃ¼": 1332,
      "ĠgroÃŁ": 1333,
      "spielt": 1334,
      "danken": 1335,
      "wollen": 1336,
      "Ð¸ÑĤÐ¸": 1337,
      "burg": 1338,
      "mÃ¼ssen": 1339,
      "Ġmein": 1340,
      "amburg": 1341,
      "Ġ3": 1342,
      "ĠHamburg": 1343,
      "bei": 1344,
      "Ġsein": 1345,
      "Ġstehen": 1346,
      "ger": 1347,
      "Ġhelfen": 1348,
      "Ġlege": 1349,
      "schla": 1350,
      "Ġisst": 1351,
      "Ge": 1352,
      "ck": 1353,
      "ĠÐ¾Ñģ": 1354,
      "ĠfÃ¤": 1355,
      "Ġstelle": 1356,
      "ĠmÃ¼ssen": 1357,
      "Komm": 1358,
      "rÃ¶": 1359,
      "Ġbes": 1360,
      "mer": 1361,
      "ĠKomm": 1362,
      "Ġsehr": 1363,
      "Ð¸Ð½Ð¸": 1364,
      "ÃŁer": 1365,
      "blei": 1366,
      "ĠÐ³Ð¾Ð»": 1367,
      "Ã¤r": 1368,
      "Ġwarst": 1369,
      "bleiben": 1370,
      "Ġdank": 1371,
      "ĠÑģÑĤÐ°Ð½": 1372,
      "schÃ¶n": 1373,
      "ÑĶÑĤÑĮÑģÑı": 1374,
      "Ġdanken": 1375,
      "ĠgrÃ¶": 1376,
      "spielen": 1377,
      "Ġkeinen": 1378,
      "ĠgrÃ¶ÃŁer": 1379,
      "ĠÑģÐ¸Ð»ÑĮÐ½": 1380,
      "esen": 1381,
      "ĠÐ·Ð¼ÑĸÐ½Ñĥ": 1382,
      "ĠVer": 1383,
      "ĠÑģÑĤÐ°Ð½Ñĥ": 1384,
      "Ð¸Ð²": 1385,
      "Ð¾ÑģÐ½": 1386,
      "Ġsuchen": 1387,
      "ÑİÑĶÑĤÑĮÑģÑı": 1388,
      "Ã¶nnt": 1389,
      "ÐµÐ²Ð°": 1390,
      "ĠÐ·Ð¼ÑĸÐ½ÑİÑĶÑĤÑĮÑģÑı": 1391,
      "ra": 1392,
      "ĠÐºÐ¾ÑĢÐµÐ½ÐµÐ²Ð°": 1393,
      "ĠÐ¾Ð´Ð½Ð¸Ð½Ð¸": 1394,
      "ĠÐ¾ÑģÐ¾Ð±Ñĸ": 1395,
      "ĠÐ³Ð¾Ð»Ð¾ÑģÐ½": 1396,
      "ĠÑģÐ¸Ð»ÑĮÐ½Ðµ": 1397,
      "ĠÐ³Ð¾Ð»Ð¾ÑģÐ½Ð°": 1398,
      "Ġlegt": 1399,
      "Ġwart": 1400,
      "ps": 1401,
      "Ġneues": 1402,
      "Ġunser": 1403,
      "................": 1404,
      "Ġdein": 1405,
      "Ġschneller": 1406,
      "Ġbesser": 1407,
      "Ð¸Ð³": 1408,
      "Ġeuer": 1409,
      "wohnst": 1410,
      "el": 1411,
      "im": 1412,
      "ver": 1413,
      "Ġaufsteht": 1414,
      "Ġkleiner": 1415,
      "ĠÃ¤lter": 1416,
      "Ġspiele": 1417,
      "Ġsehst": 1418,
      "ĠO": 1419,
      "Ã¼nger": 1420,
      "von": 1421,
      "Ġund": 1422,
      "ĠjÃ¼nger": 1423,
      "brau": 1424,
      "ere": 1425,
      "ollt": 1426,
      "atz": 1427,
      "tig": 1428,
      "ĠÐ¯": 1429,
      "Ġeinkauft": 1430,
      "Ġguter": 1431,
      "Ġgutes": 1432,
      "trinken": 1433,
      "//": 1434,
      "://": 1435,
      "tps": 1436,
      "res": 1437,
      "ĠkÃ¤lter": 1438,
      "ĠKon": 1439,
      "https": 1440,
      "keine": 1441,
      "ord": 1442,
      "Ġtrinkt": 1443,
      "Ġarbeiten": 1444,
      "si": 1445,
      "ies": 1446,
      "Ã¼ck": 1447,
      "net": 1448,
      "ert": 1449,
      "Ġsehe": 1450,
      "Ġspielst": 1451,
      "kommst": 1452,
      "ĠfÃ¤hrt": 1453,
      "Ġneuer": 1454,
      "Ð¾Ð¶": 1455,
      "Ð°ÑĢ": 1456,
      "Ġdeine": 1457,
      "ĠwÃ¤r": 1458,
      "ĠwÃ¤rmer": 1459,
      "ĠkÃ¶nnt": 1460,
      "Ġbrauche": 1461,
      "isst": 1462,
      "ĠLe": 1463,
      "Ġanruft": 1464,
      "ĠĠ": 1465,
      "Ð½Ð¾": 1466,
      "Ġkochst": 1467,
      "ĠN": 1468,
      "ĠÐĴ": 1469,
      "brauchen": 1470,
      "our": 1471,
      "ĠÐ»": 1472,
      "hrst": 1473,
      "usst": 1474,
      "mein": 1475,
      "Ð¾Ð½": 1476,
      "Ġeuere": 1477,
      "mit": 1478,
      "sere": 1479,
      "kaufst": 1480,
      "ĠÑĢÐ¾Ð±": 1481,
      "ce": 1482,
      "rig": 1483,
      "Ġseine": 1484,
      "ĠHeute": 1485,
      "Ġlernst": 1486,
      "Ã¼cklich": 1487,
      "ĠÑī": 1488,
      "Ð°Ñİ": 1489,
      "Ġhelfe": 1490,
      "Ġhelfst": 1491,
      "Ġunsere": 1492,
      "waren": 1493,
      "Ãľ": 1494,
      "Ġmachen": 1495,
      "ĠglÃ¼cklich": 1496,
      "ÑĢÐ°": 1497,
      "Ġfreust": 1498,
      "uft": 1499,
      "Ġfahrt": 1500,
      "Ġhattet": 1501,
      "Ð¸Ð³Ñĥ": 1502,
      "Ġ+": 1503,
      "Ã¼ber": 1504,
      "hrer": 1505,
      "dich": 1506,
      "wall": 1507,
      "word": 1508,
      "zert": 1509,
      "Ġ1": 1510,
      "Ð¾Ñĩ": 1511,
      "sprechen": 1512,
      "resour": 1513,
      "wordwall": 1514,
      "resource": 1515,
      "ĠmÃ¼sst": 1516,
      "Ġtrau": 1517,
      "dent": 1518,
      "Ġkoche": 1519,
      "ĠLuft": 1520,
      "Ġhattest": 1521,
      "kst": 1522,
      "ĠMorgen": 1523,
      "Ġaufstehen": 1524,
      "Ġstehst": 1525,
      "Ġver": 1526,
      "Ġschlaft": 1527,
      "ĠKonzert": 1528,
      "ĠLehrer": 1529,
      "Ġtraurig": 1530,
      "ertig": 1531,
      "Ġfertig": 1532,
      "Ġwaschst": 1533,
      "ĠJetzt": 1534,
      "Ġanrufen": 1535,
      "Ġstehe": 1536,
      "ĠStudent": 1537,
      "ol": 1538,
      "suchen": 1539,
      "Ġeinkaufen": 1540,
      "Ġbrauchst": 1541,
      "Ġkannst": 1542,
      "Ġrufe": 1543,
      "fÃ¼r": 1544,
      "ster": 1545,
      "âĢ¦": 1546,
      "Ġlesen": 1547,
      "kel": 1548,
      "ation": 1549,
      "Â«": 1550,
      "ĠSpÃ¤ter": 1551,
      "uns": 1552,
      "ĠPrÃ¤": 1553,
      "ĠLest": 1554,
      "Ġausruhe": 1555,
      "Ġrufst": 1556,
      "wohnt": 1557,
      "Â»": 1558,
      "ĠÂ«": 1559,
      "Ġwollt": 1560,
      "Ð¿ÑĸÑģÐ»Ñı": 1561,
      "ĠÐ¿ÑĢÐ°Ð²Ð¸Ð»ÑĮÐ½": 1562,
      "ĠÐ¿ÑĢÐ°Ð²Ð¸Ð»ÑĮÐ½ÑĸÐ¹": 1563,
      "Ġdort": 1564,
      "ĠDann": 1565,
      "Ġwasche": 1566,
      "Ġsuche": 1567,
      "schlafen": 1568,
      "ĠÑı": 1569,
      "dein": 1570,
      "machen": 1571,
      "osi": 1572,
      "Ġbe": 1573,
      "âĢľ": 1574,
      "Ġausruhst": 1575,
      "Ð¾ÑĤÑĸ": 1576,
      "Ġdankst": 1577,
      "osition": 1578,
      "nach": 1579,
      "ĠÑħ": 1580,
      "ÑĤÐ¾": 1581,
      "ieren": 1582,
      "einen": 1583,
      "tit": 1584,
      "Ġmach": 1585,
      "ĠMach": 1586,
      "petit": 1587,
      "euch": 1588,
      "Ġmachst": 1589,
      ")'": 1590,
      "fÃ¤": 1591,
      "gegen": 1592,
      "ĠGestern": 1593,
      "ĠWand": 1594,
      "ĠAppetit": 1595,
      "hatte": 1596,
      "ĠGeh": 1597,
      "ÑĥÑĤ": 1598,
      "Ġhabst": 1599,
      "ĠDanach": 1600,
      "Ġgehst": 1601,
      "ĠschÃ¶ner": 1602,
      "spiele": 1603,
      "zen": 1604,
      "Ġmusst": 1605,
      "Ð¾ÑģÑĤ": 1606,
      "ab": 1607,
      "Ġo": 1608,
      "Ð»Ð¸": 1609,
      "ÐºÑĥ": 1610,
      "Ġantwortest": 1611,
      "keinen": 1612,
      "ĠGeht": 1613,
      "willst": 1614,
      "ĠKommt": 1615,
      "ĠÑĢÐ¾Ð±Ð¾ÑĤÑĸ": 1616,
      "ante": 1617,
      "unser": 1618,
      "ÑİÐ²Ð°ÑĤÐ¸": 1619,
      "ĠLies": 1620,
      "position": 1621,
      "ĠNach": 1622,
      "ĠÃ¼ber": 1623,
      "enster": 1624,
      "Ã¤fst": 1625,
      "Ð¾ÑģÑĮ": 1626,
      "Ġdanke": 1627,
      "men": 1628,
      "vom": 1629,
      "ĠFenster": 1630,
      "ĠMacht": 1631,
      "ĠTante": 1632,
      "ĠschÃ¶nes": 1633,
      "trinkt": 1634,
      "Ð°Ð´": 1635,
      "ĠÐ²Ð¸": 1636,
      "ĠÐ¿ÑĢÐ¾": 1637,
      "Ġfreue": 1638,
      "bung": 1639,
      "mich": 1640,
      "Ð½Ñĸ": 1641,
      "ÑĤÐ¾ÑĢ": 1642,
      "ĠÐ¼Ð¾Ð¶": 1643,
      "Ã¤n": 1644,
      "hatt": 1645,
      "St": 1646,
      "ĠÐ´Ð¾": 1647,
      "ĠÐ°Ð²": 1648,
      "Ð¼Ð°Ñİ": 1649,
      "Ġvor": 1650,
      "ĠVerben": 1651,
      "ĠOn": 1652,
      "esse": 1653,
      "ĠOnkel": 1654,
      "ot": 1655,
      "rÃ¼": 1656,
      "satz": 1657,
      "rei": 1658,
      "Ð¾Ð½Ð°": 1659,
      "ÑģÑĮ": 1660,
      "Ð°Ð¶": 1661,
      "ÑĸÐ½Ð½Ñı": 1662,
      "Ð¾Ð»Ð¾Ð´": 1663,
      "kaufe": 1664,
      "Ġwarm": 1665,
      "Ġjung": 1666,
      "ktiv": 1667,
      "Ġalt": 1668,
      "Ġsuch": 1669,
      "spielst": 1670,
      "Ġaufstehst": 1671,
      "Ġfahren": 1672,
      "Ġsuchst": 1673,
      "nen": 1674,
      "Ð½Ð¸Ð³Ñĥ": 1675,
      "ÐµÑĤ": 1676,
      "ĠBus": 1677,
      "schlÃ¤ft": 1678,
      "Kommt": 1679,
      "................................": 1680,
      "Ãľbung": 1681,
      "wei": 1682,
      "gel": 1683,
      "Ð¿ÑĢ": 1684,
      "Ġesst": 1685,
      "schlaft": 1686,
      "Ġoder": 1687,
      "ĠÐ°Ð²ÑĤÐ¾": 1688,
      "Machen": 1689,
      "ÐºÐ½Ð¸Ð³Ñĥ": 1690,
      "ĠÐ²Ð¾Ð»Ð¾Ð´": 1691,
      "Ġtrinkst": 1692,
      "lerne": 1693,
      "positionen": 1694,
      "ĠÐ²Ð¾Ð»Ð¾Ð´ÑĸÐ½Ð½Ñı": 1695,
      "ug": 1696,
      "ul": 1697,
      "ent": 1698,
      "Ð°Ð¹": 1699,
      "ĠÐ²Ð¶": 1700,
      "ungen": 1701,
      "lernst": 1702,
      "00": 1703,
      "ad": 1704,
      "je": 1705,
      "Ġ/": 1706,
      "Ġâ": 1707,
      "ĠÑĪ": 1708,
      "orm": 1709,
      "ĠSp": 1710,
      "det": 1711,
      "Ġeinkaufst": 1712,
      "hatten": 1713,
      "Ġantworte": 1714,
      "ĠÑĢÐ°Ð·": 1715,
      "her": 1716,
      "Ġp": 1717,
      "ÑĸÐ»": 1718,
      "fahrt": 1719,
      "Geh": 1720,
      "Brot": 1721,
      "Wie": 1722,
      "Ð½Ð¸": 1723,
      "ÐµÐ½ÑĤ": 1724,
      "ĠÐĶÐ¾ÑģÑĤ": 1725,
      "Ġ-âĢľ": 1726,
      "Ġfahre": 1727,
      "ĠVerb": 1728,
      "ĠÐ¼Ð¾Ð¶Ð½Ð°": 1729,
      "Ġ*": 1730,
      "Ð°ÑĤÐ¸Ðº": 1731,
      "ÑĤÐ°": 1732,
      "ĠÐ¿Ð¾Ð´": 1733,
      "âĢĻ": 1734,
      "Ð½ÑĮÐ¾": 1735,
      "koche": 1736,
      "tzen": 1737,
      "ĠschlÃ¤fst": 1738,
      "wart": 1739,
      "ĠÐ¾Ð´Ð½Ð¾Ð³Ð¾": 1740,
      "ĠÐ·Ð½Ð°": 1741,
      "scha": 1742,
      "ĠÐ¿Ð¾ÑĤÑĢÑĸÐ±Ð½Ð¾": 1743,
      "ĠÐ¿Ð¾Ð²ÑĤÐ¾ÑĢ": 1744,
      "Ð°ÑĤÐ½ÑĮÐ¾": 1745,
      "ĠÐ³ÑĢ": 1746,
      "ĠÑĢÐ¾Ð·": 1747,
      "Geht": 1748,
      "ĠfÃ¤hrst": 1749,
      "ĠÑĢÐ°Ð·Ñĥ": 1750,
      "ĠÐĶÐ¾ÑģÑĤÐ°ÑĤÐ½ÑĮÐ¾": 1751,
      "ĠÐ¿Ð¾Ð²ÑĤÐ¾ÑĢÑİÐ²Ð°ÑĤÐ¸": 1752,
      "Lesen": 1753,
      "cken": 1754,
      "Ð¾ÑĪ": 1755,
      "Ð¾ÑĹ": 1756,
      "ÑĸÐ»ÑĮ": 1757,
      "sten": 1758,
      "ĠÐ¿ÐµÑĢÐµ": 1759,
      "Ġwird": 1760,
      "Ġschlafen": 1761,
      "ÑĸÑĢ": 1762,
      "ĠÑģÐºÐ°Ð·": 1763,
      "ĠBe": 1764,
      "warst": 1765,
      "Ġschlafe": 1766,
      "Gehen": 1767,
      "Kommen": 1768,
      "fÃ¤hrt": 1769,
      "Mach": 1770,
      "Tasche": 1771,
      "hin": 1772,
      "zu": 1773,
      "ÐµÐº": 1774,
      "Ð°Ð»": 1775,
      "ÑĥÐ´": 1776,
      "Ã¶r": 1777,
      "Ð°ÑĤÐ¸ÑģÑı": 1778,
      "kochst": 1779,
      "ragen": 1780,
      "ĠÑģÐºÐ°Ð·Ð°ÑĤÐ¸": 1781,
      "Lest": 1782,
      "eg": 1783,
      "ĠÐ´Ñĥ": 1784,
      "Ã¤tze": 1785,
      "ĠÑĤÑĥÑĤ": 1786,
      "Ġanrufe": 1787,
      "Ġanrufst": 1788,
      "ĠÑīÐ¾": 1789,
      "lie": 1790,
      "Ġst": 1791,
      "ĠÐĿ": 1792,
      "Ð°Ñģ": 1793,
      "Ð´Ð²": 1794,
      "ĠAn": 1795,
      "Ð¸ÑĤÐ¸ÑģÑı": 1796,
      "Ð°ÑĤÐ¸ÐºÐ°": 1797,
      "Handy": 1798,
      "Lies": 1799,
      "fin": 1800,
      "ÑĥÐº": 1801,
      "Ġmir": 1802,
      "ÑĸÑģÑĤÑĮ": 1803,
      "ÑģÑĤÐ°ÑĤÐ¸ÐºÐ°": 1804,
      "ĠÑīÐ¾ÑģÑĮ": 1805,
      "hattet": 1806,
      "Lampe": 1807,
      "Macht": 1808,
      "iv": 1809,
      "ma": 1810,
      "pro": 1811,
      "Ġdir": 1812,
      "ĠDat": 1813,
      "emp": 1814,
      "Ġaufstehe": 1815,
      "ĠĠĠĠ": 1816,
      "Ãľber": 1817,
      "Ð¸Ð³ÑĥÐ½": 1818,
      "schaft": 1819,
      "Ð´Ð²Ð¸Ð³ÑĥÐ½": 1820,
      "';": 1821,
      "10": 1822,
      "Buch": 1823,
      "mÃ¼s": 1824,
      "Ġab": 1825,
      "ÑģÑĮÐº": 1826,
      "Ð¸Ñĩ": 1827,
      "Ð¾Ð²Ð¸Ð¹": 1828,
      "hal": 1829,
      "ĠSatz": 1830,
      "ĠÐ¿ÑĢÐ¸": 1831,
      "Ð¸Ð²Ð°ÑĶÑĤÑĮÑģÑı": 1832,
      "ĠÐ²Ð¶Ð¸Ð²Ð°ÑĶÑĤÑĮÑģÑı": 1833,
      "mÃ¼sst": 1834,
      "):": 1835,
      "ahr": 1836,
      "fÃ¼": 1837,
      "ga": 1838,
      "os": 1839,
      "¸ļ": 1840,
      "ĠÐ²Ðµ": 1841,
      "eiÃŁ": 1842,
      "ÑĨÑĮ": 1843,
      "esst": 1844,
      "Ġeinkaufe": 1845,
      "ÑİÐ±": 1846,
      "trinke": 1847,
      "Auto": 1848,
      "Frau": 1849,
      "ik": 1850,
      "og": 1851,
      "tern": 1852,
      "ÐµÐ¹": 1853,
      "ÑĸÑĤ": 1854,
      "Ð¾Ð²Ð°": 1855,
      "Ġeinem": 1856,
      "setzen": 1857,
      "stell": 1858,
      "kannst": 1859,
      "Ġâ¸ļ": 1860,
      "-,": 1861,
      "11": 1862,
      "Glas": 1863,
      "Ka": 1864,
      "fle": 1865,
      "keit": 1866,
      "lan": 1867,
      "och": 1868,
      "wollt": 1869,
      "ĠÃľber": 1870,
      "ork": 1871,
      "ÑĢÐ°ÑĤÐ¸": 1872,
      "ÑĥÑģ": 1873,
      "Ã¤t": 1874,
      "ĠUn": 1875,
      "iert": 1876,
      "Ġunter": 1877,
      "trinkst": 1878,
      "siv": 1879,
      "ĠÑıÐº": 1880,
      "Bild": 1881,
      "ner": 1882,
      "zur": 1883,
      "ÑĤÑı": 1884,
      "ins": 1885,
      "Ð»ÑıÑĤÐ¸": 1886,
      "Ġwork": 1887,
      "Ġman": 1888,
      "ĠÐºÐ¾Ð¼": 1889,
      "ĠRe": 1890,
      "verben": 1891,
      "ĠÐ·Ð½Ð°ÑĩÐµÐ½Ð½Ñı": 1892,
      "Katze": 1893,
      "eben": 1894,
      "kÃ¶nnt": 1895,
      "nt": 1896,
      "xiv": 1897,
      "Ġhttps": 1898,
      "ĠÐ¹": 1899,
      "Ð¼Ð°": 1900,
      "geb": 1901,
      "Ð¾Ð³Ð¾ÑģÑĮ": 1902,
      "ĠMan": 1903,
      "als": 1904,
      "flexiv": 1905,
      "Mutter": 1906,
      "ell": 1907,
      "nom": 1908,
      "uf": 1909,
      "wen": 1910,
      "Ġam": 1911,
      "ĠÑĹ": 1912,
      "Ð¾Ñİ": 1913,
      "Ð°Ñħ": 1914,
      "Ð´Ðµ": 1915,
      "ĠSÃ¤tze": 1916,
      "deut": 1917,
      "Ð°Ð¼Ð¸": 1918,
      "hlen": 1919,
      "olgen": 1920,
      "ĠPrÃ¤positionen": 1921,
      "Ġpas": 1922,
      "nomen": 1923,
      "hm": 1924,
      "hmen": 1925,
      "jun": 1926,
      "lung": 1927,
      "musst": 1928,
      "ri": 1929,
      "ze": 1930,
      "zeit": 1931,
      "ïĥ": 1932,
      "ĠJ": 1933,
      "ĠÐĳ": 1934,
      "Ð¸Ñħ": 1935,
      "ÑĢÐ¸": 1936,
      "ÑĨÐµ": 1937,
      "ÑĨÑĸÑı": 1938,
      "tel": 1939,
      "ïĥĺ": 1940,
      ".:": 1941,
      "kl": 1942,
      "lau": 1943,
      "rch": 1944,
      "was": 1945,
      "ĠÐ¡": 1946,
      "ĠÐµ": 1947,
      "ĠÐĽ": 1948,
      "ers": 1949,
      "assiv": 1950,
      "geben": 1951,
      "ĠÑģÐ²": 1952,
      "ĠDeutsche": 1953,
      "ischen": 1954,
      "ĠRei": 1955,
      "ĠEin": 1956,
      "Station": 1957,
      "pronomen": 1958,
      "ĠÃľbersetzen": 1959,
      "TÃ¼r": 1960,
      "ks": 1961,
      "richt": 1962,
      "vor": 1963,
      "wer": 1964,
      "ĠÑĤÐ¸": 1965,
      "ÑĸÑı": 1966,
      "ÑĸÐ·": 1967,
      "ÑĥÑĢ": 1968,
      "ĠÐ¼Ð¸": 1969,
      "Ð¾ÑĢÑĤ": 1970,
      "ĠFragen": 1971,
      "Ð¸Ð½Ð°": 1972,
      "ĠheiÃŁ": 1973,
      "amm": 1974,
      "ĠVor": 1975,
      "ĠÐ»ÑİÐ±": 1976,
      "finitiv": 1977,
      "15": 1978,
      "In": 1979,
      "haus": 1980,
      "ire": 1981,
      "land": 1982,
      "pr": 1983,
      "pt": 1984,
      "zum": 1985,
      "Ð»Ñİ": 1986,
      "Ð¾Ð²Ð¾ÑĢ": 1987,
      "ÑģÐ»ÑĸÐ´": 1988,
      "gesch": 1989,
      "Ġwie": 1990,
      "Ð²Ð¸": 1991,
      "ĠÐ¿ÑĢÐ°": 1992,
      "unter": 1993,
      "Ð¶Ðµ": 1994,
      "ĠÑĤÐµÐ»Ðµ": 1995,
      "ÃŁen": 1996,
      "ÑĥÐ²Ð°Ð½Ð½Ñı": 1997,
      "rad": 1998,
      "imm": 1999,
      "hattest": 2000,
      "heit": 2001,
      "op": 2002,
      "Ġau": 2003,
      "Ġals": 2004,
      "ÑģÐ¿": 2005,
      "ÑĤÐµ": 2006,
      "ÑĤÐµÑĢ": 2007,
      "ÑĢÐ°Ð²": 2008,
      "einung": 2009,
      "Ð²Ð°Ð¶": 2010,
      "ĠâĢŀ": 2011,
      "schen": 2012,
      "Ġeiner": 2013,
      "unden": 2014,
      "ÑħÑĸÐ´": 2015,
      "ĠÐ²ÑĸÐ´Ð¿": 2016,
      "ĠWel": 2017,
      "Wohin": 2018,
      "ĠOr": 2019,
      "ÑĢÐ°ÑĹ": 2020,
      "jekt": 2021,
      "ĠheiÃŁt": 2022,
      "13": 2023,
      "16": 2024,
      "22": 2025,
      "Ver": 2026,
      "bo": 2027,
      "gÃ¤n": 2028,
      "hÃ¶": 2029,
      "igen": 2030,
      "ktion": 2031,
      "na": 2032,
      "od": 2033,
      "ÐĴ": 2034,
      "Ġ,": 2035,
      "Ġ8": 2036,
      "Ġre": 2037,
      "end": 2038,
      "Ð»Ð¸Ð²": 2039,
      "ÑĥÐ¼": 2040,
      "ÐºÐ¾Ð¼": 2041,
      "han": 2042,
      "anz": 2043,
      "Ġsoll": 2044,
      "ĠAus": 2045,
      "Ð²Ð¾": 2046,
      "Ð¸Ð¼Ð¾ÑģÑĮ": 2047,
      "ĠÐºÑĥÐ¿": 2048,
      "Ð¾Ð»Ð¾Ð³": 2049,
      "ÑĪÐµ": 2050,
      "...": 2051,
      "Woher": 2052,
      "ĠÑĤÐ°Ðº": 2053,
      "jektiv": 2054,
      "ĠÐ³ÑĢÐ¾ÑĪ": 2055,
      "irekt": 2056,
      "12": 2057,
      "14": 2058,
      "bst": 2059,
      "ech": 2060,
      "ff": 2061,
      "uro": 2062,
      "Ġet": 2063,
      "ÐµÐ´": 2064,
      "reit": 2065,
      "Ð°Ñĩ": 2066,
      "Ð°Ð»Ð°": 2067,
      "Ġwer": 2068,
      "ĠâĢľ": 2069,
      "schie": 2070,
      "ĠÑĤÑĢ": 2071,
      "ĠForm": 2072,
      "Ġgi": 2073,
      "Ð²ÑĸÑĤ": 2074,
      "ale": 2075,
      "ÐºÐ°ÑĢ": 2076,
      "atur": 2077,
      "schlÃ¤fst": 2078,
      "Ġschlafst": 2079,
      "schlafst": 2080,
      "ĠPrÃ¤teritum": 2081,
      "reiben": 2082,
      "17": 2083,
      "30": 2084,
      "bjekt": 2085,
      "gin": 2086,
      "Ġ5": 2087,
      "Ġall": 2088,
      "ÐµÐ¼": 2089,
      "reich": 2090,
      "Ð¸ÑĤÑĮ": 2091,
      "ÑĥÐ·": 2092,
      "ÑĥÑģÑĤ": 2093,
      "ĠÐ½Ð°Ð²": 2094,
      "ang": 2095,
      "tik": 2096,
      "Ð°Ð³Ð°ÑĤ": 2097,
      "renn": 2098,
      "Ġdurch": 2099,
      "chte": 2100,
      "ĠWie": 2101,
      "ilden": 2102,
      "ĠÐ¯Ðº": 2103,
      "ĠÑħÐ¾Ñĩ": 2104,
      "Ð¿ÑĢÐ°Ð²": 2105,
      "ĠÐĿÐ°": 2106,
      "ĠÐµÐº": 2107,
      "odal": 2108,
      "Ġgibt": 2109,
      ".)": 2110,
      "agen": 2111,
      "djektiv": 2112,
      "form": 2113,
      "ige": 2114,
      "lo": 2115,
      "me": 2116,
      "rach": 2117,
      "to": 2118,
      "uk": 2119,
      "zeu": 2120,
      "ĠÐ§": 2121,
      "ÐµÑĨÑĮ": 2122,
      "ÑĸÑĹ": 2123,
      "reund": 2124,
      "ing": 2125,
      "ÐºÑĢÐ°ÑĹ": 2126,
      "ĠÐ¿Ð¾Ð³": 2127,
      "ĠÐ´Ðµ": 2128,
      "Ã¼b": 2129,
      "âĢĿ": 2130,
      "del": 2131,
      "ĠÐºÐ¾Ð»": 2132,
      "unde": 2133,
      "ĠFr": 2134,
      "Ð±Ð¸": 2135,
      "ĠPers": 2136,
      "Ġande": 2137,
      "ilm": 2138,
      "ĠÐ¢Ð¸": 2139,
      "ĠStad": 2140,
      "ĠÐĴÑĸÐ½": 2141,
      "Stu": 2142,
      "deutsch": 2143,
      "junktiv": 2144,
      "Ġauch": 2145,
      "rennb": 2146,
      "odalverben": 2147,
      "AT": 2148,
      "RT": 2149,
      "ffen": 2150,
      "issen": 2151,
      "kon": 2152,
      "nis": 2153,
      "rie": 2154,
      "zie": 2155,
      "Ġ4": 2156,
      "Ġ6": 2157,
      "ÑĸÑĪ": 2158,
      "ÑĥÐ½": 2159,
      "Ġda": 2160,
      "ĠÐ¿Ð°ÑĢ": 2161,
      "ÑģÐ»Ñĥ": 2162,
      "ĠÐ·Ð»": 2163,
      "Ġ(-": 2164,
      "Ġgew": 2165,
      "aufs": 2166,
      "ĠmÃ¶": 2167,
      "ĠAdjektiv": 2168,
      "ÑĨÑı": 2169,
      "Ġbest": 2170,
      "ĠBer": 2171,
      "arten": 2172,
      "ĠFl": 2173,
      "ĠÑĩÐ°Ñģ": 2174,
      "ĠÑĦÑĸÐ»": 2175,
      "ÑĢÑĸÐ²": 2176,
      "Ð°Ð½Ð¸Ð¹": 2177,
      "alsatz": 2178,
      "Ġzw": 2179,
      "Ġimmer": 2180,
      "fahrst": 2181,
      "nehmen": 2182,
      "ompar": 2183,
      "ĠEuro": 2184,
      "Ġfahrst": 2185,
      "ÑīÐ¾": 2186,
      "elativ": 2187,
      "ĠÐĴÐ¾Ð½Ð°": 2188,
      "Ġverwen": 2189,
      "fÃ¤hrst": 2190,
      "ternet": 2191,
      "ĠUnter": 2192,
      "Ġpasst": 2193,
      "gÃ¤nzen": 2194,
      "Ġwerden": 2195,
      "29": 2196,
      "Bei": 2197,
      "aden": 2198,
      "bau": 2199,
      "cke": 2200,
      "ler": 2201,
      "rich": 2202,
      "âĹ": 2203,
      "Ġent": 2204,
      "ĨĴ": 2205,
      "Ð½ÑĸÑģÑĤÑĮ": 2206,
      "ÐµÑģÑĸ": 2207,
      "ÑıÐº": 2208,
      "ÐµÐ½Ð¸Ð¹": 2209,
      "ine": 2210,
      "inks": 2211,
      "Ð´Ð¶": 2212,
      "ĠÐ²ÑĸÐ½": 2213,
      "ĠÐ²Ð¸Ð³": 2214,
      "ĠwÃ¼r": 2215,
      "Ġges": 2216,
      "ĠSo": 2217,
      "sche": 2218,
      "ĠÐºÐ°": 2219,
      "ĠHand": 2220,
      "lle": 2221,
      "Ð¸ÑģÑĤÐ¸": 2222,
      "inden": 2223,
      "Ġgern": 2224,
      "ĠPassiv": 2225,
      "ringen": 2226,
      "ungs": 2227,
      "Ð¾Ð·Ð¸": 2228,
      "ĠStra": 2229,
      "SchlÃ¼ssel": 2230,
      "Ð²Ð°ÑĢ": 2231,
      "ÐµÑĢÑĤ": 2232,
      "ÑĥÐ´ÐµÐ½ÑĤ": 2233,
      "ĠÐ´ÑĥÐ¶Ðµ": 2234,
      "empor": 2235,
      "ĠĠĠĠĠĠĠĠ": 2236,
      "ÑģÑĮÐºÐ¸Ð¹": 2237,
      "ĠÐ³ÑĢÐ¾ÑĪÑĸ": 2238,
      "âĹı": 2239,
      "18": 2240,
      "19": 2241,
      "23": 2242,
      "bild": 2243,
      "ckt": 2244,
      "di": 2245,
      "glich": 2246,
      "mal": 2247,
      "ok": 2248,
      "pen": 2249,
      "sicht": 2250,
      "ww": 2251,
      "Ġen": 2252,
      "ĠÐ¦": 2253,
      "Ð½Ñĥ": 2254,
      "ÑıÑĤÐ¸": 2255,
      "ÑģÐ¸": 2256,
      "cher": 2257,
      "Ð»ÐµÐ½Ð½Ñı": 2258,
      "ÑĥÑİ": 2259,
      "ingen": 2260,
      "inter": 2261,
      "ĠÐ¿Ð»": 2262,
      "ĠInternet": 2263,
      "ĠÐ·Ð²": 2264,
      "gew": 2265,
      "ĠwÃ¤": 2266,
      "Ġwel": 2267,
      "Ġgef": 2268,
      "Ð²ÑĸÐ´": 2269,
      "ĠBilden": 2270,
      "ĠÐ¿ÑĢÐ¾Ð¿": 2271,
      "arn": 2272,
      "ĠFahr": 2273,
      "ĠFolgen": 2274,
      "Ð»ÑĮÐ½Ð¸Ð¹": 2275,
      "ĠÐ½Ð°Ð´": 2276,
      "ÑħÐ°ÑĤÐ¸": 2277,
      "ĠÑĸÐ¼": 2278,
      "ÑĸÐ²ÐµÑĢ": 2279,
      "itt": 2280,
      "onnen": 2281,
      "ĠKinder": 2282,
      "ĠGeb": 2283,
      "Ġbeim": 2284,
      "ĠÐĴÐ¸": 2285,
      "Ð¾Ð½Ð¸": 2286,
      "halten": 2287,
      "laub": 2288,
      "ÐºÑĢÐ°ÑĹÐ½": 2289,
      "ĠPerson": 2290,
      "25": 2291,
      "Ap": 2292,
      "Hund": 2293,
      "Re": 2294,
      "Teil": 2295,
      "ast": 2296,
      "dern": 2297,
      "dien": 2298,
      "fi": 2299,
      "fr": 2300,
      "mÃ¤": 2301,
      "par": 2302,
      "zÃ¤": 2303,
      "Ġ9": 2304,
      "ĠÑĨÑĸ": 2305,
      "Ġ................................": 2306,
      "ĠÐŀ": 2307,
      "Ð¾ÑĤÐ¸": 2308,
      "ÐµÐ³": 2309,
      "ÑĸÐ³": 2310,
      "ÑģÐ¸ÑĤ": 2311,
      "Ð°ÑĪ": 2312,
      "org": 2313,
      "Ð¸ÑĢ": 2314,
      "ÑĢÐ¾Ð±": 2315,
      "stei": 2316,
      "Ð¾Ð²Ð¸": 2317,
      "Ð¾Ð²ÑĸÐ´": 2318,
      "aut": 2319,
      "ĠÐ¼ÑĥÐ·": 2320,
      "ĠÑģÐµ": 2321,
      "ĠAb": 2322,
      "ĠAl": 2323,
      "ĠSte": 2324,
      "Ġnoch": 2325,
      "ĠÑģÑĤÑĥÐ´ÐµÐ½ÑĤ": 2326,
      "schw": 2327,
      "schule": 2328,
      "ÑĨÑĸÐ¾Ð½Ð°": 2329,
      "see": 2330,
      "ĠÐºÐ¾Ð³Ð¾ÑģÑĮ": 2331,
      "ĠFin": 2332,
      "ĠMeinung": 2333,
      "ommen": 2334,
      "ĠÐ½Ð°ÑĨÑĸÐ¾Ð½Ð°": 2335,
      "Ð·Ð°": 2336,
      "ĠHaus": 2337,
      "bel": 2338,
      "ĠErgÃ¤nzen": 2339,
      "ĠLand": 2340,
      "ĠLinks": 2341,
      "amen": 2342,
      "teres": 2343,
      "ĠRelativ": 2344,
      "ĠÐ³Ð¾Ð²Ð¾ÑĢ": 2345,
      "ĠÑĢÐ°Ð´": 2346,
      "Ġje": 2347,
      "cker": 2348,
      "verb": 2349,
      "ĠNeben": 2350,
      "ĠÐ»Ñĸ": 2351,
      "rÃ¼f": 2352,
      "ĠÐ²Ð¶Ðµ": 2353,
      "ĠâĨĴ": 2354,
      "ĠÑĪÐº": 2355,
      "Ð½Ð¸Ñħ": 2356,
      "gaben": 2357,
      "oss": 2358,
      "ĠReflexiv": 2359,
      "ĠReise": 2360,
      "Ð°Ð³Ð°ÑĤÐ¾": 2361,
      "bildung": 2362,
      "ÑĸÐ²ÐµÑĢÑģÐ¸ÑĤ": 2363,
      "fix": 2364,
      "Ġ................................................................": 2365,
      "ÑĸÐ²ÐµÑĢÑģÐ¸ÑĤÐµÑĤ": 2366,
      ",-": 2367,
      "24": 2368,
      "Freund": 2369,
      "Mann": 2370,
      "bie": 2371,
      "bes": 2372,
      "drÃ¼": 2373,
      "fl": 2374,
      "fon": 2375,
      "fol": 2376,
      "hei": 2377,
      "ic": 2378,
      "rlaub": 2379,
      "Ðľ": 2380,
      "Ġe": 2381,
      "ÑĸÑİ": 2382,
      "ÑģÑĤÐ¸": 2383,
      "ÑĤÑĸ": 2384,
      "ÐµÐ½ÑĮ": 2385,
      "inga": 2386,
      "ĠIm": 2387,
      "ĠÐ¼ÐµÐ½": 2388,
      "ĠÐ¼Ð°Ð³": 2389,
      "Ð¾Ð¼ÑĥÑģÑĮ": 2390,
      "ĠÑģÐº": 2391,
      "tikel": 2392,
      "Ð¿Ð°Ð´": 2393,
      "Ð¾Ð´Ð¸ÑĤÐ¸": 2394,
      "ĠÑĥÐ½": 2395,
      "ĠÐ¿ÑĢÐ¸Ð¹": 2396,
      "ĠÐºÐ°ÑĢ": 2397,
      "ĠÐºÐ¾Ð½": 2398,
      "ĠÐ¾ÑĢ": 2399,
      "ĠFÃ¤": 2400,
      "ĠFern": 2401,
      "Ð¾Ð»Ñĸ": 2402,
      "Ð°Ð²Ð°ÑĤÐ¸": 2403,
      "Ð°Ð¼Ð°": 2404,
      "ĠPerfekt": 2405,
      "Ð²ÑĸÐ·": 2406,
      "ĠHaupt": 2407,
      "Ġange": 2408,
      "ĠWohn": 2409,
      "ĠWort": 2410,
      "ĠUm": 2411,
      "ierte": 2412,
      "Ð¾ÑģÐ¸ÑĤÐ¸": 2413,
      "Ġzur": 2414,
      "hlt": 2415,
      "Ã¤lt": 2416,
      "liche": 2417,
      "igkeit": 2418,
      "ÐµÑĢÑĪ": 2419,
      "beim": 2420,
      "Ð¸Ð²Ð°ÑĤÐ¸": 2421,
      "Ð¾ÑĩÐ¸Ð½": 2422,
      "ĠPrÃ¤fix": 2423,
      "ĠÐ»ÑİÐ±Ð»Ñİ": 2424,
      "ĠÐ¿ÑĢÐ°ÑĨ": 2425,
      "ĠwÃ¤re": 2426,
      "ĠFahrrad": 2427,
      "ingap": 2428,
      "60": 2429,
      "Ar": 2430,
      "Kon": 2431,
      "Man": 2432,
      "Pl": 2433,
      "Un": 2434,
      "are": 2435,
      "fangen": 2436,
      "hÃ¤n": 2437,
      "ram": 2438,
      "zung": 2439,
      "ĠÑģÐ»ÑĸÐ´": 2440,
      "Ġrich": 2441,
      "ÑĸÐ»ÑĮÐ½": 2442,
      "reu": 2443,
      "Ð°Ðº": 2444,
      "ÐµÐ½Ð´Ð°": 2445,
      "Ð»Ð¸Ðº": 2446,
      "Ð¼Ð¾Ð²": 2447,
      "ÐºÑĤ": 2448,
      "ÑĩÐ¸Ð¹": 2449,
      "ĠInfinitiv": 2450,
      "assen": 2451,
      "Ð´Ð¸Ð½": 2452,
      "haft": 2453,
      "ĠÐ¼ÐµÐ½Ñĸ": 2454,
      "ĠÑģÐµÑĢ": 2455,
      "Ð»ÑıÐ´": 2456,
      "Ġwich": 2457,
      "eiden": 2458,
      "Ġgel": 2459,
      "Ð¾ÑĢÐ¾Ð¶": 2460,
      "Ġbis": 2461,
      "Ã¼ler": 2462,
      "Ð¸Ð¼Ð¸": 2463,
      "ĠSe": 2464,
      "ĠÐ¿ÑĢÐ¾Ð´": 2465,
      "ĠÐ·Ð°Ð±": 2466,
      "ĠKl": 2467,
      "Ġdiese": 2468,
      "Ġger": 2469,
      "ÑĪÑĤ": 2470,
      "ĠÐ±Ñĸ": 2471,
      "Ġschon": 2472,
      "ĠSchÃ¼ler": 2473,
      "Ð½ÐµÑĢ": 2474,
      "ĠÐ¼ÑĸÑģÑĨÐµ": 2475,
      "hnen": 2476,
      "ĠÑĸÐ·": 2477,
      "ald": 2478,
      "Ð°ÑĤÐ°": 2479,
      "seln": 2480,
      "ĠÐ³Ð°ÑĢ": 2481,
      "learn": 2482,
      "lefon": 2483,
      "sieren": 2484,
      "immen": 2485,
      "ĠÑĢÐ¾Ð±Ð¾Ñĩ": 2486,
      "Ð°ÑİÑĤÑĮ": 2487,
      "ĠPrÃ¤position": 2488,
      "Ð¾ÑģÑĤÑĸ": 2489,
      "geln": 2490,
      "ÑĸÐ»ÑĮÐ¼": 2491,
      "ĠÐ´ÑĥÐ¼": 2492,
      "ĠÐ²ÐµÑĩ": 2493,
      "ĠÑĤÐµÐ»ÐµÐ²ÑĸÐ·": 2494,
      "endungen": 2495,
      "Ð¾Ð»Ð¾Ð³ÑĸÑĹ": 2496,
      "irekte": 2497,
      "Ġetwas": 2498,
      "Stuhl": 2499,
      "ĠmÃ¶chte": 2500,
      "Ġzwischen": 2501,
      "rÃ¼fung": 2502,
      "ĠÐ¼Ð°Ð³Ð°Ð·": 2503,
      "ĠÑĥÐ½ÑĸÐ²ÐµÑĢÑģÐ¸ÑĤÐµÑĤ": 2504,
      "26": 2505,
      "27": 2506,
      "28": 2507,
      "CH": 2508,
      "Computer": 2509,
      "Ein": 2510,
      "TE": 2511,
      "Vater": 2512,
      "br": 2513,
      "best": 2514,
      "eer": 2515,
      "fall": 2516,
      "gl": 2517,
      "hÃ¶r": 2518,
      "latz": 2519,
      "lbst": 2520,
      "pa": 2521,
      "ran": 2522,
      "sit": 2523,
      "tzt": 2524,
      "tner": 2525,
      "uhe": 2526,
      "vest": 2527,
      "verl": 2528,
      "Ġ.": 2529,
      "Ġgen": 2530,
      "Ġ...": 2531,
      "ĠÐĲ": 2532,
      "ÑıÐ³": 2533,
      "ÑĸÐ¼": 2534,
      "ÑĥÐ±": 2535,
      "inn": 2536,
      "ÐºÐ¾": 2537,
      "Ð¾Ð²Ð¾": 2538,
      "ĠÐ¿Ð¾Ðº": 2539,
      "ĠÐ´Ð¸Ð²": 2540,
      "aul": 2541,
      "ĠÐ·Ð½": 2542,
      "geord": 2543,
      "ĠÐ²Ð¾Ð½Ð°": 2544,
      "ĠDa": 2545,
      "Ġso": 2546,
      "eigen": 2547,
      "ÑĤÐ¸ÑģÑı": 2548,
      "Ġgesch": 2549,
      "tisch": 2550,
      "ĠÐ£ÐºÑĢÐ°ÑĹÐ½": 2551,
      "Ð»ÑĮÑĤ": 2552,
      "ĠBau": 2553,
      "ĠÐ¿ÑĢÐ¾Ð²": 2554,
      "ÑĨÑĸÑĹ": 2555,
      "ĠÑĩÐ¸": 2556,
      "ĠÑĩÐ¾Ð¼ÑĥÑģÑĮ": 2557,
      "arf": 2558,
      "ĠÐºÐ¾Ð»Ð¸": 2559,
      "unkt": 2560,
      "ĠKont": 2561,
      "ĠÐ¾Ð´": 2562,
      "ĠFilm": 2563,
      "ĠMÃ¼": 2564,
      "ĠMit": 2565,
      "ĠModalverben": 2566,
      "Ð±ÑĥÐ´": 2567,
      "usam": 2568,
      "ÐµÑĢÐµÐ·": 2569,
      "ĠArtikel": 2570,
      "Ð·Ð²": 2571,
      "ĠfÃ¼": 2572,
      "Ġfolgen": 2573,
      "ÑħÐ¾Ð´": 2574,
      "ĠSchw": 2575,
      "ĠSchul": 2576,
      "ĠÑĸÐ½ÑĪ": 2577,
      "ÃŁe": 2578,
      "Ð°Ð»ÑĮÐ½Ð¸Ð¹": 2579,
      "ett": 2580,
      "Ġkon": 2581,
      "Ġ->": 2582,
      "Ġselbst": 2583,
      "achten": 2584,
      "ildet": 2585,
      "altung": 2586,
      "ĠGesch": 2587,
      "ĠÐ½ÑĸÐ¼ÐµÑĨÑĮÐºÐ¾ÑĹ": 2588,
      "ÑģÑĤÐ²Ð¾": 2589,
      "lassen": 2590,
      "ĠÐ³Ð¾Ð´": 2591,
      "ĠÐ³Ð¾ÑĤ": 2592,
      "ĠâĢ¦:": 2593,
      "izeit": 2594,
      "hol": 2595,
      "Ġbesch": 2596,
      "elma": 2597,
      "erein": 2598,
      "neten": 2599,
      "ĠĠĠ": 2600,
      "Ġoft": 2601,
      "Ð½Ð¸Ð¶": 2602,
      "ĠÐ¿Ð¾Ð´Ð¾ÑĢÐ¾Ð¶": 2603,
      "Ã¶rter": 2604,
      "liegen": 2605,
      "ĠÐĿÑĸ": 2606,
      "ogra": 2607,
      "gebot": 2608,
      "flexive": 2609,
      "waschen": 2610,
      "ĠWelche": 2611,
      "nahm": 2612,
      "Ġverwendet": 2613,
      "ĠwÃ¼rde": 2614,
      "ĠHandlung": 2615,
      "ĠÑĸÐ¼ÐµÐ½Ñĸ": 2616,
      "Apfel": 2617,
      "mÃ¤ÃŁ": 2618,
      "ĠNebensatz": 2619,
      "ĠReflexivpronomen": 2620,
      "Ġ................................................................................": 2621,
      "ingapps": 2622,
      "learningapps": 2623,
      "ĠÑĤÐµÐ»ÐµÐ²ÑĸÐ·Ð¾ÑĢ": 2624,
      "ĠÐ¼Ð°Ð³Ð°Ð·Ð¸Ð½": 2625,
      "vestor": 2626,
      "geordneten": 2627,
      "usammen": 2628,
      "20": 2629,
      "21": 2630,
      "47": 2631,
      "88": 2632,
      "An": 2633,
      "IL": 2634,
      "NG": 2635,
      "RA": 2636,
      "SCH": 2637,
      "Tisch": 2638,
      "Um": 2639,
      "UNG": 2640,
      "dlich": 2641,
      "dig": 2642,
      "fer": 2643,
      "hung": 2644,
      "hÃ¤lt": 2645,
      "mel": 2646,
      "ob": 2647,
      "prÃ¤": 2648,
      "rag": 2649,
      "teil": 2650,
      "ust": 2651,
      "wo": 2652,
      "wel": 2653,
      "ym": 2654,
      "zw": 2655,
      "ĠQ": 2656,
      "Ġfe": 2657,
      "ĠÑĢÑĸ": 2658,
      "Ġemp": 2659,
      "Ð½ÑĤ": 2660,
      "ÑģÑĤÑĮ": 2661,
      "recher": 2662,
      "Ð¸Ð»": 2663,
      "Ð¸Ð´": 2664,
      "Ð¸Ð»Ð°": 2665,
      "ende": 2666,
      "ÑĢÐ¿": 2667,
      "ÑĢÐ½Ð¸Ð¹": 2668,
      "ÐµÐ½Ð´": 2669,
      "ÑĥÑĤÑĮ": 2670,
      "ĠChe": 2671,
      "ÑĶÐ¼": 2672,
      "Ð¼Ñĸ": 2673,
      "infinitiv": 2674,
      "ÐºÐ°Ð²": 2675,
      "ÑĩÐ°ÑĤÐ¸": 2676,
      "Ð¾Ð²ÑĥÐ²Ð°ÑĤÐ¸": 2677,
      "ĠInvestor": 2678,
      "auber": 2679,
      "ĠÐ·Ð´": 2680,
      "ĠÐ·Ð±": 2681,
      "gesp": 2682,
      "ĠÑģÐ²ÑĸÑĤ": 2683,
      "ĠÐ²Ð¸ÑĤ": 2684,
      "anden": 2685,
      "utz": 2686,
      "tige": 2687,
      "Ð²Ð¾Ñĩ": 2688,
      "Ð¾ÑĢÐ¸": 2689,
      "Ð¾Ð³Ð¾Ð´": 2690,
      "irma": 2691,
      "ÑĦÐ¾Ð½": 2692,
      "ĠSomm": 2693,
      "Ġnur": 2694,
      "eite": 2695,
      "eiten": 2696,
      "Ã¤u": 2697,
      "ÑĨÑĸÑİ": 2698,
      "ĠÑĩÐ¾Ð³Ð¾ÑģÑĮ": 2699,
      "ĠÑĩÐ¸Ð¼Ð¾ÑģÑĮ": 2700,
      "ark": 2701,
      "llen": 2702,
      "ĠKar": 2703,
      "ĠÐ¾Ñĩ": 2704,
      "ĠÐ¾Ð¿": 2705,
      "ĠÐ¾Ñħ": 2706,
      "ĠÑĦÑĸÐ»ÑĮÐ¼": 2707,
      "ĠTre": 2708,
      "ĠTÃ¤": 2709,
      "ĠÐ¿Ð¾Ñģ": 2710,
      "ĠÐ¿Ð¾ÑĹ": 2711,
      "Ð±Ðµ": 2712,
      "ĠÐ±Ð°Ð½": 2713,
      "ĠÐ±ÑĢÐ°ÑĤÐ¸": 2714,
      "estell": 2715,
      "pel": 2716,
      "Ð°Ð½Ð¾": 2717,
      "Ð°Ð½ÑĤ": 2718,
      "Ġfin": 2719,
      "bereit": 2720,
      "ĠÑĸÐ½ÑĤÐµÑĢ": 2721,
      "ete": 2722,
      "etz": 2723,
      "Ġhinter": 2724,
      "alen": 2725,
      "Ġzwei": 2726,
      "ĠUrlaub": 2727,
      "Ġverl": 2728,
      "ĠFreizeit": 2729,
      "att": 2730,
      "aten": 2731,
      "ĠÐľÐ¸": 2732,
      "Geld": 2733,
      "brauch": 2734,
      "ĠLeben": 2735,
      "Ġ18": 2736,
      "Ġbekommen": 2737,
      "Ġbegin": 2738,
      "weiz": 2739,
      "ult": 2740,
      "ular": 2741,
      "Ð°Ð¹Ð±": 2742,
      "ĠSpiel": 2743,
      "ĠÑĢÐ¾Ð·Ð¿": 2744,
      "ÑĸÐ»ÑĮÑĪ": 2745,
      "halt": 2746,
      "ĠÐ¹Ð¾Ð³Ð¾": 2747,
      "ĠÐ¹Ð´Ðµ": 2748,
      "ĠJa": 2749,
      "ĠÐĽÐµÑģÑĸ": 2750,
      "boten": 2751,
      "Ġsollte": 2752,
      "ĠÐ¯ÐºÑīÐ¾": 2753,
      "ĠÑħÐ¾ÑĩÐµ": 2754,
      "rache": 2755,
      "Ġandere": 2756,
      "ĠStadt": 2757,
      "ziehen": 2758,
      "ĠÑĦÑĸÐ»Ð¾Ð»Ð¾Ð³ÑĸÑĹ": 2759,
      "bauen": 2760,
      "emporale": 2761,
      "ĠÐ¿ÑĢÐ¾Ð¿Ð¾Ð·Ð¸": 2762,
      "ĠÐ¼ÑĥÐ·Ð¸Ðº": 2763,
      "ĠÐ³Ð¾Ð²Ð¾ÑĢÐ¸ÑĤÐ¸": 2764,
      "Ġjeden": 2765,
      "TEIL": 2766,
      "ĠÐ£ÐºÑĢÐ°ÑĹÐ½ÐºÐ¸": 2767,
      "ĠSommer": 2768,
      "07": 2769,
      "36": 2770,
      "50": 2771,
      "96": 2772,
      "Be": 2773,
      "Dat": 2774,
      "EF": 2775,
      "EM": 2776,
      "ERT": 2777,
      "HEM": 2778,
      "IK": 2779,
      "Im": 2780,
      "IEF": 2781,
      "MM": 2782,
      "Mit": 2783,
      "ORT": 2784,
      "STEIL": 2785,
      "THEM": 2786,
      "Wenn": 2787,
      "abl": 2788,
      "bar": 2789,
      "brechen": 2790,
      "ii": 2791,
      "ion": 2792,
      "jug": 2793,
      "kra": 2794,
      "laden": 2795,
      "nung": 2796,
      "ogen": 2797,
      "ossen": 2798,
      "ppe": 2799,
      "rund": 2800,
      "sa": 2801,
      "sam": 2802,
      "tschaft": 2803,
      "xt": 2804,
      "zug": 2805,
      "©Ð¾": 2806,
      "Ġind": 2807,
      "Ð½Ð¾Ð¼": 2808,
      "Ð½Ð¾Ð¼Ñĥ": 2809,
      "Ð½ÑĸÐ¹": 2810,
      "Ð¾Ñħ": 2811,
      "Ð¾Ñī": 2812,
      "ÐµÐ»ÑĮ": 2813,
      "ÐµÑĨÑĸ": 2814,
      "ÑıÐ²": 2815,
      "ÑıÐ·": 2816,
      "ÑģÑĥ": 2817,
      "ret": 2818,
      "Ð°Ð»Ð¸": 2819,
      "ÑĥÑĪ": 2820,
      "Ð¼Ð°ÑĤÐ¸": 2821,
      "innen": 2822,
      "stÃ¼r": 2823,
      "ÐºÐ»Ð°Ð´": 2824,
      "ÑĩÐ½Ð¾": 2825,
      "Ð¾Ð²Ð½Ð¸Ð¹": 2826,
      "ÑģÐ½Ð¸Ð¹": 2827,
      "ĠÐ¿Ð¾Ð¼": 2828,
      "ĠÐ¿Ð¾Ð¿": 2829,
      "ĠÐ´Ð¾Ð¼": 2830,
      "ĠÐ´ÑĸÑĶ": 2831,
      "ĠÐ´Ð¾Ð´": 2832,
      "asse": 2833,
      "ĠÐ¼Ð°ÑĤ": 2834,
      "ĠÐ½Ð¾Ð²": 2835,
      "ĠÑģÐ¼Ð°": 2836,
      "ĠÐ²Ð±": 2837,
      "Ġwann": 2838,
      "ange": 2839,
      "ÑĤÐ¸Ð¹": 2840,
      "Ġget": 2841,
      "hrung": 2842,
      "Ġmal": 2843,
      "ÑĸÐ´Ð¾Ð¼": 2844,
      "ĠAuf": 2845,
      "Ð²Ð¸Ð¹": 2846,
      "Ð²ÐµÑĢ": 2847,
      "ÑĨÑĤ": 2848,
      "Ã¼tz": 2849,
      "ĠBl": 2850,
      "ĠÑĢÐµÐºÐ¾Ð¼": 2851,
      "ĠÑģÑĤÐ¾ÑĹ": 2852,
      "ĠÑģÑĤÑĢÐ°Ð²": 2853,
      "ĠÑĥÑĩ": 2854,
      "ĠÐ¿ÑĢÐ¾Ð±": 2855,
      "setzt": 2856,
      "ĠÐºÐ¸Ð¼Ð¾ÑģÑĮ": 2857,
      "ĠHo": 2858,
      "ĠHer": 2859,
      "ĠHoch": 2860,
      "ĠÐ¾Ð²Ð¾Ñĩ": 2861,
      "ĠFall": 2862,
      "ĠFirma": 2863,
      "Ð¾Ð»Ð¸Ð½": 2864,
      "ĠÐ·Ð°Ñħ": 2865,
      "ĠMen": 2866,
      "ĠTag": 2867,
      "ĠGarten": 2868,
      "ĠGRA": 2869,
      "Ð»ÑĮÐ½Ð¾Ð³Ð¾": 2870,
      "rochen": 2871,
      "usik": 2872,
      "Ġganz": 2873,
      "Ð°Ð²ÑģÑı": 2874,
      "Ġaufge": 2875,
      "ĠÐ½Ð°ÑĢÐ¾Ð´": 2876,
      "ĠÐ½Ð°ÑĪ": 2877,
      "ĠSubjekt": 2878,
      "ichten": 2879,
      "ĠÐ±Ð°Ð³Ð°ÑĤÐ¾": 2880,
      "Ġtrennb": 2881,
      "ĠZug": 2882,
      "ĠÑģÐ¿ÑĸÐ²": 2883,
      "Ð°Ð½Ñĸ": 2884,
      "ĠSchl": 2885,
      "ĠSchreiben": 2886,
      "ÑĸÑģÑĤ": 2887,
      "Ã¶glich": 2888,
      "ĠÐ±ÑĥÐ´Ð¸Ð½": 2889,
      "etter": 2890,
      "itten": 2891,
      "ĠWendungen": 2892,
      "ĠWORT": 2893,
      "one": 2894,
      "ĠÐ¶Ð¸ÑĤ": 2895,
      "erlativ": 2896,
      "ĠÐ¿Ð¾Ð²ÐµÑĢ": 2897,
      "ĠÐ¿Ð¾Ð²ÑĸÐ´Ð¾Ð¼": 2898,
      "ĠFreunde": 2899,
      "ĠVERT": 2900,
      "ĠReg": 2901,
      "ÑģÑĤÑĢÑĥ": 2902,
      "Ð»Ð°ÑĪÑĤ": 2903,
      "Ġviele": 2904,
      "ĠEn": 2905,
      "ĠEssen": 2906,
      "ĠâĢ¦.": 2907,
      "hoch": 2908,
      "Ġ20": 2909,
      "ĠNo": 2910,
      "ĠNatur": 2911,
      "mittel": 2912,
      "ĠÑīÐµ": 2913,
      "ÑĢÐ°ÑĪ": 2914,
      "Ġ12": 2915,
      "Ġverb": 2916,
      "ational": 2917,
      "ĠÃ¼bergeordneten": 2918,
      "ĠÐ²Ð¸Ð¿Ð°Ð´": 2919,
      "Ã¤ndern": 2920,
      "ĠÐ´Ð¾ÑħÑĸÐ´": 2921,
      "Ð¿ÑĢÐ¾": 2922,
      "ĠBeantworten": 2923,
      "ÑģÑĮÐºÐ¾Ð³Ð¾": 2924,
      "stellt": 2925,
      "junktion": 2926,
      "rift": 2927,
      "klin": 2928,
      "ĠÑĤÐµÐ»ÐµÑĦÐ¾Ð½": 2929,
      "Ð²Ð°Ð¶Ð°Ñİ": 2930,
      "ĠOrd": 2931,
      "handel": 2932,
      "Ġsollten": 2933,
      "ĠÐ½Ð°Ð²Ñĩ": 2934,
      "zeug": 2935,
      "ĠFrage": 2936,
      "ATZ": 2937,
      "ATIK": 2938,
      "omparativ": 2939,
      "omparation": 2940,
      "ĠÐºÐ°ÑĦ": 2941,
      "ĠStraÃŁen": 2942,
      "ĠÑĨÑĸÐºÐ°Ð²": 2943,
      "steig": 2944,
      "drÃ¼cken": 2945,
      "heim": 2946,
      "ĠÐ¼ÐµÐ½Ðµ": 2947,
      "ĠHauptsatz": 2948,
      "ĠWohnung": 2949,
      "Ġwichtig": 2950,
      "SCHATZ": 2951,
      "UNGSTEIL": 2952,
      "welt": 2953,
      "IEFUNGSTEIL": 2954,
      "MMATIK": 2955,
      "THEMA": 2956,
      "ĠÑģÑĤÐ¾ÑĹÑĤÑĮ": 2957,
      "ĠGRAMMATIK": 2958,
      "ĠWORTSCHATZ": 2959,
      "ĠVERTIEFUNGSTEIL": 2960,
      "37": 2961,
      "40": 2962,
      "79": 2963,
      "Ab": 2964,
      "Aus": 2965,
      "Akk": 2966,
      "Auf": 2967,
      "Bahn": 2968,
      "Co": 2969,
      "Ma": 2970,
      "Su": 2971,
      "ade": 2972,
      "eklin": 2973,
      "fragen": 2974,
      "finden": 2975,
      "gie": 2976,
      "io": 2977,
      "iÃŁ": 2978,
      "iver": 2979,
      "punkt": 2980,
      "rÃ¼n": 2981,
      "so": 2982,
      "sw": 2983,
      "son": 2984,
      "tlich": 2985,
      "wa": 2986,
      "zieren": 2987,
      "zogen": 2988,
      "ÐŁ": 2989,
      "Ġa": 2990,
      "ĠÃ¼b": 2991,
      "ĠÐĩ": 2992,
      "ĠÐĵ": 2993,
      "ĠÐ©Ð¾": 2994,
      "Ð½ÑĶ": 2995,
      "ÐµÐ»": 2996,
      "ÐµÑĢÑĸ": 2997,
      "ÐµÐ¶": 2998,
      "ÐµÑĢÑĥ": 2999,
      "ÑģÑĸÐ´": 3000,
      "reflexive": 3001,
      "Ð¸Ð±": 3002,
      "Ð¸ÑĪ": 3003,
      "ÑĤÑĤÑı": 3004,
      "ÑĢÐ¾Ð·": 3005,
      "ÑĥÐ»ÑĮÑĤ": 3006,
      "inen": 3007,
      "standen": 3008,
      "ÐºÑĢ": 3009,
      "iere": 3010,
      "ieder": 3011,
      "Ð¾Ð²ÐºÐ°": 3012,
      "ĠÐ¿ÑĢÐµ": 3013,
      "asch": 3014,
      "Ð´ÑĸÐ»": 3015,
      "ĠÐ¼Ñĸ": 3016,
      "ĠÐ¼Ð¾ÑĢ": 3017,
      "ĠÐ¼Ð¾Ð²Ð¸": 3018,
      "ÑĮÐ¾Ð³Ð¾Ð´": 3019,
      "geld": 3020,
      "ÑĸÑĶÑİ": 3021,
      "ĠÑģÐ¼": 3022,
      "ĠÐ²Ð¾Ð½Ð¸": 3023,
      "ĠDach": 3024,
      "ander": 3025,
      "eist": 3026,
      "eiger": 3027,
      "tigen": 3028,
      "Ġkenn": 3029,
      "aufgaben": 3030,
      "ĠAuss": 3031,
      "ĠAktiv": 3032,
      "ÑĨÐµÐ½ÑĤ": 3033,
      "irge": 3034,
      "ĠBo": 3035,
      "ĠBei": 3036,
      "ĠSing": 3037,
      "Ð¾Ð´Ð¸Ñĩ": 3038,
      "âĢĺ": 3039,
      "ĠnÃ¤": 3040,
      "achsen": 3041,
      "schrift": 3042,
      "ĠÐ·Ð°Ð³": 3043,
      "genommen": 3044,
      "ĠÐºÑĢ": 3045,
      "ĠÐºÐ»": 3046,
      "ĠÐºÐ°Ð²": 3047,
      "ĠÐºÑĥÑĢ": 3048,
      "ĠHa": 3049,
      "llig": 3050,
      "ÑİÑĤÑĮ": 3051,
      "ĠÐ·Ð°Ð¼Ð¾Ð²": 3052,
      "ĠÐ·Ð°ÑĢÐ¿": 3053,
      "ĠMeer": 3054,
      "feste": 3055,
      "ĠÑĦÑĸÑĢ": 3056,
      "ĠTur": 3057,
      "ĠGer": 3058,
      "ĠGem": 3059,
      "Ð±Ð°": 3060,
      "ÑĢÑĸÑĹ": 3061,
      "ĠÐ½Ð°ÑĥÐº": 3062,
      "ĠPo": 3063,
      "ĠPosition": 3064,
      "ĠPrÃ¼fung": 3065,
      "ĠPaul": 3066,
      "Ð½Ð°Ð»": 3067,
      "Ð²ÑĸÑģÑĤÑĮ": 3068,
      "Ð½ÑıÑĤÑĤÑı": 3069,
      "ĠÑģÐ¿ÐµÑĨÑĸ": 3070,
      "ĠZeitung": 3071,
      "Ġersten": 3072,
      "isten": 3073,
      "Ġschw": 3074,
      "ĠSchweiz": 3075,
      "beg": 3076,
      "rÃ¤ch": 3077,
      "itze": 3078,
      "ĠWun": 3079,
      "ische": 3080,
      "erman": 3081,
      "Ġsicher": 3082,
      "ĠLie": 3083,
      "ĠÐľÐµÐ½Ñĸ": 3084,
      "etzten": 3085,
      "lasse": 3086,
      "ĠÑĢÐ¾Ðº": 3087,
      "ĠâĢ¦,": 3088,
      "ĠÐ¾ÑģÐ¾Ð±": 3089,
      "ĠOp": 3090,
      "ĠObjekt": 3091,
      "ĠKonjunktiv": 3092,
      "Ð¾Ð½Ð¾Ð¼": 3093,
      "ÑĢÐ°Ñħ": 3094,
      "Ð¾ÑĩÐµ": 3095,
      "ĠÑħÐ¾ÑĤÑĸ": 3096,
      "zent": 3097,
      "ĠÐ²Ð¸Ð±": 3098,
      "ĠÐ¿ÑĢÐ¾ÑĦ": 3099,
      "ĠÐ´Ð¾ÑĨÐµÐ½ÑĤ": 3100,
      "ÑģÑĮÐºÐ°": 3101,
      "gelmÃ¤ÃŁ": 3102,
      "ÐµÐºÑĤÐ¸": 3103,
      "egation": 3104,
      "Ġstatt": 3105,
      "matik": 3106,
      "Ġabge": 3107,
      "Ð¸ÑĩÐ°Ð¹": 3108,
      "ĠSatzende": 3109,
      "stellen": 3110,
      "lang": 3111,
      "ĠÑĹÑĹ": 3112,
      "richten": 3113,
      "opf": 3114,
      "oppel": 3115,
      "ĠÐ²ÑĸÐ´Ð¿ÑĥÑģÑĤ": 3116,
      "ĠÐ²ÑĸÐ´Ð¿Ð¾Ð²ÑĸÐ´": 3117,
      "hÃ¶ren": 3118,
      "ĠÐºÑĥÐ¿Ð¸ÑĤÐ¸": 3119,
      "schieden": 3120,
      "ÑĥÑģÑĤÑĢÑĸ": 3121,
      "zeugen": 3122,
      "Ġanderen": 3123,
      "Ġdavon": 3124,
      "ĠÐ¿Ð°ÑĢÑĤ": 3125,
      "ĠÐ·Ð»Ð¾ÑĩÐ¸Ð½": 3126,
      "ĠAdjektive": 3127,
      "ĠFlug": 3128,
      "ĠÑĩÐ°ÑģÑĥ": 3129,
      "Ġgerne": 3130,
      "dium": 3131,
      "www": 3132,
      "ĠÐ¦Ðµ": 3133,
      "ĠGebÃ¤u": 3134,
      "ĠFinalsatz": 3135,
      "ĠÐ½Ð°ÑĨÑĸÐ¾Ð½Ð°Ð»ÑĮÐ½Ð¾Ð³Ð¾": 3136,
      "ico": 3137,
      "ĠFernsehen": 3138,
      "ĠÐ¿ÑĢÐ°ÑĨÑİ": 3139,
      "Arbeit": 3140,
      "sitÃ¤t": 3141,
      "ĠÐ¾Ð´ÑıÐ³": 3142,
      "Ġkonjug": 3143,
      "ograf": 3144,
      "hÃ¤ltnis": 3145,
      "ĠÑĢÑĸÐ·": 3146,
      "gesprÃ¤ch": 3147,
      "Ġfinde": 3148,
      "Ġbeginnt": 3149,
      "Ð°Ð¹Ð±ÑĥÑĤ": 3150,
      "ĠÐ²Ð±Ð¸Ð²": 3151,
      "ĠÐ¿ÑĢÐ¾Ð±Ð»Ðµ": 3152,
      "hochschule": 3153,
      "iversitÃ¤t": 3154,
      "ÑĮÐ¾Ð³Ð¾Ð´Ð½Ñĸ": 3155,
      "Ġkenne": 3156,
      "ĠÐ·Ð°ÑĢÐ¿Ð»": 3157,
      "!!": 3158,
      "34": 3159,
      "48": 3160,
      "Fach": 3161,
      "SB": 3162,
      "Wel": 3163,
      "__": 3164,
      "ati": 3165,
      "bÃ¼": 3166,
      "bahn": 3167,
      "bringen": 3168,
      "dir": 3169,
      "eter": 3170,
      "ehmen": 3171,
      "film": 3172,
      "go": 3173,
      "glei": 3174,
      "gab": 3175,
      "gang": 3176,
      "garten": 3177,
      "ick": 3178,
      "itik": 3179,
      "jahr": 3180,
      "ker": 3181,
      "kehr": 3182,
      "komparation": 3183,
      "lage": 3184,
      "md": 3185,
      "mm": 3186,
      "modalverben": 3187,
      "oren": 3188,
      "passiv": 3189,
      "rim": 3190,
      "san": 3191,
      "sum": 3192,
      "siert": 3193,
      "smittel": 3194,
      "tag": 3195,
      "tieren": 3196,
      "trennb": 3197,
      "zei": 3198,
      "Ãĸ": 3199,
      "ÐĲ": 3200,
      "ÐĿ": 3201,
      "Ġ:": 3202,
      "Ġ=": 3203,
      "ĠNom": 3204,
      "ĠÑģÐ»Ñĥ": 3205,
      "Ð½Ð¸Ð¼": 3206,
      "ÑģÑĤÑĢ": 3207,
      "reis": 3208,
      "reten": 3209,
      "Ð°Ð»ÑĮ": 3210,
      "ches": 3211,
      "chmal": 3212,
      "ÐµÐ½Ð°": 3213,
      "ÐµÐ½ÑĨÑĸÑı": 3214,
      "Ð»Ð¾": 3215,
      "Ð»ÑİÐ±": 3216,
      "ÑĥÐ»Ñı": 3217,
      "era": 3218,
      "stru": 3219,
      "stit": 3220,
      "stamm": 3221,
      "ĠIhre": 3222,
      "ÐºÑĤÐ¸": 3223,
      "ÐºÐ¸Ð¹": 3224,
      "ÐºÑĸÐ²": 3225,
      "ÐºÐ¾Ð²Ð¸Ð¹": 3226,
      "ÑĩÐ°": 3227,
      "ÑĩÑĩ": 3228,
      "ÑĩÐ½Ð°": 3229,
      "ief": 3230,
      "iesen": 3231,
      "ieÃŁen": 3232,
      "Ð¾Ð²Ð°Ð½Ð¸Ð¹": 3233,
      "ĠÐ¿Ð¾Ð»": 3234,
      "ĠÐ¿Ð¸Ñģ": 3235,
      "ĠÐ¿Ð¾Ð±": 3236,
      "ĠInsel": 3237,
      "ĠÐ´Ð¸": 3238,
      "ĠÐ´ÐµÐ½ÑĮ": 3239,
      "aupt": 3240,
      "Ð´Ð°ÑĤÐ¸": 3241,
      "ĠÐ¼Ð¾Ð²": 3242,
      "ĠÐ¼Ð¾Ð³": 3243,
      "ĠÐ¼Ð°Ñİ": 3244,
      "ĠÐ¼Ð°Ð¹Ð±ÑĥÑĤ": 3245,
      "ĠÐ·Ð¼": 3246,
      "ĠÐ·Ð³": 3247,
      "ĠÐ·ÑĢÐ¾Ð±": 3248,
      "Ġihn": 3249,
      "ĠÐ½Ð°Ð¿": 3250,
      "ĠÑģÐ¾": 3251,
      "ĠÑģÐ²Ð°ÑĢ": 3252,
      "ĠÐ²Ñĩ": 3253,
      "ĠÐ²Ð¿": 3254,
      "ĠÐ²Ð·": 3255,
      "ĠÐ²ÑĸÐº": 3256,
      "ĠÐ²Ð¸Ð²": 3257,
      "ĠÐ²Ð°Ð¶": 3258,
      "ĠÐ²ÑĸÑĤ": 3259,
      "einer": 3260,
      "Ġweg": 3261,
      "Ġwissen": 3262,
      "anst": 3263,
      "anzen": 3264,
      "angebot": 3265,
      "Ġ(=": 3266,
      "Ġgeb": 3267,
      "Ġgeben": 3268,
      "ĠÐ½ÐµÐ²": 3269,
      "aufen": 3270,
      "Ð²ÑĢ": 3271,
      "Ð²Ð°Ð³": 3272,
      "Ġbere": 3273,
      "ĠÐ¿ÑĸÐ´Ð²Ð¸": 3274,
      "ĠBÃ¼r": 3275,
      "ess": 3276,
      "ĠSelma": 3277,
      "Ð¾Ð´Ð°": 3278,
      "ĠÑģÑĤÑĢ": 3279,
      "ĠÑģÑĤÑĢÐ°Ñħ": 3280,
      "schn": 3281,
      "schutz": 3282,
      "Ã¤d": 3283,
      "ĠÐ¿ÑĢÐ¾Ð³": 3284,
      "ÑĨÑĸÐ¹": 3285,
      "ĠÑĩÐµÐº": 3286,
      "erneinen": 3287,
      "ĠÑĤÐ¾Ñĩ": 3288,
      "ĠÑĤÑĥÑĢ": 3289,
      "sekt": 3290,
      "ÑģÑĸÐ±": 3291,
      "ĠHil": 3292,
      "ĠKann": 3293,
      "ĠÐ¾ÑĦ": 3294,
      "ĠÐ¾Ð³": 3295,
      "Ð°Ð³Ð°ÑĤÐ¸": 3296,
      "Ð¾Ð»Ð°": 3297,
      "ĠMo": 3298,
      "ĠMon": 3299,
      "ĠMÃ¤r": 3300,
      "ĠMesse": 3301,
      "ĠTa": 3302,
      "ĠTeil": 3303,
      "ĠGo": 3304,
      "ĠGegen": 3305,
      "ĠDeutschen": 3306,
      "Ð°Ð¼ÑĸÐ½": 3307,
      "Ð°Ð¼Ð°ÑĤÐ¸": 3308,
      "Ð¶ÐµÐ½Ð½Ñı": 3309,
      "ĠPf": 3310,
      "ĠPol": 3311,
      "ĠPlatz": 3312,
      "Ġinteres": 3313,
      "Ð³Ð¾Ð²Ð¾ÑĢ": 3314,
      "ĠArbeits": 3315,
      "umen": 3316,
      "ĠÐ±Ð¸": 3317,
      "ĠÑģÐ¿ÑĸÐ»": 3318,
      "ĠÑģÐ¿Ð¾ÑĢÑĤ": 3319,
      "Ð°Ð½Ð´": 3320,
      "Ġfern": 3321,
      "ĠÐ·Ð°Ð¹Ð¼": 3322,
      "Ð¿ÐµÑĢ": 3323,
      "Ã¶ff": 3324,
      "chten": 3325,
      "begin": 3326,
      "ĠÐ´ÑĢÑĥÐ·": 3327,
      "ĠPartner": 3328,
      "Ð°Ð»ÑĮÐ½Ð°": 3329,
      "ĠÐ²ÑĸÐ´Ð±": 3330,
      "Ġher": 3331,
      "ĠhÃ¶": 3332,
      "itzen": 3333,
      "ĠWald": 3334,
      "ĠWÃ¶rter": 3335,
      "ĠÐ·Ð°Ð¿ÑĢ": 3336,
      "ringt": 3337,
      "aler": 3338,
      "ĠUSB": 3339,
      "zig": 3340,
      "sicher": 3341,
      "ierung": 3342,
      "Ġvom": 3343,
      "Ð¾ÑĤÐµÑĢÐµ": 3344,
      "Ġneuen": 3345,
      "sprache": 3346,
      "ÑĥÐ²Ð°Ð»Ð°": 3347,
      "ÑģÑĤÑĢÑĸ": 3348,
      "ÑģÑĤÐ°Ð½": 3349,
      "urs": 3350,
      "ats": 3351,
      "ĠStudium": 3352,
      "agesatz": 3353,
      "ĠÐ³Ð¾ÑĢ": 3354,
      "ĠÐ³Ð¾ÑģÑĤÑĸ": 3355,
      "ĠÐ±ÐµÐ·Ð¿Ðµ": 3356,
      "ĠText": 3357,
      "schlag": 3358,
      "ĠÑĢÐ°Ñħ": 3359,
      "zahlen": 3360,
      "warten": 3361,
      "ĠWohin": 3362,
      "ÑīÐ°": 3363,
      "Ġmeiner": 3364,
      "ĠÐ¾ÑģÐ²Ñĸ": 3365,
      "ĠVerw": 3366,
      "ĠOst": 3367,
      "braucht": 3368,
      "ĠKonjunktion": 3369,
      "Ð½Ð¾ÑĹ": 3370,
      "ĠÐĴÐ°Ñģ": 3371,
      "ĠÐ»Ñİ": 3372,
      "ĠÐ»Ð¸ÑģÑĤ": 3373,
      "ĠÐ»ÐµÐº": 3374,
      "ĠÐ»Ð¾ÑĤÐµÑĢÐµ": 3375,
      "Ġ11": 3376,
      "Ġ13": 3377,
      "Ġ15": 3378,
      "ĠÑħÐ²Ð¾ÑĢ": 3379,
      "Ð»Ð¸ÑĪ": 3380,
      "Ð»Ð¸Ð·": 3381,
      "ĠÐ¼Ð¾Ð¶Ñĥ": 3382,
      "ÐµÑĤÐ°": 3383,
      "adt": 3384,
      "adio": 3385,
      "Ð½Ð¸ÑĨÑĤ": 3386,
      "ĠVerbrecher": 3387,
      "ĠVerbstamm": 3388,
      "ÑĤÐ°ÑĢÑĸ": 3389,
      "ÑĸÐ»ÑĮÑĪÐµ": 3390,
      "ĠÐ´ÑĥÐ¼Ð°Ñİ": 3391,
      "halb": 3392,
      "fÃ¼hren": 3393,
      "ositiv": 3394,
      "ÑĨÑĮÐºÐ°": 3395,
      "stellung": 3396,
      "Ã¤tte": 3397,
      "Ð»ÑıÑĤÐ¸ÑģÑı": 3398,
      "ĠRegel": 3399,
      "lungs": 3400,
      "ammel": 3401,
      "ĠÐ»ÑİÐ±Ð¸ÑĤÑĮ": 3402,
      "geschÃ¤ft": 3403,
      "ĠOrt": 3404,
      "ĠAusbildung": 3405,
      "Ġetw": 3406,
      "ÐµÐ´ÑĢÐ¸": 3407,
      "reiten": 3408,
      "schied": 3409,
      "Ġalle": 3410,
      "ĠÐµÐºÑģ": 3411,
      "ĠÐµÐºÐ¾Ð½Ð¾Ð¼": 3412,
      "meer": 3413,
      "ĠÐ§Ð¸": 3414,
      "ĠÐºÐ¾Ð»ÑĮ": 3415,
      "ĠÐºÐ¾Ð»ÐµÐ³": 3416,
      "Ð±Ð¸ÑĢÐ°ÑĤÐ¸": 3417,
      "ĠStadtr": 3418,
      "konjunktiv": 3419,
      "ÑĥÐ½Ð¾Ðº": 3420,
      "ÑģÐ»ÑĥÐ³": 3421,
      "Ġbestimm": 3422,
      "Ġverwenden": 3423,
      "ĠSofa": 3424,
      "ĠĠĠĠĠĠĠĠĠĠĠĠĠĠĠĠ": 3425,
      "ĠÐ¿Ð»Ð°Ð½": 3426,
      "dienen": 3427,
      "zÃ¤hlt": 3428,
      "ĠAls": 3429,
      "ĠÑģÑĤÑĥÐ´ÐµÐ½ÑĤÑĸÐ²": 3430,
      "ĠHausaufgaben": 3431,
      "ĠRelativpronomen": 3432,
      "ĠÐ»ÑĸÐºÐ°ÑĢ": 3433,
      "bieten": 3434,
      "besch": 3435,
      "folge": 3436,
      "Ġdiesem": 3437,
      "ĠÑĢÐ¾Ð±Ð¾ÑĩÐ¸Ð¹": 3438,
      "ĠÐ²ÐµÑĩÑĸÑĢ": 3439,
      "ĠÑĥÐ½ÑĸÐ²ÐµÑĢÑģÐ¸ÑĤÐµÑĤÑĥ": 3440,
      "bestimm": 3441,
      "ĠÐ´Ð¸Ð²Ð¸ÑĤÐ¸ÑģÑı": 3442,
      "Ġfolgenden": 3443,
      "ĠQR": 3444,
      "ĠChef": 3445,
      "ĠÐ¾ÑħÐ¾ÑĩÐµ": 3446,
      "ultur": 3447,
      "ĠÐ¿ÑĢÐ¾Ð¿Ð¾Ð·Ð¸ÑĨÑĸÑı": 3448,
      "tschafts": 3449,
      "ĠÑĢÐµÐºÐ¾Ð¼ÐµÐ½Ð´Ð°": 3450,
      "Ð¾Ð»Ð¸Ð½ÑģÑĮÐºÐ¾Ð³Ð¾": 3451,
      "Ã¶glichkeit": 3452,
      "ĠÐ±ÑĥÐ´Ð¸Ð½Ð¾Ðº": 3453,
      "ĠÐ¶Ð¸ÑĤÑĤÑı": 3454,
      "ĠÐºÐ°ÑĦÐµÐ´ÑĢÐ¸": 3455,
      "Codes": 3456,
      "iederlan": 3457,
      "ĠSingular": 3458,
      "ĠPost": 3459,
      "Ġkonjugierte": 3460,
      "ĠÑģÐ»ÑĥÐ¶": 3461,
      "stitut": 3462,
      "Ġbereit": 3463,
      "ĠÐ¿ÑĸÐ´Ð²Ð¸Ñī": 3464,
      ");": 3465,
      "33": 3466,
      "35": 3467,
      "45": 3468,
      "49": 3469,
      "57": 3470,
      "67": 3471,
      "Ber": 3472,
      "Deutsch": 3473,
      "Hand": 3474,
      "Men": 3475,
      "Par": 3476,
      "Pro": 3477,
      "aha": 3478,
      "aar": 3479,
      "com": 3480,
      "dung": 3481,
      "doppel": 3482,
      "fre": 3483,
      "for": 3484,
      "fach": 3485,
      "fft": 3486,
      "freund": 3487,
      "gr": 3488,
      "gst": 3489,
      "gern": 3490,
      "gation": 3491,
      "hein": 3492,
      "higkeit": 3493,
      "ium": 3494,
      "iff": 3495,
      "kÃ¼": 3496,
      "kurs": 3497,
      "lÃ¶": 3498,
      "los": 3499,
      "markt": 3500,
      "namen": 3501,
      "ole": 3502,
      "pas": 3503,
      "perfekt": 3504,
      "perlativ": 3505,
      "qu": 3506,
      "ras": 3507,
      "rieben": 3508,
      "su": 3509,
      "ses": 3510,
      "ty": 3511,
      "temporale": 3512,
      "uster": 3513,
      "voll": 3514,
      "verein": 3515,
      "we": 3516,
      "wÃ¤": 3517,
      "weg": 3518,
      "zin": 3519,
      "zog": 3520,
      "zone": 3521,
      "Ð¢": 3522,
      "Ð£": 3523,
      "Ðł": 3524,
      "Ġeigen": 3525,
      "ĠÐ¥": 3526,
      "ĠÐł": 3527,
      "Ð¾ÑĢÐµ": 3528,
      "ÐµÑĦ": 3529,
      "ÑıÑĤÑĮ": 3530,
      "ÑĸÑĩÐ½Ð¸Ð¹": 3531,
      "ÑĸÑĤÐ°ÑĢÑĸ": 3532,
      "rer": 3533,
      "regelmÃ¤ÃŁ": 3534,
      "Ð¾Ð¹": 3535,
      "Ð°Ð´Ð°": 3536,
      "Ð¸Ð»Ð¸": 3537,
      "ÑĤÐµÐ½": 3538,
      "ÑĢÐ¸Ð¹": 3539,
      "ÑĢÐ¾Ð±Ñĸ": 3540,
      "ÑĢÐ°Ð·": 3541,
      "ÐµÐ½ÑĤÑĢ": 3542,
      "ÐµÐ½ÐµÑĢ": 3543,
      "Ð»ÐµÐ½": 3544,
      "Ð»Ð»Ñı": 3545,
      "ÑĥÑĢÐ°": 3546,
      "Ð¼Ð¸": 3547,
      "inge": 3548,
      "ingt": 3549,
      "stich": 3550,
      "stimmen": 3551,
      "stadt": 3552,
      "ÐºÐ°ÑĤÐ¸": 3553,
      "ÐºÑĤÐ¾ÑĢ": 3554,
      "ÐºÐ¾Ð³Ð¾ÑģÑĮ": 3555,
      "ÐºÐ¾Ð²Ð¾": 3556,
      "ÑĩÐ½Ðµ": 3557,
      "ÑĩÐºÐ°": 3558,
      "Ġdun": 3559,
      "Ġdeutsch": 3560,
      "Ġdann": 3561,
      "Ġdrei": 3562,
      "ieg": 3563,
      "iem": 3564,
      "iegen": 3565,
      "ÑģÐ½Ð¸Ðº": 3566,
      "ĠÐ¿ÐµÑĢ": 3567,
      "ĠÐ¿ÑĸÑĪ": 3568,
      "ĠÐ¿Ð¾Ð»Ñĸ": 3569,
      "Ð¾Ð¼Ð°": 3570,
      "Ð¾Ð¼Ð¸Ð¹": 3571,
      "Ð¾Ð¼Ð°ÑĤ": 3572,
      "ĠInsekt": 3573,
      "ĠÐ´Ð¾ÑĢ": 3574,
      "ĠÐ´Ð²Ñĸ": 3575,
      "ĠÐ´Ð¾Ðº": 3576,
      "ĠÐ´Ð¾Ð±": 3577,
      "ĠÐ´ÐµÑĤ": 3578,
      "ĠÐ´Ð¸ÑĢ": 3579,
      "Ð¸ÐºÐ¸": 3580,
      "aschen": 3581,
      "ÑģÐ»ÑĸÐ²": 3582,
      "ĠÐ¼Ð¾ÑĹ": 3583,
      "ĠÐ¼Ð¾Ð²Ð°": 3584,
      "ĠÐ¼ÑĥÑģ": 3585,
      "ĠÐ¼ÑĢÑĸÑĹ": 3586,
      "Ð°ÑĶÑĪ": 3587,
      "Ð°ÑĶÐ¼Ð¾": 3588,
      "ĠÐ·Ð½Ð¸Ð¶": 3589,
      "ĠÐ·ÑĥÑģÑĤÑĢÑĸ": 3590,
      "gefÃ¼": 3591,
      "ĠÐ½Ð°Ð¼": 3592,
      "ĠÐ½Ð¾Ð²Ð¸Ð¹": 3593,
      "ÑĸÑĶÐ½ÑĤ": 3594,
      "ĠÑģÑĮÐ¾Ð³Ð¾Ð´Ð½Ñĸ": 3595,
      "ĠÐ²Ð¼": 3596,
      "ĠÐ²Ð°ÑĢ": 3597,
      "ĠÐ²Ð¿ÑĢÐ°Ð²": 3598,
      "einander": 3599,
      "Ġhal": 3600,
      "ĠDem": 3601,
      "ÑĢÐµÑĤ": 3602,
      "Ġwo": 3603,
      "Ġsollt": 3604,
      "ÑĤÐ¸Ð½Ð°": 3605,
      "Ġgem": 3606,
      "ĠÐ½ÐµÐ¿": 3607,
      "ĠÐ½ÐµÐ·": 3608,
      "ĠkÃ¤": 3609,
      "Ġmei": 3610,
      "Ð²Ð°ÑĤÐ¸": 3611,
      "Ð²Ð½Ð¸Ð¹": 3612,
      "Ð¾ÑĢÐ°": 3613,
      "Ð¾ÑĢÐ¾Ð²": 3614,
      "Ð¾ÑĢÐ¾Ð½": 3615,
      "Ð¾ÑĢÐ¾ÑĪ": 3616,
      "Ð¼ÐµÑĢ": 3617,
      "Ġba": 3618,
      "Ã¼se": 3619,
      "Ã¼tzen": 3620,
      "ĠBÃ¤": 3621,
      "ĠBrÃ¼": 3622,
      "ĠBett": 3623,
      "esung": 3624,
      "Ð¹Ð¾Ð½": 3625,
      "ÑĦÐµÑĢ": 3626,
      "ĠSon": 3627,
      "ĠSeite": 3628,
      "Ð¾Ð´ÐµÐ½": 3629,
      "Ð¾Ð´ÑĸÐ¹": 3630,
      "âĢĵ": 3631,
      "âĢŀ": 3632,
      "ĠÑģÑĤÑĢÐµ": 3633,
      "ache": 3634,
      "scheiden": 3635,
      "ĠÑĥÐºÑĥ": 3636,
      "ĠÑĥÑģÐ¿": 3637,
      "Ã¤f": 3638,
      "ĠÐ¿ÑĢÐ¸Ð½": 3639,
      "ĠÐ¿ÑĢÐ¾ÑĤ": 3640,
      "ĠÐ¿ÑĢÐ¸Ð²": 3641,
      "ĠÐ¿ÑĢÐ¸Ð³": 3642,
      "decken": 3643,
      "ĠÑĩÐ¸ÑĤ": 3644,
      "ĠÑĩÑĥÐ´": 3645,
      "ĠÑĩÐ¸ÑģÑĤÐ¸": 3646,
      "ĠÑĩÐµÑĢÐµÐ·": 3647,
      "ĠÑĤÐ°Ð¼": 3648,
      "arage": 3649,
      "Ġeines": 3650,
      "setz": 3651,
      "ĠÐºÑĢÐ°": 3652,
      "ĠHe": 3653,
      "unft": 3654,
      "llt": 3655,
      "ĠKan": 3656,
      "ĠKrank": 3657,
      "ĠKunden": 3658,
      "ĠKopf": 3659,
      "ĠKultur": 3660,
      "ÑİÑĢ": 3661,
      "ĠÐ¾Ð¿Ðµ": 3662,
      "ĠFor": 3663,
      "Ð¸Ð½Ñĸ": 3664,
      "Ð¾Ð»ÑĮ": 3665,
      "ĠÐ·Ð°Ð»Ð¸ÑĪ": 3666,
      "ĠMot": 3667,
      "ĠÑĩÐ°ÑģÑĤ": 3668,
      "ĠÑĦÐ¾ÑĤ": 3669,
      "ĠTrau": 3670,
      "ĠTrin": 3671,
      "ĠTal": 3672,
      "ĠTier": 3673,
      "ĠTour": 3674,
      "ĠGast": 3675,
      "ĠGrund": 3676,
      "ĠÐ¿Ð¾ÑģÐ¸": 3677,
      "ĠDeutschland": 3678,
      "ÑĥÑĶÐ¼Ð¾": 3679,
      "annt": 3680,
      "ktur": 3681,
      "ĠPati": 3682,
      "ĠPreis": 3683,
      "Ð½Ð¸ÐºÐ¸": 3684,
      "raut": 3685,
      "rauen": 3686,
      "ÑĢÑĥÐ´": 3687,
      "Ð³Ð°": 3688,
      "ĠÐ±Ð°Ñģ": 3689,
      "rennen": 3690,
      "Ġteil": 3691,
      "esten": 3692,
      "ĠZu": 3693,
      "ĠZim": 3694,
      "Ġfliegen": 3695,
      "ĠerhÃ¶": 3696,
      "ĠerzÃ¤hlt": 3697,
      "ĠSchwar": 3698,
      "ĠSchuhe": 3699,
      "Ð½ÐµÑĤÑĸ": 3700,
      "Ð½ÐµÐ´ÑĸÐ»": 3701,
      "ĠÐ¼ÑĸÑģÑĤÐ¸": 3702,
      "bew": 3703,
      "ĠÑĨÐ¸Ð¼": 3704,
      "dieren": 3705,
      "etzen": 3706,
      "itag": 3707,
      "itte": 3708,
      "ittel": 3709,
      "ĠWein": 3710,
      "ĠWenn": 3711,
      "ÑĢÑıÑĤÐ¸": 3712,
      "ĠÐ¶Ð¾Ð²": 3713,
      "ĠÐ¶Ð¸ÑĤÐ¸": 3714,
      "ennt": 3715,
      "durch": 3716,
      "Ð»ÑİÐ²Ð°ÑĤÐ¸": 3717,
      "achte": 3718,
      "Ġausge": 3719,
      "ĠausdrÃ¼cken": 3720,
      "ĠÑĨÑĮÐ¾Ð¼Ñĥ": 3721,
      "ame": 3722,
      "ÑĸÐ¹ÑģÐ½": 3723,
      "Ã¼rfen": 3724,
      "Ð¾ÑĤÐ°": 3725,
      "Ġwohnen": 3726,
      "serv": 3727,
      "telefon": 3728,
      "spr": 3729,
      "ĠFreitag": 3730,
      "ĠVoll": 3731,
      "ĠRes": 3732,
      "ĠÐ¢ÑĥÑĤ": 3733,
      "nee": 3734,
      "negation": 3735,
      "ÑģÑĤÑĥÐ¿": 3736,
      "iss": 3737,
      "ural": 3738,
      "arbeiter": 3739,
      "Ð»ÐµÐ¶": 3740,
      "ĠGew": 3741,
      "ĠEi": 3742,
      "ĠEl": 3743,
      "Ð´Ð°ÑĢ": 3744,
      "ĠÐĹÐ°": 3745,
      "tra": 3746,
      "tragen": 3747,
      "schlossen": 3748,
      "ĠÑĢÐ¸Ð½": 3749,
      "zahl": 3750,
      "Ġ22": 3751,
      "Ġmeinem": 3752,
      "schlagen": 3753,
      "Ã¤rm": 3754,
      "ĠVerkehr": 3755,
      "Ð¸Ð²ÑģÑı": 3756,
      "Ð¸Ð²Ð°Ð½Ð½Ñı": 3757,
      "rak": 3758,
      "ress": 3759,
      "Ð¾Ð¶Ð½Ð°": 3760,
      "ĠNein": 3761,
      "ĠNot": 3762,
      "ĠNegation": 3763,
      "ĠÐĴÐ¾Ð½Ð¸": 3764,
      "ĠÐĴÐ°ÑĪ": 3765,
      "ĠÑĢÐ¾Ð±Ð¾ÑĤÐ¸": 3766,
      "Ġ10": 3767,
      "olz": 3768,
      "olks": 3769,
      "ationen": 3770,
      "Ġbeg": 3771,
      "Ġbeantworten": 3772,
      "ÑĥÑĤÐ±": 3773,
      "ÑĥÑĤÑĤÑı": 3774,
      "ĠÐ²Ð¸Ð´": 3775,
      "ĠÐ°Ð²ÑĤ": 3776,
      "Ġvorbei": 3777,
      "othe": 3778,
      "rÃ¼hst": 3779,
      "weise": 3780,
      "ulieren": 3781,
      "000": 3782,
      "ĠÑĪÐµÑĦ": 3783,
      "ĠSpei": 3784,
      "ĠÐ·Ð½Ð°Ñİ": 3785,
      "ĠÐ¿ÐµÑĢÐµÐ¼": 3786,
      "ĠÐ¿ÐµÑĢÐµÐ²Ñĸ": 3787,
      "hinter": 3788,
      "liegt": 3789,
      "Ġstu": 3790,
      "Ð°ÑģÑĤÑĮ": 3791,
      "problem": 3792,
      "ĠÐ²ÐµÐ»Ð¸Ðº": 3793,
      "ÐµÐ¹Ð½": 3794,
      "ÑĸÑĤÐ½Ð¸Ð¹": 3795,
      "ĠUniversitÃ¤t": 3796,
      "ĠÑıÐºÑīÐ¾": 3797,
      "ĠÐºÐ¾Ð¼Ð¿": 3798,
      "ĠÐºÐ¾Ð¼Ð°Ñħ": 3799,
      "eller": 3800,
      "Ġpassen": 3801,
      "ĠÑģÐ²Ð¾ÑĹ": 3802,
      "ĠReihen": 3803,
      "werden": 3804,
      "heits": 3805,
      "ÑģÐ¿Ð¾ÑĢÑĤ": 3806,
      "ÑĢÐ°Ð²Ð°ÑĤÐ¸": 3807,
      "ĠWelt": 3808,
      "ĠWelches": 3809,
      "Ð»Ð¸Ð²Ð¾": 3810,
      "Ð»Ð¸Ð²Ð¸Ð¹": 3811,
      "ĠÑĤÐ°ÐºÐ¸Ð¹": 3812,
      "ĠÐ³ÑĢÐ¾ÑĪÐµÐ¹": 3813,
      "echseln": 3814,
      "ÐºÐ°ÑĢÐ¶": 3815,
      "ĠWiese": 3816,
      "ĠÐ§Ð¾Ð¼Ñĥ": 3817,
      "ÑĸÑĪÐ°ÑĤÐ¸": 3818,
      "Ġgewonnen": 3819,
      "ĠUnterricht": 3820,
      "Beispiele": 3821,
      "ĠÐ²Ð¸Ð³ÑĢÐ°ÑĪ": 3822,
      "ĠStraÃŁe": 3823,
      "ÑĥÑİÑĤÑĮ": 3824,
      "gewinnen": 3825,
      "Ġwelche": 3826,
      "Ġwelcher": 3827,
      "ĠGebirge": 3828,
      "zÃ¤hl": 3829,
      "ĠÐŀÐ±": 3830,
      "ĠÑģÐµÐ±Ðµ": 3831,
      "ĠAbsicht": 3832,
      "ĠAlpen": 3833,
      "ĠStelle": 3834,
      "ĠÐ½Ð°ÑĨÑĸÐ¾Ð½Ð°Ð»ÑĮÐ½Ð¸Ð¹": 3835,
      "ĠLandschaft": 3836,
      "ĠRelativsatz": 3837,
      "ĠÑĪÐºÐ¾Ð»Ð°": 3838,
      "flicht": 3839,
      "ĠÐºÐ¾Ð½ÑĤÐ°": 3840,
      "ĠPrÃ¤fixe": 3841,
      "rammatik": 3842,
      "Ġrichtige": 3843,
      "ĠÑģÐµÑĢÐ²Ñĸ": 3844,
      "ĠÐ¿ÑĢÐ¾Ð´ÑĥÐº": 3845,
      "fallen": 3846,
      "hÃ¶rt": 3847,
      "ĠKonto": 3848,
      "ĠMÃ¼cken": 3849,
      "ĠGeschÃ¤ft": 3850,
      "ĠÐ²Ð¸ÑĤÑĢÐ°ÑĤÐ¸": 3851,
      "ĠTÃ¤ter": 3852,
      "ĠÐ±Ð°Ð½ÐºÑĥ": 3853,
      "estelle": 3854,
      "ĠSpieler": 3855,
      "ÑıÐ²ÐºÑĥ": 3856,
      "Ġgetan": 3857,
      "ĠÑĥÑĩÐ°ÑģÑĤÑĮ": 3858,
      "ĠHochzeit": 3859,
      "ĠÐ¾Ð²Ð¾ÑĩÑĸ": 3860,
      "ĠMenschen": 3861,
      "ĠRegal": 3862,
      "ĠNoten": 3863,
      "ĠÑĤÐµÐ»ÐµÑĦÐ¾Ð½Ñĥ": 3864,
      "handeln": 3865,
      "Ausbildung": 3866,
      "Mail": 3867,
      "eklination": 3868,
      "swort": 3869,
      "ĠÐ¿ÑĢÐµÐ´": 3870,
      "ĠÐ¼Ð¾ÑĢÑĸ": 3871,
      "ĠGemÃ¼se": 3872,
      "ĠWunsch": 3873,
      "ĠÑħÐ¾ÑĤÑĸÐ»Ð°": 3874,
      "Ð¸ÑĩÐ°Ð¹Ð½Ð¾": 3875,
      "ĠÐ²ÑĸÐ´Ð¿ÑĥÑģÑĤÐºÑĥ": 3876,
      "ĠFlugzeug": 3877,
      "ĠÐ¿ÑĢÐ¾Ð±Ð»ÐµÐ¼Ð°": 3878,
      "Welche": 3879,
      "ĠNomen": 3880,
      "struktur": 3881,
      "ĠÐ¼Ð¾Ð³Ð»Ð¸": 3882,
      "ĠÑģÐ²Ð°ÑĢÐ¸ÑĤÐ¸ÑģÑı": 3883,
      "ĠBÃ¼rger": 3884,
      "ĠÑĢÐ°ÑħÑĥÐ½Ð¾Ðº": 3885,
      "ĠÐ»ÑİÐ´": 3886,
      "ĠStadtrand": 3887,
      "ÑĢÐ¾Ð±ÑĸÑĤ": 3888,
      "ĠÐ´ÐµÑĤÐµÐºÑĤÐ¸": 3889,
      "ĠÐ´Ð¸ÑĢÐ¸Ð³": 3890,
      "ĠÑĥÐºÑĥÑģ": 3891,
      "ĠMotor": 3892,
      "ĠTrink": 3893,
      "ĠÐ±Ð°ÑģÐµÐ¹Ð½": 3894,
      "ĠZimmer": 3895,
      ".,": 3896,
      "39": 3897,
      "97": 3898,
      "Fin": 3899,
      "Ges": 3900,
      "Komparativ": 3901,
      "Meinung": 3902,
      "Nicht": 3903,
      "Pol": 3904,
      "PrÃ¼fung": 3905,
      "Positiv": 3906,
      "Sti": 3907,
      "Satz": 3908,
      "Selma": 3909,
      "ay": 3910,
      "akt": 3911,
      "ahl": 3912,
      "bs": 3913,
      "baren": 3914,
      "bad": 3915,
      "dre": 3916,
      "dienst": 3917,
      "dgesch": 3918,
      "ehen": 3919,
      "ehm": 3920,
      "fs": 3921,
      "fu": 3922,
      "fas": 3923,
      "fern": 3924,
      "fro": 3925,
      "fil": 3926,
      "freu": 3927,
      "gn": 3928,
      "gru": 3929,
      "gte": 3930,
      "glie": 3931,
      "german": 3932,
      "hor": 3933,
      "ift": 3934,
      "iÃ¤t": 3935,
      "kei": 3936,
      "kÃ¤": 3937,
      "kar": 3938,
      "kul": 3939,
      "legen": 3940,
      "lesung": 3941,
      "man": 3942,
      "meine": 3943,
      "mÃ¶": 3944,
      "mmer": 3945,
      "nas": 3946,
      "ndel": 3947,
      "national": 3948,
      "ock": 3949,
      "osten": 3950,
      "pp": 3951,
      "put": 3952,
      "prÃ¼": 3953,
      "plan": 3954,
      "ppen": 3955,
      "rom": 3956,
      "ss": 3957,
      "sÃ¤": 3958,
      "sÃ¤tze": 3959,
      "sgesprÃ¤ch": 3960,
      "sammel": 3961,
      "ts": 3962,
      "ufe": 3963,
      "ufen": 3964,
      "viel": 3965,
      "wissen": 3966,
      "xi": 3967,
      "zwei": 3968,
      "Ðĳ": 3969,
      "Ðķ": 3970,
      "Ðŀ": 3971,
      "Ġ!": 3972,
      "ĠÑģÐ½": 3973,
      "ĠÃ¤": 3974,
      "Ġus": 3975,
      "Ġ..": 3976,
      "ĠÃĸ": 3977,
      "Ð½Ñİ": 3978,
      "Ð½Ð°Ð²": 3979,
      "Ð¾ÑĶÐ¼": 3980,
      "ÐµÑģ": 3981,
      "ÐµÑĤÑĢ": 3982,
      "ÐµÑĢÑĸÐ²": 3983,
      "ÑıÐ½": 3984,
      "ÑıÐ´": 3985,
      "ÑĸÑħ": 3986,
      "ÑĸÐ»Ðµ": 3987,
      "ÑģÐ¾Ð²Ð¸Ð¹": 3988,
      "reg": 3989,
      "reffen": 3990,
      "Ð°ÑĦ": 3991,
      "Ð°ÑĤÑĮ": 3992,
      "Ð°ÑĢÑĥ": 3993,
      "orben": 3994,
      "orden": 3995,
      "rechn": 3996,
      "Ð¸Ð¶": 3997,
      "Ð¸Ñī": 3998,
      "Ð¸ÑĶÐ¼": 3999,
      "enut": 4000,
      "enden": 4001,
      "ÑĤÑĢÑĥ": 4002,
      "ÑĢÐ°Ð±": 4003,
      "ÑĢÐ°Ð¼Ð°": 4004,
      "ÑĢÐ¾Ñī": 4005,
      "ÐµÐ½Ð¾": 4006,
      "ÐµÐ½ÑĤÐ¸": 4007,
      "Ð»Ð¾Ð²": 4008,
      "ÑĥÑĤÐ¸": 4009,
      "erw": 4010,
      "erte": 4011,
      "Ð¼Ð¾Ñģ": 4012,
      "Ð¼Ð°ÑĤÐ¸ÑģÑı": 4013,
      "ina": 4014,
      "inken": 4015,
      "ÐµÐ½Ð½ÑıÐ¼": 4016,
      "stag": 4017,
      "stand": 4018,
      "ĠIran": 4019,
      "ÐºÐ¾Ð²Ð°": 4020,
      "ÑĩÐµ": 4021,
      "ÑĩÑĸ": 4022,
      "ÑĩÐ¸": 4023,
      "ÑĩÐ½Ñĸ": 4024,
      "ÑĩÐµÑĢÐµÐ·": 4025,
      "Ġdre": 4026,
      "Ġdarf": 4027,
      "iete": 4028,
      "Ð¾Ð²Ð°ÑĢ": 4029,
      "Ð¾Ð²Ð°Ð½Ñĸ": 4030,
      "ĠÐ¿Ð¾Ð²Ñĸ": 4031,
      "ĠÐ¿ÑĸÑĤÐ¸": 4032,
      "ĠÐ¿Ð¾Ð¶": 4033,
      "ĠÐ¿ÐµÑĢÑĪ": 4034,
      "ĠInteres": 4035,
      "ĠÐ´Ð¾Ð²": 4036,
      "ĠÐ´ÑĸÑĤ": 4037,
      "ĠÐ´ÑĸÑı": 4038,
      "ĠÐ´Ð·Ð²": 4039,
      "asus": 4040,
      "auer": 4041,
      "Ð´Ð¾": 4042,
      "Ð´Ñĥ": 4043,
      "Ð´Ð°ÑĤ": 4044,
      "Ð´ÐµÑĢ": 4045,
      "Ð´ÑĥÐ¼": 4046,
      "hafen": 4047,
      "ĠÐ¼Ð°Ð²": 4048,
      "ĠÐ¼ÑĸÐ¹": 4049,
      "Ð°ÑĶÐ¼": 4050,
      "Ð°ÑĶÑĤÐµ": 4051,
      "ĠÐ°ÑĤ": 4052,
      "ĠÐ·ÐµÐ¼": 4053,
      "gest": 4054,
      "gemein": 4055,
      "ĠÐ½Ð°Ð³": 4056,
      "ĠÐ½Ð°Ð·": 4057,
      "ĠÑģÐ²ÑĸÐ¹": 4058,
      "ĠÑģÐ¾Ð½": 4059,
      "ĠÑģÐ°Ð´": 4060,
      "ĠÑģÐ¸Ð´": 4061,
      "ĠÐ²ÑģÑĸ": 4062,
      "ĠÐ²Ð¸ÑģÑĤÐ°Ð²": 4063,
      "ĠÐ²Ð»Ð°": 4064,
      "ĠÐ²Ð²Ð°Ð¶": 4065,
      "ĠÐ²ÐµÑĢÑĪ": 4066,
      "ĠÐ²ÑĸÐ»ÑĮÐ½": 4067,
      "einem": 4068,
      "Ġhandel": 4069,
      "ĠDeklination": 4070,
      "ÑĢÐµÐºÑĤÐ¾ÑĢ": 4071,
      "ĠweiÃŁ": 4072,
      "Ġwechseln": 4073,
      "ans": 4074,
      "anlage": 4075,
      "Ġseit": 4076,
      "Ġsagen": 4077,
      "Ġsauber": 4078,
      "Ġsitzen": 4079,
      "Ġgespielt": 4080,
      "Ġgestellt": 4081,
      "ĠgehÃ¶rt": 4082,
      "ĠÐ½ÐµÐ´": 4083,
      "ĠÐ½ÐµÐ¿ÑĢ": 4084,
      "ĠÐ½ÐµÐ¼Ð°": 4085,
      "utto": 4086,
      "Ġmel": 4087,
      "ĠmiÃŁ": 4088,
      "ÑĸÐ´Ð½Ñı": 4089,
      "ĠAber": 4090,
      "Ð²Ð½": 4091,
      "Ð²Ð¸ÑĤ": 4092,
      "Ð²Ð»Ð°ÑĪÑĤ": 4093,
      "Ð¾ÑĢÑĥ": 4094,
      "Ð¾ÑĢÐ°Ð½": 4095,
      "Ð¾Ð³Ñĥ": 4096,
      "Ð¾Ð³ÑĤÐ¸": 4097,
      "Ð¾Ð³ÑĢÐ°": 4098,
      "ÑĨÑĸÐ½": 4099,
      "Ġbet": 4100,
      "Ġbilden": 4101,
      "Ġbringen": 4102,
      "Ġbildet": 4103,
      "Ð¼ÐµÑĤÐ¾Ð´Ð¸Ñĩ": 4104,
      "ĠBr": 4105,
      "ĠBas": 4106,
      "ĠBes": 4107,
      "ĠBet": 4108,
      "ĠBord": 4109,
      "ĠBestell": 4110,
      "eshalb": 4111,
      "Ð¿ÑĤÐµ": 4112,
      "icher": 4113,
      "ĠSti": 4114,
      "ĠSort": 4115,
      "ĠSand": 4116,
      "ĠSetzen": 4117,
      "ĠÑĢÐµÐ¼Ð¾": 4118,
      "Ð¾Ð´Ñĸ": 4119,
      "Ġnie": 4120,
      "Ġnorm": 4121,
      "Ġneben": 4122,
      "ĠÑģÑĤÐ¾Ð»": 4123,
      "ĠÑģÑĤÐ¾Ð¼Ð°ÑĤ": 4124,
      "scher": 4125,
      "schein": 4126,
      "ĠÑĥÑģÑĸ": 4127,
      "ĠÑĥÐ²Ð°Ð³": 4128,
      "eitet": 4129,
      "eitung": 4130,
      "ÑĤÐ¸ÐºÐ°": 4131,
      "Ã¤he": 4132,
      "Ã¤che": 4133,
      "Ã¤uf": 4134,
      "dete": 4135,
      "ÑĨÑĸÐ²": 4136,
      "ĠÑĩÐ°Ð¹": 4137,
      "ĠÑĤÐ°Ð½": 4138,
      "ĠÑĤÐ¾Ð±Ñĸ": 4139,
      "ĠÑĤÐ¾ÑĢÑĤ": 4140,
      "ĠÑĤÐ²Ð°ÑĢ": 4141,
      "ĠÑĤÐ¾Ð¹": 4142,
      "ĠÑĤÐ¾Ð²Ð°ÑĢ": 4143,
      "arke": 4144,
      "arzt": 4145,
      "Ġeinge": 4146,
      "Ġeinmal": 4147,
      "ĠÐºÐ¾Ð¼Ñĥ": 4148,
      "ĠÐºÐ»Ð°": 4149,
      "ĠÐºÐ°Ð¿": 4150,
      "ĠÐºÑĢÐ°ÑĹ": 4151,
      "ĠÐºÐ²Ð°ÑĢ": 4152,
      "ĠÐºÐ½Ð¸Ð¶": 4153,
      "ĠÐºÐ°Ð¼ÑĸÐ½": 4154,
      "ĠÐºÐµÑĢÑĸÐ²": 4155,
      "ĠHalt": 4156,
      "Ġlei": 4157,
      "Ġlange": 4158,
      "Ġletzten": 4159,
      "under": 4160,
      "unbe": 4161,
      "ĠKre": 4162,
      "ĠKreu": 4163,
      "ĠKlasse": 4164,
      "ĠKrim": 4165,
      "ÑİÑĤÐµÑĢ": 4166,
      "ĠFot": 4167,
      "ĠÐ·Ð°Ð´": 4168,
      "ĠÐ·Ð°ÑħÑĸÐ´": 4169,
      "ĠÐ·Ð°ÑģÑĸÐ´": 4170,
      "ĠÐ·Ð°ÑģÑĸÐ±": 4171,
      "ĠÐ·Ð°ÑıÐ²ÐºÑĥ": 4172,
      "rum": 4173,
      "ĠMin": 4174,
      "ĠMeine": 4175,
      "ĠMat": 4176,
      "ĠMusik": 4177,
      "fehlen": 4178,
      "ĠTiere": 4179,
      "Ð¸ÑģÐº": 4180,
      "rocken": 4181,
      "ĠÐ¿Ð¾ÑĪ": 4182,
      "ĠÐ¿Ð¾Ð½ÐµÐ´ÑĸÐ»": 4183,
      "indirekte": 4184,
      "ÐµÑĢÐµÐ¶": 4185,
      "Ġganzen": 4186,
      "Ð°Ð²ÐµÑĨÑĮ": 4187,
      "ĠÐ·Ð°ÐºÐ¾Ñħ": 4188,
      "chenke": 4189,
      "eile": 4190,
      "derung": 4191,
      "Ð¶Ñĸ": 4192,
      "ĠPl": 4193,
      "Ð³ÑĢ": 4194,
      "ument": 4195,
      "ĠÐ±Ð¾Ð»": 4196,
      "ĠÐ±Ð°Ð³Ð°ÑĤ": 4197,
      "ĠÐ±ÑĸÐ»ÑĮÑĪ": 4198,
      "ĠÐ±ÐµÑĢÑĥ": 4199,
      "rennt": 4200,
      "ĠZusammen": 4201,
      "Ð·Ð°ÑĤÐ¸": 4202,
      "Ð·ÑĮÐº": 4203,
      "Ð·Ð°Ð±": 4204,
      "Ð°Ð½ÑĤÐ¸": 4205,
      "Ð°Ð½ÑģÐ¿Ð¾ÑĢÑĤ": 4206,
      "ĠZeitschrift": 4207,
      "eucht": 4208,
      "Ġfol": 4209,
      "ĠfrÃ¼": 4210,
      "Ġfliegt": 4211,
      "Ġerlau": 4212,
      "ÑħÐ°": 4213,
      "stet": 4214,
      "Ð¿ÐµÑĤÐµÐ½": 4215,
      "Ð¿ÐµÐ²Ð½": 4216,
      "ĠSchiff": 4217,
      "Ã¶l": 4218,
      "Ã¶s": 4219,
      "hnt": 4220,
      "ĠErdgesch": 4221,
      "fte": 4222,
      "Ð´Ð¸ÑĤÐ¸": 4223,
      "ĠÑĸÐ½Ð¾Ð·": 4224,
      "ĠÑĸÐ½ÑģÑĤÑĢÑĥ": 4225,
      "Ð´Ð½Ð¸Ð¹": 4226,
      "ĠParty": 4227,
      "ĠÑĨÑĸÐ½": 4228,
      "ĠÑĨÐµÐ½ÑĤÑĢ": 4229,
      "Ð°Ð»ÑĮÐ½Ð¸Ðº": 4230,
      "undes": 4231,
      "ĠÐ²ÑĸÐ´Ð²ÑĸÐ´": 4232,
      "ĠÐ²ÑĸÐ´ÐºÑĢ": 4233,
      "ĠÐ²Ð¸ÐºÐ¾ÑĢÐ¸ÑģÑĤÐ°Ð½Ð½Ñı": 4234,
      "ĠhÃ¤n": 4235,
      "ĠhÃ¤tte": 4236,
      "itz": 4237,
      "itzung": 4238,
      "ĠWe": 4239,
      "ĠWeg": 4240,
      "ĠWissen": 4241,
      "ĠWinter": 4242,
      "ĠWetter": 4243,
      "ÑĢÑıÐ´Ð¶": 4244,
      "ond": 4245,
      "onn": 4246,
      "ĠWirtschafts": 4247,
      "ĠApothe": 4248,
      "alkon": 4249,
      "Ġzusammen": 4250,
      "allen": 4251,
      "ausgeben": 4252,
      "duzieren": 4253,
      "ĠUkra": 4254,
      "Ð¾Ð±Ð¾Ñİ": 4255,
      "ĠÑĩÐ¾Ð»Ð¾Ð²ÑĸÐº": 4256,
      "gangenheit": 4257,
      "ientieren": 4258,
      "eidung": 4259,
      "ierten": 4260,
      "twend": 4261,
      "ĠLi": 4262,
      "ÑĢÐµÐ±Ð°": 4263,
      "ilien": 4264,
      "zte": 4265,
      "Ð¾ÑĤÑĥ": 4266,
      "dessen": 4267,
      "agt": 4268,
      "spro": 4269,
      "spitze": 4270,
      "ĠÐ½ÑĸÑĩÐ¾Ð³Ð¾": 4271,
      "ĠVort": 4272,
      "ĠRiesen": 4273,
      "ĠRadio": 4274,
      "ĠRhein": 4275,
      "Ġunbestimm": 4276,
      "ĠFreundin": 4277,
      "Ð°ÑĤÐ¾ÑĢ": 4278,
      "Ð°ÑĤÐ¾Ðº": 4279,
      "ĠÐ¢Ð°Ðº": 4280,
      "ÑĥÐ²Ð°ÑĶÑĤÑĮÑģÑı": 4281,
      "ÑģÑĤÐ¾ÑĢÐ°Ð½": 4282,
      "ĠStau": 4283,
      "ĠStÃ¤d": 4284,
      "urz": 4285,
      "urfen": 4286,
      "selprÃ¤": 4287,
      "Ð»Ð°Ð»Ð°": 4288,
      "arbeiten": 4289,
      "ĠEnt": 4290,
      "ĠÐĨÐ½": 4291,
      "Ġstellen": 4292,
      "ĠÐ³ÑĥÐ±": 4293,
      "ĠÐ³ÑĸÑĤÐ°ÑĢÑĸ": 4294,
      "ĠÐ³ÑĢÑĥÐ´": 4295,
      "Ð»ÑĸÑĤ": 4296,
      "leben": 4297,
      "ĠTelefon": 4298,
      "Ġbleiben": 4299,
      "Ġbleibt": 4300,
      "ÑģÑĤÐ°Ð²Ð»ÑıÑĤÐ¸": 4301,
      "Schule": 4302,
      "schlieÃŁen": 4303,
      "ĠAmt": 4304,
      "Ġ21": 4305,
      "Ġ25": 4306,
      "kannt": 4307,
      "ÐµÑĢÑħ": 4308,
      "berg": 4309,
      "berichten": 4310,
      "Ġmeinen": 4311,
      "Gebur": 4312,
      "Ġbesuchen": 4313,
      "Ð¸Ð²Ð°ÑĶ": 4314,
      "verbrauch": 4315,
      "verstanden": 4316,
      "tigkeit": 4317,
      "Ð°ÑĢÑĩ": 4318,
      "ĠNational": 4319,
      "ĠNico": 4320,
      "ĠNÃ¤he": 4321,
      "ĠÐ»ÐµÐ³": 4322,
      "Ð¾Ð½ÑĥÐ²Ð°ÑĤÐ¸": 4323,
      "mittag": 4324,
      "ĠÑīÐ°": 4325,
      "Ġ14": 4326,
      "Ġ16": 4327,
      "Ġ17": 4328,
      "Ġ19": 4329,
      "Ġvergessen": 4330,
      "Ġverschieden": 4331,
      "ĠÑħÐ¾ÑĢÐ¾ÑĪ": 4332,
      "fÃ¤llig": 4333,
      "Ð»Ð¸Ð²ÑĸÑģÑĤÑĮ": 4334,
      "ÐºÑĥÑĢ": 4335,
      "ÑİÐ²Ð°ÑĤÐ¸ÑģÑı": 4336,
      "ĠÐ²Ð¸ÑĢÑĸÑĪ": 4337,
      "bungsgesprÃ¤ch": 4338,
      "ĠÐ¼Ð¾Ð¶Ð»Ð¸Ð²ÑĸÑģÑĤÑĮ": 4339,
      "otter": 4340,
      "otto": 4341,
      "reise": 4342,
      "reibt": 4343,
      "ÐµÑĤÐµ": 4344,
      "weis": 4345,
      "weisen": 4346,
      "weihung": 4347,
      "Ð°Ð¹Ðº": 4348,
      "ĠÑĪÑĥÐº": 4349,
      "ĠSprach": 4350,
      "Ġpaar": 4351,
      "ĠÐ¿Ð¾Ð´ÑıÐº": 4352,
      "ĠÐ¿Ð¾Ð´Ð°ÑĢÑĥ": 4353,
      "stens": 4354,
      "ĠÐ¿ÐµÑĢÐµÐºÐ»Ð°Ð´": 4355,
      "ĠBewer": 4356,
      "ĠBezug": 4357,
      "ÐµÐºÑĢÐµÑĤ": 4358,
      "Ã¶rt": 4359,
      "liehen": 4360,
      "ĠÐĿÐµ": 4361,
      "Ð°ÑģÐ¸Ðº": 4362,
      "ĠAngst": 4363,
      "iven": 4364,
      "Ð¸ÑĩÐ°ÑĤÐ¸": 4365,
      "ĠÐ¿ÑĢÐ¸ÑĢÐ¾Ð´": 4366,
      "ĠÐ¿ÑĢÐ¸Ð±ÑĥÐ´": 4367,
      "fÃ¼llen": 4368,
      "fÃ¼hrung": 4369,
      "Ġunterhalten": 4370,
      "ĠÑıÐºÐ±Ð¸": 4371,
      "nergie": 4372,
      "gebaut": 4373,
      "alsÃ¤tze": 4374,
      "ellen": 4375,
      "wendet": 4376,
      "ĠJahr": 4377,
      "ÑĨÐµÐ²Ð»Ð°ÑĪÑĤ": 4378,
      "klÃ¤r": 4379,
      "ĠÐ¡Ðº": 4380,
      "ĠReisen": 4381,
      "ĠEinkommen": 4382,
      "ĠVorort": 4383,
      "ĠVorschlag": 4384,
      "Inseln": 4385,
      "Institut": 4386,
      "Ġwieder": 4387,
      "ĠÐ¿ÑĢÐ°ÑĨÐµÐ²Ð»Ð°ÑĪÑĤ": 4388,
      "unterst": 4389,
      "ĠÐ²ÑĸÐ´Ð¿Ð¾Ñĩ": 4390,
      "boden": 4391,
      "igent": 4392,
      "ÐĴÐ¸": 4393,
      "Ġrepar": 4394,
      "endung": 4395,
      "ÐºÐ¾Ð¼Ð¿ÐµÑĤÐµÐ½": 4396,
      "ĠAusstellung": 4397,
      "echs": 4398,
      "echselprÃ¤": 4399,
      "ÐµÐ´ÐµÐ½Ð½Ñı": 4400,
      "ĠÑĤÑĢÐ°Ð¿": 4401,
      "ĠÑĤÑĢÐ°Ð½ÑģÐ¿Ð¾ÑĢÑĤ": 4402,
      "reichen": 4403,
      "ĠÐ¯ÐºÐ±Ð¸": 4404,
      "ĠÑħÐ¾ÑĩÑĥ": 4405,
      "Ã¼bern": 4406,
      "ĠAdjektivs": 4407,
      "ĠBerg": 4408,
      "ĠBeruf": 4409,
      "ĠFlur": 4410,
      "Ġzweiten": 4411,
      "ĠEuropÃ¤": 4412,
      "ĠEuropa": 4413,
      "Beispiel": 4414,
      "ÑıÐºÑĸ": 4415,
      "ĠÐ²Ð¸Ð³Ð»ÑıÐ´": 4416,
      "ĠSozi": 4417,
      "Ġentw": 4418,
      "Ð½ÑĥÑĤÐ¸": 4419,
      "gewann": 4420,
      "Ġwelch": 4421,
      "ĠÐ½Ð°Ð´Ð·Ð²": 4422,
      "ĠKindergarten": 4423,
      "ĠPersonen": 4424,
      "258": 4425,
      "Rektion": 4426,
      "drÃ¼ckt": 4427,
      "flug": 4428,
      "ĠFÃ¤higkeit": 4429,
      "ĠFernse": 4430,
      "Ġangefangen": 4431,
      "ĠzurÃ¼ck": 4432,
      "Ð¾ÑĩÐ¸Ð½Ð°ÑĤÐ¸": 4433,
      "ĠÐ¿ÑĢÐ°ÑĨÑİÐ²Ð°ÑĤÐ¸": 4434,
      "Konjunktiv": 4435,
      "Unter": 4436,
      "hÃ¤ngen": 4437,
      "Ġrichtigen": 4438,
      "ÑĸÐ»ÑĮÐ½Ð°": 4439,
      "haften": 4440,
      "ĠSee": 4441,
      "Ġgerade": 4442,
      "ĠÐ±ÑĸÐ»Ñı": 4443,
      "ĠÑĥÐ½ÑĸÐ²ÐµÑĢÑģÐ¸ÑĤÐµÑĤÑĸ": 4444,
      "innern": 4445,
      "ĠÐ·Ð½Ð°Ð¹": 4446,
      "ĠfÃ¼hren": 4447,
      "holen": 4448,
      "nahme": 4449,
      "Umwelt": 4450,
      "teilnehmen": 4451,
      "ymnas": 4452,
      "Ġfest": 4453,
      "Ð¸Ð»Ð°ÑģÑı": 4454,
      "ĠKarte": 4455,
      "ĠÐ¾ÑĩÑĸÐº": 4456,
      "ĠÐ¾Ð¿Ð¸ÑĤ": 4457,
      "ĠTÃ¤tigkeit": 4458,
      "ĠÐ¿Ð¾ÑĹÑħÐ°ÑĤÐ¸": 4459,
      "Ġverloren": 4460,
      "ĠÐ¹Ð´ÐµÐ¼Ð¾": 4461,
      "ĠJahre": 4462,
      "ĠÑħÐ¾ÑĩÐµÐ¼Ð¾": 4463,
      "ĠÐ¼ÑĥÐ·Ð¸ÐºÑĥ": 4464,
      "sah": 4465,
      "ĠÐ´Ð¾Ð¼Ð¾Ð²": 4466,
      "ĠÐ´ÑĸÑĶÑģÐ»ÑĸÐ²": 4467,
      "ĠÐ¼Ð°ÑĤÐµÑĢÑĸ": 4468,
      "ĠBlog": 4469,
      "ĠHof": 4470,
      "ĠHotel": 4471,
      "ĠHerz": 4472,
      "ĠÐ½Ð°ÑĢÐ¾Ð´Ð¶ÐµÐ½Ð½Ñı": 4473,
      "Ġtrennbaren": 4474,
      "ĠSchla": 4475,
      "ĠÐ¿Ð¾Ð²ÐµÑĢÑģÑĸ": 4476,
      "ĠEnde": 4477,
      "ĠStraÃŁenbahn": 4478,
      "Superlativ": 4479,
      "Ġaber": 4480,
      "ĠÐĩÐ¼": 4481,
      "ĠAussicht": 4482,
      "ĠBoden": 4483,
      "ĠnÃ¤chst": 4484,
      "ĠÐºÐ°Ð²Ñĥ": 4485,
      "ĠÐºÑĥÑĢÑģÑĥ": 4486,
      "ĠÑĦÑĸÑĢÐ¼Ñĸ": 4487,
      "ĠTurm": 4488,
      "ĠPauli": 4489,
      "begann": 4490,
      "ĠÐ¿ÑĢÐ¾ÑĦÐµÑģÑĸ": 4491,
      "ĠÐ²ÑĸÐ´Ð¿Ð¾Ð²ÑĸÐ´Ð°ÑĤÐ¸": 4492,
      "ĠÐ¿Ð°ÑĢÑĤÐ½ÐµÑĢ": 4493,
      "ĠGebÃ¤ude": 4494,
      "ĠÐ¿ÑĢÐ°ÑĨÑİÑĶ": 4495,
      "ĠÐ·Ð°ÑĢÐ¿Ð»Ð°ÑĤÐ°": 4496,
      "gleich": 4497,
      "ĠÐ¿Ð¸ÑģÑĮ": 4498,
      "ĠÐ´Ð¸ÑĢÐµÐºÑĤÐ¾ÑĢ": 4499,
      "ĠÐ·ÑĢÐ¾Ð±Ð¸Ð²": 4500,
      "Ġgebildet": 4501,
      "Ð²ÑĢÐ¾Ð¿": 4502,
      "ĠÑģÑĤÑĢÐ°Ð¶": 4503,
      "ĠÑģÑĤÑĢÐ°ÑħÐ¾Ð²ÐºÐ°": 4504,
      "ĠÑĩÐµÐºÐ°ÑĤÐ¸": 4505,
      "ĠÑĤÑĥÑĢÐ¸ÑģÑĤÐ¸": 4506,
      "ĠHilfs": 4507,
      "ĠÐ¾ÑĦÑĸÑģ": 4508,
      "ĠÐ¾Ð³Ð»ÑıÐ´": 4509,
      "ĠMÃ¤rz": 4510,
      "ĠÑģÐ¿ÑĸÐ»Ðº": 4511,
      "ĠÐ·Ð°Ð¹Ð¼Ð°ÑĶÑĤÑĮÑģÑı": 4512,
      "beginnen": 4513,
      "ĠÐ²ÑĸÐ´Ð±ÑĥÐ²Ð°ÑĶÑĤÑĮÑģÑı": 4514,
      "alerweise": 4515,
      "sicherung": 4516,
      "ĠÐ¾ÑģÐ²ÑĸÑĤÐ°": 4517,
      "ĠVerwaltung": 4518,
      "Ð½Ð¸ÑĨÑĤÐ²Ð¾": 4519,
      "ĠÐµÐºÑģÐºÑĥÑĢ": 4520,
      "ĠÐºÐ¾Ð»ÑĮÐ¾ÑĢ": 4521,
      "ĠÐºÐ¾Ð»ÐµÐ³Ð°Ð¼Ð¸": 4522,
      "ĠÑĢÐµÐºÐ¾Ð¼ÐµÐ½Ð´Ð°ÑĨÑĸÑĹ": 4523,
      "iederlande": 4524,
      "ĠÑģÐ»ÑĥÐ¶Ð±Ð°": 4525,
      "Ġbereitet": 4526,
      "Handlung": 4527,
      "Ġdunkel": 4528,
      "ĠÐ´Ð¾Ð±ÑĢÐµ": 4529,
      "ĠÐ½Ð°Ð¼ÑĸÑĢ": 4530,
      "ĠBÃ¤cker": 4531,
      "ĠBrÃ¼cke": 4532,
      "ĠÑģÑĤÑĢÐµÑģÑĥ": 4533,
      "ĠÐ¿ÑĢÐ¸Ð²Ð°ÑĤ": 4534,
      "ĠÑĩÑĥÐ´Ð¾Ð²Ð¸Ð¹": 4535,
      "ĠHex": 4536,
      "ĠÐ·Ð°Ð»Ð¸ÑĪÐ°ÑĤÐ¸": 4537,
      "ĠÑĩÐ°ÑģÑĤÐ¾": 4538,
      "ĠÐ¿Ð¾ÑģÐ¸Ð»": 4539,
      "ĠPatient": 4540,
      "ĠÐ¶Ð¾Ð²ÑĤ": 4541,
      "telefonieren": 4542,
      "ĠVerkehrsmittel": 4543,
      "olkshochschule": 4544,
      "Ġbegonnen": 4545,
      "ĠSpeicher": 4546,
      "ĠReihenfolge": 4547,
      "ĠÐºÐ¾Ð½ÑĤÐ°ÐºÑĤ": 4548,
      "Mails": 4549,
      "ĠMotorrad": 4550,
      "ĠTrinkgeld": 4551,
      "Stick": 4552,
      "ayern": 4553,
      "glied": 4554,
      "horn": 4555,
      "Ġusw": 4556,
      "Ð¾ÑĶÐ¼Ñĥ": 4557,
      "ĠInteresse": 4558,
      "ĠÑģÐ¸Ð´ÑĸÑĤÐ¸": 4559,
      "Ð¾Ð³ÑĢÐ°ÑĦ": 4560,
      "ĠSortieren": 4561,
      "ĠÑĢÐµÐ¼Ð¾Ð½ÑĤ": 4562,
      "ĠÑģÑĤÐ¾Ð¼Ð°ÑĤÐ¾Ð»Ð¾Ð³": 4563,
      "ĠHaltestelle": 4564,
      "ĠFoto": 4565,
      "Ġfolgt": 4566,
      "ĠErdgeschoss": 4567,
      "ĠÑĸÐ½Ð¾Ð·ÐµÐ¼": 4568,
      "ĠApotheke": 4569,
      "ĠÐ³ÑĢÑĥÐ´Ð½Ñı": 4570,
      "ĠÐ¿Ð¾Ð´ÑıÐºÑĥÐ²Ð°Ð»Ð°": 4571,
      "ĠBewerbungsgesprÃ¤ch": 4572,
      "ÐµÐºÑĢÐµÑĤÐ°ÑĢ": 4573,
      "ymnasium": 4574,
      ".âĢľ": 4575,
      "/-": 4576,
      "/?": 4577,
      "01": 4578,
      "05": 4579,
      "09": 4580,
      "32": 4581,
      "38": 4582,
      "316": 4583,
      "41": 4584,
      "56": 4585,
      "62": 4586,
      "78": 4587,
      "Al": 4588,
      "Ant": 4589,
      "Bi": 4590,
      "BÃ¼": 4591,
      "Bes": 4592,
      "Bundes": 4593,
      "Dinge": 4594,
      "EN": 4595,
      "ER": 4596,
      "En": 4597,
      "Gymnasium": 4598,
      "Hob": 4599,
      "Haupt": 4600,
      "Ihre": 4601,
      "Kar": 4602,
      "Li": 4603,
      "Lis": 4604,
      "Muster": 4605,
      "Natur": 4606,
      "Netz": 4607,
      "Nico": 4608,
      "Niederlande": 4609,
      "Ph": 4610,
      "Pers": 4611,
      "Rad": 4612,
      "Relativ": 4613,
      "Se": 4614,
      "Sp": 4615,
      "Tour": 4616,
      "Urlaub": 4617,
      "Vor": 4618,
      "Wohn": 4619,
      "adie": 4620,
      "ahre": 4621,
      "ace": 4622,
      "abel": 4623,
      "by": 4624,
      "buch": 4625,
      "bot": 4626,
      "cen": 4627,
      "dan": 4628,
      "dativ": 4629,
      "dru": 4630,
      "dro": 4631,
      "dit": 4632,
      "drig": 4633,
      "diert": 4634,
      "ding": 4635,
      "direkte": 4636,
      "dÃ¼rfen": 4637,
      "ekt": 4638,
      "egt": 4639,
      "eld": 4640,
      "ecke": 4641,
      "gnet": 4642,
      "garage": 4643,
      "gress": 4644,
      "hÃ¼": 4645,
      "hÃ¤": 4646,
      "hiel": 4647,
      "heiÃŁ": 4648,
      "haupt": 4649,
      "hitzung": 4650,
      "ian": 4651,
      "ider": 4652,
      "iser": 4653,
      "ice": 4654,
      "ihm": 4655,
      "izig": 4656,
      "ka": 4657,
      "ki": 4658,
      "kor": 4659,
      "kat": 4660,
      "kale": 4661,
      "kret": 4662,
      "kasus": 4663,
      "ln": 4664,
      "lt": 4665,
      "leute": 4666,
      "lat": 4667,
      "mo": 4668,
      "mas": 4669,
      "met": 4670,
      "mon": 4671,
      "mma": 4672,
      "miÃŁ": 4673,
      "mÃ¶glichkeit": 4674,
      "nst": 4675,
      "nÃ¤": 4676,
      "nier": 4677,
      "nik": 4678,
      "ness": 4679,
      "ow": 4680,
      "ose": 4681,
      "oben": 4682,
      "oder": 4683,
      "ohlen": 4684,
      "ph": 4685,
      "pra": 4686,
      "pers": 4687,
      "passen": 4688,
      "platz": 4689,
      "paten": 4690,
      "rt": 4691,
      "ritt": 4692,
      "sf": 4693,
      "seit": 4694,
      "sil": 4695,
      "szeit": 4696,
      "tter": 4697,
      "tet": 4698,
      "tage": 4699,
      "use": 4700,
      "ull": 4701,
      "uber": 4702,
      "verm": 4703,
      "wit": 4704,
      "wÃ¼r": 4705,
      "wechs": 4706,
      "xp": 4707,
      "yp": 4708,
      "ylt": 4709,
      "ziel": 4710,
      "Â©": 4711,
      "ÃĦ": 4712,
      "Ð¡": 4713,
      "Ð¯": 4714,
      "ÐĹ": 4715,
      "Ġ>": 4716,
      "ĠÑģÐ»": 4717,
      "ĠÑĢÑĸÐ²": 4718,
      "ĦÐ²ÑĢÐ¾Ð¿": 4719,
      "ĠÐ¨": 4720,
      "ĠÐ®": 4721,
      "Ð½ÐµÐ½Ð½Ñı": 4722,
      "Ð½ÑĸÐº": 4723,
      "Ð¾ÑĦ": 4724,
      "Ð¾ÑģÑı": 4725,
      "Ð¾Ð½ÐµÑĢ": 4726,
      "ÐµÐ²": 4727,
      "ÐµÐ»ÑĮÐ½Ð¸Ð¹": 4728,
      "ÑıÑĤ": 4729,
      "ÑıÑĩÐ¸Ð¹": 4730,
      "ÑĸÑĩ": 4731,
      "ÑĸÐ¼Ðµ": 4732,
      "ÑģÐ¸Ñĩ": 4733,
      "ÑģÐ¿ÑĢÐ°Ð²": 4734,
      "ree": 4735,
      "reig": 4736,
      "Ð¾Ð°": 4737,
      "Ð°Ð»Ðµ": 4738,
      "Ð°Ð»Ñĸ": 4739,
      "Ð°ÐµÑĢ": 4740,
      "Ð°ÐºÑĥ": 4741,
      "Ð°ÑĨÑĸÑı": 4742,
      "orf": 4743,
      "recht": 4744,
      "Ð¸Ð²Ñĸ": 4745,
      "chste": 4746,
      "chnet": 4747,
      "ender": 4748,
      "enhaus": 4749,
      "enige": 4750,
      "enzin": 4751,
      "enstich": 4752,
      "ÑĤÑĥ": 4753,
      "ÑĤÑĶ": 4754,
      "ÑĤÐ¾Ð²": 4755,
      "ÑĤÐ¾Ð¿": 4756,
      "ÑĤÑĥÐ²Ð°ÑĤÐ¸": 4757,
      "ÑĤÐ²ÐµÑĢ": 4758,
      "ÑĢÐ¸ÑĤÐ¸": 4759,
      "ÑĢÐ¾ÑĪ": 4760,
      "ÑĢÐ¸Ð²Ð°ÑĤÐ¸": 4761,
      "ÐµÐ½Ñİ": 4762,
      "ÐµÐ½Ð·": 4763,
      "ÐµÐ½Ð¾ÑģÐ¸ÑĤÐ¸": 4764,
      "Ð»ÐºÐ°": 4765,
      "Ð»ÐµÐ½Ð¸Ð¹": 4766,
      "ÑĥÐ»Ð¸": 4767,
      "ĠCD": 4768,
      "ĠChan": 4769,
      "ÑĶÐ´Ð½": 4770,
      "erk": 4771,
      "erhÃ¶": 4772,
      "erdig": 4773,
      "erinnen": 4774,
      "Ð¼Ð¸Ð½": 4775,
      "Ð¼Ð°Ð½": 4776,
      "Ð¼Ð¾Ð²Ð°": 4777,
      "inkt": 4778,
      "inne": 4779,
      "inieren": 4780,
      "inner": 4781,
      "inform": 4782,
      "interes": 4783,
      "star": 4784,
      "station": 4785,
      "stÃ¼tz": 4786,
      "ĠIr": 4787,
      "ĠIhnen": 4788,
      "ÐºÐ¾Ð½Ð°": 4789,
      "ÐºÐ¾ÑĪ": 4790,
      "ÐºÑĨÑĸÑı": 4791,
      "ÑĩÐ½Ð¸Ðº": 4792,
      "ÑĩÑĥÐ²Ð°ÑĤÐ¸": 4793,
      "ÑĩÑĥÐº": 4794,
      "Ġde": 4795,
      "Ġdau": 4796,
      "Ġdar": 4797,
      "Ġdam": 4798,
      "ĠdrÃ¼": 4799,
      "Ġdirekt": 4800,
      "iehen": 4801,
      "Ð¾Ð²Ð¾Ð»": 4802,
      "Ð¾Ð²Ð¸ÑĤÐ¸": 4803,
      "Ð¾Ð²ÐµÑĨÑĮ": 4804,
      "Ð¾Ð²Ð½Ð¸Ñħ": 4805,
      "ĠÐ¿Ð¾Ð·": 4806,
      "ĠÐ¿Ð¸ÑĤÐ¸": 4807,
      "ĠÐ¿Ð°Ð´": 4808,
      "ĠÐ¿Ð°Ð»": 4809,
      "Ð¾Ð¼ÐµÑĢ": 4810,
      "Ð¾Ð¼ÐµÐ½ÑĤ": 4811,
      "ĠInten": 4812,
      "ĠÐ´Ð¾Ð¿": 4813,
      "ĠÐ´Ð¸ÑĤ": 4814,
      "ĠÐ´ÐµÑĢ": 4815,
      "ĠÐ´ÑıÐº": 4816,
      "ĠÐ´Ð¾Ð²ÑĸÐ´": 4817,
      "ĠÐ´ÑĸÑİ": 4818,
      "asen": 4819,
      "aske": 4820,
      "auch": 4821,
      "auen": 4822,
      "auran": 4823,
      "aukasus": 4824,
      "Ð´Ñĸ": 4825,
      "Ð´Ð¸Ð¹": 4826,
      "Ð´Ð°Ð½Ð½Ñı": 4827,
      "Ð´Ð¾Ð¼Ð°": 4828,
      "ĠÐ¼Ðµ": 4829,
      "ĠÐ¼Ð°Ð¼": 4830,
      "ĠÐ¼ÑĸÐ»ÑĮ": 4831,
      "ĠÐ¼Ð°ÑĪ": 4832,
      "ĠÐ¼Ð°ÑİÑĤÑĮ": 4833,
      "ĠÐ¼Ð¾ÑĢÐµ": 4834,
      "ĠÐ¼Ð¾Ð¼ÐµÐ½ÑĤ": 4835,
      "ĠÐ°Ð½": 4836,
      "ĠÐ°Ð¿ÑĤÐµ": 4837,
      "ĠÐ·Ð½Ð¸Ðº": 4838,
      "ĠÐ·ÑĢÑĥ": 4839,
      "ĠÐ·Ð½Ñı": 4840,
      "ĠÐ·Ð¾ÑĢÑĥ": 4841,
      "Ġihm": 4842,
      "geogra": 4843,
      "gezogen": 4844,
      "gebraucht": 4845,
      "gegn": 4846,
      "ĠÐ½ÑĸÐº": 4847,
      "ĠÐ½Ð°Ð¼Ð¸": 4848,
      "ĠÐ½Ð¾Ð¼ÐµÑĢ": 4849,
      "ĠÑģÐ¸Ð¼": 4850,
      "ĠÑģÐ²Ñĸ": 4851,
      "ĠÐ²Ñĸ": 4852,
      "ĠÐ²Ðº": 4853,
      "ĠÐ²Ð¸Ñģ": 4854,
      "ĠÐ²Ð²Ð°Ð¶Ð°Ñİ": 4855,
      "ĠÐ²ÑģÑĤÐ°Ð½": 4856,
      "ĠÐ²ÑĸÑĪÐ°ÑĤÐ¸": 4857,
      "ĠÐ²Ð¿ÐµÐ²Ð½": 4858,
      "ÑĸÐ½Ð°Ð½": 4859,
      "Ð»ÑıÑĶ": 4860,
      "Ð»ÑıÑİ": 4861,
      "Ð»ÑıÑİÑĤÑĮ": 4862,
      "ĠDen": 4863,
      "ĠDiÃ¤t": 4864,
      "Ġweit": 4865,
      "Ġwert": 4866,
      "ande": 4867,
      "andes": 4868,
      "anis": 4869,
      "anbie": 4870,
      "Ġson": 4871,
      "Ġsollen": 4872,
      "Ġsingen": 4873,
      "Ġschenke": 4874,
      "eim": 4875,
      "eich": 4876,
      "eigt": 4877,
      "Ġgeg": 4878,
      "Ġgebo": 4879,
      "Ġgebr": 4880,
      "Ġgewaschen": 4881,
      "Ġgeboten": 4882,
      "Ġgeliehen": 4883,
      "ute": 4884,
      "uten": 4885,
      "tis": 4886,
      "ĠAt": 4887,
      "ĠAu": 4888,
      "ĠAut": 4889,
      "ĠAug": 4890,
      "Ð²ÐµÑĢÑĤ": 4891,
      "Ð¾ÑĢÐ´": 4892,
      "Ð¾Ð³Ð°": 4893,
      "Ð¼ÐµÑĢÐ°": 4894,
      "ÑĨÑİ": 4895,
      "ÑĨÐµÑĢÑĤ": 4896,
      "Ð»ÑĮÐ¿": 4897,
      "Ð»ÑĮÐ¹Ð¾Ð½": 4898,
      "Ġber": 4899,
      "Ġbel": 4900,
      "Ġbenut": 4901,
      "Ã¼cken": 4902,
      "ĠÐ¿ÑĸÐ´ÑĤÑĢÐ¸Ð¼": 4903,
      "ĠÐ¿ÑĸÐ´Ð¿ÑĢ": 4904,
      "ĠBÃ¼": 4905,
      "ĠBil": 4906,
      "ĠBis": 4907,
      "ĠBond": 4908,
      "ĠBalkon": 4909,
      "ĠBayern": 4910,
      "Ð¿Ð¾": 4911,
      "Ð¿Ñĸ": 4912,
      "Ð¿Ð°ÑĤÐ¸": 4913,
      "Ð¿Ð¾Ð·": 4914,
      "Ð¿ÑĥÑģ": 4915,
      "Ð¹Ð½Ð°": 4916,
      "ÑĦÐ¾ÑĢÑĤ": 4917,
      "ĠSÃ¼": 4918,
      "ĠSÃ¤": 4919,
      "ĠSicher": 4920,
      "ĠSylt": 4921,
      "ĠSender": 4922,
      "ĠÑĢÐµÑģÑĤÐ¾ÑĢÐ°Ð½": 4923,
      "Ð¾Ð´Ñĥ": 4924,
      "ĠnÃ¼tz": 4925,
      "ĠÑģÑĤÐ°Ð²": 4926,
      "ĠÑģÑĤÑĢÑĸ": 4927,
      "ĠÑģÑĤÐ¾Ñģ": 4928,
      "ĠÑģÑĤÐ¾Ð»Ñĸ": 4929,
      "Erd": 4930,
      "schien": 4931,
      "schmer": 4932,
      "ĠÑĥÐºÑĢÐ°ÑĹÐ½": 4933,
      "eiter": 4934,
      "Ã¤ren": 4935,
      "Ã¤rin": 4936,
      "Ã¤gt": 4937,
      "Ã¤dlich": 4938,
      "ÑĨÑĸÐ¾Ð½": 4939,
      "ĠÑĩÐ¸ÑģÑĤ": 4940,
      "ĠÑĩÐµÑĢ": 4941,
      "ernhof": 4942,
      "erneinung": 4943,
      "ĠÑĤÐ¾": 4944,
      "ĠÑĤÐ°ÑĶÐ¼": 4945,
      "arum": 4946,
      "arken": 4947,
      "arischen": 4948,
      "artner": 4949,
      "Ġeinige": 4950,
      "Ġeinfach": 4951,
      "Ġeinverstanden": 4952,
      "genehm": 4953,
      "ÑģÑĸÐ»Ð»Ñı": 4954,
      "ĠÐºÑĥ": 4955,
      "ĠÐºÐ¾Ð³Ð¾": 4956,
      "ĠÐºÐ°Ð¶": 4957,
      "ĠÐºÑĸÐ»ÑĮ": 4958,
      "ĠÐºÐ°Ñģ": 4959,
      "ĠÐºÑĢÐ¸": 4960,
      "ĠÐºÑĸÐ¼": 4961,
      "ĠÐºÐ°Ð½Ð´": 4962,
      "ĠÐºÐ²Ð¸ÑĤ": 4963,
      "ĠHÃ¼": 4964,
      "ĠHÃ¶": 4965,
      "ĠHier": 4966,
      "Ġlang": 4967,
      "Ġlaufen": 4968,
      "untern": 4969,
      "unktion": 4970,
      "ĠKn": 4971,
      "ĠKoll": 4972,
      "ĠKomp": 4973,
      "ĠKlo": 4974,
      "ĠKomparativ": 4975,
      "ĠKeller": 4976,
      "ÑİÑģ": 4977,
      "ÑİÐºÐ°": 4978,
      "ĠÐ¾ÑĨÑĸÐ½": 4979,
      "ĠFC": 4980,
      "ĠFÃ¼": 4981,
      "ĠFrÃ¼hst": 4982,
      "ĠFace": 4983,
      "ĠFeld": 4984,
      "ĠFunktion": 4985,
      "Ð¸Ð½Ð¾Ñİ": 4986,
      "Ð¸Ð½Ð°Ð¼Ð¸": 4987,
      "Ð¾Ð»Ð¾Ð²": 4988,
      "ĠÐ·Ð°ÑĢÐ¾Ð±": 4989,
      "Ġdenn": 4990,
      "ĠMar": 4991,
      "ĠMaus": 4992,
      "ĠMetz": 4993,
      "ĠMasch": 4994,
      "ÑģÑıÑĨÑĮ": 4995,
      "heben": 4996,
      "Ġdiesen": 4997,
      "Ġdieser": 4998,
      "fehl": 4999,
      "ĠÑĦÐ°ÑĢ": 5000,
      "ĠÑĦÑĥÑĤÐ±": 5001,
      "ĠÑĦÑĸÐ½Ð°Ð½": 5002,
      "ĠTo": 5003,
      "ĠTrÃ¶": 5004,
      "ĠTim": 5005,
      "ĠTief": 5006,
      "ĠTaschen": 5007,
      "teratur": 5008,
      "terhorn": 5009,
      "ĠGÃ¤": 5010,
      "ĠGlei": 5011,
      "ĠGasse": 5012,
      "ĠGrÃ¼n": 5013,
      "ĠGerman": 5014,
      "ĠGrammatik": 5015,
      "rop": 5016,
      "ĠÐ¿Ð¾ÑģÐ»ÑĸÐ´": 5017,
      "ĠÐ¿Ð¾ÑģÐ»Ñĥ": 5018,
      "Ð±ÑĥÐ²Ð°ÑĤÐ¸ÑģÑı": 5019,
      "inder": 5020,
      "ĠDeutschkurs": 5021,
      "Ð°Ð²Ð°": 5022,
      "annte": 5023,
      "Ð°Ð¼Ð¿": 5024,
      "ÑĢÑĸÐ°Ð»": 5025,
      "chenk": 5026,
      "eilen": 5027,
      "ĠArt": 5028,
      "ĠÐ½Ð°Ñģ": 5029,
      "ĠÐ½Ð°ÑģÑĤÑĢÑĸ": 5030,
      "ĠÐ½Ð°Ð»ÐµÐ¶": 5031,
      "ĠSuche": 5032,
      "ĠSuperlativ": 5033,
      "Ð¶Ð°Ð²": 5034,
      "Ð¶ÑĥÐ²Ð°ÑĤÐ¸": 5035,
      "Ð¶ÐµÐ½Ð¸Ð¹": 5036,
      "Ð¶Ð´Ð¶": 5037,
      "ichte": 5038,
      "ĠPeter": 5039,
      "kaufs": 5040,
      "ÑĢÑĥÑĩÐ½Ð¸Ðº": 5041,
      "Ð³Ð°Ð½": 5042,
      "ÑĪÐºÐ°": 5043,
      "ummer": 5044,
      "ummel": 5045,
      "ĠÐ±ÑĸÐ´": 5046,
      "ĠÐ±Ð¾ÑĢ": 5047,
      "ĠÐ±Ð°ÑĢ": 5048,
      "ĠÐ±Ð°Ð»": 5049,
      "ĠÐ±ÑĸÐ·": 5050,
      "ĠÐ±Ð°Ñĩ": 5051,
      "ĠÐ±Ð°Ð³Ð°ÑĤÐ¸": 5052,
      "ĠÐ±ÑĸÐ»ÑĮÑĪÐµ": 5053,
      "rend": 5054,
      "Ġteu": 5055,
      "Ġtri": 5056,
      "Ġtreffen": 5057,
      "estauran": 5058,
      "ĠZeu": 5059,
      "ĠZust": 5060,
      "Ð·Ð´": 5061,
      "pekt": 5062,
      "pektiv": 5063,
      "ĠÑģÐ¿Ð°": 5064,
      "ĠÑģÐ¿Ð¾Ðº": 5065,
      "ĠÑģÐ¿ÑĢÐ°Ð²": 5066,
      "Ð°Ð½Ð´Ð¸": 5067,
      "Ġfr": 5068,
      "Ġfot": 5069,
      "Ġfaul": 5070,
      "Ġerk": 5071,
      "ĠÑĤÐµÐ¶": 5072,
      "ĠÑĤÐµÑģÑĤ": 5073,
      "ĠÑĤÐµÐ±Ðµ": 5074,
      "ÑħÐ¾": 5075,
      "Ġspricht": 5076,
      "ĠschÃ¤dlich": 5077,
      "hte": 5078,
      "Ġanal": 5079,
      "Ġanfangen": 5080,
      "Ġangenehm": 5081,
      "Ã¶hnen": 5082,
      "Ã¶llig": 5083,
      "Ã¶hnt": 5084,
      "Ð½ÐµÑĤ": 5085,
      "Ð½ÐµÑĢÐ°": 5086,
      "ĠÐ¼ÑĸÑģÑĤÐ¾": 5087,
      "ĠÐ¼ÑĸÑģÑĤÐ°": 5088,
      "chtung": 5089,
      "bet": 5090,
      "beantworten": 5091,
      "becken": 5092,
      "bekl": 5093,
      "hne": 5094,
      "hnung": 5095,
      "ĠÐŁÑĢÐ¾": 5096,
      "ĠErho": 5097,
      "ĠErzÃ¤hl": 5098,
      "ĠErnÃ¤": 5099,
      "denken": 5100,
      "ĠÐ±ÑĥÐ²": 5101,
      "ĠÐ±ÑĥÐ»ÑĮÐ¹Ð¾Ð½": 5102,
      "Ð°ÑĤÐ¸Ð²": 5103,
      "Ð´Ð¸Ð²": 5104,
      "Ð¾Ð¿ÑĸÐ¹": 5105,
      "Ð´Ð½Ð¾": 5106,
      "Ð°Ð²Ð¸Ð»ÑĮÐ½Ð¸Ñħ": 5107,
      "ĠÑĨÑİ": 5108,
      "ĠÑĨÑĥÐº": 5109,
      "Ð°Ð»ÑĮÐ½Ð¾": 5110,
      "ethe": 5111,
      "ette": 5112,
      "ĠÐ²ÑĸÐ´Ñĩ": 5113,
      "ĠÐ²ÑĸÐ´ÑĮ": 5114,
      "ĠÐ²ÑĸÐ´ÑĢÑıÐ´Ð¶": 5115,
      "PrÃ¤positionen": 5116,
      "Ã¶nliche": 5117,
      "Ġhil": 5118,
      "ĠhÃ¼b": 5119,
      "ÑĸÐ²ÐºÐ°": 5120,
      "itel": 5121,
      "itÃ¤t": 5122,
      "Ð¸ÑĤÐ°ÑĤÐ¸": 5123,
      "Ð¸ÑĤÐµÐ»ÑĮ": 5124,
      "ĠWes": 5125,
      "ÑĥÑĩÐ°ÑĤÐ¸": 5126,
      "ĠÐ¶ÑĥÑĢ": 5127,
      "ĠÐ¶Ð°Ð»ÑĮ": 5128,
      "ennen": 5129,
      "ĠÑĢÐµÑĩÑĸ": 5130,
      "ĠÐ·Ð°Ð¿Ð¸Ñģ": 5131,
      "ĠÐ¶ÑĸÐ½ÐºÐ°": 5132,
      "alz": 5133,
      "ille": 5134,
      "Ġzwar": 5135,
      "Ġzeigt": 5136,
      "ĠÐ·Ð°Ð²ÐµÑĢÑĪ": 5137,
      "ĠÐ·Ð°Ð²Ð´Ð°Ð½Ð½Ñı": 5138,
      "demittel": 5139,
      "ĠÐ´Ð¾Ð¿Ð¾Ð¼Ð¾Ð³ÑĤÐ¸": 5140,
      "dukt": 5141,
      "ĠUhrzeit": 5142,
      "uÃŁern": 5143,
      "ziert": 5144,
      "ĠFuÃŁgÃ¤n": 5145,
      "ermine": 5146,
      "ĠÐļÐ°ÑĢ": 5147,
      "sichtig": 5148,
      "ĠBuchladen": 5149,
      "Ġausgeben": 5150,
      "erleben": 5151,
      "erlegt": 5152,
      "ierig": 5153,
      "Ġverm": 5154,
      "Ġvert": 5155,
      "Ġverneinen": 5156,
      "ĠLÃ¤ndern": 5157,
      "ĠLotto": 5158,
      "kosten": 5159,
      "ĠÐ¾Ð·ÐµÑĢ": 5160,
      "ames": 5161,
      "amil": 5162,
      "ÑĸÐ¹Ð½Ð¸Ð¹": 5163,
      "Ã¼ritz": 5164,
      "kenland": 5165,
      "Ġliegen": 5166,
      "Ð¼Ð¾Ð½": 5167,
      "spunkt": 5168,
      "mpfen": 5169,
      ".....": 5170,
      "ĠGesprÃ¤": 5171,
      "ĠGeschenk": 5172,
      "Ð¾Ð·Ð²Ñĸ": 5173,
      "ĠÐ½ÑĸÐ¼ÐµÑĨÑĮÐºÑĥ": 5174,
      "ĠFreunden": 5175,
      "ĠFremd": 5176,
      "ĠVerneinen": 5177,
      "ĠVerneinung": 5178,
      "ĠRuhe": 5179,
      "ĠRasen": 5180,
      "ĠRestauran": 5181,
      "andt": 5182,
      "andte": 5183,
      "neben": 5184,
      "ĠParkhaus": 5185,
      "ÑĥÐ²Ð°Ð½": 5186,
      "ÑģÑĤÐµÑĢ": 5187,
      "ĠStamm": 5188,
      "ĠSteiger": 5189,
      "ĠStock": 5190,
      "isÃ¶r": 5191,
      "urde": 5192,
      "ator": 5193,
      "ĠÐľÐ¾Ñı": 5194,
      "ĠÐľÑĸÐ¹": 5195,
      "ĠÐľÐ°Ð¼Ð°": 5196,
      "Ã¼nsche": 5197,
      "ĠEnergie": 5198,
      "ĠEtage": 5199,
      "ĠEreig": 5200,
      "Ġmachte": 5201,
      "ĠProfil": 5202,
      "Ð´Ð°Ñĩ": 5203,
      "Ð´Ð°ÑĩÐ°": 5204,
      "bteil": 5205,
      "ĠProbleme": 5206,
      "leiden": 5207,
      "ĠÐ³Ð°Ð·": 5208,
      "ĠÐ³ÑĢÐ°": 5209,
      "ĠÐ³Ð°Ð»": 5210,
      "ĠÐ³ÑĥÑģ": 5211,
      "ĠÐ³ÑĸÐ³": 5212,
      "Ġleben": 5213,
      "ĠÐ¾Ð±Ð¾Ð²": 5214,
      "ĠÐ¾Ð±Ð»Ð°ÑĪÑĤ": 5215,
      "ĠÐ¾Ð±ÑģÐ»ÑĥÐ³": 5216,
      "ĠÐ¾Ð±ÐµÑĢÐµÐ¶": 5217,
      "ĠBildung": 5218,
      "Schwar": 5219,
      "Schul": 5220,
      "Schreiben": 5221,
      "schloss": 5222,
      "Ã¤len": 5223,
      "ĠÑĢÑĸÐ´": 5224,
      "ĠÑĢÐ¸Ð±": 5225,
      "ĠWochen": 5226,
      "ĠBahnsteig": 5227,
      "Ġ23": 5228,
      "Ġ24": 5229,
      "lichen": 5230,
      "Ð²Ð°ÑĢÑĸ": 5231,
      "Ð²Ð°Ð»Ð°": 5232,
      "ÑĹÑħ": 5233,
      "ÑĹÐ¶Ð´Ð¶": 5234,
      "ÐµÑĢÐ»": 5235,
      "ÐµÑĢÑİ": 5236,
      "ÑīÐµ": 5237,
      "ÑīÐ¸Ð½Ð°": 5238,
      "mÃ¼tlich": 5239,
      "Ġseiner": 5240,
      "gerzone": 5241,
      "ĠÐ¾ÑģÐ²ÑĸÑĤ": 5242,
      "ĠKomma": 5243,
      "ÃŁerdem": 5244,
      "ĠÐ³Ð¾Ð»Ð¾Ð²Ð½Ð¸Ð¹": 5245,
      "Ã¤rgern": 5246,
      "ĠVerhÃ¤ltnis": 5247,
      "ĠVergangenheit": 5248,
      "rafen": 5249,
      "ration": 5250,
      "Ġdeinen": 5251,
      "imal": 5252,
      "vert": 5253,
      "verw": 5254,
      "verhÃ¤ltnis": 5255,
      "versicherung": 5256,
      "ĠKongress": 5257,
      "iesland": 5258,
      "Ð¾Ð¶Ð¸Ð²Ð°Ð½Ð½Ñı": 5259,
      "ĠNe": 5260,
      "ĠNacht": 5261,
      "ĠNamen": 5262,
      "ĠÐĴÑĸÐ´": 5263,
      "ĠÐĴÐ°Ð¼": 5264,
      "ĠÐĴÐ¾Ð»Ð¸Ð½ÑģÑĮÐºÐ¾Ð³Ð¾": 5265,
      "ĠÐ»ÑĸÐº": 5266,
      "ĠÐ»ÑĸÑĤ": 5267,
      "ĠÐ»ÐµÐ¶": 5268,
      "Ð¾Ð½Ð´Ð°ÑĢ": 5269,
      "ĠÑĢÐ¾Ð±Ð¸ÑĤÐ¸": 5270,
      "ĠÑĢÐ¾Ð±Ð¾ÑĤÑĥ": 5271,
      "Ãľb": 5272,
      "Ð¾ÑĩÐºÐ°": 5273,
      "ĠMorgeng": 5274,
      "Ġverboten": 5275,
      "Ġverdoppel": 5276,
      "sterben": 5277,
      "âĢ¦);": 5278,
      "keln": 5279,
      "ĠPrÃ¤sens": 5280,
      "Ġbedeut": 5281,
      "âĢľ.": 5282,
      "âĢľ:": 5283,
      "ĠÑħÐ¾ÑĤ": 5284,
      "ĠÑħÐ¾Ð»Ð¾Ð´": 5285,
      "ĠÑħÐ²Ð¸": 5286,
      "ĠÑħÐ°ÑĢÑĩ": 5287,
      "zentr": 5288,
      "abonn": 5289,
      "Ð»Ð¸Ð²Ñĸ": 5290,
      "Ð»Ð¸Ð²Ð°": 5291,
      "ĠNachrichten": 5292,
      "Ð°Ð´ÑĥÐ²Ð°ÑĤÐ¸": 5293,
      "ĠÐ²Ð¸ÑģÐ»Ð¾Ð²": 5294,
      "ĠÐ²Ð¸Ð·": 5295,
      "ĠÐ²Ð¸Ñī": 5296,
      "ĠÐ²Ð¸ÑĢÐ¾Ð±": 5297,
      "ĠÐ¿ÑĢÐ¾ÑĤÐ¸": 5298,
      "satzes": 5299,
      "ÐµÑĤÐ¾Ð´Ð¸Ñĩ": 5300,
      "Ð¿ÑĢÐ¾Ð¿": 5301,
      "adjektiv": 5302,
      "ĠÑĪÐ°Ð½": 5303,
      "ĠSport": 5304,
      "ĠSprache": 5305,
      "ĠSpitze": 5306,
      "ĠSpree": 5307,
      "Ġplan": 5308,
      "Ð½Ð¸ÑĨÑı": 5309,
      "Ð°ÑĤÐ¸ÐºÐ¸": 5310,
      "ÑĤÐ°Ð»": 5311,
      "ÑĤÐ°ÑĪ": 5312,
      "ĠÐ¿Ð¾Ð´Ð°ÑĤÐ¾Ðº": 5313,
      "ĠÐ³ÑĢÐ°ÑĤÐ¸": 5314,
      "ĠÐ³ÑĢÐ°Ð¼Ð°ÑĤÐ¸": 5315,
      "ĠÑĢÐ¾Ð·ÐµÑĤ": 5316,
      "ÑĸÐ»ÑĮÐºÐ¸": 5317,
      "ĠÐ¿ÐµÑĢÐµÑĢ": 5318,
      "ĠÐ¿ÐµÑĢÐµÐ±": 5319,
      "ĠÐ¿ÐµÑĢÐµÐ±ÑĥÐ´": 5320,
      "ĠBedeut": 5321,
      "ĠBezie": 5322,
      "ĠBeding": 5323,
      "ĠBeerdig": 5324,
      "ÐµÐºÐ¾Ð¼": 5325,
      "Ð°Ð»ÑĸÑģÑĤ": 5326,
      "ÑĥÐ´ÑĮ": 5327,
      "lieÃŁ": 5328,
      "Ġstreiten": 5329,
      "Ġstarke": 5330,
      "ĠAntwort": 5331,
      "ĠAngebot": 5332,
      "ĠAnzahl": 5333,
      "fing": 5334,
      "findet": 5335,
      "ĠÐ¿ÑĢÐ¸Ñħ": 5336,
      "ĠÐ¿ÑĢÐ¸Ð²ÑĸÑĤ": 5337,
      "gabe": 5338,
      "ika": 5339,
      "ogle": 5340,
      "ÑĸÑĤÑĤÑı": 5341,
      "stelle": 5342,
      "ÑĥÑģÐºÐ°ÑĤÐ¸": 5343,
      "sivstation": 5344,
      "ĠÑıÐºÑĸ": 5345,
      "ĠÑıÐºÐ¾Ñİ": 5346,
      "ĠÐºÐ¾Ð¼ÑĦÐ¾ÑĢÑĤ": 5347,
      "ĠRepar": 5348,
      "ntag": 5349,
      "ĠManchmal": 5350,
      "flexiven": 5351,
      "ĠÑĹÐ¹": 5352,
      "ĠÑĹÐ´Ðµ": 5353,
      "ĠÑĹÑģÑĤÐ¸": 5354,
      "Ġpassiert": 5355,
      "riffen": 5356,
      "ĠJames": 5357,
      "ĠÐĳÐ°Ð³Ð°ÑĤÐ¾": 5358,
      "ĠÐĳÐ°ÑĤÑĮ": 5359,
      "ĠÐ¡ÐµÐºÑĢÐµÑĤÐ°ÑĢ": 5360,
      "ĠÑģÐ²ÑĸÐ´": 5361,
      "ĠÑģÐ²ÐµÑĤÑĢ": 5362,
      "ĠÑģÐ²Ð¾ÑĶÐ¼Ñĥ": 5363,
      "ĠEinkaufen": 5364,
      "ĠEinweihung": 5365,
      "ÑĸÐ·Ð¸Ðº": 5366,
      "ÑĸÐ·Ð½Ð°": 5367,
      "ĠVorlesung": 5368,
      "Infinitiv": 5369,
      "haushalt": 5370,
      "Ð¾Ð²Ð¾ÑĢÐ¸ÑĤÐ¸": 5371,
      "geschaut": 5372,
      "geschehen": 5373,
      "Ð²Ð¸Ð´": 5374,
      "Ð²Ð¸Ð´Ð½Ð¾": 5375,
      "ÑģÐ¿ÑĸÐ²": 5376,
      "ÑĤÐµÑĢÐ½ÐµÑĤÑĸ": 5377,
      "Ð²Ð°Ð¶Ð»Ð¸Ð²": 5378,
      "ĠÐ²ÑĸÐ´Ð¿Ð¾Ð²Ñĸ": 5379,
      "ĠOrte": 5380,
      "135": 5381,
      "Verb": 5382,
      "Verbst": 5383,
      "Veranst": 5384,
      "book": 5385,
      "nahmen": 5386,
      "ÐĴÑĸÐ½": 5387,
      "ÐĴÐ¾Ð½Ð°": 5388,
      "ÐĴÐ¾Ð»Ð¸Ð½ÑģÑĮÐºÐ¾Ð³Ð¾": 5389,
      "Ġreflexiven": 5390,
      "ÑĥÐ¼ÐµÐ½ÑĤ": 5391,
      "ÑĥÐ¼ÐµÐ½ÑĤÐ¸": 5392,
      "hand": 5393,
      "ĠAusdru": 5394,
      "ffpunkt": 5395,
      "ĠFormular": 5396,
      "ĠFormulieren": 5397,
      "ÐµÐ¼ÐµÐ½Ñİ": 5398,
      "reichbar": 5399,
      "ÑĥÐ·ÑĮ": 5400,
      "ĠÐ½Ð°Ð²Ðº": 5401,
      "ĠÑħÐ¾ÑĩÐµÑĤÐµ": 5402,
      "Ð¿ÑĢÐ°Ð²Ð»ÑıÑĤÐ¸": 5403,
      "ĠÐĿÐ°ÑĪ": 5404,
      "low": 5405,
      "lokale": 5406,
      "meckt": 5407,
      "ukunft": 5408,
      "ĠÐ¿Ð¾Ð³ÑĢÐ°Ð±": 5409,
      "ĠÐ¿Ð¾Ð³Ð¾Ð²Ð¾ÑĢÐ¸ÑĤÐ¸": 5410,
      "ĠÐ´ÐµÑıÐºÑĸ": 5411,
      "delmarkt": 5412,
      "ĠFragesatz": 5413,
      "ĠFrisÃ¶r": 5414,
      "rennbare": 5415,
      "rief": 5416,
      "riere": 5417,
      "ÑĸÑĪÐ½Ð¸Ð¹": 5418,
      "ÑĥÐ½ÐºÐ¸": 5419,
      "Ġdabei": 5420,
      "ĠdafÃ¼r": 5421,
      "ĠÐ·Ð»Ð¸ÑĤÐ¸ÑģÑı": 5422,
      "ĠÐ·Ð»Ð¾Ð´ÑĸÐ¹": 5423,
      "Ġbesten": 5424,
      "ĠBerge": 5425,
      "ĠBergen": 5426,
      "ĠÑĩÐ°ÑģÑĤÐ¸Ð½Ð°": 5427,
      "ĠÑĦÑĸÐ»Ð¾Ð»": 5428,
      "ĠUnterstÃ¼tz": 5429,
      "baute": 5430,
      "Ġenthalten": 5431,
      "ĠÐ²Ð¸Ð³ÑĢÐ°Ð²Ð°ÑĤÐ¸": 5432,
      "ĠwÃ¼rden": 5433,
      "Ġgesund": 5434,
      "Ġgesagt": 5435,
      "ungsfor": 5436,
      "Ð¾Ð·Ð¸ÑĨÑĮÐºÐ°": 5437,
      "ÐµÑĢÑĤÐ°ÑĤÐ¸": 5438,
      "emporalsatz": 5439,
      "dition": 5440,
      "Ġendet": 5441,
      "ĠÐ¦ÐµÐ¹": 5442,
      "Ġgeflo": 5443,
      "Ġgefallen": 5444,
      "ĠÐ¿ÑĢÐ¾Ð¿Ð¾Ð½ÑĥÐ²Ð°ÑĤÐ¸": 5445,
      "ĠÐ½Ð°Ð´ÑĤÐ¾": 5446,
      "ĠPersonal": 5447,
      "Redemittel": 5448,
      "frieren": 5449,
      "friesland": 5450,
      "ĠÑĨÑĸÐ»": 5451,
      "steigen": 5452,
      "ĠÑģÐµÑĢÑĸÐ°Ð»": 5453,
      "ĠAbschied": 5454,
      "ĠÑĢÐ°Ð´ÑĸÑĤÐ¸": 5455,
      "ĠÑĢÐ°Ð´ÑĸÑİ": 5456,
      "ĠÐ»ÑĸÐºÐ°": 5457,
      "ĠReflexive": 5458,
      "folg": 5459,
      "ÐľÐµÑĤÐ¾Ð´Ð¸Ñĩ": 5460,
      "Ġex": 5461,
      "ĠÐ¿ÑĢÐ¸Ð¹Ð¾Ð¼": 5462,
      "ĠÐ¿ÑĢÐ¸Ð¹ÑĪ": 5463,
      "ĠÐ¿ÑĢÐ¸Ð¹Ð¼Ð°ÑĤÐ¸": 5464,
      "ĠÐ¾ÑĢÐ³Ð°Ð½": 5465,
      "ĠFÃ¤hre": 5466,
      "ĠUmwelt": 5467,
      "605": 5468,
      "hÃ¤ng": 5469,
      "ĠÐ¿ÑĢÐ¾Ð´Ð°Ð¶": 5470,
      "ĠKleid": 5471,
      "ĠÐ³Ð°ÑĢÐ½Ð¾": 5472,
      "ĠÐ³Ð°ÑĢÐ½Ñĸ": 5473,
      "ĠÐ´ÑĥÐ¼ÐºÐ°": 5474,
      "ĠÐ²ÐµÑĩÐµÑĢÑİ": 5475,
      "289": 5476,
      "sitzen": 5477,
      "verlor": 5478,
      "verlieren": 5479,
      "Ġgenannt": 5480,
      "ĠÐ¿Ð¾ÐºÑĥÐ¿": 5481,
      "ĠÐ¿Ð¾ÐºÐ»Ð°Ð»Ð°": 5482,
      "ĠÐ·Ð½Ð°ÑĶÑĤÐµ": 5483,
      "Ġgeschrieben": 5484,
      "Ð»ÑĮÑĤÐµÑĤ": 5485,
      "ĠBaum": 5486,
      "ĠBauernhof": 5487,
      "ĠBaustelle": 5488,
      "ĠÐ¿ÑĢÐ¾Ð²Ð¾Ð´Ð¸ÑĤÐ¸": 5489,
      "ĠÐ¿ÑĢÐ¾Ð²ÐµÐ´ÐµÐ½Ð½Ñı": 5490,
      "ĠMÃ¼ll": 5491,
      "ÑħÐ¾Ð´Ð¸": 5492,
      "ĠSchulhof": 5493,
      "ĠSchuljahr": 5494,
      "ĠbeschÃ¤f": 5495,
      "Ġ...................................................................................": 5496,
      "Ansicht": 5497,
      "melden": 5498,
      "zwischen": 5499,
      "zwald": 5500,
      "Ġempf": 5501,
      "ÐµÐ½Ð´Ð¾Ð²": 5502,
      "ĠChefin": 5503,
      "ĠÐ·Ð´ÑĸÐ¹ÑģÐ½": 5504,
      "ĠÐ·Ð±ÑĢ": 5505,
      "ĠÐ·Ð±ÑĸÐ»ÑĮÑĪ": 5506,
      "ĠÐ²Ð¸ÑĤÑĢÐ°": 5507,
      "Ð¾ÑĢÐ¸ÑģÐ½": 5508,
      "ĠTreppe": 5509,
      "ĠTreppen": 5510,
      "ĠTreffpunkt": 5511,
      "ĠÐ¿Ð¾ÑģÐºÐ°ÑĢÐ¶": 5512,
      "bereiten": 5513,
      "ĠÑĸÐ½ÑĤÐµÑĢÐ½ÐµÑĤ": 5514,
      "ĠLebens": 5515,
      "ĠÑĢÐ¾Ð·Ð¿Ð¾ÑĩÐ¸Ð½Ð°ÑĤÐ¸": 5516,
      "ĠJahren": 5517,
      "ĠÐ¼ÑĥÐ·Ð¸ÐºÐ°": 5518,
      "966": 5519,
      "Beantworten": 5520,
      "ionen": 5521,
      "Ġindirekt": 5522,
      "Ġindirekte": 5523,
      "Ð¾ÑīÐ°Ð´": 5524,
      "stÃ¼rzen": 5525,
      "ĠÐ¿Ð¾Ð¼Ð¸": 5526,
      "ĠÐ¿Ð¾Ð¿ÑĢÐ¾Ñī": 5527,
      "ĠÐ´Ð¾Ð¼Ð°ÑĪ": 5528,
      "ĠÐ´Ð¾Ð´Ð¾Ð¼Ñĥ": 5529,
      "ĠÐ¼Ð°ÑĤÐµÐ¼": 5530,
      "ĠÑģÑĤÑĢÐ°Ð²Ñĥ": 5531,
      "ĠÐ·Ð°ÑħÐ¸ÑģÑĤ": 5532,
      "ĠMensch": 5533,
      "ĠTagung": 5534,
      "ĠZugspitze": 5535,
      "ettert": 5536,
      "ĠÐ¿Ð¾Ð²ÐµÑĢÑħ": 5537,
      "ĠÐ¿Ð¾Ð²ÑĸÐ´Ð¾Ð¼Ð»ÑıÑĤÐ¸": 5538,
      "ĠÐ¿Ð¾Ð²ÑĸÐ´Ð¾Ð¼Ð»ÐµÐ½Ð½Ñı": 5539,
      "ĠEndung": 5540,
      "Ġ2022": 5541,
      "ĠNotwend": 5542,
      "Ġverbunden": 5543,
      "Ġverbringt": 5544,
      "ĠÐ²Ð¸Ð¿Ð°Ð´Ð¾Ðº": 5545,
      "ĠOrdner": 5546,
      "ĠOrdnung": 5547,
      "ĠÐ½Ð°Ð²ÑĩÐ°Ð½Ð½Ñı": 5548,
      "ĠStraÃŁenecke": 5549,
      "ĠÑĨÑĸÐºÐ°Ð²Ð¸ÑĤÐ¸ÑģÑı": 5550,
      "sow": 5551,
      "sondern": 5552,
      "ĠÃ¼berlegt": 5553,
      "ĠÐ¼ÑĸÑģÑıÑĨÑĮ": 5554,
      "ĠDachboden": 5555,
      "ĠBoot": 5556,
      "ĠBeispiel": 5557,
      "ĠÐºÐ»ÑĸÑĶÐ½ÑĤ": 5558,
      "ĠÐ·Ð°Ð¼Ð¾Ð²Ð»ÐµÐ½Ð½Ñı": 5559,
      "ĠÑĦÑĸÑĢÐ¼Ð°": 5560,
      "ĠTurnier": 5561,
      "ĠGericht": 5562,
      "ĠGerÃ¤t": 5563,
      "ĠÑģÐ¿ÐµÑĨÑĸÐ°Ð»ÑĮÐ½Ð¸Ð¹": 5564,
      "isteninform": 5565,
      "Ġschwimmen": 5566,
      "ĠLiefer": 5567,
      "ĠÑĢÐ¾ÐºÑĸÐ²": 5568,
      "ĠÐ¾ÑģÐ¾Ð±Ð»Ð¸Ð²Ð¾": 5569,
      "zentrum": 5570,
      "ĠÐ²Ð¸Ð±Ð°Ñĩ": 5571,
      "Ġabgeschlossen": 5572,
      "ĠÐ¿Ð°ÑĢÑĤÐ½ÐµÑĢÐ°": 5573,
      "ĠÐ·Ð»Ð¾ÑĩÐ¸Ð½ÐµÑĨÑĮ": 5574,
      "ĠGebÃ¤uden": 5575,
      "ĠÐ¿ÑĢÐ°ÑĨÑİÑİ": 5576,
      "ĠÐ²Ð±Ð¸Ð²ÑĨÑı": 5577,
      "ĠÐ²Ð±Ð¸Ð²ÑģÑĤÐ²Ð¾": 5578,
      "!!!": 5579,
      "Fachhochschule": 5580,
      "bÃ¼ro": 5581,
      "mmt": 5582,
      "zeichen": 5583,
      "zeichnet": 5584,
      "ÑĥÐ»ÑıÑĢÐ½Ð¸Ð¹": 5585,
      "ĠÐ¼Ð¾Ð²Ñĥ": 5586,
      "ĠÐ¼Ð°Ð¹Ð±ÑĥÑĤÐ½ÑĮÐ¾Ð¼Ñĥ": 5587,
      "ĠÐ¼Ð°Ð¹Ð±ÑĥÑĤÐ½ÑĶ": 5588,
      "ĠÐ·Ð³Ð¾Ð´ÐµÐ½": 5589,
      "ĠÑģÐ¾Ð½Ñı": 5590,
      "ĠÐ²Ð¿Ð»Ð¸Ð²": 5591,
      "ĠÐ²Ð¸Ð²Ñĩ": 5592,
      "ĠÐ²Ð¸Ð²ÑĩÐ°ÑĤÐ¸": 5593,
      "schnitt": 5594,
      "ĠÐ¿ÑĢÐ¾Ð³ÑĢÐ°Ð¼Ð°": 5595,
      "ĠÑĤÐ¾ÑĩÐ½Ð¾": 5596,
      "ĠMosel": 5597,
      "ĠTaxi": 5598,
      "ĠGoethe": 5599,
      "ĠGoogle": 5600,
      "ĠGegend": 5601,
      "ĠPfosten": 5602,
      "ĠPoliz": 5603,
      "Ð³Ð¾Ð²Ð¾ÑĢÐµÐ½Ð½Ñı": 5604,
      "Ã¶ffnung": 5605,
      "ĠÐ´ÑĢÑĥÐ·Ñĸ": 5606,
      "ĠÐ·Ð°Ð¿ÑĢÐ¾Ñģ": 5607,
      "ĠÐ±ÐµÐ·Ð¿ÐµÐºÐ¸": 5608,
      "ĠOstfriesland": 5609,
      "ĠÐ»Ð¾ÑĤÐµÑĢÐµÑİ": 5610,
      "lungsreich": 5611,
      "ĠÐ¿Ð»Ð°Ð½ÑĥÐ²Ð°ÑĤÐ¸": 5612,
      "ĠÐ²ÐµÑĩÑĸÑĢÐºÑĥ": 5613,
      "ĠÐ¿ÑĸÐ´Ð²Ð¸ÑīÐµÐ½Ð½ÑıÐ¼": 5614,
      "Partizip": 5615,
      "gramm": 5616,
      "kÃ¼ste": 5617,
      "rasilien": 5618,
      "ĠÐ¥ÑĤÐ¾": 5619,
      "regelmÃ¤ÃŁigen": 5620,
      "iemand": 5621,
      "ĠÐ¿ÑĸÑĪÐ¾Ð²": 5622,
      "ĠÐ²Ð¼ÑĸÑĶ": 5623,
      "ĠÐ²Ð¿ÑĢÐ°Ð²Ð¸": 5624,
      "Ġhalten": 5625,
      "Ġwohl": 5626,
      "Ġsolltest": 5627,
      "Ġgemalt": 5628,
      "ĠkÃ¤mmt": 5629,
      "Ġmeistens": 5630,
      "ÑĦÐµÑĢÐ°": 5631,
      "ĠSonntag": 5632,
      "ĠÐ¿ÑĢÐ¸Ð½ÑĤÐµÑĢ": 5633,
      "ĠÐ¿ÑĢÐ¸Ð³Ð°Ð´ÑĥÐ²Ð°ÑĤÐ¸": 5634,
      "ĠKanarischen": 5635,
      "ĠKulturangebot": 5636,
      "ÑİÑĢÐ¸ÑģÑĤ": 5637,
      "ĠÑĦÐ¾ÑĤÐ¾": 5638,
      "ĠTournee": 5639,
      "ĠerhÃ¶hen": 5640,
      "ĠSchwarzwald": 5641,
      "durcheinander": 5642,
      "service": 5643,
      "ĠGewinn": 5644,
      "ĠEifel": 5645,
      "ĠEltern": 5646,
      "ĠÑĢÐ¸Ð½Ð¾Ðº": 5647,
      "ĠNotar": 5648,
      "ĠÐĴÐ°ÑĪÑĥ": 5649,
      "ĠBÃ¼rgersteig": 5650,
      "ĠÐ´Ð¸ÑĢÐ¸Ð³ÐµÐ½ÑĤ": 5651,
      "Politik": 5652,
      "bseite": 5653,
      "frosch": 5654,
      "freudig": 5655,
      "karte": 5656,
      "nationalit": 5657,
      "romiss": 5658,
      "zweig": 5659,
      "ĠÃ¤uÃŁern": 5660,
      "ÑıÐ´Ð¾Ðº": 5661,
      "Ð¼Ð¾ÑģÑĦÐµÑĢÐ°": 5662,
      "Ġdrehen": 5663,
      "ĠÐ´ÑĸÑĤÐµÐ¹": 5664,
      "ĠÐ´Ð·Ð²Ð¾Ð½": 5665,
      "ĠÐ°ÑĤÐ¼Ð¾ÑģÑĦÐµÑĢÐ°": 5666,
      "ĠÐ²ÐµÑĢÑĪÐ¸Ð½Ð°": 5667,
      "ĠÐ²ÑĸÐ»ÑĮÐ½Ð¾Ð³Ð¾": 5668,
      "Ġhandeln": 5669,
      "ĠÐ½ÐµÐ¿ÑĢÐ°Ð²Ð¸Ð»ÑĮÐ½Ð¸Ñħ": 5670,
      "ĠBaskenland": 5671,
      "ĠBesuch": 5672,
      "ĠBetrag": 5673,
      "ĠBestellung": 5674,
      "Ġnormalerweise": 5675,
      "ĠÑĤÐ¾Ð²Ð°ÑĢÐ¸": 5676,
      "ĠÐºÐ°Ð¿ÑĥÑģÑĤ": 5677,
      "ĠÐºÐ²Ð°ÑĢÑĤÐ¸": 5678,
      "ĠÐºÐ°Ð¼ÑĸÐ½ÑĮ": 5679,
      "ĠÐºÐµÑĢÑĸÐ²Ð½Ð¸ÑĨÑĤÐ²Ð¾": 5680,
      "ĠKredit": 5681,
      "ĠÐ·Ð°ÑģÑĸÐ´Ð°Ð½Ð½Ñı": 5682,
      "ĠMatterhorn": 5683,
      "ĠÐ¿Ð¾Ð½ÐµÐ´ÑĸÐ»Ð¾Ðº": 5684,
      "ĠPlural": 5685,
      "Ġerlaubt": 5686,
      "ĠhÃ¤ngt": 5687,
      "ĠWebseite": 5688,
      "ĠWirtschaftszweig": 5689,
      "Ġzusammenge": 5690,
      "ĠUkraine": 5691,
      "sprogramm": 5692,
      "ĠVortrag": 5693,
      "Ġunbestimmten": 5694,
      "ĠStÃ¤dte": 5695,
      "ĠÐĨÐ½ÑĤÐµÑĢÐ½ÐµÑĤÑĸ": 5696,
      "ĠÐ³ÑĥÐ±Ð¸ÑĤÐ¸": 5697,
      "Geburts": 5698,
      "ĠSprachschule": 5699,
      "ÐºÐ¾Ð¼Ð¿ÐµÑĤÐµÐ½ÑĨÑĸÑĹ": 5700,
      "echselprÃ¤positionen": 5701,
      "ĠSozialen": 5702,
      "Ġwelchem": 5703,
      "ĠÐ½Ð°Ð´Ð·Ð²Ð¸ÑĩÐ°Ð¹Ð½Ð¾": 5704,
      "ĠFernseh": 5705,
      "ĠTÃ¤tigkeiten": 5706,
      "ĠÐ¼Ð°ÑĤÐµÑĢÑĸÐ°Ð»": 5707,
      "ĠAussichtspunkt": 5708,
      "ĠÐ´Ð¸ÑĢÐµÐºÑĤÐ¾ÑĢÐ¾Ð¼": 5709,
      "ĠÑģÑĤÑĢÐ°Ð¶Ð´Ð°ÑĤÐ¸": 5710,
      "ĠHilfsverb": 5711,
      "ĠÑģÐ¿ÑĸÐ»ÐºÑĥÐ²Ð°ÑĤÐ¸ÑģÑı": 5712,
      "ĠÐµÐºÑģÐºÑĥÑĢÑģÑĸ": 5713,
      "ĠÐ¿ÑĢÐ¸Ð²Ð°ÑĤÐ½Ð¸Ð¹": 5714,
      "ĠÐ¿Ð¾ÑģÐ¸Ð»Ð°Ð½Ð½Ñı": 5715,
      "ĠÐ¶Ð¾Ð²ÑĤÐ½Ñı": 5716,
      "ĠÑĸÐ½Ð¾Ð·ÐµÐ¼Ð½Ð¾ÑĹ": 5717,
      "Hobby": 5718,
      "Lisa": 5719,
      "Touristeninform": 5720,
      "Wohnen": 5721,
      "hielt": 5722,
      "kretÃ¤rin": 5723,
      "nstration": 5724,
      "persÃ¶nliche": 5725,
      "wechslungsreich": 5726,
      "Ð°ÐµÑĢÐ¾Ð¿": 5727,
      "Ð°ÐºÑĥÐ»ÑĮÑĤÐµÑĤ": 5728,
      "ÑĤÐ²ÐµÑĢÐ´Ð¶": 5729,
      "ĠChancen": 5730,
      "Ġdamit": 5731,
      "ĠdrÃ¼cken": 5732,
      "ĠIntensivstation": 5733,
      "ĠÐ´Ð¾Ð¿Ð¸ÑĤ": 5734,
      "ĠÐ´Ð¸ÑĤÑıÑĩÐ¸Ð¹": 5735,
      "ĠÐ´ÐµÑĢÐ¶Ð°Ð²": 5736,
      "ĠÐ¼Ð°Ð¼Ñĸ": 5737,
      "ĠÐ¼ÑĸÐ»ÑĮÐ¹": 5738,
      "geograph": 5739,
      "gegnungen": 5740,
      "ĠÐ²ÑģÑĤÐ°Ð½Ð¾Ð²": 5741,
      "anbieter": 5742,
      "ĠÐ¿ÑĸÐ´Ð¿ÑĢÐ¸ÑĶÐ¼": 5743,
      "ĠBilder": 5744,
      "ĠSÃ¤tzen": 5745,
      "ĠnÃ¼tzlich": 5746,
      "ĠÑģÑĤÐ¾ÑģÑĥÐ½ÐºÐ¸": 5747,
      "ĠÐºÑĸÐ¼Ð½Ð°": 5748,
      "ĠFrÃ¼hstÃ¼ck": 5749,
      "ĠFacebook": 5750,
      "ĠFeldberg": 5751,
      "ĠMetzger": 5752,
      "ĠÑĦÑĥÑĤÐ±Ð¾Ð»": 5753,
      "ĠTrÃ¶delmarkt": 5754,
      "ĠTiefgarage": 5755,
      "ĠGleis": 5756,
      "ĠÐ¿Ð¾ÑģÐ»ÑĥÑħÐ°ÑĤÐ¸": 5757,
      "ĠÐ½Ð°ÑģÑĤÑĢÑĸÐ¹": 5758,
      "ĠÐ±ÑĸÐ·Ð½Ðµ": 5759,
      "Ġtrifft": 5760,
      "pektive": 5761,
      "ĠÑģÐ¿Ð¾ÐºÑĸÐ¹": 5762,
      "bekleidung": 5763,
      "ĠErnÃ¤hrung": 5764,
      "ĠÐ²ÑĸÐ´ÑĢÑıÐ´Ð¶ÐµÐ½Ð½Ñı": 5765,
      "Ġhilft": 5766,
      "ĠÐ¶ÑĥÑĢÐ½Ð°Ð»": 5767,
      "ĠFuÃŁgÃ¤ngerzone": 5768,
      "ĠRestaurant": 5769,
      "ĠÐ³Ð°Ð»ÑĥÐ·ÑĮ": 5770,
      "ĠÐ³ÑĥÑģÑĤÐ¸Ð¹": 5771,
      "ĠÐ³ÑĸÐ³Ð°Ð½ÑĤ": 5772,
      "Ð¾Ð½Ð´Ð°ÑĢÑĩÑĥÐº": 5773,
      "ĠBeerdigung": 5774,
      "ĠReparatur": 5775,
      "ĠÐĳÐ°ÑĤÑĮÐºÑĸÐ²": 5776,
      "Ð²Ð°Ð¶Ð»Ð¸Ð²Ð¸Ð¼": 5777,
      "Verbstamm": 5778,
      "ĠAusdruck": 5779,
      "ÐµÐ¼ÐµÐ½ÑİÐº": 5780,
      "ĠUnterstÃ¼tzung": 5781,
      "ungsformen": 5782,
      "ÐľÐµÑĤÐ¾Ð´Ð¸ÑĩÐ½Ñĸ": 5783,
      "ĠÐ¾ÑĢÐ³Ð°Ð½ÑĸÐ·": 5784,
      "ĠTreppenhaus": 5785,
      "ĠNotwendigkeit": 5786,
      "Touristeninformation": 5787,
      ")/": 5788,
      "-/": 5789,
      "02": 5790,
      "03": 5791,
      "04": 5792,
      "06": 5793,
      "08": 5794,
      "216": 5795,
      "350": 5796,
      "44": 5797,
      "46": 5798,
      "488": 5799,
      "51": 5800,
      "58": 5801,
      "69": 5802,
      "737": 5803,
      "87": 5804,
      "99": 5805,
      "Ad": 5806,
      "Auss": 5807,
      "Achtung": 5808,
      "Abteil": 5809,
      "BC": 5810,
      "BE": 5811,
      "Bill": 5812,
      "Baha": 5813,
      "Brasilien": 5814,
      "Che": 5815,
      "Drei": 5816,
      "ES": 5817,
      "Eis": 5818,
      "Eins": 5819,
      "Euro": 5820,
      "Emma": 5821,
      "Fl": 5822,
      "Fr": 5823,
      "FÃ¼n": 5824,
      "Fahr": 5825,
      "GÃ¤n": 5826,
      "Gri": 5827,
      "Grund": 5828,
      "Haus": 5829,
      "Jahre": 5830,
      "Kan": 5831,
      "Kaus": 5832,
      "Krank": 5833,
      "Kont": 5834,
      "Koch": 5835,
      "Kaukasus": 5836,
      "Leben": 5837,
      "Links": 5838,
      "Leist": 5839,
      "Landes": 5840,
      "MW": 5841,
      "MÃ¼": 5842,
      "Meine": 5843,
      "Mon": 5844,
      "Mat": 5845,
      "Meer": 5846,
      "MÃ¼ritz": 5847,
      "Nord": 5848,
      "Neben": 5849,
      "Negation": 5850,
      "Niemand": 5851,
      "Ost": 5852,
      "Position": 5853,
      "Peter": 5854,
      "Reg": 5855,
      "Radio": 5856,
      "Si": 5857,
      "Sein": 5858,
      "Slo": 5859,
      "Singap": 5860,
      "Tsch": 5861,
      "Tages": 5862,
      "Temporale": 5863,
      "Tiere": 5864,
      "Trennbare": 5865,
      "Volkshochschule": 5866,
      "WechselprÃ¤positionen": 5867,
      "Zwei": 5868,
      "Zust": 5869,
      "Zukunft": 5870,
      "az": 5871,
      "ape": 5872,
      "aal": 5873,
      "abend": 5874,
      "acken": 5875,
      "aik": 5876,
      "ahm": 5877,
      "aats": 5878,
      "bc": 5879,
      "bf": 5880,
      "bem": 5881,
      "brot": 5882,
      "beu": 5883,
      "bieren": 5884,
      "brach": 5885,
      "bast": 5886,
      "btisch": 5887,
      "bringt": 5888,
      "ca": 5889,
      "cc": 5890,
      "dau": 5891,
      "dun": 5892,
      "dingt": 5893,
      "diven": 5894,
      "dki": 5895,
      "dose": 5896,
      "eder": 5897,
      "echt": 5898,
      "eden": 5899,
      "ehnen": 5900,
      "elefon": 5901,
      "fein": 5902,
      "fort": 5903,
      "fand": 5904,
      "flich": 5905,
      "frei": 5906,
      "flie": 5907,
      "fri": 5908,
      "fang": 5909,
      "frie": 5910,
      "fassen": 5911,
      "fliegen": 5912,
      "frÃ¼hst": 5913,
      "grei": 5914,
      "ggel": 5915,
      "glan": 5916,
      "garn": 5917,
      "grammatik": 5918,
      "gift": 5919,
      "ganis": 5920,
      "hig": 5921,
      "hungen": 5922,
      "iw": 5923,
      "ide": 5924,
      "iden": 5925,
      "icken": 5926,
      "jas": 5927,
      "jem": 5928,
      "jiw": 5929,
      "kan": 5930,
      "kom": 5931,
      "kter": 5932,
      "kung": 5933,
      "kam": 5934,
      "komp": 5935,
      "kont": 5936,
      "kri": 5937,
      "karten": 5938,
      "klasse": 5939,
      "kunft": 5940,
      "lu": 5941,
      "lag": 5942,
      "lungen": 5943,
      "line": 5944,
      "lingen": 5945,
      "lett": 5946,
      "leitung": 5947,
      "mu": 5948,
      "mut": 5949,
      "mus": 5950,
      "mann": 5951,
      "maus": 5952,
      "mord": 5953,
      "mÃ¤n": 5954,
      "musik": 5955,
      "minken": 5956,
      "marken": 5957,
      "nie": 5958,
      "nal": 5959,
      "nisch": 5960,
      "nte": 5961,
      "nig": 5962,
      "nland": 5963,
      "nsche": 5964,
      "nungs": 5965,
      "neiden": 5966,
      "nÃ¼tz": 5967,
      "nitten": 5968,
      "name": 5969,
      "njem": 5970,
      "oo": 5971,
      "ore": 5972,
      "ochen": 5973,
      "offe": 5974,
      "oko": 5975,
      "obt": 5976,
      "prec": 5977,
      "pier": 5978,
      "ption": 5979,
      "pfle": 5980,
      "pflicht": 5981,
      "plat": 5982,
      "pitel": 5983,
      "romm": 5984,
      "rren": 5985,
      "rand": 5986,
      "ritten": 5987,
      "ritte": 5988,
      "rzte": 5989,
      "saus": 5990,
      "such": 5991,
      "sorgen": 5992,
      "soll": 5993,
      "sollen": 5994,
      "sig": 5995,
      "sra": 5996,
      "sol": 5997,
      "sfÃ¤": 5998,
      "singen": 5999,
      "ssprache": 6000,
      "sinken": 6001,
      "surfen": 6002,
      "sandte": 6003,
      "slow": 6004,
      "tÃ¤": 6005,
      "test": 6006,
      "tÃ¶": 6007,
      "tÃ¶n": 6008,
      "ttern": 6009,
      "treiben": 6010,
      "treten": 6011,
      "uh": 6012,
      "usch": 6013,
      "ude": 6014,
      "ubl": 6015,
      "uchte": 6016,
      "vieren": 6017,
      "vÃ¶llig": 6018,
      "wie": 6019,
      "wehr": 6020,
      "wort": 6021,
      "wahr": 6022,
      "wÃ¶rter": 6023,
      "wachsen": 6024,
      "wiegen": 6025,
      "wunder": 6026,
      "wurde": 6027,
      "wusch": 6028,
      "xten": 6029,
      "yst": 6030,
      "ysi": 6031,
      "yjiw": 6032,
      "zes": 6033,
      "zusammen": 6034,
      "zess": 6035,
      "Ð¨": 6036,
      "âĨĴ": 6037,
      "Ġor": 6038,
      "Ġern": 6039,
      "ĠÑĢÐ¾Ð´": 6040,
      "Ġrot": 6041,
      "ĠÑĸÑģ": 6042,
      "Ġal": 6043,
      "Ġat": 6044,
      "Ġrei": 6045,
      "ĠÃ¤ndern": 6046,
      "ĠÃľb": 6047,
      "ĠÑİÑĢÐ¸ÑģÑĤ": 6048,
      "ĠÐĦÐ²ÑĢÐ¾Ð¿": 6049,
      "Ð½ÐºÐ°": 6050,
      "Ð½Ð¾Ðº": 6051,
      "Ð½Ð°Ð·": 6052,
      "Ð½ÐºÐ¸": 6053,
      "Ð½Ð¸Ð³": 6054,
      "Ð½ÑĥÑĤ": 6055,
      "Ð½ÑİÐ²Ð°ÑĤÐ¸": 6056,
      "Ð½Ð°Ð¹": 6057,
      "Ð½Ð¾ÑģÐ¸ÑĤÐ¸": 6058,
      "Ð½Ð¾ÑģÑĤÑĸ": 6059,
      "Ð½ÑĸÑģÑĤ": 6060,
      "Ð¾ÑĶ": 6061,
      "Ð¾ÑģÐ»": 6062,
      "Ð¾Ð½Ðµ": 6063,
      "Ð¾ÑģÐ½Ð¾Ð²": 6064,
      "Ð¾ÑĥÑĤÐ±": 6065,
      "ÐµÑı": 6066,
      "ÐµÐ»Ð°": 6067,
      "ÐµÐ»Ñĸ": 6068,
      "ÐµÐºÐ°ÑĢ": 6069,
      "ÐµÐ»Ð¸Ðº": 6070,
      "ÐµÑĨÑĤ": 6071,
      "ÐµÐ²Ð¸Ð´Ð½Ð¾": 6072,
      "ÑıÑĢ": 6073,
      "ÑıÐ¼": 6074,
      "ÑıÑģÐ½": 6075,
      "ÑıÐ½Ð°": 6076,
      "ÑıÑĤÐ°": 6077,
      "ÑĸÑĨÑĸ": 6078,
      "ÑĸÐ±": 6079,
      "ÑĸÑĤÑĮ": 6080,
      "ÑĸÐºÐ°": 6081,
      "ÑģÐ¾": 6082,
      "ÑģÐ°": 6083,
      "ÑģÐº": 6084,
      "ÑģÐ¸Ðº": 6085,
      "ÑģÐµÑĢÐµÐ´": 6086,
      "ÑģÑĥÐ²Ð°ÑĤÐ¸": 6087,
      "ÑģÐµÐ»": 6088,
      "rein": 6089,
      "reut": 6090,
      "reden": 6091,
      "repar": 6092,
      "reduzieren": 6093,
      "Ð°ÑĢÐµ": 6094,
      "Ð°Ð½ÑĮ": 6095,
      "Ð°ÑİÑĤÑĮÑģÑı": 6096,
      "Ð°ÑĢÑĸÐ²": 6097,
      "Ð°Ð¾ÑĤÐ¸": 6098,
      "orge": 6099,
      "ordent": 6100,
      "orca": 6101,
      "Ð¸ÑĨÑı": 6102,
      "Ð¸Ð·ÑĮÐº": 6103,
      "chs": 6104,
      "chit": 6105,
      "enten": 6106,
      "enseit": 6107,
      "ÑĤÐºÐ¸": 6108,
      "ÑĤÑĸÑģÑĤÑĮ": 6109,
      "ÑĤÑĢÐµÐ±Ð°": 6110,
      "ÑĢÐ³": 6111,
      "ÑĢÐ°Ð½": 6112,
      "ÑĢÐ¸ÑĤ": 6113,
      "ÑĢÐ¾Ð¶": 6114,
      "ÑĢÐ¸Ñĩ": 6115,
      "ÑĢÐ°Ð¼Ð¸": 6116,
      "ÑĢÐ¸ÑģÑĤÐ¸": 6117,
      "ÐµÐ½Ðµ": 6118,
      "ÐµÐ½Ñģ": 6119,
      "ÐµÐ½Ð¸Ð¼": 6120,
      "ÐµÐ½ÑģÑĸ": 6121,
      "ÐµÐ½Ð°Ð³": 6122,
      "ÐµÐ½ÑĪ": 6123,
      "Ð»Ð¸Ð½": 6124,
      "Ð»Ð¸Ð¹": 6125,
      "Ð»Ð°Ð¼": 6126,
      "Ð»Ð°Ð½": 6127,
      "Ð»Ð¾Ð¿": 6128,
      "Ð»ÑĥÑĩ": 6129,
      "Ð»ÑĸÐ¹": 6130,
      "ÑĥÑĢÐµ": 6131,
      "ÑĥÑģÑı": 6132,
      "ÑĥÑĨÑĮÐº": 6133,
      "ÑĥÐ±Ð¸": 6134,
      "ÐµÐ½Ð½Ð¾": 6135,
      "ÑĶÑĢ": 6136,
      "ÑĶÑĢÐ°": 6137,
      "ÑĶÐºÑĤ": 6138,
      "erie": 6139,
      "erren": 6140,
      "ersten": 6141,
      "erinnern": 6142,
      "erfolg": 6143,
      "Ð¼Ñĥ": 6144,
      "Ð¼Ð¾Ð²Ñĸ": 6145,
      "Ð¼Ð¾Ðº": 6146,
      "Ð¼Ð°ÑĢ": 6147,
      "Ð¼ÐºÑĥ": 6148,
      "Ð¼Ð°Ð¹": 6149,
      "Ð¼ÐµÐ½ÑĤ": 6150,
      "Ð¼Ð¾Ð²Ð¸Ð¹": 6151,
      "Ð¼ÑĸÑĹ": 6152,
      "iner": 6153,
      "inar": 6154,
      "insen": 6155,
      "inal": 6156,
      "stein": 6157,
      "stÃ¤r": 6158,
      "stÃ¤n": 6159,
      "strei": 6160,
      "streiten": 6161,
      "stieg": 6162,
      "stolz": 6163,
      "ÐºÐ¾Ð¼Ñĥ": 6164,
      "ÐºÐ¾Ð´": 6165,
      "ÐºÑĥÐ¿": 6166,
      "ÐºÑģÑĤ": 6167,
      "ÐºÑĥÐ²Ð°ÑĤÐ¸": 6168,
      "ÐºÐ»Ðµ": 6169,
      "ÐºÐ¾Ð½": 6170,
      "ÐºÐ°ÑĤÐ¸ÑģÑı": 6171,
      "ÐºÑĸÑĤ": 6172,
      "ÑĩÐ¸Ðº": 6173,
      "ÑĩÐ½Ð¾Ð¼Ñĥ": 6174,
      "ÑĩÐ°ÑĶÐ¼Ð¾": 6175,
      "ÑĩÐ°Ð»ÑĮÐ½Ð¾": 6176,
      "Ġdeut": 6177,
      "Ġdeklin": 6178,
      "ĠdÃ¼rfen": 6179,
      "ieden": 6180,
      "ieÃŁ": 6181,
      "ieur": 6182,
      "iegel": 6183,
      "ĠÐŁÐ¾Ð´": 6184,
      "ĠÐŁÐ°ÑģÐ¸Ðº": 6185,
      "Ð¾Ð²Ñĥ": 6186,
      "Ð¾Ð²Ð¾Ð³Ð¾": 6187,
      "Ð¾Ð²Ð¾Ð´": 6188,
      "Ð¾Ð²Ð·": 6189,
      "Ð¾Ð²Ð¸ÑĤ": 6190,
      "Ð¾Ð²Ð°Ð¹": 6191,
      "Ð¾Ð²Ð°Ð¼Ð¸": 6192,
      "Ð¾Ð²Ð¸Ñħ": 6193,
      "Ð¾Ð²ÑĥÐ²Ð°Ð½Ð½Ñı": 6194,
      "Ð¾Ð²ÐµÑĢÑħ": 6195,
      "Ð¾Ð²Ð½ÑİÐ²Ð°ÑĤÐ¸": 6196,
      "ĠÐ¿Ñĸ": 6197,
      "ĠÐ¿ÑĸÐ½": 6198,
      "ĠÐ¿Ð°Ð½": 6199,
      "ĠÐ¿ÑĸÑģ": 6200,
      "ĠÐ¿ÑĸÐ²": 6201,
      "ĠÐ¿Ð¾Ð»Ð¸": 6202,
      "ĠÐ¿Ð»Ð°": 6203,
      "ĠÐ¿Ð°Ð¿": 6204,
      "ĠÐ¿ÐµÑĤ": 6205,
      "ĠÐ¿ÑĥÐ±": 6206,
      "ĠÐ¿ÐµÐºÐ°ÑĢ": 6207,
      "ĠÐ¿ÐµÐ½ÑģÑĸ": 6208,
      "Ð¾Ð¼ÑĸÑģ": 6209,
      "Ð¾Ð¼Ð°Ð´": 6210,
      "Ð¾Ð¼Ð°Ð½ÑĤÐ¸": 6211,
      "Ð¾Ð¼Ð¾Ð²Ð½Ð¸Ñħ": 6212,
      "ĠInge": 6213,
      "ĠInter": 6214,
      "ĠInnen": 6215,
      "ĠInform": 6216,
      "ĠInseln": 6217,
      "ĠÐ´ÐµÐ½Ð½": 6218,
      "ĠÐ´Ð¸ÑģÑĤ": 6219,
      "ĠÐ´Ð½Ñı": 6220,
      "ĠÐ´ÑĸÑĤÐ¸": 6221,
      "ĠÐ´ÑĸÐ²": 6222,
      "ĠÐ´Ð°Ñĩ": 6223,
      "ĠÐ´Ð°Ð½Ñĸ": 6224,
      "ĠÐ´ÑĸÐ¹ÑģÐ½": 6225,
      "ĠÐ´Ð¸ÑģÐº": 6226,
      "ĠÐ´Ð¾Ð·Ð²Ñĸ": 6227,
      "ĠÐ´Ð¾ÑĩÐºÐ°": 6228,
      "Ð¸ÐºÐ°ÑĤÐ¸": 6229,
      "aue": 6230,
      "ause": 6231,
      "auben": 6232,
      "aune": 6233,
      "Ð´ÑĮ": 6234,
      "Ð´Ð»Ñı": 6235,
      "Ð´Ð°Ð²": 6236,
      "Ð´ÑĸÐ¶": 6237,
      "Ð´ÐµÐ½ÑĮ": 6238,
      "halle": 6239,
      "ÑģÐ»Ð¸Ð²": 6240,
      "ĠÐ¼Ñĥ": 6241,
      "ĠÐ¼Ð¾Ñı": 6242,
      "ĠÐ¼ÑĸÐ½": 6243,
      "ĠÐ¼Ð¸ÑģÑĤ": 6244,
      "ĠÐ¼ÑĸÐ¶": 6245,
      "ĠÐ¼Ð¸ÑĤÐ¸": 6246,
      "ĠÐ¼Ð°Ð»": 6247,
      "ĠÐ¼Ð°Ñģ": 6248,
      "ĠÐ¼Ð°Ð»Ð°": 6249,
      "ĠÐ¼Ð¾ÑĤÐ¸": 6250,
      "ĠÐ¼ÑĸÐ³": 6251,
      "ĠÐ¼ÐµÑĤÐ°": 6252,
      "ÑĮÐ¾Ð¼Ñĥ": 6253,
      "ÑĮÐ¾Ñħ": 6254,
      "ÑĮÐ¹Ð¾Ð½": 6255,
      "ĠÐ°Ð´": 6256,
      "ĠÐ°Ð¿Ðµ": 6257,
      "ĠÐ°ÑĥÐº": 6258,
      "ĠÐ°Ð½Ð°Ð»": 6259,
      "ĠÐ·Ð¸Ð¼": 6260,
      "ĠÐ·ÑĥÐ¿": 6261,
      "ĠÐ·Ð½Ñĸ": 6262,
      "ĠÐ·Ð¾Ð½Ð°": 6263,
      "ĠÐ·Ð¾ÑĪ": 6264,
      "ĠÐ·ÐµÐ»": 6265,
      "ĠÐ·Ð±Ð¸ÑĢÐ°ÑĤÐ¸": 6266,
      "ĠÐ·ÑĥÐ±Ð¸": 6267,
      "Ġihren": 6268,
      "Ġirren": 6269,
      "geti": 6270,
      "gekommen": 6271,
      "gewohn": 6272,
      "gehÃ¶r": 6273,
      "gelassen": 6274,
      "gesetz": 6275,
      "geizig": 6276,
      "ĠÐ½Ñİ": 6277,
      "ĠÐ½Ð¾Ñģ": 6278,
      "ĠÐ½ÑĸÐ¶": 6279,
      "ĠÐ½Ð¸Ð¼Ð¸": 6280,
      "ĠÐ½Ð°Ð¹Ð±": 6281,
      "ĠÐ½Ð¾ÑĥÑĤÐ±": 6282,
      "ĠÐ½Ð¸Ð·ÑĮÐº": 6283,
      "ĠÐ½ÑĮÐ¾Ð¼Ñĥ": 6284,
      "ÑĸÑĶÑĪ": 6285,
      "ĠÑģÑı": 6286,
      "ĠÑģÐ°": 6287,
      "ĠÑģÑĤÐ¸": 6288,
      "ĠÑģÐ¾Ð»": 6289,
      "ĠÑģÑĢÑĸÐ±": 6290,
      "ĠÑģÐ²Ð°": 6291,
      "ĠÑģÐ¸ÑĢ": 6292,
      "ĠÑģÑĸÐ¼": 6293,
      "ĠÑģÐ¸Ð»": 6294,
      "ĠÑģÐ¼ÐµÑĢ": 6295,
      "ĠÑģÐºÐ°ÑĢÐ¶": 6296,
      "ĠÑģÐ¾Ð±Ð¾Ñİ": 6297,
      "ĠÐ²Ð²": 6298,
      "ĠÐ²Ð¾Ð´": 6299,
      "ĠÐ²Ð¸Ð½": 6300,
      "ĠÐ²ÑĤÑĢ": 6301,
      "ĠÐ²ÐºÐ°Ð·": 6302,
      "ĠÐ²Ð¾ÑģÑĮ": 6303,
      "ĠÐ²ÑĸÑĢ": 6304,
      "ĠÐ²ÑĸÐ·": 6305,
      "ĠÐ²ÑħÑĸÐ´": 6306,
      "ĠÐ²ÑħÐ¾Ð´": 6307,
      "ĠÐ²ÑģÑĤÐ°Ð²Ð»ÑıÑĤÐ¸": 6308,
      "ĠÐ²ÐµÑĢÑħ": 6309,
      "ĠÐ²ÑĥÐ»Ð¸": 6310,
      "ĠÐ²Ð´Ð¾Ð¼Ð°": 6311,
      "ĠÐ²Ð½ÑĥÑĤ": 6312,
      "ÑĸÐ½Ñĸ": 6313,
      "einkommen": 6314,
      "einnehmen": 6315,
      "einbauen": 6316,
      "einrichten": 6317,
      "einsammel": 6318,
      "Ð»ÑıÑĢ": 6319,
      "ĠDir": 6320,
      "ĠDru": 6321,
      "ĠDok": 6322,
      "ĠDingen": 6323,
      "ĠDamen": 6324,
      "ĠDram": 6325,
      "ĠDeshalb": 6326,
      "ĠDorf": 6327,
      "ÑĢÐµÐ¹": 6328,
      "ÑĢÐµÑĤÐ°": 6329,
      "ÑĢÐµÐºÐ¾Ð¼": 6330,
      "Ġwachsen": 6331,
      "Ġwider": 6332,
      "Ġwenige": 6333,
      "antiv": 6334,
      "anem": 6335,
      "anon": 6336,
      "anfangen": 6337,
      "anerinnen": 6338,
      "anmelden": 6339,
      "Ġsen": 6340,
      "Ġsau": 6341,
      "Ġsan": 6342,
      "Ġsetzt": 6343,
      "Ġsammel": 6344,
      "Ġsurfen": 6345,
      "eichen": 6346,
      "eihn": 6347,
      "eister": 6348,
      "eiera": 6349,
      "eignet": 6350,
      "ÑĤÐ¸ÑĤÐ¸": 6351,
      "Ġgebe": 6352,
      "Ġgesp": 6353,
      "ĠgefÃ¤": 6354,
      "Ġgescha": 6355,
      "ĠgefÃ¼": 6356,
      "Ġgegeben": 6357,
      "Ġgehan": 6358,
      "Ġgesche": 6359,
      "Ġgeschw": 6360,
      "Ġgehol": 6361,
      "Ġgesetzt": 6362,
      "Ġgezogen": 6363,
      "ĠgehÃ¶ren": 6364,
      "Ġgebraucht": 6365,
      "Ġgespr": 6366,
      "Ġgeschlagen": 6367,
      "ĠgemÃ¼tlich": 6368,
      "ĠÐ½ÐµÐ³": 6369,
      "ĠÐ½ÐµÐ¾Ð±": 6370,
      "tigt": 6371,
      "tisieren": 6372,
      "Ġke": 6373,
      "Ġkam": 6374,
      "aufgeben": 6375,
      "aufhaus": 6376,
      "Ġmalt": 6377,
      "Ġmeist": 6378,
      "ÑĸÐ´Ð½Ð¾": 6379,
      "ĠAll": 6380,
      "ĠAben": 6381,
      "ĠAuft": 6382,
      "ĠAfr": 6383,
      "ĠAhnung": 6384,
      "ĠÐĶÐ¾": 6385,
      "ĠÐĶÑıÐº": 6386,
      "Ð²Ð¾Ð¼": 6387,
      "Ð²Ð¸Ðº": 6388,
      "Ð²Ð¾Ð»": 6389,
      "Ð²Ð°Ð½Ð½Ñı": 6390,
      "Ð²ÐµÐ¹": 6391,
      "Ð²Ð¿ÑĢÐ°Ð²": 6392,
      "Ð²Ð²Ð°Ð¶Ð°Ñİ": 6393,
      "Ð²ÑģÑĤÑĢÑĸ": 6394,
      "Ð¾ÑĢÐ¾ÑĤ": 6395,
      "Ð¾ÑĢÑĥÑĪ": 6396,
      "ÑĨÐµÐ¹": 6397,
      "ÑĨÑĸÑĶÑİ": 6398,
      "ĠbÃ¼": 6399,
      "Ġbitte": 6400,
      "irr": 6401,
      "irgen": 6402,
      "Ð¼ÐµÑĤÐ¾Ð´": 6403,
      "Ã¼hr": 6404,
      "Ã¼be": 6405,
      "Ã¼tzt": 6406,
      "ĠÐ¿ÑĸÐ´ÑĸÐ¹": 6407,
      "ĠÐ¿ÑĸÐ´ÑģÐ¸": 6408,
      "ĠÐ¿ÑĸÐ´ÑĢÑĥÑĩÐ½Ð¸Ðº": 6409,
      "ĠBom": 6410,
      "ĠBrau": 6411,
      "ĠBest": 6412,
      "ĠBist": 6413,
      "ĠBran": 6414,
      "ĠBade": 6415,
      "ĠBraut": 6416,
      "ĠBenzin": 6417,
      "ĠBMW": 6418,
      "Ð¸Ð¼Ð¾ÑģÑı": 6419,
      "essiv": 6420,
      "omat": 6421,
      "oment": 6422,
      "Ð¿Ð¾ÑĢ": 6423,
      "Ð¿Ð¾Ð»": 6424,
      "Ð¿Ð¾Ñģ": 6425,
      "Ð¿Ð¾ÑĢÑĤ": 6426,
      "Ð¿Ð°Ð»Ð°": 6427,
      "Ð¿Ð¾Ð»Ñĸ": 6428,
      "Ð¿Ð¾Ð³Ð¾Ð´": 6429,
      "Ð¹Ð¾Ð¼": 6430,
      "Ð¹Ð½Ð¸Ð¹": 6431,
      "ichtig": 6432,
      "ÑĦÐ¾ÑĢÐ¼": 6433,
      "ÑĦÑĸÐ»": 6434,
      "ÑĦÑĸÑĢ": 6435,
      "ÑĦÑĸÐ»ÑĮÐ¼": 6436,
      "ĠSeit": 6437,
      "ĠSind": 6438,
      "ĠSohn": 6439,
      "ĠSachen": 6440,
      "ĠSonnen": 6441,
      "ĠSauber": 6442,
      "ĠSera": 6443,
      "ĠSalz": 6444,
      "ĠSaal": 6445,
      "ĠÑĢÐµÐº": 6446,
      "ĠÑĢÐµÐ·": 6447,
      "Ð¾Ð´Ð½Ñı": 6448,
      "Ð¾Ð´Ð¾Ð±": 6449,
      "Ð¾Ð´Ð¸ÑĤÐ¸ÑģÑı": 6450,
      "Ð¾Ð´Ð¸ÑĤÑĮ": 6451,
      "Ð¾Ð´ÐµÐ½Ð½Ð¾": 6452,
      "Ġnennt": 6453,
      "ĠÑģÑĤÐ°ÑĤÐ¸": 6454,
      "ĠÑģÑĤÐ°ÑĢ": 6455,
      "ĠÑģÑĤÑĸÐ»": 6456,
      "ĠÑģÑĤÐ°Ð»": 6457,
      "ĠÑģÑĤÑĸÐ»Ðµ": 6458,
      "ErgÃ¤nzen": 6459,
      "ErÃ¶ffnung": 6460,
      "scheine": 6461,
      "schalt": 6462,
      "schieben": 6463,
      "scheinen": 6464,
      "schwei": 6465,
      "schrie": 6466,
      "schoss": 6467,
      "schuhe": 6468,
      "schauer": 6469,
      "schritte": 6470,
      "ĠÑĥÑĢÑı": 6471,
      "ĠÑĥÐ¶Ðµ": 6472,
      "ĠÑĥÐ»ÑİÐ±": 6473,
      "ÑĤÐ¸ÐºÐ¸": 6474,
      "ĠÐ°ÑĢÐ³": 6475,
      "ĠÐ°ÑĢÑħ": 6476,
      "Ã¤ge": 6477,
      "Ã¤se": 6478,
      "Ã¤hlen": 6479,
      "ĠÐ¿ÑĢÐ¾Ð¼": 6480,
      "ĠÐ¿ÑĢÐ¾ÑıÑģÐ½": 6481,
      "ĠÐ¿ÑĢÐ°Ð²": 6482,
      "ĠÐ¿ÑĢÐ°Ð¿": 6483,
      "ĠÐ¿ÑĢÐ¾Ñĩ": 6484,
      "ĠÐ¿ÑĢÐ°Ñģ": 6485,
      "ĠÐ¿ÑĢÐ¾Ð¶Ð¸Ð²Ð°Ð½Ð½Ñı": 6486,
      "deckt": 6487,
      "ĠÑĩÐµÑĢÐµ": 6488,
      "ĠÑĩÑĥÐ²": 6489,
      "ĠÑĤÑĸ": 6490,
      "ĠÑĤÐ¾ÑĢ": 6491,
      "ĠÑĤÐ¾Ð³Ð¾": 6492,
      "ĠÑĤÐ¾Ð¿": 6493,
      "ĠÑĤÐ²Ð¾ÑĢ": 6494,
      "ĠÑĤÑĢÐ¸": 6495,
      "ĠÑĤÑĢÐ°Ð²": 6496,
      "ĠÑĤÐ²ÐµÑĢ": 6497,
      "ari": 6498,
      "arm": 6499,
      "arz": 6500,
      "artig": 6501,
      "Ġeins": 6502,
      "Ġeingekauft": 6503,
      "Ġeinschlafen": 6504,
      "seren": 6505,
      "setze": 6506,
      "genieur": 6507,
      "ÑģÑĸÑĤÐ¸": 6508,
      "ĠÐºÑĢÑĸ": 6509,
      "ĠÐºÐ¾ÑĢÐ¸ÑģÑĤ": 6510,
      "ĠÐºÐ¾Ñģ": 6511,
      "ĠÐºÐ°Ð±": 6512,
      "ĠÐºÐ°ÑĤ": 6513,
      "ĠÐºÐ½Ð¸Ð³Ñĥ": 6514,
      "ĠÐºÐ¾ÑĪ": 6515,
      "ĠÐºÑĥÑģ": 6516,
      "ĠÐºÐ²ÑĸÑĤ": 6517,
      "ĠÐºÐ¾Ð¼ÑĥÑģÑĮ": 6518,
      "ĠÐºÐµÑĢÑĥ": 6519,
      "ĠÐºÑĥÐ»ÑĮÑĤ": 6520,
      "ĠÐºÐ°Ð½Ð´Ð¸": 6521,
      "ĠÐºÐ½Ð¸Ð³": 6522,
      "ĠHem": 6523,
      "ĠHolz": 6524,
      "Ġlas": 6525,
      "ĠlÃ¶": 6526,
      "Ġlaut": 6527,
      "Ġlassen": 6528,
      "Ġleiden": 6529,
      "Ġlobt": 6530,
      "ungel": 6531,
      "ungest": 6532,
      "unregelmÃ¤ÃŁigen": 6533,
      "ĠKir": 6534,
      "ĠKenn": 6535,
      "ĠKil": 6536,
      "ĠKra": 6537,
      "ĠKoch": 6538,
      "ĠKyjiw": 6539,
      "ĠKaufhaus": 6540,
      "ÑİÐ´Ð¸": 6541,
      "ÑİÐ´Ð¶": 6542,
      "ĠÐ¾Ð»Ñĸ": 6543,
      "ĠÐ¾ÐºÑĢÐ°ÑĹ": 6544,
      "ĠÐ¾ÑģÑĤÐ°Ð½": 6545,
      "ĠÐ¾ÑĤÑĢÑĥ": 6546,
      "ĠFas": 6547,
      "Ð¸Ð½ÐºÐ°": 6548,
      "Ð¸Ð½ÑıÑĤÐ¸": 6549,
      "Ð¾Ð»ÑĸÐº": 6550,
      "Ð¾Ð»Ð¾ÑĪ": 6551,
      "ĠÐ·Ð°Ð»": 6552,
      "ĠÐ·Ð°Ñĩ": 6553,
      "ĠÐ·Ð°ÑĤÑĢÐ¸Ð¼": 6554,
      "ĠÐ·Ð°Ð»Ñĸ": 6555,
      "ĠÐ·Ð°Ð½ÑıÑĤÑĤÑı": 6556,
      "ĠÐ·Ð°Ð¾ÑīÐ°Ð´": 6557,
      "ĠÐ·Ð°Ð°ÑĢÐµ": 6558,
      "ĠÐ·Ð°Ð¼Ð¾Ðº": 6559,
      "rug": 6560,
      "ĠMe": 6561,
      "ĠMein": 6562,
      "ĠMus": 6563,
      "ĠMÃ¶": 6564,
      "ĠMund": 6565,
      "ĠMal": 6566,
      "ĠMill": 6567,
      "ĠMall": 6568,
      "ĠMord": 6569,
      "ĠMitt": 6570,
      "ĠMeiner": 6571,
      "ĠMÃ¶glichkeit": 6572,
      "ĠMuster": 6573,
      "ĠMiete": 6574,
      "ĠMaske": 6575,
      "ĠMoment": 6576,
      "ĠÑĩÐ°ÑĢÑĸÐ²": 6577,
      "here": 6578,
      "hematik": 6579,
      "Ġdieses": 6580,
      "ĠÑĦÑĢÑĥ": 6581,
      "ĠÑĦÐ»Ðµ": 6582,
      "ĠÑĦÐµÐ´": 6583,
      "ĠÑĦÑĸÐ·Ð¸Ðº": 6584,
      "ĠÑĦÐ°ÐºÑĥÐ»ÑĮÑĤÐµÑĤ": 6585,
      "ĠTenn": 6586,
      "ĠTage": 6587,
      "ĠTagen": 6588,
      "ĠTabl": 6589,
      "ĠTrend": 6590,
      "ĠTermine": 6591,
      "ĠÑĦÐ¾ÑĢÐ¼Ð°": 6592,
      "ĠGl": 6593,
      "ĠGÃ¶": 6594,
      "ĠGrÃ¶": 6595,
      "ĠGol": 6596,
      "ĠGrad": 6597,
      "ĠGarage": 6598,
      "ĠGift": 6599,
      "Ð»ÑĮÐ½Ð¾": 6600,
      "roch": 6601,
      "rogen": 6602,
      "roren": 6603,
      "ronik": 6604,
      "senden": 6605,
      "sentieren": 6606,
      "ĠÐ¿Ð¾ÑĨÑĸ": 6607,
      "ĠÐ¿Ð¾Ñħ": 6608,
      "ĠÐ¿Ð¾ÑģÐ¿": 6609,
      "ĠÐ¿Ð¾Ð½ÑıÑĤÑĤÑı": 6610,
      "ĠÐ¿Ð¾ÑģÐ»ÑĥÐ³": 6611,
      "Ð±ÑĥÑĢ": 6612,
      "Ð±ÑĸÐ³": 6613,
      "Ð±Ð°Ð³Ð°ÑĤÐ¾": 6614,
      "Ð±ÑĸÐ»ÑĮÑĪ": 6615,
      "Ð±ÑĥÑĤÐ¸": 6616,
      "indern": 6617,
      "ÐµÑĢÐµÐºÐ»Ð°Ð´": 6618,
      "Ġgram": 6619,
      "ĠgrÃ¼n": 6620,
      "Ð°Ð²ÐºÑĥ": 6621,
      "ÑĥÑĶÑĤÑĮÑģÑı": 6622,
      "ĠÐ·Ð°ÐºÐ¾ÑĢÐ´": 6623,
      "Ð°Ð¼Ð°ÑĤÐ¸ÐºÐ¸": 6624,
      "ĠÐºÑĸÐ½ÐµÑĨÑĮ": 6625,
      "ÑĢÑĸÐ¹": 6626,
      "ÑĢÑĸÑıÑĤÐ¸": 6627,
      "beitreten": 6628,
      "ders": 6629,
      "ĠArchit": 6630,
      "ĠÐ½Ð°ÑĦ": 6631,
      "kte": 6632,
      "ĠSubst": 6633,
      "Ð¶Ð°": 6634,
      "Ð¶ÐµÑĢ": 6635,
      "Ð¶ÐµÐ½ÐµÑĢ": 6636,
      "Ð¶Ð¸Ð²Ð°Ð½Ð½Ñı": 6637,
      "Ð¶Ð´ÐµÐ½ÑĮ": 6638,
      "ĠPist": 6639,
      "ĠPort": 6640,
      "ĠPlan": 6641,
      "ĠPech": 6642,
      "ĠPoss": 6643,
      "ĠPflicht": 6644,
      "Ð½Ð°Ð»ÑĮÐ½": 6645,
      "Ð½Ð°Ñħ": 6646,
      "Ð½Ð¸ÐºÑĸÐ²": 6647,
      "iele": 6648,
      "Ġinform": 6649,
      "ÑĢÑĥÐ³Ð°": 6650,
      "ÑĢÑĥÐ¶ÐµÐ½Ð¸Ð¹": 6651,
      "Ð³Ð¾ÑĢ": 6652,
      "Ð³ÑĢÐ°ÑĪ": 6653,
      "Ð³Ð»ÑĸÐ¹": 6654,
      "ÑĪÐ°": 6655,
      "ÑĪÐº": 6656,
      "ÑĪÐ½ÑĮÐ¾Ð³Ð¾": 6657,
      "ume": 6658,
      "umm": 6659,
      "umziehen": 6660,
      "ĠÐ±Ð¾": 6661,
      "ĠÐ±Ð»": 6662,
      "ĠÐ±Ð°Ð²": 6663,
      "ĠÐ±Ð°Ð·": 6664,
      "ĠÐ±Ð°Ð±": 6665,
      "ĠÐ±Ð°Ð¶": 6666,
      "ĠÐ±ÑĸÐ»": 6667,
      "ĠÐ±Ð¾Ð»Ñĸ": 6668,
      "ĠÐ±ÑİÑĢ": 6669,
      "ĠÐ±ÐµÐ½Ð·": 6670,
      "ĠÐ±ÑİÐ´Ð¶": 6671,
      "Ġtan": 6672,
      "Ġtut": 6673,
      "Ġtun": 6674,
      "Ġtra": 6675,
      "Ġtragen": 6676,
      "Ġtanzen": 6677,
      "Ġtrocken": 6678,
      "Ġtrennt": 6679,
      "Ð¾Ð²ÑĸÐ»ÑĮÐ½Ð¾": 6680,
      "ĠZwei": 6681,
      "Ð·Ð¸Ðº": 6682,
      "Ð·Ð°Ð¹": 6683,
      "Ð·ÐµÐ½ÑĤ": 6684,
      "Ð·ÑĸÑĢ": 6685,
      "Ð·Ð°Ð»": 6686,
      "Ð·ÐµÐ¼": 6687,
      "Ð·Ð´Ð¸ÑĤÐ¸": 6688,
      "ĠÑģÐ¿ÑĢÐ¸": 6689,
      "ĠÑģÐ¿ÑĸÐ»ÑĮÐ½": 6690,
      "ĠÑģÐ¿ÑĢÐ¸Ð¹": 6691,
      "ĠÑģÐ¿ÑĢÐµÐ¹": 6692,
      "Ð°Ð½Ðµ": 6693,
      "Ð°Ð½ÐµÑĨÑĮ": 6694,
      "Ð°Ð½ÑĸÑĤÐ½Ð¸Ð¹": 6695,
      "ĠZeitungen": 6696,
      "ĠZeitpunkt": 6697,
      "euern": 6698,
      "Ġform": 6699,
      "Ġfragen": 6700,
      "Ġfinden": 6701,
      "Ġerw": 6702,
      "Ġerste": 6703,
      "Ġerle": 6704,
      "Ġerwarten": 6705,
      "Ġerinnern": 6706,
      "Ġerinne": 6707,
      "Ġerreichbar": 6708,
      "ĠertÃ¶n": 6709,
      "ĠÑĤÐµÐ¼": 6710,
      "ĠÑĤÐµÐ¿": 6711,
      "ĠÑĤÐµÑĢÐ¿": 6712,
      "ĠÑĤÐµÐºÑģÑĤ": 6713,
      "ÑħÐ°Ð²": 6714,
      "ÑħÑĤÐ¾": 6715,
      "ÑħÐ½Ñĸ": 6716,
      "ÑħÐ°ÑĤÐ¸ÑģÑı": 6717,
      "Ġsparen": 6718,
      "stechen": 6719,
      "ÑĢÑĸÑĪÐ½Ñı": 6720,
      "Ġschwer": 6721,
      "Ġschreiben": 6722,
      "Ġschneiden": 6723,
      "ĠSchn": 6724,
      "ĠSchrank": 6725,
      "ĠSchmer": 6726,
      "ĠSchmu": 6727,
      "ÑĸÑģÐ°ÑĢ": 6728,
      "ĠÑĦÐ¾ÑĢÐ¼ÑĥÐ»ÑıÑĢ": 6729,
      "Ġangeln": 6730,
      "Ġanziehen": 6731,
      "Ġanbauen": 6732,
      "Ġangeschaut": 6733,
      "Ã¶st": 6734,
      "Ã¶gel": 6735,
      "ĠÐ¼ÑĸÑģÑĤÑı": 6736,
      "ĠÐ¼ÑĸÑģÑĤÑĸ": 6737,
      "ĠÐ¼ÑĸÑģÑĤÑĥ": 6738,
      "bedeut": 6739,
      "bewer": 6740,
      "bedien": 6741,
      "begl": 6742,
      "bezahlen": 6743,
      "bedienen": 6744,
      "behandeln": 6745,
      "bedro": 6746,
      "hner": 6747,
      "ĠÐ´ÑĢÑĥÐ³Ð¾Ð²Ñĸ": 6748,
      "Ð¸Ð»ÑĮÐ½Ð¸Ðº": 6749,
      "ĠÐŁÑĢÐ¸": 6750,
      "ĠErlaub": 6751,
      "ĠErinner": 6752,
      "ĠÑĸÐ³ÑĢÐ°ÑĪ": 6753,
      "denten": 6754,
      "ĠÐ±ÑĥÐ»Ð°": 6755,
      "ĠÐ±ÑĥÐ»Ð¸": 6756,
      "ĠÐ±ÑĥÐ´Ðµ": 6757,
      "ĠÐ±ÑĥÐ´ÑĮ": 6758,
      "Ð°ÑĤÐ¸Ð²Ð½Ð¸Ð¹": 6759,
      "rÃ¤umen": 6760,
      "rÃ¤uber": 6761,
      "Ð´Ð¸ÑĤÐ¸ÑģÑı": 6762,
      "ĠÑĸÐ½ÑĤÐµ": 6763,
      "ĠÑĸÐ½Ð°Ðº": 6764,
      "ĠÑĸÐ½Ð¾Ð´Ñĸ": 6765,
      "ĠÑĸÐ½Ð¶ÐµÐ½ÐµÑĢ": 6766,
      "ÃŁnahme": 6767,
      "ĠÑĸÐ½ÑĦÐ¾ÑĢÐ¼": 6768,
      "ĠÑĨÐ²ÑĸÑĤ": 6769,
      "ĠÑĨÐ¸Ð±": 6770,
      "Ð°Ð»ÑĮÐ½ÑĸÑģÑĤÑĮ": 6771,
      "Ð°Ð»ÑĮÐ½Ð¸Ñħ": 6772,
      "etzi": 6773,
      "etten": 6774,
      "undfahrt": 6775,
      "ĠÐ²Ð¸ÐºÐ¾Ð½Ð°": 6776,
      "ĠÐ²ÑĸÐ´Ð¼ÑĸÐ½": 6777,
      "ĠÐ²ÑĸÐ´Ð´Ð°ÑĤÐ¸": 6778,
      "ĠÐ¾ÑģÐ½Ð¾Ð²Ð½Ð¸Ñħ": 6779,
      "Ġkostet": 6780,
      "Ġhin": 6781,
      "ĠhÃ¤lt": 6782,
      "Ġhole": 6783,
      "ĠhÃ¤uf": 6784,
      "ĠhÃ¶rt": 6785,
      "ĠÐ¿Ð¾ÑĩÑĥÐ²Ð°ÑĤÐ¸ÑģÑı": 6786,
      "itam": 6787,
      "itur": 6788,
      "Ð¸ÑĤÐµ": 6789,
      "ĠWer": 6790,
      "ĠWien": 6791,
      "ĠWaren": 6792,
      "ĠWell": 6793,
      "ĠWare": 6794,
      "ĠWahl": 6795,
      "ĠWeile": 6796,
      "ĠWurz": 6797,
      "ĠWÃ¼nsche": 6798,
      "ĠWeihn": 6799,
      "ĠWÃ¤hlen": 6800,
      "onas": 6801,
      "onummer": 6802,
      "onders": 6803,
      "ÑĥÑĩÐ¸Ð¹": 6804,
      "ÑĥÑĩÐ½Ð¾Ð¼": 6805,
      "ĠKamp": 6806,
      "ĠKamer": 6807,
      "ĠKatzen": 6808,
      "ĠKaiser": 6809,
      "ĠÐ¶Ð°Ñħ": 6810,
      "ĠÐ¶ÐµÑĢÑĤ": 6811,
      "ĠÐ·ÑĸÐ¿": 6812,
      "ĠÐ·Ð°Ð¿ÑĸÐ·": 6813,
      "ringer": 6814,
      "alter": 6815,
      "alitÃ¤t": 6816,
      "ungsp": 6817,
      "ungsst": 6818,
      "Ġzer": 6819,
      "Ġzeigen": 6820,
      "alls": 6821,
      "ĠÐ´Ð¾Ð¿Ð¾Ð¼Ð°Ð³Ð°ÑĤÐ¸": 6822,
      "blÃ¤t": 6823,
      "blick": 6824,
      "Ġsechs": 6825,
      "Ð¾ÐºÐ°": 6826,
      "Ð¾ÐºÐ¾Ð»": 6827,
      "ausdrÃ¼cken": 6828,
      "dur": 6829,
      "Ġumstruktur": 6830,
      "Ġumgezogen": 6831,
      "kommt": 6832,
      "Ð¾Ð±Ð¸": 6833,
      "Ð¾Ð±ÑĥÐ²Ð°ÑĤÐ¸": 6834,
      "Ð¾Ð±ÑĥÑģ": 6835,
      "ĠKindern": 6836,
      "zik": 6837,
      "zimmer": 6838,
      "ermÃ¶glich": 6839,
      "ĠÐļÐ¾Ð»ÑĮ": 6840,
      "ĠÐ¿ÑĢÐ¸ÐºÑĢÐ¸Ð²Ð°ÑĤÐ¸": 6841,
      "Ð¾Ð»Ð¸ÑĪÐ½ÑĮÐ¾Ð³Ð¾": 6842,
      "ĠÐ¿Ð¾ÑĩÐ¸Ð½Ð°ÑĤÐ¸": 6843,
      "ĠÐ·Ð¼ÑĸÐ½ÑİÐ²Ð°ÑĤÐ¸ÑģÑı": 6844,
      "Ġwarten": 6845,
      "erleiten": 6846,
      "ierungen": 6847,
      "iertel": 6848,
      "Ġverein": 6849,
      "Ġvierten": 6850,
      "Ð¾ÑģÐ¸": 6851,
      "Ð¾ÑģÑĤÐ¸": 6852,
      "Ð¾ÑģÐµÑĢ": 6853,
      "Ð¾ÑģÐ¾ÑĦ": 6854,
      "ĠLei": 6855,
      "ĠLicht": 6856,
      "ĠLag": 6857,
      "ĠLesen": 6858,
      "ĠLang": 6859,
      "ĠLaden": 6860,
      "ĠLaut": 6861,
      "ĠLÃ¤rm": 6862,
      "ĠLeitung": 6863,
      "ĠLÃ¼cken": 6864,
      "ĠLaune": 6865,
      "kohol": 6866,
      "ilette": 6867,
      "Ġgleich": 6868,
      "Ġglauben": 6869,
      "ÑĸÐ¶Ð½Ð¸Ðº": 6870,
      "Ġmehrmal": 6871,
      "amt": 6872,
      "amir": 6873,
      "agd": 6874,
      "ager": 6875,
      "agisch": 6876,
      "agsp": 6877,
      "tzlich": 6878,
      "ĠÑģÐµÑĢÐµÐ´Ð¾Ð²Ð¸": 6879,
      "tell": 6880,
      "ĠÐ¿Ð¾Ð²Ð½Ð¸Ð¹": 6881,
      "ĠÐ¿Ð¾Ð²Ð°ÑĢ": 6882,
      "ĠÐ¿Ð¾Ð²ÐµÑĢÑĤÐ°ÑĤÐ¸": 6883,
      "ĠÐ¿Ð¾Ð²Ð½ÑĸÑģÑĤ": 6884,
      "ÑĤÑĢÐ°": 6885,
      "ÑĤÑĢÐ¾Ð²Ð°Ð¼Ð¸": 6886,
      "spar": 6887,
      "spur": 6888,
      "sparen": 6889,
      "spra": 6890,
      "spassiv": 6891,
      "sprach": 6892,
      "springen": 6893,
      "sprecher": 6894,
      "altet": 6895,
      "altungen": 6896,
      "ÐµÐ·Ð¿Ðµ": 6897,
      "mpartner": 6898,
      "mpfehl": 6899,
      "Ġzustimmen": 6900,
      "ĠGesund": 6901,
      "ĠGesell": 6902,
      "Ð°Ð±Ð°": 6903,
      "Ð°Ð±Ð°Ð½": 6904,
      "Ð°Ð±Ð»Ð¸": 6905,
      "Ð°Ð±ÑĥÑģ": 6906,
      "Ð°Ð±ÐµÐ»ÑĮÐ½Ð¸Ð¹": 6907,
      "Ð°Ð±ÑĸÐ¶Ð½Ð¸Ðº": 6908,
      "weilig": 6909,
      "ĠÑģÑĥÑħ": 6910,
      "ĠÑģÑĥÑģÑĸÐ´": 6911,
      "ĠÑģÑĥÐ¼ÐºÑĥ": 6912,
      "Ð¿ÑĸÐ´ÑĤÐ²ÐµÑĢÐ´Ð¶": 6913,
      "ĠÐ¿Ð¾ÑĢÐ°": 6914,
      "ĠÐ¿Ð¾ÑĢÑıÐ´Ð¾Ðº": 6915,
      "ĠFreien": 6916,
      "ĠFreude": 6917,
      "ĠVill": 6918,
      "ĠVerl": 6919,
      "ĠVerein": 6920,
      "ĠVolkshochschule": 6921,
      "ĠVÃ¶gel": 6922,
      "ĠVitam": 6923,
      "ĠRinder": 6924,
      "olle": 6925,
      "Ġuntrennb": 6926,
      "ĠunpersÃ¶nliche": 6927,
      "Ġunseren": 6928,
      "Ð°ÑĤÐ¾": 6929,
      "Ð°ÑĤÑĥ": 6930,
      "Ð°ÑĤÑĤÑı": 6931,
      "Ð°ÑĤÑĥÑĢÐ°": 6932,
      "ĠÐ¢Ð¾Ð±Ñĸ": 6933,
      "ĠÐ¢ÑĥÐ´Ð¸": 6934,
      "ĠÐ¢ÑĢÐµÐ±Ð°": 6935,
      "ĠÐ¢ÑĥÑĢÐµ": 6936,
      "ĠÐ¢Ð°ÑĤÐ¾": 6937,
      "ĠBankmit": 6938,
      "fahl": 6939,
      "ĠÑĢÑĥÐº": 6940,
      "ÑĥÐ²Ð°Ð½Ð¸Ð¹": 6941,
      "ĠWasch": 6942,
      "ÑģÑĤÑı": 6943,
      "ÑģÑĤÐ²Ð°": 6944,
      "ÑģÑĤÑĥÐ´ÐµÐ½ÑĤ": 6945,
      "ĠStein": 6946,
      "ĠStÃ¼": 6947,
      "ĠSteuer": 6948,
      "ĠStunde": 6949,
      "ĠStress": 6950,
      "ĠSteuern": 6951,
      "urm": 6952,
      "urt": 6953,
      "arbeitet": 6954,
      "ĠÐ´ÑĸÑĶÑģÐ»Ð¾Ð²Ð°": 6955,
      "atland": 6956,
      "ĠÐľÐ¾Ð¶": 6957,
      "ĠÐľÐ¾ÑĹ": 6958,
      "Ð°ÑĤÐºÐ¸": 6959,
      "Ð°ÑĤÐºÑĥ": 6960,
      "Ð»ÐµÐº": 6961,
      "ĠGeben": 6962,
      "ĠEigen": 6963,
      "ĠExp": 6964,
      "ĠÐĨÑĢÐ°": 6965,
      "fstÃ¶r": 6966,
      "ĠProdukt": 6967,
      "ĠStufe": 6968,
      "ĠStudenten": 6969,
      "Wasser": 6970,
      "ÐļÐ¾ÑĢÐ¸ÑģÐ½": 6971,
      "onto": 6972,
      "leihen": 6973,
      "leisch": 6974,
      "Ġbeide": 6975,
      "ĠComputerproblem": 6976,
      "ĠÐ³Ðµ": 6977,
      "ĠÐ³Ð°": 6978,
      "ĠÐ³ÐµÑĢ": 6979,
      "ĠÐ³Ð°Ð´": 6980,
      "ĠÐ³ÑĥÑĩÐ½Ð¾Ð¼": 6981,
      "Ð°Ð¿ÑĤ": 6982,
      "Ð»ÑĸÐºÐ°": 6983,
      "ĠAbendsonnen": 6984,
      "leer": 6985,
      "lecht": 6986,
      "lektion": 6987,
      "lecker": 6988,
      "ĠÐ±ÐµÐ·ÑģÐ»ÑĸÐ´": 6989,
      "ĠÐ±ÐµÐ·ÐºÐ¾ÑĪ": 6990,
      "Ġlehren": 6991,
      "Ġlecker": 6992,
      "ĠÐ¾Ð±ÑĢÐ°Ð·": 6993,
      "ĠTexten": 6994,
      "ĠÐĹÐ²ÐµÑĢÑĤ": 6995,
      "Ġgestanden": 6996,
      "Ġgestiegen": 6997,
      "Ġgestorben": 6998,
      "ÑģÑĤÐ°Ð²Ð°ÑĤÐ¸": 6999,
      ".........": 7000,
      "tri": 7001,
      "Schweiz": 7002,
      "schluss": 7003,
      "schlug": 7004,
      "schlÃ¤ge": 7005,
      "Ã¤lde": 7006,
      "Ð¾Ð´Ð¶ÐµÐ½Ð½Ñı": 7007,
      "ĠÑĢÐ¾Ð³": 7008,
      "ĠÑĢÐ°Ð½Ñĸ": 7009,
      "ĠÑĢÐ°Ð¿ÑĤ": 7010,
      "ĠâĢ¦?": 7011,
      "Ġgetrieben": 7012,
      "ÐĶÐļ": 7013,
      "ÐĶÐľ": 7014,
      "hopp": 7015,
      "wird": 7016,
      "ahne": 7017,
      "ĠWol": 7018,
      "ĠWohl": 7019,
      "wohnen": 7020,
      "wohner": 7021,
      "wohnung": 7022,
      "Ġfast": 7023,
      "alaton": 7024,
      "Ġjem": 7025,
      "Ġjetzi": 7026,
      "ĠDiese": 7027,
      "Ġklettert": 7028,
      "lichkeit": 7029,
      "igit": 7030,
      "igung": 7031,
      "igieren": 7032,
      "Ġteuersten": 7033,
      "ÐµÑĢÐ°ÑĤÐ¸Ð²Ð½Ð¸Ð¹": 7034,
      "ÑīÐ°Ð½Ð½Ñı": 7035,
      "ÑīÐ¾ÑģÑĮ": 7036,
      "ÑīÐ¾Ð´Ð½Ñı": 7037,
      "ckdose": 7038,
      "ĠfÃ¤llt": 7039,
      "Ġbesonders": 7040,
      "ĠÐ³Ð¾Ð»ÑĥÐ±": 7041,
      "Ã¤rmen": 7042,
      "ĠÑģÐ¸Ð»ÑĮÐ½Ð¸Ñħ": 7043,
      "ĠVerwen": 7044,
      "Ð¸Ð²Ð°ÑĤÐ¸ÑģÑı": 7045,
      "Ġdeiner": 7046,
      "Ð¸Ð³ÑĸÐ½": 7047,
      "ima": 7048,
      "vergessen": 7049,
      "verfÃ¼": 7050,
      "verga": 7051,
      "verhalten": 7052,
      "verschw": 7053,
      "verboten": 7054,
      "verheim": 7055,
      "verdoppel": 7056,
      "verhaften": 7057,
      "versorgen": 7058,
      "ĠOl": 7059,
      "ĠOrig": 7060,
      "ĠOsten": 7061,
      "ĠOze": 7062,
      "tigung": 7063,
      "tigte": 7064,
      "ĠKonsum": 7065,
      "ĠKonserv": 7066,
      "sion": 7067,
      "ertÃ¶n": 7068,
      "Ð¾Ð¶Ð½ÑĸÐ¹": 7069,
      "Ð°ÑĢÐ°": 7070,
      "ĠkÃ¶nntest": 7071,
      "ĠLebt": 7072,
      "Ð½Ð¾Ñİ": 7073,
      "ĠNicht": 7074,
      "ĠNiederlan": 7075,
      "ĠName": 7076,
      "ĠNina": 7077,
      "ĠÐĴÐ°Ð¼Ð¸": 7078,
      "ĠÐ»Ð°Ð·": 7079,
      "ĠÐ»Ð¸Ð¶": 7080,
      "usstsein": 7081,
      "Ð¾Ð½ÑĤ": 7082,
      "Ð¾Ð½Ð´": 7083,
      "ĠÑĢÐ¾Ð±Ð¸ÑĤÑĮ": 7084,
      "ĠÑĢÐ¾Ð±Ð¾ÑĤÐ°": 7085,
      "ĠÑīÐ¸ÑĢ": 7086,
      "ĠÑīÐ¾Ð´ÐµÐ½Ð½Ð¾": 7087,
      "Ġunserem": 7088,
      "ÑĢÐ°Ð´": 7089,
      "ÑĢÐ°Ñī": 7090,
      "Ã¼bergeordneten": 7091,
      "Ġ117": 7092,
      "Ġ124": 7093,
      "sprechenden": 7094,
      "Ġverkaufen": 7095,
      "Ġverab": 7096,
      "Ġverschw": 7097,
      "ĠverÃ¤ndern": 7098,
      "Ġverheim": 7099,
      "Ġverglei": 7100,
      "Ġverhaften": 7101,
      "oline": 7102,
      "sterreich": 7103,
      "Â».": 7104,
      "ĠÑıÐ»Ð¾Ð²": 7105,
      "Ġbew": 7106,
      "Ġbewer": 7107,
      "Ġbezie": 7108,
      "Ġbegl": 7109,
      "Ġbedienen": 7110,
      "Ġberechn": 7111,
      "Ġbekannt": 7112,
      "Ġbeeilen": 7113,
      "Ġbezeichnet": 7114,
      "ĠÑħÐ»Ñĸ": 7115,
      "ĠÑħÑĤÐ¾": 7116,
      "ĠÑħÐ°Ð¾ÑĤÐ¸": 7117,
      "ÑĤÐ¾Ñİ": 7118,
      "Ð¾ÑģÑĤÐ°ÑĤÐ¸": 7119,
      "abhÃ¤ng": 7120,
      "abstÃ¼rzen": 7121,
      "abwechslungsreich": 7122,
      "ĠNachbar": 7123,
      "ĠÃ¼berzeu": 7124,
      "ĠÃ¼berzeugen": 7125,
      "ĠÃ¼berfallen": 7126,
      "ĠÃ¼berhaupt": 7127,
      "ĠÐ²Ð¸ÑĪ": 7128,
      "ĠÐ²Ð¸Ð»ÐºÐ°": 7129,
      "ĠÐ²Ð¸Ð¶Ð¸Ð²Ð°Ð½Ð½Ñı": 7130,
      "ĠÐ¿ÑĢÐ¾ÑĶÐºÑĤ": 7131,
      "ĠÐ¿ÑĢÐ¾ÑīÐ°Ð½Ð½Ñı": 7132,
      "Ð½ÑĸÐ¼": 7133,
      "ÑĤÐ¾ÑĢÑĸÑı": 7134,
      "ĠÐ¼Ð¾Ð¶ÑĥÑĤÑĮ": 7135,
      "Ã¤nder": 7136,
      "Ã¤nderung": 7137,
      "Steiger": 7138,
      "ĠÐ´Ð¾ÑģÐ»ÑĸÐ´": 7139,
      "Ġvorge": 7140,
      "otal": 7141,
      "rÃ¼fen": 7142,
      "rÃ¼ÃŁen": 7143,
      "reibung": 7144,
      "reibtisch": 7145,
      "Ð°Ð¶Ð°ÑĤÐ¸": 7146,
      "Ð°Ð¶Ð¸ÑĤÐ¸": 7147,
      "ÐµÑĤÑĸÑĤÐ¸": 7148,
      "weiÃŁ": 7149,
      "gelten": 7150,
      "geleitet": 7151,
      "Ð¿ÑĢÐ¾Ð²Ð°Ð¹": 7152,
      "Ð¿ÑĢÐ¾Ð¼ÑĸÑģ": 7153,
      "ughafen": 7154,
      "enthalten": 7155,
      "Ð°Ð¹Ð½Ð¸Ð¹": 7156,
      "ada": 7157,
      "jezik": 7158,
      "ĠÑĪÑĥÐ¼": 7159,
      "ĠÑĪÐ°ÑĦ": 7160,
      "ĠSpar": 7161,
      "ĠSprich": 7162,
      "ĠSpiegel": 7163,
      "ĠÑĢÐ°Ð·Ð¾Ð¼": 7164,
      "herausgeben": 7165,
      "Ġput": 7166,
      "Ġpro": 7167,
      "ĠprÃ¼fen": 7168,
      "ÑĸÐ»ÐºÐ°": 7169,
      "Ð½Ð¸ÑĩÐºÐ°": 7170,
      "ĠÐĶÐ¾ÑģÑĤÐ°Ð²ÐºÑĥ": 7171,
      "ĠVerbs": 7172,
      "ĠVerbes": 7173,
      "ĠVerbrechen": 7174,
      "ĠVerbinden": 7175,
      "ĠÐ¿Ð¾Ð´Ð°Ð²": 7176,
      "ĠÐ¿Ð¾Ð´Ð²Ð¾": 7177,
      "ĠÐ¿Ð¾Ð´Ð°Ð²Ð°ÑĤÐ¸": 7178,
      "ĠÐ¿Ð¾Ð´Ð°Ð½Ð¾": 7179,
      "wartet": 7180,
      "ĠÐ·Ð½Ð°Ð½Ð½Ñı": 7181,
      "ĠÐ³ÑĢÐ¸Ð²": 7182,
      "ĠÐ³ÑĢÐ°Ð²ÐµÑĨÑĮ": 7183,
      "ĠÐ³ÑĢÐ¾Ð¼Ð°Ð´": 7184,
      "ĠÐ³ÑĢÐ°Ð¼Ð°ÑĤÐ¸ÐºÐ¸": 7185,
      "ĠÐ³ÑĢÐ°Ð±ÑĸÐ¶Ð½Ð¸Ðº": 7186,
      "ĠÑĢÐ¾Ð·Ð¼": 7187,
      "ĠÑĢÐ¾Ð·Ð±": 7188,
      "ĠÑĢÐ¾Ð·ÑģÐ»ÑĸÐ´": 7189,
      "ĠÑĢÐ¾Ð·ÑĥÐ¼": 7190,
      "ĠÑĢÐ¾Ð·Ð¼Ð¾Ð²": 7191,
      "ĠÑĢÐ¾Ð·Ð»ÑĥÑĩ": 7192,
      "ĠÐ¿ÐµÑĢÐµÐ²Ð°Ð¶": 7193,
      "ĠÐ¿ÐµÑĢÐµÐºÐ¾Ð½Ð°": 7194,
      "ĠÐ¿ÐµÑĢÐµÑĹÐ¶Ð´Ð¶": 7195,
      "hing": 7196,
      "zufÃ¤llig": 7197,
      "zubereiten": 7198,
      "ÐµÐºÐ»ÐµÐ½": 7199,
      "Ð°Ð»ÐµÐ½Ð½Ñı": 7200,
      "Ã¶rder": 7201,
      "egin": 7202,
      "ĠÐ´ÑĥÑħ": 7203,
      "lieh": 7204,
      "liebt": 7205,
      "ĠstÃ¤r": 7206,
      "Ġsteigen": 7207,
      "Ġstark": 7208,
      "ĠAnge": 7209,
      "ĠAnna": 7210,
      "ĠAndenken": 7211,
      "finalsatz": 7212,
      "ĠDaten": 7213,
      "empfehlen": 7214,
      "empfahl": 7215,
      "schafts": 7216,
      "109": 7217,
      "Ġabwaschen": 7218,
      "ÑģÑĮÐºÐ¾Ð¼Ñĥ": 7219,
      "ÑģÑĮÐºÐ¾ÑĹ": 7220,
      "ÑģÑĮÐºÐ¸Ð¼Ð¸": 7221,
      "Ð¸ÑĩÐºÐ°": 7222,
      "Ð¸ÑĩÐ¾Ðº": 7223,
      "ĠSatzes": 7224,
      "ĠSatzglied": 7225,
      "ĠÐ¿ÑĢÐ¸Ð±": 7226,
      "ĠÐ¿ÑĢÐ¸Ð¿ÑĢÐ°Ð²": 7227,
      "ĠÐ¿ÑĢÐ¸Ð±Ð¸ÑĢÐ°ÑĤÐ¸": 7228,
      "ĠÐ¿ÑĢÐ¸ÑĹÑħ": 7229,
      "fÃ¼hlen": 7230,
      "fÃ¼llt": 7231,
      "ĠÐ²ÐµÐ»": 7232,
      "ĠÐ²ÐµÐ´": 7233,
      "ĠÐ²ÐµÐ´Ðµ": 7234,
      "ĠÐ²ÐµÑģÑĸÐ»Ð»Ñı": 7235,
      "ĠÐ²ÐµÑģÐµÐ»": 7236,
      "iker": 7237,
      "ikum": 7238,
      "ikanerinnen": 7239,
      "ogie": 7240,
      "ÑĸÑĤÐºÐ°": 7241,
      "steller": 7242,
      "stellte": 7243,
      "112": 7244,
      "lange": 7245,
      "ĠÃľberzeug": 7246,
      "Ġunterst": 7247,
      "Ġunterbrechen": 7248,
      "zurÃ¼ck": 7249,
      "ĠÐºÐ¾Ð¼ÐµÐ´": 7250,
      "ĠÐºÐ¾Ð¼Ð°ÑĢÑĸÐ²": 7251,
      "ĠÐºÐ¾Ð¼Ð¿ÑĢÐ¾Ð¼ÑĸÑģ": 7252,
      "ĠReze": 7253,
      "ĠÐ¹Ð¾Ð³": 7254,
      "ĠÐ¹Ð´Ñĥ": 7255,
      "gebildet": 7256,
      "ellner": 7257,
      "ĠÑĹÑħÐ°ÑĤÐ¸": 7258,
      "ĠÑĹÐ¶Ñĸ": 7259,
      "Ð´ÐµÑĩÐ½Ð¾": 7260,
      "Ġpassieren": 7261,
      "zehn": 7262,
      "zeitschrift": 7263,
      "ĠJagd": 7264,
      "ĠÐĳÐ¾Ð³": 7265,
      "ĠÐĳÐ¾Ð´ÐµÐ½": 7266,
      "ĠÐĳÐµÑĢÐ»": 7267,
      "ĠÐĳÑĥÐ´ÑĮ": 7268,
      "ĠÐĳÐ¾Ð½Ð´Ð°ÑĢÑĩÑĥÐº": 7269,
      "ÑĢÐ¸Ð»Ð¸": 7270,
      "ÑĨÐµÐ¼": 7271,
      "ÑĨÐµÐ¿": 7272,
      "telmeer": 7273,
      "klÃ¤ren": 7274,
      "laut": 7275,
      "wasser": 7276,
      "ĠÐ¡ÑĸÐ¼": 7277,
      "ĠÐ¡ÑĮÐ¾Ð³Ð¾Ð´Ð½Ñĸ": 7278,
      "ĠÐ¡ÐµÐ¼ÐµÐ½ÑİÐº": 7279,
      "ĠÐµÐ½ÐµÑĢ": 7280,
      "ĠÐĽÐ¾Ð·Ð¸ÑĨÑĮÐºÐ°": 7281,
      "ĠÐĽÑĥÑĨÑĮÐº": 7282,
      "ĠÑģÐ²ÐµÐº": 7283,
      "ĠEinb": 7284,
      "ĠEinkaufs": 7285,
      "TÃ¼rkei": 7286,
      "ksam": 7287,
      "vorbei": 7288,
      "vorsichtig": 7289,
      "werk": 7290,
      "werfen": 7291,
      "werken": 7292,
      "ĠÑĤÐ¸ÑħÐ¾": 7293,
      "ĠÑĤÐ¸Ð¶Ð´ÐµÐ½ÑĮ": 7294,
      "ÑĸÐ·Ð½Ð¾": 7295,
      "ÑĥÑĢÑĤ": 7296,
      "ÑĥÑĢÐ½Ð°": 7297,
      "ĠVorbereit": 7298,
      "ĠVorgang": 7299,
      "Indirekte": 7300,
      "irekter": 7301,
      "prache": 7302,
      "Ð»ÑİÑĩ": 7303,
      "ĠÐ¿ÑĢÐ°Ðº": 7304,
      "ĠÐ¿ÑĢÐ°ÑĨÑĸ": 7305,
      "untersuchen": 7306,
      "unterbieten": 7307,
      "unterhielt": 7308,
      "Ð¶ÐµÐ»ÑİÐ±": 7309,
      "immbad": 7310,
      "ĠauÃŁerdem": 7311,
      "Ġalso": 7312,
      "Ð²Ð°Ð¶Ð°ÑĤÐ¸ÑģÑı": 7313,
      "schenken": 7314,
      "ÑħÑĸÐ´Ð½Ð¸Ñħ": 7315,
      "ĠOrientieren": 7316,
      "168": 7317,
      "223": 7318,
      "Verben": 7319,
      "Verbrechen": 7320,
      "hÃ¶rer": 7321,
      "ktionen": 7322,
      "naie": 7323,
      "ÐĴÐĲ": 7324,
      "Ġ,-": 7325,
      "Ġ811": 7326,
      "Ġreist": 7327,
      "Ġreden": 7328,
      "hang": 7329,
      "anzÃ¶s": 7330,
      "anziehen": 7331,
      "anzhaushalt": 7332,
      "ĠAusnahmen": 7333,
      "ĠÐºÑĥÐ¿ÑĥÐ²Ð°ÑĤÐ¸": 7334,
      "ĠÐºÑĥÐ¿Ð¸Ð»Ð°": 7335,
      "ĠÐºÑĥÐ¿Ð»ÑıÑİ": 7336,
      "Ð¾Ð»Ð¾Ð³ÑĸÑı": 7337,
      "Ð¾Ð»Ð¾Ð³ÑĸÑĩ": 7338,
      "...?": 7339,
      "ĠÑĤÐ°ÐºÑģÑĸ": 7340,
      "ĠÑĤÐ°ÐºÐ¾Ð¶": 7341,
      "irektor": 7342,
      "reitet": 7343,
      "Ð°ÑĩÐ°ÑĤÐ¸": 7344,
      "Ð°ÑĩÐ¸ÑĤÐ¸": 7345,
      "schieÃŁen": 7346,
      "ĠÑĤÑĢÐµÐ½": 7347,
      "ĠÑĤÑĢÐ¸Ð²Ð°ÑĶ": 7348,
      "ĠÑĤÑĢÑĮÐ¾Ñħ": 7349,
      "alediven": 7350,
      "ĠPrÃ¤teritumform": 7351,
      "Ġ50": 7352,
      "Ġallen": 7353,
      "Ġallein": 7354,
      "Ġallem": 7355,
      "Ġalleine": 7356,
      "ĠÐ½Ð°Ð²ÑĥÑĪ": 7357,
      "ĠÐ½Ð°Ð²Ð¸ÑĩÐ¾Ðº": 7358,
      "ĠdurchgefÃ¼": 7359,
      "ĠÐµÐºÑģÐ¿": 7360,
      "ĠÐ§Ð¸Ð¼": 7361,
      "ingu": 7362,
      "ĠÐ¿Ð¾Ð³Ð¾Ð´Ð¶ÑĥÐ²Ð°ÑĤÐ¸ÑģÑı": 7363,
      "ĠÐ¿Ð¾Ð³Ð¾Ð´Ð¸ÑĤÐ¸ÑģÑı": 7364,
      "ĠÐ´ÐµÑģÑĮ": 7365,
      "ĠÐ´ÐµÑĪÐµ": 7366,
      "ĠÐ´ÐµÐ¿Ð¾Ð·": 7367,
      "ĠÐ´ÐµÐ¼Ð¾Ð½": 7368,
      "ĠFranzÃ¶s": 7369,
      "ĠPerspektive": 7370,
      "Studieren": 7371,
      "riechen": 7372,
      "Ġ63": 7373,
      "ÑĥÐ½ÑĸÐ²ÐµÑĢÑģÐ¸ÑĤÐµÑĤ": 7374,
      "ĠÐ¿Ð°ÑĢÐº": 7375,
      "Ġgewesen": 7376,
      "Ġgewachsen": 7377,
      "Ġgeworden": 7378,
      "ĠmÃ¶gen": 7379,
      "ĠmÃ¶glich": 7380,
      "Ġbestellen": 7381,
      "Ġbestrafen": 7382,
      "ĠÑĦÑĸÐ»Ð¾ÑģÐ¾ÑĦ": 7383,
      "ĠÑĦÑĸÐ»Ð¾Ð»Ð¾Ð³ÑĸÑĩ": 7384,
      "ĠEurozone": 7385,
      "ĠUntersuch": 7386,
      "Beim": 7387,
      "Ġentscheiden": 7388,
      "ĠÐ²Ð¸Ð³ÑĢÐ°Ð²": 7389,
      "Ġgesessen": 7390,
      "Ġgesunken": 7391,
      "Ġgesungen": 7392,
      "Ġgesandt": 7393,
      "ĠSoÃŁe": 7394,
      "ĠÐºÐ°Ð½Ð°Ð»": 7395,
      "ĠÐºÐ°Ð¼ÐµÑĢÐ°": 7396,
      "Ð¸ÑģÑĤÐ¸Ð¹": 7397,
      "ungskra": 7398,
      "Ð¾Ð·Ð¸ÑĨÑĸÑİ": 7399,
      "ÐµÑĢÑĤÐ²": 7400,
      "187": 7401,
      "okale": 7402,
      "okabel": 7403,
      "ÑģÐ¸ÑĩÐ½Ð¸Ð¹": 7404,
      "ÑĥÑİÑģÑı": 7405,
      "ÑĥÑİÑĩÐ¸": 7406,
      "ĠÐ¿Ð»Ð°ÑĤÐ°": 7407,
      "ĠÐ¿Ð»Ð°ÑĤÑĤÑı": 7408,
      "ĠInternetanbieter": 7409,
      "ĠÐ·Ð²Ð¸ÑĩÐ°Ð¹Ð½Ð¾": 7410,
      "ĠÐ·Ð²ÑĥÑĩÐ°ÑĤÐ¸": 7411,
      "ĠÐ·Ð²Ð¸ÑĩÐºÐ°": 7412,
      "ĠwÃ¤ren": 7413,
      "Ġgefangen": 7414,
      "Ġgefunden": 7415,
      "Ġgefreut": 7416,
      "Ġgefroren": 7417,
      "Ð²ÑĸÐ´Ð¿": 7418,
      "Ð²ÑĸÐ´Ð¾Ð¼Ð¸Ð¹": 7419,
      "ĠÐ½Ð°Ð´Ð°Ð²Ð°ÑĤÐ¸": 7420,
      "ĠÐ½Ð°Ð´ÑĸÐ¹Ð½Ð¸Ð¹": 7421,
      "256": 7422,
      "Reflexive": 7423,
      "astrop": 7424,
      "frage": 7425,
      "zÃ¤hlen": 7426,
      "ĠÐ¼ÑĥÐ·Ð¸Ñĩ": 7427,
      "ĠÑģÐµÐ»Ðµ": 7428,
      "ĠAlkohol": 7429,
      "ĠSteht": 7430,
      "ĠSteckdose": 7431,
      "ĠÑģÑĤÑĥÐ´ÐµÐ½ÑĤÐºÐ°": 7432,
      "schwimmen": 7433,
      "seekÃ¼ste": 7434,
      "ĠFinnland": 7435,
      "ĠHaushalt": 7436,
      "beln": 7437,
      "beleucht": 7438,
      "ĠRelativsÃ¤tze": 7439,
      "ĠÐ³Ð¾Ð²Ð¾ÑĢÑıÑĤÑĮ": 7440,
      "ĠÑĢÐ°Ð´ÑĸÑĶÑĪ": 7441,
      "Ġjedem": 7442,
      "verbi": 7443,
      "ĠÐ»ÑĸÑĤÐ°": 7444,
      "ĠÑĪÐºÐ¾Ð´Ð°": 7445,
      "ĠÑĪÐºÑĸÐ»ÑĮÐ½Ð°": 7446,
      "ĠReisebÃ¼ro": 7447,
      "bietet": 7448,
      "besetzt": 7449,
      "folgt": 7450,
      "ickeln": 7451,
      "ÐľÐ¾Ð¶Ð½Ð°": 7452,
      "Ġedel": 7453,
      "ĠImage": 7454,
      "ĠÐ¼ÐµÐ½ÑĪÐµ": 7455,
      "ĠÑģÐºÐ¾ÑĢ": 7456,
      "ĠÑģÐºÑĥÐ¿": 7457,
      "ĠÑģÐºÐ»Ð°Ð´": 7458,
      "Ð¿Ð°Ð´Ð°ÑĤÐ¸": 7459,
      "ĠÐ¿ÑĢÐ¸Ð¹ÑĤÐ¸": 7460,
      "ĠÐºÐ°ÑĢÑĤÐ¾Ð¿": 7461,
      "ĠÐºÐ¾Ð½ÑĦÐµÑĢ": 7462,
      "ĠÐºÐ¾Ð½ÑĨÐµÑĢÑĤ": 7463,
      "ĠÐ¾ÑĢÐµÐ½Ð´Ð°": 7464,
      "ĠÐ¾ÑĢÑĸÑĶÐ½ÑĤ": 7465,
      "ĠÐ¾ÑĢÐ¸Ð³ÑĸÐ½": 7466,
      "ĠFÃ¤hrst": 7467,
      "ĠFÃ¤llen": 7468,
      "ĠHauptstadt": 7469,
      "Ġangegeben": 7470,
      "Ġangezogen": 7471,
      "ĠWortfolge": 7472,
      "ĠUmsatz": 7473,
      "ĠUmgang": 7474,
      "ĠFahrradladen": 7475,
      "Konzert": 7476,
      "Konsum": 7477,
      "Kondition": 7478,
      "Manchmal": 7479,
      "Plural": 7480,
      "UniversitÃ¤t": 7481,
      "hÃ¤ngt": 7482,
      "Ġrichtig": 7483,
      "ÐºÑĤÑĥ": 7484,
      "ĠÑģÐµÑĢÑĨÐµ": 7485,
      "Ð»ÑıÐ´Ñĥ": 7486,
      "Ġwichtige": 7487,
      "Ġgelegen": 7488,
      "Ġgelungen": 7489,
      "Ġbisschen": 7490,
      "ĠSekretÃ¤rin": 7491,
      "ĠÐ·Ð°Ð±ÑĢÐ°ÑĤÐ¸": 7492,
      "ĠÐ·Ð°Ð±Ð¾ÑĢÐ¾Ð½": 7493,
      "ĠÐ·Ð°Ð±ÐµÐ·Ð¿Ðµ": 7494,
      "ĠKlein": 7495,
      "Ġgerufen": 7496,
      "ĠÐ±ÑĸÐ»Ð¸Ð·": 7497,
      "ĠÐ±ÑĸÐ¾Ð³ÑĢÐ°ÑĦ": 7498,
      "ĠÐ¼ÑĸÑģÑĨÐµÐ²ÑĸÑģÑĤÑĮ": 7499,
      "ĠÐ³Ð°ÑĢÐ½Ð¸Ð¹": 7500,
      "ĠÑĢÐ¾Ð±Ð¾ÑĩÑĸ": 7501,
      "ĠÑĢÐ¾Ð±Ð¾ÑĩÐ¾Ð¼Ñĥ": 7502,
      "ĠÐ´ÑĥÐ¼Ð°ÑĶ": 7503,
      "ĠÐ´ÑĥÐ¼ÐºÐ¸": 7504,
      "ĠÐ´ÑĥÐ¼Ð°ÑĶÑĪ": 7505,
      "ĠÐ²ÐµÑĩÐµ": 7506,
      "Einkaufen": 7507,
      "Einige": 7508,
      "EinfÃ¼hrung": 7509,
      "brachte": 7510,
      "glaube": 7511,
      "glÃ¼cklich": 7512,
      "Ġgenug": 7513,
      "Ġgenommen": 7514,
      "Ġ...):": 7515,
      "ĠÐĲÐ²ÑģÑĤÑĢÑĸ": 7516,
      "ÑıÐ³Ð½ÑĥÑĤÐ¸": 7517,
      "ĠÐ¿Ð¾ÐºÐ°Ð·": 7518,
      "ĠÐ·Ð½Ð¾Ð²Ñĥ": 7519,
      "Ġsofern": 7520,
      "Ġgeschossen": 7521,
      "Ġgeschnitten": 7522,
      "ĠÐ¿ÑĢÐ¾Ð²ÐµÐ»Ð°": 7523,
      "ĠKontakt": 7524,
      "ĠMitarbeiter": 7525,
      "ĠfÃ¼hlen": 7526,
      "Ġfolgende": 7527,
      "Ġfolgendem": 7528,
      "ÑħÐ¾Ð´Ð¸Ð²": 7529,
      "ÑħÐ¾Ð´Ð¸ÑĤÐ¸ÑģÑı": 7530,
      "ĠSchwimmbad": 7531,
      "ĠSchulzeit": 7532,
      "ĠÑĸÐ½ÑĪÐ°": 7533,
      "ĠÑĸÐ½ÑĪÐ¸Ð¼": 7534,
      "ĠÑĸÐ½ÑĪÐ¾Ð¼Ð¾Ð²Ð½Ð¸Ñħ": 7535,
      "Ġkonzentr": 7536,
      "ĠGeschichten": 7537,
      "ĠGeschirr": 7538,
      "ĠÐ³Ð¾Ð´Ð¸Ð½Ð¸": 7539,
      "ĠÐ³Ð¾Ð´Ð¸Ð½Ð°": 7540,
      "ĠÐ³Ð¾Ð´Ð¸Ð½Ð°Ð¼Ð¸": 7541,
      "ĠÐ³Ð¾ÑĤÑĥÐ²Ð°ÑĤÐ¸": 7542,
      "ĠÐ³Ð¾ÑĤÐµÐ»ÑĮ": 7543,
      "ĠÐ³Ð¾ÑĤÐµÐ»Ñĸ": 7544,
      "Ġbeschreiben": 7545,
      "ĠÐ¿Ð¾Ð´Ð¾ÑĢÐ¾Ð¶ÑĥÐ²Ð°ÑĤÐ¸": 7546,
      "ĠwÃ¼rdest": 7547,
      "mÃ¤ÃŁig": 7548,
      "Ġ....................................................................................": 7549,
      "ferd": 7550,
      "obachten": 7551,
      "prÃ¤sentieren": 7552,
      "wohin": 7553,
      "ĠQu": 7554,
      "Ġfesten": 7555,
      "Ġempfehlen": 7556,
      "Ð¸Ð»Ð°ÑĤÐ¸": 7557,
      "Ð¸Ð´ÐµÐ½ÑĨÑĸÑı": 7558,
      "ÐµÐ½Ð´ÑĥÐ²Ð°ÑĤÐ¸": 7559,
      "Ð¼ÑĸÑħÐ°ÑĤÐ¸ÑģÑı": 7560,
      "ĠÐ·Ð´Ð¾ÑĢÐ¾Ð²": 7561,
      "ĠÐ·Ð´Ð¾Ð±ÑĥÐ²Ð°ÑĤÐ¸": 7562,
      "ĠÐ·Ð±ÑĸÑĢ": 7563,
      "gesprochen": 7564,
      "ĠÑģÐ²ÑĸÑĤÑĥ": 7565,
      "ĠÑģÐ²ÑĸÑĤÐ¾Ð²Ð°": 7566,
      "arktis": 7567,
      "ĠKarriere": 7568,
      "ĠÐ¾ÑĩÐ¸Ñī": 7569,
      "ĠÐ¾ÑĩÐµÐ²Ð¸Ð´Ð½Ð¾": 7570,
      "ĠÐ¿Ð¾ÑģÐ°Ð´Ð°": 7571,
      "ĠÐ¿Ð¾ÑģÐ¼ÑĸÑħÐ°ÑĤÐ¸ÑģÑı": 7572,
      "ĠÐ¿Ð¾ÑĹÐ´Ðµ": 7573,
      "ĠÐ¿Ð¾ÑĹÑħÐ°Ð²": 7574,
      "ĠÐ±Ð°Ð½Ðº": 7575,
      "Ġfindet": 7576,
      "ĠÑĸÐ½ÑĤÐµÑĢÐ½ÐµÑĤÑĸ": 7577,
      "Ġverlassen": 7578,
      "brauchsfÃ¤": 7579,
      "ĠLebensmittel": 7580,
      "Ġbeginnen": 7581,
      "ultat": 7582,
      "ĠÑĢÐ¾Ð·Ð¿Ð¾ÑĢ": 7583,
      "Ġanderer": 7584,
      "ĠÐ¿ÑĢÐ¾Ð¿Ð¾Ð·Ð¸ÑĨÑĸÑİ": 7585,
      "072": 7586,
      "367": 7587,
      "501": 7588,
      "Begegnungen": 7589,
      "ablauf": 7590,
      "ablesen": 7591,
      "ablehnen": 7592,
      "Ġindirekter": 7593,
      "Ð½Ð¾Ð¼Ð°Ð½ÑĸÑĤÐ½Ð¸Ð¹": 7594,
      "ÑıÐ·ÐºÐ¾Ð²Ð¾": 7595,
      "rett": 7596,
      "Ð°Ð»Ð¸ÑģÑı": 7597,
      "stÃ¼rzt": 7598,
      "ĠÐ¿Ð¾Ð¼ÑĢÑĸÑıÑĤÐ¸": 7599,
      "ĠÐ¿Ð¾Ð¿ÑĥÐ»ÑıÑĢÐ½Ð¸Ð¹": 7600,
      "ĠÐ´ÑĸÑĶÑĤÐ°": 7601,
      "ĠÐ´Ð¾Ð´Ð°ÑĤÐºÐ¾Ð²Ñĸ": 7602,
      "ĠÐ½Ð¾Ð²Ð¸Ñħ": 7603,
      "ĠÐ½Ð¾Ð²Ð¸Ð¼Ð¸": 7604,
      "ĠÑģÐ¼Ð°ÑĩÐ½Ð¸Ð¹": 7605,
      "ĠÑģÐ¼Ð°ÑĩÐ½Ð¾": 7606,
      "ĠAufklÃ¤r": 7607,
      "ĠBlumen": 7608,
      "ĠÑģÑĤÑĢÐ°Ð²Ð°": 7609,
      "ĠÑĥÑĩÐ¾ÑĢÐ°": 7610,
      "setzte": 7611,
      "ĠHerr": 7612,
      "ĠHerren": 7613,
      "ĠÐ¾Ð²Ð¾ÑĩÑĸÐ²": 7614,
      "Ð¾Ð»Ð¸Ð½ÑģÑĮÐºÐ¸Ð¹": 7615,
      "ĠÐ·Ð°ÑħÐ¸Ñī": 7616,
      "Ġaufgestanden": 7617,
      "ĠÐ½Ð°ÑĢÐ¾Ð´Ð½Ð°": 7618,
      "ĠÐ½Ð°ÑĪÐ¾Ð³Ð¾": 7619,
      "ĠÐ½Ð°ÑĪÐ¸Ð¼Ð¸": 7620,
      "ĠSubjekts": 7621,
      "Ġtrennbar": 7622,
      "ĠÑģÐ¿ÑĸÐ²Ð°ÑİÑĤÑĮ": 7623,
      "ĠÐ²Ð¸Ð¿Ð°Ð´ÐºÐ¾Ð²Ð¾": 7624,
      "junktionen": 7625,
      "Ð²Ð°Ð¶Ð°ÑİÑĩÐ¸": 7626,
      "ĠOrdnen": 7627,
      "handelte": 7628,
      "ĠÐºÐ°ÑĦÐµ": 7629,
      "steigern": 7630,
      "ĠWohnungstÃ¼r": 7631,
      "373": 7632,
      "4060": 7633,
      "Sudan": 7634,
      "sonst": 7635,
      "waii": 7636,
      "wakei": 7637,
      "ÐŁÐķ": 7638,
      "ÐŁÐ°ÑģÐ¸Ðº": 7639,
      "ĠÃ¼bern": 7640,
      "ĠÃ¼brig": 7641,
      "ĠÐĩÐ¹": 7642,
      "ĠÐĵÑĢÐ¾ÑĪ": 7643,
      "ÑĢÐ¾Ð·ÑĥÐ¼": 7644,
      "ÑĢÐ¾Ð·Ð²Ð°Ð¶Ð°ÑĤÐ¸ÑģÑı": 7645,
      "ÑĥÐ»ÑĮÑĤÐ°ÑĤ": 7646,
      "ÐºÑĢÐ¸ÑĩÐ°ÑĤÐ¸": 7647,
      "ĠÐ¿ÑĢÐµÐ·ÐµÐ½ÑĤ": 7648,
      "aschinen": 7649,
      "ĠÑģÐ¼ÑĸÑĤÑĤÑı": 7650,
      "ĠAktivsatzes": 7651,
      "ĠÐ·Ð°Ð³Ð°Ð´": 7652,
      "ĠÐ·Ð°Ð³Ð¾Ð»Ð¾Ð²": 7653,
      "ĠÐºÐ»Ð°Ð²": 7654,
      "ĠÐºÐ°Ð²Ð¸": 7655,
      "ĠHaben": 7656,
      "ĠHawaii": 7657,
      "ĠÐ·Ð°Ð¼Ð¾Ð²Ð¸ÑĤÐ¸": 7658,
      "ĠGemÃ¤lde": 7659,
      "ĠÑģÐ¿ÐµÑĨÑĸÐ°Ð»ÑĸÑģÑĤ": 7660,
      "istenz": 7661,
      "begriffen": 7662,
      "ĠWunder": 7663,
      "ĠLiebes": 7664,
      "ĠÑĢÐ¾ÐºÑĥ": 7665,
      "ĠÐ¾ÑģÐ¾Ð±Ð¸ÑģÑĤ": 7666,
      "ĠOper": 7667,
      "ĠOpern": 7668,
      "ĠOpfer": 7669,
      "ĠÑħÐ¾ÑĤÑĸÐ»Ð¸": 7670,
      "ĠÐ²Ð¸Ð±ÑĸÑĢ": 7671,
      "ĠÐ²Ð¸Ð±ÑĢÐ°ÑĤÐ¸": 7672,
      "ĠÐ¿ÑĢÐ¾ÑĦÐµÑģ": 7673,
      "ĠabgestÃ¼rzt": 7674,
      "langsam": 7675,
      "ĠFlughafen": 7676,
      "ĠÐ¾Ð´ÑıÐ³Ð°ÑĤÐ¸ÑģÑı": 7677,
      "ografisch": 7678,
      "ografieren": 7679,
      "ĠÑĢÑĸÐ·Ð½Ñĸ": 7680,
      "ĠÑĢÑĸÐ·Ð½Ð¾Ð¼Ð°Ð½ÑĸÑĤÐ½Ð¸Ð¹": 7681,
      "ĠÐ·Ð°ÑĢÐ¿Ð»Ð°ÑĤÐ¸": 7682,
      "Fachzeitschrift": 7683,
      "____": 7684,
      "dirigent": 7685,
      "icky": 7686,
      "mmung": 7687,
      "sant": 7688,
      "trennbare": 7689,
      "ÐĿÑĸÐ¼Ðµ": 7690,
      "Ġ=>": 7691,
      "ÑĩÑĩÐ¸Ð½Ð¾Ñİ": 7692,
      "ĠÐ¿Ð¸ÑģÐ°ÑĤÐ¸": 7693,
      "ĠÐ¿Ð¾Ð±Ð»Ð¸Ð·": 7694,
      "ĠÐ¿Ð¾Ð±Ð°ÑĩÐ¸ÑĤÐ¸": 7695,
      "ĠÐ·Ð¼ÑĸÑı": 7696,
      "ĠÐ·Ð¼ÐµÐ½ÑĪ": 7697,
      "ĠÐ·Ð³ÑĸÐ´Ð½Ð¾": 7698,
      "ĠÐ·ÑĢÐ¾Ð±Ð¸ÑĤÐ¸": 7699,
      "ĠÐ½Ð°Ð¿Ð°Ð´": 7700,
      "ĠÑģÐ¾ÑĨÑĸ": 7701,
      "ĠÐ²ÑĩÐ¾ÑĢÐ°": 7702,
      "ĠÐ²ÑĩÐ¸ÑĤÐµÐ»ÑĮ": 7703,
      "ĠÐ²Ð¿ÑĸÐ·Ð½Ð°": 7704,
      "ĠÐ²Ð·ÑĥÑĤÑĤÑı": 7705,
      "ĠÐ²ÑĸÐºÐ½Ð¾": 7706,
      "ĠÐ²ÑĸÐºÐ½Ð¾Ð¼": 7707,
      "ĠÐ²Ð°Ð¶Ð»Ð¸Ð²Ñĸ": 7708,
      "ĠÐ²ÑĸÑĤÐ°ÑĤÐ¸": 7709,
      "ĠÐ²ÑĸÑĤÐ°Ñİ": 7710,
      "ĠÐ²ÑĸÑĤÐ°Ð¼ÑĸÐ½": 7711,
      "Ġweggenommen": 7712,
      "ĠÐ½ÐµÐ²Ð´Ð°ÑĩÐ°": 7713,
      "ĠÐ½ÐµÐ²ÐµÐ»Ð¸Ðº": 7714,
      "schneiden": 7715,
      "ÑĨÑĸÐ¹Ð½Ð°": 7716,
      "ĠHilfe": 7717,
      "ĠKannst": 7718,
      "ĠÐ¾ÑĦÑĸÑĨÑĸ": 7719,
      "ĠMonat": 7720,
      "ĠMonats": 7721,
      "ĠMÃ¤rchen": 7722,
      "ĠTaste": 7723,
      "ĠTeilzeit": 7724,
      "ĠGegenwart": 7725,
      "ĠPfeil": 7726,
      "ĠPolitik": 7727,
      "Ġinteressieren": 7728,
      "Ġinteressiert": 7729,
      "Ġinteressant": 7730,
      "ĠArbeitsverhÃ¤ltnis": 7731,
      "ĠÑģÐ¿ÑĸÐ»ÐºÐ°": 7732,
      "ĠÑģÐ¿Ð¾ÑĢÑĤÑĥ": 7733,
      "ĠÑģÐ¿Ð¾ÑĢÑĤÐ·Ð°Ð»": 7734,
      "Ġferngesehen": 7735,
      "Ð¿ÐµÑĢÑĤ": 7736,
      "Ã¶ffnen": 7737,
      "beginnt": 7738,
      "ĠÐ´ÑĢÑĥÐ·ÑĸÐ²": 7739,
      "ĠPartnerschaft": 7740,
      "Ġherr": 7741,
      "Ġheraus": 7742,
      "itzenklasse": 7743,
      "ĠÐ·Ð°Ð¿ÑĢÐ¾ÑĪ": 7744,
      "ĠÐ³Ð¾ÑĢÐ´Ð¸ÑĤÐ¸ÑģÑı": 7745,
      "ĠÐ±ÐµÐ·Ð¿ÐµÐºÐ°": 7746,
      "ĠVerwand": 7747,
      "ĠÐ»ÐµÐºÑģÐ¸ÑĩÐ½Ð¸Ð¹": 7748,
      "ĠÐ»Ð¾ÑĤÐµÑĢÐµÑĹ": 7749,
      "ĠÑħÐ²Ð¾ÑĢÐ¸Ð¹": 7750,
      "ĠÑħÐ²Ð¾ÑĢÐ¾Ð±Ð¸": 7751,
      "ĠÐ´ÑĥÐ¼Ð°ÑİÑĤÑĮ": 7752,
      "ĠÐµÐºÑģÐ¿ÐµÑĢÑĤ": 7753,
      "ĠÐµÐºÐ¾Ð½Ð¾Ð¼ÑĸÐºÐ°": 7754,
      "ĠÐºÐ¾Ð»ÐµÐ³Ð¸": 7755,
      "Ġbestimmt": 7756,
      "Ġbestimmten": 7757,
      "ĠĠĠĠĠĠĠĠĠĠĠĠĠĠĠĠĠĠĠĠĠĠĠĠĠĠĠĠĠĠĠĠ": 7758,
      "ĠÑģÐ»ÑĥÐ¶Ð±": 7759,
      "Ġbereits": 7760,
      "Deutschland": 7761,
      "MenÃ¼": 7762,
      "ahara": 7763,
      "freundlich": 7764,
      "freundschaft": 7765,
      "lÃ¶sen": 7766,
      "lÃ¶tzlich": 7767,
      "pass": 7768,
      "passieren": 7769,
      "qualitÃ¤t": 7770,
      "sucht": 7771,
      "vereinbaren": 7772,
      "weren": 7773,
      "wÃ¤hlen": 7774,
      "weglassen": 7775,
      "Ð¢Ð¾Ð±Ñĸ": 7776,
      "Ð¢Ð°Ð±Ð»Ð¸": 7777,
      "Ð£ÐĶÐļ": 7778,
      "ÐłÐķ": 7779,
      "Ġeigenen": 7780,
      "Ġeigenes": 7781,
      "ĠÐłÐµÐºÐ¾Ð¼": 7782,
      "ĠÐ¿ÐµÑĢÐµÐ½Ð¾ÑģÐ¸ÑĤÐ¸": 7783,
      "ĠÐ¿Ð¾Ð»ÑĸÑĤÐ¸Ðº": 7784,
      "ĠInsekten": 7785,
      "ĠÐ´Ð²ÑĸÑĩÑĸ": 7786,
      "ĠÐ´Ð¾ÐºÑĥÐ¼ÐµÐ½ÑĤ": 7787,
      "aschengeld": 7788,
      "ĠÐ¼Ð¾ÑĹÐ¹": 7789,
      "ĠÐ¼ÑĥÑģÐ¸ÑĪ": 7790,
      "ĠÐ·Ð½Ð¸Ð¶ÐºÐ¸": 7791,
      "ĠÐ·ÑĥÑģÑĤÑĢÑĸÑĩÑĸ": 7792,
      "ĠÐ·ÑĥÑģÑĤÑĢÑĸÑĩÐ°ÑĶÐ¼Ð¾": 7793,
      "ĠÐ²Ð¼ÑĸÑİ": 7794,
      "ĠÐ²Ð°ÑĢÑĤÐ¾": 7795,
      "ĠÐ²Ð°ÑĢÑĤÑĸÑģÑĤÑĮ": 7796,
      "ĠDemo": 7797,
      "Ġsolltet": 7798,
      "ĠÐ½ÐµÐ¿Ð¾ÑĢÑĥÑĪ": 7799,
      "ĠÐ½ÐµÐ·Ð²Ð°Ð¶Ð°ÑİÑĩÐ¸": 7800,
      "Ð¼ÐµÑĢÐ·Ð°ÑĤÐ¸": 7801,
      "Ġbadet": 7802,
      "Ġbackt": 7803,
      "ĠSonne": 7804,
      "ĠÑĥÑģÐ¿ÑĸÑĪ": 7805,
      "ĠÑĥÑģÐ¿ÑĸÑħ": 7806,
      "ĠÐ¿ÑĢÐ¸Ð½Ð¾ÑģÐ¸ÑĤÐ¸": 7807,
      "ĠÐ¿ÑĢÐ¾ÑĤÐµ": 7808,
      "ĠÑĩÐ¸ÑĤÐ°ÑĤÐ¸": 7809,
      "ĠÑĩÐ¸ÑģÑĤÐ¸ÑĤÐ¸": 7810,
      "ĠÑĩÐ¸ÑģÑĤÐ¸Ð¹": 7811,
      "setzung": 7812,
      "ĠÐºÑĢÐ°ÑīÐµ": 7813,
      "ĠÐºÑĢÐ°Ð´ÑĸÐ¶": 7814,
      "ĠKranken": 7815,
      "ĠKrankheit": 7816,
      "ĠKopfhÃ¶rer": 7817,
      "ĠFormen": 7818,
      "ĠTraum": 7819,
      "ĠTraumpartner": 7820,
      "ĠTouristen": 7821,
      "ĠGastfreundschaft": 7822,
      "Ġteilnehmen": 7823,
      "ĠerhÃ¶ht": 7824,
      "ĠÐ¼ÑĸÑģÑĤÐ¸ÑĤÐ¸ÑģÑı": 7825,
      "bewusstsein": 7826,
      "itteln": 7827,
      "Ġausgegeben": 7828,
      "ĠausgedrÃ¼ckt": 7829,
      "sprang": 7830,
      "ĠVollzeit": 7831,
      "ĠVollverb": 7832,
      "ĠRespekt": 7833,
      "ĠResultat": 7834,
      "ĠElbe": 7835,
      "ĠÑĢÐ¸Ð½ÐºÑĥ": 7836,
      "raktik": 7837,
      "ĠÐ°Ð²ÑĤÐ¾Ð±ÑĥÑģ": 7838,
      "ĠÐ¿ÐµÑĢÐµÐ¼Ð¾Ð¶": 7839,
      "ĠÐ¿ÐµÑĢÐµÐ²ÑĸÑĢÑıÑĤÐ¸": 7840,
      "ĠÐ¿ÐµÑĢÐµÐ²ÑĸÑĢÐ¸Ð»Ð¸": 7841,
      "hinterlassen": 7842,
      "Ġstudieren": 7843,
      "Ġstudiert": 7844,
      "ĠÐ²ÐµÐ»Ð¸ÐºÐ¸Ð¹": 7845,
      "ĠÐºÐ¾Ð¼Ð°ÑħÐ¸": 7846,
      "Ġpassende": 7847,
      "ĠÑģÐ²Ð¾ÑĹÐ¼Ð¸": 7848,
      "ĠUnterrichtsst": 7849,
      "ĠÐŀÐ±Ð³Ð¾Ð²Ð¾ÑĢÐµÐ½Ð½Ñı": 7850,
      "ĠÑģÐµÑĢÐ²ÑĸÑģ": 7851,
      "ĠÐ¿ÑĢÐ¾Ð´ÑĥÐºÑĤ": 7852,
      "ĠÐ¿ÑĢÐ¾Ð´ÑĥÐºÑĤÐ¸": 7853,
      "ĠÐ¿ÑĢÐµÐ´ÑģÑĤÐ°Ð²Ð»ÑıÑĤÐ¸": 7854,
      "ĠÐ»ÑİÐ´ÐµÐ¹": 7855,
      "ÑĢÐ¾Ð±ÑĸÑĤÐ½Ð¸ÐºÐ¸": 7856,
      "ĠÐ´ÐµÑĤÐµÐºÑĤÐ¸Ð²": 7857,
      "ĠÐ´Ð¸ÑĢÐ¸Ð³ÑĥÐ²Ð°ÑĤÐ¸": 7858,
      "aktfreudig": 7859,
      "fuer": 7860,
      "fuhr": 7861,
      "fernsehen": 7862,
      "gruppe": 7863,
      "kÃ¤mpfen": 7864,
      "mÃ¶bel": 7865,
      "mÃ¶chten": 7866,
      "putt": 7867,
      "prÃ¼fen": 7868,
      "plant": 7869,
      "sslich": 7870,
      "wissenschaft": 7871,
      "ÐŀÐĴÐĲ": 7872,
      "Ġ...:": 7873,
      "ÑıÐ½ÑģÑĮÐºÐ¸Ð¹": 7874,
      "regierung": 7875,
      "rechner": 7876,
      "ĠÐ¿Ð¾Ð¶ÐµÑĢÑĤÐ²": 7877,
      "ĠÐ¿ÐµÑĢÑĪÐ¾Ð¼Ñĥ": 7878,
      "ĠÐ¿ÐµÑĢÑĪÐ¸Ð¹": 7879,
      "ĠÐ´Ð¾Ð²Ð³": 7880,
      "ĠÐ·ÐµÐ¼Ð»Ðµ": 7881,
      "gestaltung": 7882,
      "ĠÐ½Ð°Ð³ÑĢÑĸÐ²": 7883,
      "ĠÐ½Ð°Ð·Ð²Ð°": 7884,
      "ĠÐ½Ð°Ð·Ð°Ð´": 7885,
      "ĠÑģÐ¾Ð½ÑĨÐµ": 7886,
      "ĠÐ²Ð¸ÑģÑĤÐ°Ð²ÐºÐ¸": 7887,
      "ĠÐ²Ð²Ð°Ð¶Ð°ÑĤÐ¸ÑģÑı": 7888,
      "ĠÐ²Ð²Ð°Ð¶Ð°ÑİÑĤÑĮÑģÑı": 7889,
      "ĠÐ½ÐµÐ´Ð¾Ð»ÑĸÐº": 7890,
      "Ġmelden": 7891,
      "Ġmeldet": 7892,
      "Ð¼ÐµÑĤÐ¾Ð´Ð¸ÑĩÐ½Ð¸Ñħ": 7893,
      "ĠBrutto": 7894,
      "ĠBrille": 7895,
      "ĠStimmung": 7896,
      "ĠÑģÑĤÐ¾Ð»Ð¾Ð²Ð°": 7897,
      "scheinlich": 7898,
      "ĠÑĥÑģÑĸÑħ": 7899,
      "ĠÑĥÐ²Ð°Ð³Ñĥ": 7900,
      "Ã¤cheln": 7901,
      "ĠÑĩÐ°Ð¹Ð½Ð¸Ðº": 7902,
      "ĠÑĤÐ°Ð½ÑĨ": 7903,
      "ĠÑĤÐ²Ð°ÑĢÐ¸Ð½Ð¸": 7904,
      "ĠÑĤÐ²Ð°ÑĢÐ¸Ð½Ð°": 7905,
      "Ġeingesetzt": 7906,
      "Ġeinmaligen": 7907,
      "ĠÐºÐ¾Ð¼ÑĥÐ½ÑĸÐº": 7908,
      "ĠÐºÐ»Ð°ÑģÑĤÐ¸": 7909,
      "ĠÐºÑĢÐ°ÑĹÐ½Ð¸": 7910,
      "ĠÐºÐ½Ð¸Ð¶ÐºÐ¾Ð²Ð¸Ð¹": 7911,
      "Ġleicht": 7912,
      "ĠKreuz": 7913,
      "ĠKreuzung": 7914,
      "ĠÐ·Ð°Ð´Ð¾Ð²Ð¾Ð»": 7915,
      "ĠMinuten": 7916,
      "ĠÐ¿Ð¾ÑĪÑĥÐº": 7917,
      "ĠÐ·Ð°ÐºÐ¾ÑħÐ°ÑĤÐ¸ÑģÑı": 7918,
      "ĠÐ·Ð°ÐºÐ¾ÑħÐ°Ð²ÑģÑı": 7919,
      "Ð³ÑĢÐ°Ð¼Ð°ÑĤÐ¸": 7920,
      "ĠÐ±Ð¾Ð»Ñı": 7921,
      "ĠÐ±ÐµÑĢÑĥÑĤÑĮ": 7922,
      "ĠZusammenleben": 7923,
      "ĠZusammenhang": 7924,
      "Ð·Ð°Ð±Ð¾ÑĢÐ¾Ð½": 7925,
      "ĠfrÃ¼h": 7926,
      "ĠfrÃ¼her": 7927,
      "ÑħÐ°ÑĥÑģ": 7928,
      "ĠÑĸÐ½ÑģÑĤÑĢÑĥÐºÑĨÑĸÑı": 7929,
      "ĠÑĸÐ½ÑģÑĤÑĢÑĥÐ¼ÐµÐ½ÑĤ": 7930,
      "ĠÑĨÑĸÐ½Ð°": 7931,
      "ĠÐ²ÑĸÐ´ÐºÑĢÐ¸ÑĤÐ¸": 7932,
      "ĠWissenschaft": 7933,
      "ĠLiteratur": 7934,
      "ĠStaub": 7935,
      "ĠEntfÃ¼hrung": 7936,
      "ĠÐ»ÐµÐ³ÐºÐ¾": 7937,
      "ĠÑīÐ°ÑģÐ»Ð¸Ð²": 7938,
      "ĠÑīÐ°ÑģÑĤÑı": 7939,
      "Ġverschiedene": 7940,
      "ĠÐ²Ð¸ÑĢÑĸÑĪÑĥÐ²Ð°ÑĤÐ¸": 7941,
      "otterie": 7942,
      "Ð°Ð¹ÐºÑĢÐ°Ñī": 7943,
      "ĠÑĪÑĥÐºÐ°ÑĤÐ¸": 7944,
      "ĠÐ¿ÐµÑĢÐµÐºÐ»Ð°Ð´Ñĥ": 7945,
      "ĠBezugswort": 7946,
      "ĠÐ¿ÑĢÐ¸Ð±ÑĥÐ´Ðµ": 7947,
      "ĠÐ¿ÑĢÐ¸Ð±ÑĥÐ´ÑĥÑĤÑĮ": 7948,
      "ĠÐ¡ÐºÐ°Ð¶": 7949,
      "ĠÐ¡ÐºÑĸÐ»ÑĮÐºÐ¸": 7950,
      "ĠÐ¿ÑĢÐ°ÑĨÐµÐ²Ð»Ð°ÑĪÑĤÑĥÐ²Ð°Ð½Ð½Ñı": 7951,
      "unterstreichen": 7952,
      "ĠÐ²ÑĸÐ´Ð¿Ð¾ÑĩÐ¸Ð²Ð°ÑĶ": 7953,
      "Ġreparieren": 7954,
      "ĠÑĤÑĢÐ°Ð¿Ð¸Ð»": 7955,
      "ĠÑĤÑĢÐ°Ð¿Ð»ÑıÑĤÐ¸ÑģÑı": 7956,
      "ĠÑĤÑĢÐ°Ð½ÑģÐ¿Ð¾ÑĢÑĤÐ½Ð¸Ð¹": 7957,
      "Ã¼bernehmen": 7958,
      "ĠEuropÃ¤ischen": 7959,
      "ĠÐ²Ð¸Ð³Ð»ÑıÐ´Ð°ÑĶ": 7960,
      "Ġentweder": 7961,
      "Unterricht": 7962,
      "ĠÐ·Ð½Ð°Ð¹Ð¾Ð¼Ð¸Ð¹": 7963,
      "Umweltschutz": 7964,
      "ĠÐ¾ÑĩÑĸÐºÑĥÑĶÐ¼Ð¾": 7965,
      "ĠÐ¾Ð¿Ð¸ÑĤÑĥÐ²Ð°Ð½Ð½Ñı": 7966,
      "ĠÐ¾Ð¿Ð¸ÑĤÑĥÐ²Ð°Ð½": 7967,
      "ĠÐ´Ð¾Ð¼Ð¾Ð²Ð»ÑıÑĤÐ¸ÑģÑı": 7968,
      "ĠSchlaf": 7969,
      "ĠSchlafstÃ¶r": 7970,
      "ĠnÃ¤chsten": 7971,
      "ĠÐ¿ÑĢÐ¾ÑĦÐµÑģÑĸÐ¹Ð½Ð°": 7972,
      "ĠÐ¿Ð¸ÑģÑĮÐ¼Ð¾Ð²Ð¸Ð¹": 7973,
      "ĠÑĤÑĥÑĢÐ¸ÑģÑĤÐ¸ÑĩÐ½Ð°": 7974,
      "ĠÑĤÑĥÑĢÐ¸ÑģÑĤÐ¸ÑĩÐ½Ðµ": 7975,
      "ĠÐºÐ¾Ð»ÑĮÐ¾ÑĢÐ¾Ð²Ð¸Ð¹": 7976,
      "ĠHexen": 7977,
      "ĠÐºÐ¾Ð½ÑĤÐ°ÐºÑĤÐ½Ð¸Ð¹": 7978,
      "ĠÑģÑĤÐ¾Ð¼Ð°ÑĤÐ¾Ð»Ð¾Ð³Ð°": 7979,
      "Antarktis": 7980,
      "BÃ¼ro": 7981,
      "Hauptsatz": 7982,
      "Karpaten": 7983,
      "Physi": 7984,
      "Person": 7985,
      "adies": 7986,
      "ektin": 7987,
      "hÃ¼ringer": 7988,
      "heiÃŁen": 7989,
      "koriert": 7990,
      "katastrop": 7991,
      "prax": 7992,
      "useum": 7993,
      "witjas": 7994,
      "wÃ¼rde": 7995,
      "ypern": 7996,
      "ÃĦrzte": 7997,
      "ĠÑģÐ»ÑİÑģ": 7998,
      "ĠÐ¨Ð²ÐµÐ¹": 7999
    },
    "merges": [
      [
        "Ġ",
        "Ð"
      ],
      [
        "Ð",
        "½"
      ],
      [
        "Ð",
        "¾"
      ],
      [
        "Ð",
        "µ"
      ],
      [
        "Ñ",
        "ı"
      ],
      [
        "Ñ",
        "ĸ"
      ],
      [
        "Ñ",
        "ģ"
      ],
      [
        "r",
        "e"
      ],
      [
        "Ð¾",
        "Ð"
      ],
      [
        "Ð",
        "°"
      ],
      [
        "o",
        "r"
      ],
      [
        "re",
        "c"
      ],
      [
        "or",
        "rec"
      ],
      [
        "orrec",
        "t"
      ],
      [
        "Ð",
        "¸"
      ],
      [
        "c",
        "h"
      ],
      [
        "Ġ",
        "'"
      ],
      [
        "e",
        "n"
      ],
      [
        "Ñ",
        "Ĥ"
      ],
      [
        "Ñ",
        "Ģ"
      ],
      [
        "Ðµ",
        "Ð½"
      ],
      [
        "Ð",
        "»"
      ],
      [
        "Ñ",
        "ĥ"
      ],
      [
        "Ġ",
        "C"
      ],
      [
        "â",
        "ľ"
      ],
      [
        "ĠC",
        "orrect"
      ],
      [
        "âľ",
        "ħ"
      ],
      [
        "ÐµÐ½",
        "Ð½"
      ],
      [
        "Ñ",
        "Ķ"
      ],
      [
        "e",
        "r"
      ],
      [
        "Ð",
        "¼"
      ],
      [
        "i",
        "n"
      ],
      [
        "ÐµÐ½Ð½",
        "Ñı"
      ],
      [
        "s",
        "t"
      ],
      [
        "Ġ",
        "I"
      ],
      [
        "Ð",
        "º"
      ],
      [
        "Ð¾",
        "Ñı"
      ],
      [
        "Ñ",
        "ĩ"
      ],
      [
        "Ġ",
        "d"
      ],
      [
        "i",
        "e"
      ],
      [
        "ĠÐ",
        "Ł"
      ],
      [
        "Ð¾Ð",
        "²"
      ],
      [
        "Ñģ",
        "Ð½"
      ],
      [
        "ĠÐ",
        "¿"
      ],
      [
        "Ð¾Ð",
        "¼"
      ],
      [
        "ĠI",
        "n"
      ],
      [
        "Ð¾Ñı",
        "ÑģÐ½"
      ],
      [
        "Ð¾ÑıÑģÐ½",
        "ÐµÐ½Ð½Ñı"
      ],
      [
        "c",
        "orrect"
      ],
      [
        "â",
        "Ŀ"
      ],
      [
        "ð",
        "Ł"
      ],
      [
        "ĵ",
        "Ŀ"
      ],
      [
        "ĠÐŁ",
        "Ð¾ÑıÑģÐ½ÐµÐ½Ð½Ñı"
      ],
      [
        "ĠIn",
        "correct"
      ],
      [
        "âĿ",
        "Į"
      ],
      [
        "ðŁ",
        "ĵĿ"
      ],
      [
        "ĠÐ",
        "´"
      ],
      [
        "Ð¸",
        "Ðº"
      ],
      [
        "a",
        "s"
      ],
      [
        "a",
        "u"
      ],
      [
        "Ð",
        "´"
      ],
      [
        "h",
        "a"
      ],
      [
        "Ñģ",
        "Ð»"
      ],
      [
        "ĠÐ",
        "¼"
      ],
      [
        "Ð°",
        "ÑĶ"
      ],
      [
        "Ñ",
        "Į"
      ],
      [
        "ĠÐ",
        "°"
      ],
      [
        "ĠÐ",
        "·"
      ],
      [
        "Ġ",
        "i"
      ],
      [
        "ÑģÐ»",
        "Ð¾Ð²"
      ],
      [
        "Ð°",
        "Ð"
      ],
      [
        "g",
        "e"
      ],
      [
        "ĠÐ",
        "½"
      ],
      [
        "'",
        "."
      ],
      [
        "Ð¾Ð¼",
        "Ñĥ"
      ],
      [
        "Ñĸ",
        "ÑĶ"
      ],
      [
        "ÑĸÑĶ",
        "ÑģÐ»Ð¾Ð²"
      ],
      [
        "Ġ",
        "Ñģ"
      ],
      [
        "ĠÐ",
        "²"
      ],
      [
        "ÑĸÑĶÑģÐ»Ð¾Ð²",
        "Ð¾"
      ],
      [
        "Ñĸ",
        "Ð½"
      ],
      [
        "e",
        "in"
      ],
      [
        "Ð»",
        "Ñı"
      ],
      [
        "Ġ",
        "ha"
      ],
      [
        "Ġ",
        "D"
      ],
      [
        "ÑĢ",
        "Ðµ"
      ],
      [
        "Ġ",
        "w"
      ],
      [
        "a",
        "n"
      ],
      [
        "Ġ",
        "s"
      ],
      [
        "e",
        "i"
      ],
      [
        "Ġ",
        "("
      ],
      [
        "S",
        "ie"
      ],
      [
        "I",
        "ch"
      ],
      [
        "ÑĤ",
        "Ð¸"
      ],
      [
        "Ġ",
        "ge"
      ],
      [
        "ĠÐ½",
        "Ðµ"
      ],
      [
        "u",
        "t"
      ],
      [
        "t",
        "i"
      ],
      [
        "Ġi",
        "st"
      ],
      [
        "Ġ",
        "k"
      ],
      [
        "h",
        "r"
      ],
      [
        "ĠÐ¼",
        "Ð°ÑĶ"
      ],
      [
        "ĠÐ",
        "£"
      ],
      [
        "au",
        "f"
      ],
      [
        "'",
        ","
      ],
      [
        "Ġ",
        "m"
      ],
      [
        "Ñĸ",
        "Ð´"
      ],
      [
        "Ġ",
        "A"
      ],
      [
        "ĠÐ",
        "Ķ"
      ],
      [
        "Ð",
        "²"
      ],
      [
        "ti",
        "v"
      ],
      [
        "Ð¾",
        "ÑĢ"
      ],
      [
        "Ñĩ",
        "ÐµÐ½Ð½Ñı"
      ],
      [
        "Ð¾Ð",
        "³"
      ],
      [
        "Ð¾Ð³",
        "Ð¾"
      ],
      [
        "Ð¼",
        "Ðµ"
      ],
      [
        "Ñ",
        "Ĩ"
      ],
      [
        "Ð»",
        "ÑĮ"
      ],
      [
        "ĠÐ´",
        "ÑĸÑĶÑģÐ»Ð¾Ð²Ð¾"
      ],
      [
        "Ġ",
        "b"
      ],
      [
        "ĠÐ´",
        "Ð»Ñı"
      ],
      [
        "i",
        "r"
      ],
      [
        "Ð¼Ðµ",
        "ÑĤ"
      ],
      [
        "Ġha",
        "b"
      ],
      [
        "a",
        "tiv"
      ],
      [
        "Ã",
        "¼"
      ],
      [
        "ĠÐ¿",
        "ÑĸÐ´"
      ],
      [
        "Ġ",
        "B"
      ],
      [
        "Ð¸",
        "Ð¼"
      ],
      [
        "e",
        "s"
      ],
      [
        "o",
        "m"
      ],
      [
        "ÐµÐ½Ð½",
        "Ð¸Ðº"
      ],
      [
        "Ð¼",
        "ÐµÐ½Ð½Ð¸Ðº"
      ],
      [
        "Ð",
        "¿"
      ],
      [
        "Ð",
        "¹"
      ],
      [
        "i",
        "ch"
      ],
      [
        "Ñ",
        "Ħ"
      ],
      [
        "Ġ",
        "S"
      ],
      [
        "Ġ",
        "ÑĢÐµ"
      ],
      [
        "Ð¾Ð",
        "´"
      ],
      [
        "â",
        "Ģ"
      ],
      [
        "Ġ",
        "n"
      ],
      [
        "ĠÑģ",
        "ÑĤ"
      ],
      [
        "a",
        "ch"
      ],
      [
        "E",
        "r"
      ],
      [
        "h",
        "en"
      ],
      [
        "Ġ",
        "âĢ"
      ],
      [
        "s",
        "ch"
      ],
      [
        "Ġ",
        "Ñĥ"
      ],
      [
        "ei",
        "t"
      ],
      [
        "ÑĤ",
        "Ð¸Ðº"
      ],
      [
        "ĠI",
        "ch"
      ],
      [
        "ĠÐ°",
        "ÑĢ"
      ],
      [
        "ĠÐ°ÑĢ",
        "ÑĤÐ¸Ðº"
      ],
      [
        "Ã",
        "¤"
      ],
      [
        "ĠÐĶ",
        "ÑĸÑĶÑģÐ»Ð¾Ð²Ð¾"
      ],
      [
        "ĠÐ¿",
        "ÑĢ"
      ],
      [
        "D",
        "as"
      ],
      [
        "d",
        "e"
      ],
      [
        "ĠÐ¿ÑĸÐ´",
        "Ð¼ÐµÑĤ"
      ],
      [
        "ÑĨ",
        "Ñĸ"
      ],
      [
        "Ġ",
        "Ñĩ"
      ],
      [
        "er",
        "n"
      ],
      [
        "Ð¾Ñı",
        "ÑĤÐ¸"
      ],
      [
        "ĠÑģÑĤ",
        "Ð¾ÑıÑĤÐ¸"
      ],
      [
        "ĠÐ·",
        "Ð°Ð"
      ],
      [
        "Ġ",
        "ÑĤ"
      ],
      [
        "a",
        "r"
      ],
      [
        "e",
        "ut"
      ],
      [
        "W",
        "ir"
      ],
      [
        "Ġ",
        "ein"
      ],
      [
        "s",
        "e"
      ],
      [
        "g",
        "en"
      ],
      [
        "ĠÑĢÐµ",
        "ÑĩÐµÐ½Ð½Ñı"
      ],
      [
        "Ġb",
        "in"
      ],
      [
        "Ñģ",
        "Ñĸ"
      ],
      [
        "ÑĢ",
        "Ð¾Ð´"
      ],
      [
        "ÑĢÐ¾Ð´",
        "Ñĥ"
      ],
      [
        "ĠÐ",
        "º"
      ],
      [
        "Ġ",
        "H"
      ],
      [
        "Ġ",
        "l"
      ],
      [
        "u",
        "n"
      ],
      [
        "l",
        "l"
      ],
      [
        "Ġ",
        "K"
      ],
      [
        "Ñ",
        "İ"
      ],
      [
        "ĠÐ",
        "¾"
      ],
      [
        "Ð°Ð",
        "³"
      ],
      [
        "Ġ",
        "F"
      ],
      [
        "Ð¸",
        "Ð½"
      ],
      [
        "Ð¾Ð",
        "»"
      ],
      [
        "ĠÐ²",
        "Ð¸Ð¼"
      ],
      [
        "Ð°Ð³",
        "Ð°ÑĶ"
      ],
      [
        "ĠÐ²Ð¸Ð¼",
        "Ð°Ð³Ð°ÑĶ"
      ],
      [
        "ĠÐ·",
        "Ð°"
      ],
      [
        "'",
        ")"
      ],
      [
        "Ġd",
        "er"
      ],
      [
        "Ġd",
        "as"
      ],
      [
        "Ġm",
        "Ã¼"
      ],
      [
        "Ġd",
        "en"
      ],
      [
        "b",
        "en"
      ],
      [
        "ĠÐ°ÑĢÑĤÐ¸Ðº",
        "Ð»ÑĮ"
      ],
      [
        "r",
        "u"
      ],
      [
        "Ġ",
        "M"
      ],
      [
        "om",
        "m"
      ],
      [
        "ĠÑĩ",
        "Ð°"
      ],
      [
        "Ñģ",
        "Ñı"
      ],
      [
        "Ð¸",
        "Ð¹"
      ],
      [
        "D",
        "u"
      ],
      [
        "h",
        "e"
      ],
      [
        "ĠÑĩÐ°",
        "ÑģÑĸ"
      ],
      [
        "Ġd",
        "ie"
      ],
      [
        "f",
        "e"
      ],
      [
        "Ġ",
        "ÑĦ"
      ],
      [
        "Ġ(",
        "'"
      ],
      [
        "I",
        "hr"
      ],
      [
        "Ġ",
        "T"
      ],
      [
        "e",
        "m"
      ],
      [
        "Ð¾ÑĢ",
        "Ð¼"
      ],
      [
        "ĠmÃ¼",
        "de"
      ],
      [
        "ĠÑĦ",
        "Ð¾ÑĢÐ¼"
      ],
      [
        "t",
        "er"
      ],
      [
        "Ġ",
        "G"
      ],
      [
        "Ð»ÑĮ",
        "Ð½"
      ],
      [
        "Ġ",
        "Sie"
      ],
      [
        "Ð¸",
        "Ñģ"
      ],
      [
        "r",
        "o"
      ],
      [
        "s",
        "en"
      ],
      [
        "ĠÐ¿",
        "Ð¾"
      ],
      [
        "Ð",
        "±"
      ],
      [
        "in",
        "d"
      ],
      [
        "u",
        "s"
      ],
      [
        "Ðµ",
        "ÑĢÐµ"
      ],
      [
        "ÑĤ",
        "ÑĮ"
      ],
      [
        "Ġn",
        "ach"
      ],
      [
        "eut",
        "sch"
      ],
      [
        "Ġ",
        "g"
      ],
      [
        "Ġ",
        "ÑĢÐ¾Ð´Ñĥ"
      ],
      [
        "ĠD",
        "eutsch"
      ],
      [
        "Ð°Ð",
        "²"
      ],
      [
        "ĠÐĶ",
        "Ð»Ñı"
      ],
      [
        "Ñĥ",
        "ÑĶ"
      ],
      [
        "ÑĤÑĮ",
        "ÑģÑı"
      ],
      [
        "Ġ",
        "auf"
      ],
      [
        "an",
        "n"
      ],
      [
        "ĠÐ·Ð°",
        "Ðº"
      ],
      [
        "Ð°",
        "Ð¼"
      ],
      [
        "ĠÐ·Ð°Ðº",
        "ÑĸÐ½"
      ],
      [
        "ĠÐ·Ð°ÐºÑĸÐ½",
        "ÑĩÐµÐ½Ð½Ñı"
      ],
      [
        "Ġ'",
        "-"
      ],
      [
        "ĠÐº",
        "ÑĸÐ½"
      ],
      [
        "ĠÐºÑĸÐ½",
        "ÑĨÑĸ"
      ],
      [
        "ÑĢ",
        "Ñĸ"
      ],
      [
        "Ġha",
        "t"
      ],
      [
        "ĠÐ¿ÑĸÐ´Ð¼ÐµÑĤ",
        "Ð°"
      ],
      [
        "ĠÑģ",
        "Ð°Ð¼"
      ],
      [
        "ĠÑģÐ°Ð¼",
        "Ð¾Ð¼Ñĥ"
      ],
      [
        "Ġl",
        "ern"
      ],
      [
        "ch",
        "en"
      ],
      [
        "Ġhab",
        "e"
      ],
      [
        "ĠâĢ",
        "Ķ"
      ],
      [
        "ei",
        "l"
      ],
      [
        "b",
        "eit"
      ],
      [
        "Ð½",
        "ÑĮ"
      ],
      [
        "d",
        "er"
      ],
      [
        "ĠA",
        "r"
      ],
      [
        "ĠÐ½",
        "Ð°"
      ],
      [
        "k",
        "t"
      ],
      [
        "ĠS",
        "u"
      ],
      [
        "ĠSu",
        "p"
      ],
      [
        "Ð",
        "¶"
      ],
      [
        "Ġd",
        "em"
      ],
      [
        "Ð¸Ñģ",
        "ÑĤ"
      ],
      [
        "ich",
        "t"
      ],
      [
        "Ġ",
        "P"
      ],
      [
        "Ð½",
        "Ð°"
      ],
      [
        "ro",
        "t"
      ],
      [
        "k",
        "auf"
      ],
      [
        "Ġhab",
        "en"
      ],
      [
        "ÐµÑĢÐµ",
        "Ð´"
      ],
      [
        "Ð½",
        "Ð¸Ðº"
      ],
      [
        "ĠD",
        "as"
      ],
      [
        "ie",
        "l"
      ],
      [
        "r",
        "au"
      ],
      [
        "Ñĩ",
        "Ð¾Ð³Ð¾"
      ],
      [
        "Ġ",
        "in"
      ],
      [
        "ÑĢ",
        "Ñĥ"
      ],
      [
        "Ð",
        "³"
      ],
      [
        "Ð²",
        "Ñĸ"
      ],
      [
        "Ñ",
        "Ī"
      ],
      [
        "ĠAr",
        "beit"
      ],
      [
        "Ġk",
        "auf"
      ],
      [
        "u",
        "m"
      ],
      [
        "ĠÐ",
        "±"
      ],
      [
        "re",
        "n"
      ],
      [
        "ĠD",
        "u"
      ],
      [
        "Ġ",
        "t"
      ],
      [
        "Ð¾Ð²",
        "Ñĸ"
      ],
      [
        "e",
        "st"
      ],
      [
        "Ġ",
        "Z"
      ],
      [
        "Ð½",
        "Ñı"
      ],
      [
        "k",
        "k"
      ],
      [
        "ĠA",
        "kk"
      ],
      [
        "ĠâĢ",
        "ĵ"
      ],
      [
        "Ð",
        "·"
      ],
      [
        "Ġd",
        "u"
      ],
      [
        "an",
        "k"
      ],
      [
        "p",
        "e"
      ],
      [
        "ĠÑģ",
        "Ð¿"
      ],
      [
        "Ð°",
        "Ð½"
      ],
      [
        "Ð½Ð°",
        "Ñĩ"
      ],
      [
        "ĠZ",
        "eit"
      ],
      [
        "ein",
        "e"
      ],
      [
        "Ġge",
        "he"
      ],
      [
        "us",
        "ativ"
      ],
      [
        "ĠAkk",
        "usativ"
      ],
      [
        "Ġk",
        "omm"
      ],
      [
        "Ð¸Ð¹",
        "Ð¼ÐµÐ½Ð½Ð¸Ðº"
      ],
      [
        "e",
        "u"
      ],
      [
        "Ġw",
        "eil"
      ],
      [
        "Ġ",
        "f"
      ],
      [
        "ÐµÐ½Ð½",
        "Ñĸ"
      ],
      [
        "ĠÐ·Ð°Ð",
        "¹"
      ],
      [
        "Ġ",
        "er"
      ],
      [
        "ĠÐ·Ð°Ð¹",
        "Ð¼ÐµÐ½Ð½Ð¸Ðº"
      ],
      [
        "ĠÑĤ",
        "Ðµ"
      ],
      [
        "Ñ",
        "ħ"
      ],
      [
        "Ġs",
        "p"
      ],
      [
        "st",
        "e"
      ],
      [
        "Ð¿",
        "Ðµ"
      ],
      [
        "i",
        "st"
      ],
      [
        "ÑĢÑĸ",
        "ÑĪ"
      ],
      [
        "Ġs",
        "ch"
      ],
      [
        "ĠÐ¿ÑĸÐ´Ð¼ÐµÑĤ",
        "Ð¾Ð¼"
      ],
      [
        "Ð½ÑĮ",
        "Ð¾Ð¼Ñĥ"
      ],
      [
        "ĠÑĤÐµ",
        "Ð¿Ðµ"
      ],
      [
        "ĠH",
        "au"
      ],
      [
        "ÑĢÑĸÑĪ",
        "Ð½ÑĮÐ¾Ð¼Ñĥ"
      ],
      [
        "ĠÑĤÐµÐ¿Ðµ",
        "ÑĢÑĸÑĪÐ½ÑĮÐ¾Ð¼Ñĥ"
      ],
      [
        "ĠHau",
        "se"
      ],
      [
        "ch",
        "e"
      ],
      [
        "ĠS",
        "ch"
      ],
      [
        "ĠD",
        "ativ"
      ],
      [
        "Ñĸ",
        "Ñģ"
      ],
      [
        "ĠÑĦÐ¾ÑĢÐ¼",
        "Ñĥ"
      ],
      [
        "h",
        "t"
[...]
